/**
  ******************************************************************************
  * @file    line3_data_params.c
  * @author  AST Embedded Analytics Research Platform
  * @date    Mon Oct 23 16:11:37 2023
  * @brief   AI Tool Automatic Code Generator for Embedded NN computing
  ******************************************************************************
  * Copyright (c) 2023 STMicroelectronics.
  * All rights reserved.
  *
  * This software is licensed under terms that can be found in the LICENSE file
  * in the root directory of this software component.
  * If no LICENSE file comes with this software, it is provided AS-IS.
  ******************************************************************************
  */

#include "line3_data_params.h"


/**  Activations Section  ****************************************************/
ai_handle g_line3_activations_table[1 + 2] = {
  AI_HANDLE_PTR(AI_MAGIC_MARKER),
  AI_HANDLE_PTR(NULL),
  AI_HANDLE_PTR(AI_MAGIC_MARKER),
};




/**  Weights Section  ********************************************************/
AI_ALIGNED(32)
const ai_u64 s_line3_weights_array_u64[12450] = {
  0xf8fd1ffe0ecdd800U, 0x480fee001214edfcU, 0xe714101ffee028d3U, 0x4f0d0100f218f90bU,
  0x2afa03f60dd81209U, 0x80dea082509f4eeU, 0x1c101d0942e1efefU, 0x1df8011c1adce1e6U,
  0xee001af1f60df514U, 0xcc03fc3b22f6e304U, 0x5242dfa1ffd05f2U, 0xf404e70d03da2f41U,
  0x170e1ce20b09f739U, 0x4dcf90604ef0011U, 0xf61611fb291f00e1U, 0xf81c23050b082d10U,
  0x1e0d2104c30314eeU, 0xd40303ca0c2e1908U, 0xe0e8e903f502def4U, 0xec10d7f119e3f4eaU,
  0xf24d1e1fb1711ffU, 0x2ef3ff06ef0c1b09U, 0x1022fc35f90b0e43U, 0x7d8f9e30c0e11ebU,
  0xe81ce906d9f9ddfcU, 0xeb0f0739fd23dcfcU, 0xad5e8ec02e61b14U, 0xefee03fd25e0e3f9U,
  0xf6fadff61307f7e0U, 0xf4ff1a10f7eaf5f5U, 0x128e11425eeff1fU, 0x120a051617fc151bU,
  0x1c4ee0e1a0702e7U, 0xfcfbec28e421f0U, 0xb0b070bf703ec2fU, 0xf4d705c306e2eae3U,
  0x1130fd9e611fa12U, 0xa1118dc3cd8f005U, 0xfa31dc12d30019efU, 0xdc0e05e70320ff04U,
  0x306db07eaf3daf9U, 0x18fc05ec23001605U, 0xaf3fff705e12f0aU, 0x20cafce90cf1ee14U,
  0x18f2ff2b13cdfe00U, 0xeb1901ff01fede16U, 0xd3dd10fcd3140efdU, 0x19d52b2604eee805U,
  0xedff13e5062f0cebU, 0xe60be6fa0715f3ecU, 0x19040c15f7e21c02U, 0xa1e10f6eede03eaU,
  0xfa2e08c95a10e8eeU, 0x2506fff6132deb06U, 0xffe8f61207df0507U, 0xccfc6de20f809f5U,
  0x2400fffc11241b0fU, 0xf90cf9e8e3f5fb16U, 0xf3fb1af3fefdf80aU, 0x27f4ff06dbf4fbe0U,
  0x1f9ddfdf2030fe2U, 0x28f52fe422d7f21dU, 0xaea070f0b053a19U, 0xdae9140b1b08f523U,
  0xfb14ced7df250818U, 0x21af610f60e0efeU, 0xaf4dd1a1a17f4beU, 0x1050d03f4060107U,
  0xe00dfe1f190d09feU, 0xff2a1f0feaf7ed21U, 0x1818f0f2c3270cc7U, 0xe60f0d0e0804e60dU,
  0xf7dce6edce172cfbU, 0xdfec06e310ea1802U, 0xf2d172efe0a1df6U, 0xff25ef45fef50ee1U,
  0x1c02eb9519e9f80dU, 0xee120010fa201ad3U, 0x1f14f5031b25f12eU, 0xf007ee02d50bfd1dU,
  0xe2dc11bc1712fd17U, 0x28f700eeecf91826U, 0xd4301c1a00000e1cU, 0x101bda04f7225738U,
  0xf5ee2bfa0cfee5faU, 0x61706efe212f2e7U, 0x609cd1bcd01ffeeU, 0xccf8102cffd4d5f0U,
  0xef1ffa1725080ad6U, 0xf7c4d7110c36002eU, 0x5f5f50eddef0cf2U, 0x127f2d1824eff4e1U,
  0x1bf42dfef9eb2336U, 0xf7fd2a11f3f4d0ffU, 0xee05e0250be2eaeeU, 0xe9300e0522f3051aU,
  0xf60ffdf8f313f0f2U, 0x4faead0e89b290aU, 0xe1f7effd0aff0a27U, 0x28c51be002eeeffeU,
  0x170c07c2f20003e1U, 0x400bfdd9ee29f9fcU, 0xf09dbe5d9f6e31dU, 0x120de51fe1eaef0dU,
  0x14150011f5091408U, 0xfced0c1202130f45U, 0xea2111faad18fd16U, 0x5a80c0d01ea05f4U,
  0x4f6ed1821e30513U, 0xdd1030e4b42af9fdU, 0xf10cfbd7fb07101bU, 0xe4ce151cfe2fe00fU,
  0xe120bfdf8fef100U, 0xd23d2e0a2a1ff82dU, 0x7ecf505eadf40edU, 0xf611fd18cdc7d2f5U,
  0xe007fc0debed260fU, 0xfdf9e4f700f41e18U, 0xf100bf310df22e4U, 0x29140a0830dd291bU,
  0xe709f824eefe0519U, 0xec00f2190ed645eaU, 0x1c01f5ea1219f9e6U, 0xf073023e83a0c06U,
  0x1012f6ed0a0e2414U, 0xe101d0bd2207e0ebU, 0xc438f411fc100512U, 0x1503faf2d8e0fa29U,
  0x17f61be60cf80717U, 0xfefb2b1011e926c6U, 0x20fae6e20700f7e9U, 0xfdddfd12f0eaf012U,
  0x2ce7b73e0ff72215U, 0xd5170ef504d30c0aU, 0xcb03bffddcec12c8U, 0xf007ff0bf7bbf9f2U,
  0x2ef3eb24ece80bfcU, 0xf30007fcf4f50409U, 0x18071fff0806eae2U, 0xf9ebfff9cc33fc18U,
  0xb1ff1e9e63e2116U, 0xdef716fce9eee60eU, 0xe2f1bed21804ededU, 0x41504faf428010cU,
  0x1e50ac9efb50522U, 0xafe0224e93419f7U, 0xf8faf62c33d919f0U, 0x2cf8f709ecdbed2fU,
  0x10e6290feafdececU, 0x1eafb0cbd0ef711U, 0xe9f4e705ffe4180bU, 0xffe6d633f70a0ef3U,
  0x1efabefbfd221000U, 0x11c8f9e0241a071cU, 0xe3f827e2e61f16f0U, 0xfade0b1ce636f016U,
  0xe621f1f7ff14e605U, 0x3f40d20e810fce9U, 0x14fee11116f8fee8U, 0x2a080afa17ec250dU,
  0x34ffd0d8e9fdf3d4U, 0xe20cd114f83d11f8U, 0xeb150c10e102eaf8U, 0x2ae40125f111f0fdU,
  0xeafaed5912f43c20U, 0xef0be81af90fe107U, 0xbe5f8082ae9e0ecU, 0xed0df8e92a19fcfdU,
  0x1427082cf9dbeb2dU, 0xe2163effed0c1bb8U, 0x4cf2309fe011d01U, 0xbfd16f414eaf91aU,
  0xfd10d20798e23201U, 0x1ceddb0b12f01b09U, 0xdbfb19e816071420U, 0xf2e4fe4afb22f904U,
  0x171b1bdc010efc08U, 0x23062804151fffe9U, 0xf0f70a0e09f0fb00U, 0x603fff4c4faf709U,
  0xbc0ef9f1ffed070aU, 0x1cb3f6f4f4e3f9fbU, 0xa162523ebcb2306U, 0xecfdfbba0f07ebfaU,
  0xeb17eff9e0e3ef0eU, 0x22e52eb406edfd04U, 0xc04f20808f0e308U, 0xfc140beef3f5c3f2U,
  0xfd15fcd822f6121eU, 0xeb0bf60903ffde1dU, 0xed220be3f40bf6b5U, 0xdf227e619fb0e14U,
  0x512ec0e113905f6U, 0xad10dcee41720b1U, 0x16eed902e5e60b1bU, 0x320d090df81f1131U,
  0x1a0be7060ddbe916U, 0x10cf0f80dec2df8U, 0x3d0000ee0a050f0eU, 0xc8630aff13031d04U,
  0xf628e51a1634e00aU, 0xffe2100de4e206e8U, 0xf8fb06faf915fde6U, 0x2c0924f9eefc0b11U,
  0x23ecdedf1807ebe8U, 0xf30efc13e0fd0014U, 0xa03d305eb222b05U, 0xd9dcfb07fe0ef80eU,
  0xe1fff8e301eaf8f2U, 0x272f1f15261af9e7U, 0x52bea0502f90c15U, 0xaea0207203afbfcU,
  0x1ef30e02170f0fd0U, 0xf9f7ff0afa1e19f1U, 0xe9f3eafaece0f316U, 0xcffcfa14f215e2d4U,
  0xb23f001f30cefe4U, 0x19286a02c800e820U, 0x112119d040fb09f5U, 0x170de504f608f60fU,
  0xff1f49dcf510ece7U, 0xedc4ef02ee11191dU, 0xf800dff0c914c02cU, 0xf2e516ef05ef00dcU,
  0x1219f706f6f4fef2U, 0xf9250bf315212f28U, 0x3b2f2de40905fbU, 0xead2f60bf3e92113U,
  0x40c26080f1b25f9U, 0xfc0b06d4e7f60123U, 0x1e07e0f5c5faffc1U, 0xef00d011fcc9df07U,
  0xde18fa1714210e0eU, 0xe0eafa1f11fdfcd6U, 0xf8fc01ed0406d2c0U, 0xe21a0204220b121dU,
  0xf902de00ea1bec26U, 0x2128082005ed05d8U, 0x10ee0c0b144df824U, 0x1019f5fa1422f71bU,
  0x390b0f0c1a06e8e9U, 0xb11b2c0814140a19U, 0x1ac3e9fdecf6f6ebU, 0x1b031aebf51f18faU,
  0xd16c2dd1f0721e1U, 0xf2413e9e01bf0e3U, 0x51af02301c5eaf5U, 0xfddd0a04c6fa0ae6U,
  0xf5fd0ee1f2e515eeU, 0xf718e3f117122011U, 0xe0d7370f0b26f11eU, 0xfd38e7fa09fbb301U,
  0xdd0907d00ef11ed0U, 0x22190d010bf4ec18U, 0x25fefe0e17feed06U, 0xba04180df6092e03U,
  0x1dfb21fbe5eaff19U, 0xffd3e1f20c0308efU, 0x7f410d7eb314814U, 0xda001ed3ee2305eaU,
  0xffdaff2421f8f110U, 0xdae0ec2f000208e7U, 0x8241809f4e6e711U, 0xfb2201091907e72eU,
  0x2214e6e708f0df24U, 0xf7d1060afacfe2f7U, 0xf501dbfada2f03d1U, 0xf201db1530f9041aU,
  0xffd80ff0dff5e41eU, 0xd3f5dc14f9ea0809U, 0xf6f6e7ec0def15f8U, 0x80100c50910fae3U,
  0x2c1a01142626d4f8U, 0xef0f612fb1da212U, 0xee5032806f61d24U, 0x1004ff14e0110f0dU,
  0xfe1ffce5c8bc1834U, 0xf0e00a0bf214e5ddU, 0x1514e6071fe5e12aU, 0xeae7a301d1fa1cU,
  0xf72ee6faddf7ffc4U, 0xfe25f604f8eb2afcU, 0xfdfa08f50908e706U, 0xe8c92f1c240ff916U,
  0x10effd1fc9fceafcU, 0x1706201e09a31ae0U, 0x25ee1913fbf90df3U, 0xde180ef3e3d7200cU,
  0xf901fb0dc6d219caU, 0xfe051a1bef28e728U, 0xfd01db201fff29cfU, 0xa08fae70304d9fcU,
  0x15e9efe9d826092bU, 0xe0a19fcfe10e6faU, 0xf812f4f9230a28beU, 0xd9dccf13fa1afa07U,
  0xfd3115b2351d1f1dU, 0x802011d18fffd13U, 0x40f3607f9fab2faU, 0x7fe21c21fef121aU,
  0x29e5f3f8e2e1f6ecU, 0xf6f30ecb0df60d05U, 0xa04160a19c4f001U, 0x13f61418d943f6efU,
  0xde30101c3f0402efU, 0x81d040afffd1de7U, 0x16fefd0ef7cce6e4U, 0xca1f0f0ff018f40aU,
  0xf4103f22efece740U, 0x22ebf624d51712faU, 0xeb0af2f9d91f0be4U, 0xfa110dff00ede3ecU,
  0x2e40e01f4efed3eU, 0xf9d8ea07e9f637f9U, 0x3af83eff021effd6U, 0x3528d2e5092af519U,
  0x38d308e62605e012U, 0xfafec629f1021e21U, 0xf80039e1ec181aeaU, 0xe0f9221a2108f918U,
  0x18eb0104e719fd0cU, 0x317f711f3d4eed2U, 0xe906d219bcfd0f0cU, 0x622ec19fd1d24U,
  0xe50301f609c209efU, 0xf4daee1dd4f3d9d4U, 0x40701e60fffed05U, 0x2602f3defc2fe1dbU,
  0x101a07201b062815U, 0x2f28f0ecfa1fd8U, 0xcfec10efd80827fdU, 0xe8ef0dfeb8d0ee10U,
  0x6fd20010fffddf2U, 0xed1b08d2e7ef07f6U, 0xe70bcfc5050205deU, 0x1fe30a01dd060909U,
  0x1c0ce6e00b17100dU, 0x20a192e05121914U, 0xdcee1ffaea06ef1aU, 0xfa04fff7bafcfefdU,
  0xd007f80e19f5e4ddU, 0xbf2813fa0df9f1f6U, 0xe40ed7271cf403e2U, 0xe1e90e0a101a020fU,
  0x3cee21139091222U, 0x1a0df310ecf6eb00U, 0xe8f20df80ff81908U, 0xfdfe1f0602f7f81eU,
  0x227e118e8ed06eeU, 0xf7f3dd150f39df1eU, 0x901f80cc7d72912U, 0x1b1de4120714eaecU,
  0x35022f06ed02c6ffU, 0xfaff15f6f217fdf6U, 0xfaddecfe193bfd09U, 0x2a1cf82afd0e0915U,
  0xd3ff0ae40105fdf3U, 0xf32cfce3ce31fd19U, 0xd9f4e9060e1900f0U, 0xff160e09dbee3ceeU,
  0x13ebe2282c12f715U, 0x1b0521ddf5fa13f5U, 0x2b11f7ffdd0aeb07U, 0xeefbfc24fcf3b316U,
  0x12e703cedee10dfaU, 0xd0371b013bf7f2d2U, 0x2907f50fecfef5d8U, 0xc05080d37212301U,
  0x14ff07d1f8230205U, 0xe9f3f3eff219e9ffU, 0x247220317000601U, 0x18000b0f122a060eU,
  0xe0d722fc0d20f51fU, 0x8d9f413fbf210eeU, 0xce923ee142204f3U, 0x20e0af810211ee9U,
  0xe1d0ae652fafa11U, 0xf318dff9eefae4f8U, 0xe404050ffe2500dfU, 0x10bad6c90513211cU,
  0xca241a05eef4f20eU, 0xf90bfc19f9f808f6U, 0x21927fcc8010cfdU, 0xb8f200d63b051efbU,
  0xd50d1122ea200b10U, 0x12f1f0fbf822f7f2U, 0xf604eef508020417U, 0xd80fdae81f031007U,
  0x45f1dce8e1dfebdeU, 0xe30507f811151cdfU, 0x1a0c081d0b15fdd6U, 0x8e009f21006220eU,
  0xea10dd34f52405ebU, 0xfc0b0a20cdd7fdf4U, 0xfd1dfecc301d0732U, 0x2ad823fbfcf7050cU,
  0xb4e7e5ec0ae3121eU, 0xf7f5301c17bf1a0aU, 0xe500f6bf3435170fU, 0xd41b12f2fa09f3f9U,
  0xf2f80ccad7200d08U, 0x9f71ae4d2f8e4e9U, 0xf81b02074de309d8U, 0xffe021061b1d0c2bU,
  0xf2f5e4dd1531f20aU, 0xff0001f004fdf60eU, 0x22080a211e300503U, 0x2ff02f6fcf9f805U,
  0x1e2929190b01da11U, 0xe8e81d32262895e4U, 0xfa10060ce7e6f1efU, 0xf0fb2328fbd619d9U,
  0xeaff112404f438fcU, 0x20f6fd081b00e5fdU, 0x8f8eff5e9e3f216U, 0x37fed20eedbc0aeaU,
  0xe6f21ce2dcee0be1U, 0x19140fd6e4f5fb24U, 0x7c912fd1e082407U, 0x2e16f4fb2506091bU,
  0x260a262004fdce10U, 0xa151716220e17feU, 0x1070301f224f01bU, 0xf00029ffe6041710U,
  0x6b9e1f703ccf91eU, 0x12f7fb1e08dfabfdU, 0xedff09f609f110ebU, 0xf4e018fb0a12141aU,
  0x1cfde31630e80012U, 0x41f35f4e013350dU, 0xe0dee00afbf200fdU, 0x9f91802050e1806U,
  0x513c30d2ce61707U, 0x70e0e1bf3d50e01U, 0xfefcb5e956e507faU, 0x6fef207011e01e8U,
  0xfc2afce5f2f6eef5U, 0xf5cbec0ce01fe9e0U, 0x1ada180627002f08U, 0x1e7fae0fd380ab8U,
  0xef151de8fd0fe3f7U, 0xf120fbee13ee0c16U, 0x13ff00f4e8e20ffeU, 0x6ecffd1fcd601d7U,
  0xfe1c28061c06dbe7U, 0xef0ddae7b10bfce9U, 0xeaddec11e80215f9U, 0x2bf07905263308fcU,
  0xe70717eee7e001c9U, 0xa11f7d12007160cU, 0x61ef5f204e4f6f2U, 0x2308e81dfaee130dU,
  0xd510c2fa2617f3f6U, 0x40e501fa29f4ecd7U, 0xf8f8f9f83f0cf306U, 0xe8cfd5e1e2140101U,
  0x2b051c0df606eb00U, 0xfa241520191a11f1U, 0x240426f9ef2fedfbU, 0xd8d5fa08f7e4210bU,
  0x22240d3be403e1f8U, 0xee25fe030f01142eU, 0x1bff090a0b040a09U, 0x1f5fdf1f6f20b01U,
  0xdb040301f8d1f2f0U, 0xffdadfea03ae1b08U, 0x320cfe03fd00fdd2U, 0xe0202cff0511ece7U,
  0xbd80bf50f0b140eU, 0x5191c2a02fcfdfaU, 0x26e933e8e9e01be8U, 0xfd03181cebd21c04U,
  0x8e8fa0c03d500d2U, 0xbe8242b260eebfbU, 0x1be0051af6fcebd6U, 0xf828202c060512faU,
  0xe134fd14f719fef2U, 0x8fd0b0216e3f5e8U, 0xccda091ce715fd00U, 0xf63b200f13f82a10U,
  0xf90407f0000cd3e4U, 0x80aed2722f0eaU, 0x6fd221307230a0fU, 0x8150f5eb9000b13U,
  0x900f71909db05f4U, 0xfe1d25070712fde7U, 0xb81e21eb01eb220aU, 0xd55113ffec0fff02U,
  0xefd813db0506e306U, 0xe71de8f1fde9f8edU, 0xf8fd351f080dff10U, 0xee1707db4f1015ffU,
  0x63a05c52ee2f212U, 0x3f304eceb0125f3U, 0x18d204f7f5f0060eU, 0xdff9161308f8f70cU,
  0x27d907f50207ffffU, 0xff162b03fc1b2813U, 0x110be897163c2721U, 0x70403f213d7f70cU,
  0x18f303ecf9eccef3U, 0xe5e218f9f0d117ddU, 0xf121af2cbe8ed2aU, 0xa0f3fcec2cfef7ffU,
  0x261af90bfcf702fbU, 0xf71a1bf4131f27ecU, 0x3eeef4e07eb1203U, 0xfced18e21a1df117U,
  0xe9efc7e8f829f91aU, 0xf4ead5d5b3f801faU, 0xf9f8f1fc1306220dU, 0xa15f48cf2fdec0cU,
  0x1ac4fd06f314fd0cU, 0x310528f5e3faf0f1U, 0xb0a0ae924bbf304U, 0x26e1d70d150fd8eeU,
  0xf09dc150adcfa1fU, 0x612f023e82214f1U, 0xeffd0bf0ccf01400U, 0x90535340730dfeeU,
  0x105d20af1001732U, 0xd81105f20af41efaU, 0xf0190910051ae21eU, 0xe7301415e0072cceU,
  0xf5ee191be407cfdcU, 0x28e8e8e101f1f70eU, 0x11eefc1421e9eb02U, 0x120d12bd0502f00fU,
  0x2015380eea22da13U, 0xd11c07e81c12e501U, 0xe90cecfafe20d305U, 0x14f523ece908dc29U,
  0xfb0d190cffeb23U, 0xd6d41c1b142d0c08U, 0xa08e333fef52e33U, 0xbc90fe1f609f1e4U,
  0x101608e2fa00e709U, 0x112d2dffe9cf41e4U, 0x619ebfc1a051becU, 0x52bfdd4fa11eb11U,
  0xcffa01eceedaf6e5U, 0xf02a05d5f80914ebU, 0xf6aa130911edc8e3U, 0x90313c8ea1e22f1U,
  0xeefbddee28020b0cU, 0xeffafcea1feff5ebU, 0x31eef1ff56e51c19U, 0xaf9fff5ccf1e2f1U,
  0xf70438160b012114U, 0xecf000fd130ddf07U, 0x1121cff6e40df1faU, 0x1a3147fe16de4401U,
  0xfb1014f0fefd02fcU, 0x8e618ee15fcf50eU, 0x41416001cf22913U, 0x191a1116ea1bfb0dU,
  0x2407f0220cf40d01U, 0xf811131f0ffeecd0U, 0xe107fd0c042e01e3U, 0x1319ed1ad8ef21fcU,
  0xa17f200e90347f7U, 0xc1f7130af7dbefb7U, 0xfe21f42703f9e5e3U, 0x260bfff91ce1e809U,
  0x1038160804efff22U, 0xef926eaee430e0cU, 0xe80ce606dbdddf3bU, 0xcef6ebfe01f706f0U,
  0x135332fa0a1be7ddU, 0x36bbe73ef514fae9U, 0x111cfe04c2fd07daU, 0x7d9080f1101030cU,
  0x4edf924ea18e501U, 0xf316cfe5e0fb190bU, 0x1be8ed06f1f70a19U, 0xcfd51f26101df900U,
  0xdce31ae42713daf3U, 0xd0e0f60926d809efU, 0x11f4f608eff803fdU, 0xfd060bfc05b03bfeU,
  0xfad0dfce0bf80b1dU, 0x7dbbfefd7e30efdU, 0x322ae0f431262ffaU, 0xf7e21816dfddfc32U,
  0x1fdbf00e0ced0902U, 0xee10b0d13000125U, 0xe6f701e71e0a1ce2U, 0x28043213ed16360eU,
  0xdcf6df14e4e9e4U, 0x17f824100d0ae909U, 0xd81016d829ffe2ffU, 0x904e10235e7f41eU,
  0xe014f61509faf4d0U, 0x90a2509fafddafcU, 0xf2eff90d060a1318U, 0x2df6f918f3f81420U,
  0xf11b2c1ce5eae1f7U, 0xe7e42cf809f3deceU, 0x1cf04d906fcea1aU, 0x4a07f3ece3040fe5U,
  0xe203f7f007f91245U, 0x2afd0d10ec22e007U, 0x812fafbfefdee17U, 0xfbe7de10f9ec08f9U,
  0xf0f8210701041e20U, 0xfb291017f11528eaU, 0xcd172a19f9edffe5U, 0xfaed15f60519fc02U,
  0x12101502e3f5f010U, 0xde22f90fc4ea15b6U, 0xfd1f2c0e01f9dcf7U, 0xd9ea1a23f2dff50fU,
  0x7dfe8fcfcf71116U, 0xe6f5fb14052203f9U, 0x182af62803e6240cU, 0xa38e4fa19f60c19U,
  0xbe6d815fb0def16U, 0xafef4fbfff528f4U, 0xfad9e700f91df803U, 0x51df00ff83b1de2U,
  0x292506d8e414f310U, 0x30fef08fe39f518U, 0x92d6c1cf1fd0ce8U, 0xfad7db07f8f21c1cU,
  0x1ce2af080adbe8f8U, 0x8191ffaf7f82109U, 0x2f502fc0f05f1edU, 0x11600460ce3e5d7U,
  0xff2133d1090402e2U, 0x12f205ebecec1906U, 0x22dd38291104f6fcU, 0x12162deeec04f105U,
  0x10b0007ede4d5f0U, 0xd60404e1c613261dU, 0xcaeb173311ff11f9U, 0xdb2413260f28dcf7U,
  0x32019d5e732e8eaU, 0x1324f7f927edfdf6U, 0xe50ffbe40c05fdfeU, 0xc0eef90b0105f111U,
  0x1e3205fd03fe0d11U, 0x2d0f54ffef29dbfeU, 0xe700e9f400e8c8U, 0xf51a25101cefd72bU,
  0xe4fde5e400ff0905U, 0x2525fa0703d8fa11U, 0xff051310f2062bfeU, 0xc3e8ddf30dfc3415U,
  0xf6080eda19e4e627U, 0xed1fdf4f2060ffaU, 0xd1cbb11f3f004f6U, 0xe8ba031efe08f7ffU,
  0xf8f3081adf07e801U, 0x1a10f0ebd3022bfbU, 0x80524fdff0afa3dU, 0xc41b22034b06e4e4U,
  0xece5f923fdfa0b04U, 0xd643f7edf8ddd710U, 0x407e2d3e30d0a04U, 0xdf408fc030833faU,
  0xd6051ce9fb0d21ffU, 0xfc1106dbee05fdfbU, 0x1c201cf81b0309deU, 0xdcf312f801021002U,
  0x21fae7f2f3f0f8c9U, 0x27ee21fe08361107U, 0x5e1081cfefc0c16U, 0xe41bf411f9fa0809U,
  0xcce5e0e4f613d13fU, 0x2012220fb4ed1530U, 0xec2d0eecb9fa0622U, 0xd0ef1afa1f01fa01U,
  0xf302fee5e06e11f8U, 0x1209d70900f70ff0U, 0xf6f6fbe2f0011001U, 0x17f8d1481a0aebffU,
  0x31fd2c0a0b26daU, 0x4d0cfc141203d4f1U, 0x12f5ffee05e3f105U, 0x1126231202ec08f2U,
  0xf4fd08e9ed0b08ebU, 0xe4d004e9e144001fU, 0x23f5f6e7f60ff5f9U, 0xfffe1905cee7fbecU,
  0xfaec1803f42efae9U, 0xa2dde1efdd21b3fU, 0xfc1bfa05030b2801U, 0xcdf4e30d06f9dd1bU,
  0xaeae3ff1f12d416U, 0x220e26f5bcf8e319U, 0x31e0eb242919f7ffU, 0x511020ff60fd81dU,
  0xf91007f4df13f100U, 0xd50310fbfc09042dU, 0xcf80e1b0d1325fdU, 0xf52109192d02feffU,
  0x21af103fbe2f913U, 0xda2006d416ede217U, 0x715f9f90cc427efU, 0x39ebf11319e00eecU,
  0x271a070915051702U, 0xe1e314e3fc1df3f1U, 0x1cdfea0f0bf2d016U, 0x2601fa20fa0f0707U,
  0x1300e7f9c9f526f3U, 0xa81e20fbf510f9f8U, 0xc04170afd0c02f5U, 0x8efcae1fb14110dU,
  0x1f22626df26012aU, 0xd812e317e3f401ffU, 0x11f0f9fe19dff60cU, 0x350ef807173fe115U,
  0xe910fc040d04f0f2U, 0x804fee9fae20ce8U, 0xfafff7e715fbfbcdU, 0x26e2f6fea4181ae5U,
  0xe0fef6eafafafb07U, 0xe40ce411ea1ce71bU, 0xf42fe00bdbebe703U, 0x92306f81a3cfcdaU,
  0xedf814f7fc3107U, 0x15fb111bdafbd4e5U, 0x4104ef221300f12bU, 0xea1d2af0e8d7ff20U,
  0xa0afb10f639fb0fU, 0xdbff1623fe08fc05U, 0xecf9e021f517f10bU, 0x10bf913270f1827U,
  0x212eec50bff00f7U, 0x11d713fd29202028U, 0xe807eae3fcf8f3efU, 0xf8ec02e411220712U,
  0xfb281fd4070e08f3U, 0xf6f91408f72b1a0aU, 0xd2f3e9ecd213f715U, 0xfc16dbeafd2723edU,
  0xe7e92615fb2637f2U, 0xda05ea122b0efb07U, 0xf604111f08d2020cU, 0x3e25dd29e52ae3f8U,
  0xff09d924f9d937ecU, 0xf3c725ecf6210a07U, 0xafffb02222309f7U, 0xdf3050c1ef215ecU,
  0x22191bfe11fd06bfU, 0xfc07c7f3f505040aU, 0xfb2c22102bf61307U, 0xa0bffe2ec0bfb1aU,
  0xff050dd2e30b2804U, 0xfe1dda06063c23dbU, 0x19f20be923d316c5U, 0xe5fd05ec16d8d3f1U,
  0xf4050edce8050be5U, 0xe8c618d43ff60ddfU, 0xee1a04090c143cc3U, 0xe9d60be2f8f1daU,
  0x181cf90600fa08e8U, 0xb57f60b0631d301U, 0xf0fe28f51113e612U, 0x4f3ff1715201e0aU,
  0x1bf9e73c1504060dU, 0x29090503edd8d3feU, 0x3c11fff8041b0414U, 0x19100224f4f5341eU,
  0x1f9c6d105200a0aU, 0xff15f00d16d215ecU, 0x29220723f9010103U, 0xf202fb33fd120decU,
  0xe3c60a24e8ee2429U, 0xf17f1f1f1e60deaU, 0xc435d400d70b1609U, 0xf91925c81e06070cU,
  0xfcf4f8fbc300070bU, 0x706c1bd36f4f8ecU, 0xfdc21ebdf1e12ceU, 0x1a20f61bf815f9c6U,
  0xffcec7f804ee49fcU, 0xff19040a011efa2cU, 0xd410ff1410d9051aU, 0xf9e6f8ece0f2ff02U,
  0x18032b2907e01f42U, 0xd05c804e8f71d1dU, 0x2404d6f60711060fU, 0xcf0207eb2dce08e5U,
  0xfd3efb290cc9dc00U, 0xb53cdaea25ec1202U, 0xc08fc1b0c011bfcU, 0xff0a010214f9f508U,
  0xeb061b3afefc05d6U, 0xecd7fdd82446f6e3U, 0xff0ff2f403f30227U, 0xdf0ffdfb08ffecd6U,
  0x13ee0de5e7f402ccU, 0xf80944b1f606d7f9U, 0x80a10330ef108f4U, 0xf132219f3080e0eU,
  0xf9eedefe310f0ff5U, 0xfdff0b3d0be6f907U, 0x117043f0f37f513U, 0xd2ffe5fa03bf34ffU,
  0xf6d90ef90a0af510U, 0x30f7fcf5ebf40b21U, 0xd8e1f4e70ff5e404U, 0x34091811eeededbeU,
  0xfce7f319eeff190cU, 0x130fd9c018060de7U, 0x15fd20f1eafaf713U, 0xc08e82cdce00023U,
  0x1508f8d51deefe06U, 0xdc09e6020124d90dU, 0x2bf407fc0ee60de7U, 0x15dffbece6312919U,
  0x510171a01eff204U, 0xeb25ead7fc10fdcdU, 0x41eff0cd5ffea15U, 0xd8ee00f71f1e0a0fU,
  0x1e20130cea1e29ebU, 0xadb0211eed2c90cU, 0xeee060a220ff308U, 0xf53510dde598f612U,
  0x31131de3e114fd19U, 0xbf915020d1d0b11U, 0xf9fc1711f9181308U, 0x1f1507130c0519f9U,
  0x19f9ff24f41b18fbU, 0x712f01306250e04U, 0x1003fff3da1f20f5U, 0x72701fe34ef1fffU,
  0xda0011f3f80be3f3U, 0xe2f51013041a0921U, 0xe31a110ce4fbe4e5U, 0xf1110a22fb0feb00U,
  0x800ec2de2ab3ae9U, 0x14ecf0db37f0db0fU, 0x50deaead0fe4af5U, 0xf00f14eb1318174fU,
  0x1200e2fcf91102f0U, 0x13fb2210b92b30e5U, 0x2b2818d4ea1f1afeU, 0xf408fd10d512e206U,
  0xf9d6f9f8e2d000eeU, 0xf02a22e402ba01f2U, 0xcac50b0de80a03fdU, 0x8ef1f01f8fc2bffU,
  0xbf425f43af30715U, 0xdeca12d7e904e701U, 0xc9130fe912390c2aU, 0xdc6ef12ec01e815U,
  0xecbff2f5e2fa1efdU, 0xe4c407ee2cf636eaU, 0x822ff0712efeef5U, 0x1bf62dff260fd517U,
  0xf80fef25ebfd1c01U, 0x121800e3320b0908U, 0x28b2160b0a09d9U, 0x11020f13f1fcdcU,
  0xdf1d08f2fcfbfcf8U, 0xee30fefc0002574aU, 0x38d6dc0317f9cdd8U, 0xdfc13dedde30838U,
  0xe8e2070627020516U, 0xe3e4ea1902fff6e7U, 0x160eece0141b05efU, 0x7f0fbfcd7dfeb04U,
  0xe2f5f9c3f1e2f806U, 0xd52b181ff2dbfc0dU, 0x2ddad5d906ee3014U, 0xf902eef2d7f2fff7U,
  0xdf2cd903f3dc0511U, 0xfe3a16e7feefe9ebU, 0xf3f601070610e921U, 0x10ff5dca910ec08U,
  0xfe2d10f209f904fcU, 0xf9faf4e8ec1bf3e5U, 0xe408ef0c00ffe5f4U, 0xd0e92c1019abe6e9U,
  0xda1a27090400e90bU, 0xfe7d2361fe1251bU, 0xefdbf6f7e0e00414U, 0xfddee4ec10530be0U,
  0xfa06dc151de9e9fdU, 0x2b10f7d6f515e21aU, 0xd1f8ef1e2006e406U, 0x2b1e635231af80aU,
  0xb140215fb1802fbU, 0x2e0dfad7f5ef0917U, 0xda0c2408ea00ebf1U, 0xf210ebeee3ea0903U,
  0xdfefb0c2406dfedU, 0xee1811c4e4fc0cf7U, 0x1c17cbb025ef07U, 0xaea0bdd1a253edbU,
  0x1bf4eac61df41ad5U, 0xedc8ead4fa0f17eeU, 0xf1f8d705e4202deaU, 0xe7fd01f9dfec1914U,
  0xda1117f6fc21fef4U, 0xfcf0ff0608fb01eaU, 0xdd0a16fe56de03c7U, 0xfdf8f9ef0305f53aU,
  0x9efe406dd0423ddU, 0x3231eff0d2eaf308U, 0x21081309fbe7e6deU, 0x20de424fa040cffU,
  0xfd1afa24fee50504U, 0xe808e70e021713f5U, 0xe60e1feffedf00f4U, 0x28b61f060df007U,
  0x1502fc2089fe1715U, 0x28e20a0002efdcU, 0xf5060a05f804e601U, 0xe2e3ea2417fa2915U,
  0xeb1706170e15d30eU, 0xe50d0de5f5e6f0ebU, 0xe3df26ef4515f7f7U, 0xfd1c25361106fbe6U,
  0x22eee70c1ae90b33U, 0xfd12dc1912f103eeU, 0x726f4e73f090720U, 0x40be908e9ddfe1fU,
  0x26e6f7f2ecf005ebU, 0xca02ef2ce9270b0fU, 0xfb0bc9cc1efde807U, 0xd601f5eac90d2002U,
  0x1ec71cedf9daee1aU, 0xebeffae92cf3ebf6U, 0xfe010fffe5fff20bU, 0xcb17280d0bf7fb24U,
  0xe3f703cfef23e5cdU, 0xe300ea0b044e2aedU, 0x506fdfcfeeb06d9U, 0x1e3a22f0e2c4f60fU,
  0xf608fc080914cefbU, 0xf007e630043f22bdU, 0x121c05c8131e02eaU, 0xd17e9061233040dU,
  0x6ff03f214f1e205U, 0x1e212c0b1e26e302U, 0xf60df8cc1414492dU, 0x30e031aebd50515U,
  0xfe3f09e8161b120fU, 0xeeff0a17fdeff133U, 0xb0c13f3e7d22713U, 0x40c0521fd30f0d9U,
  0xf7150afd082a14e3U, 0xef06f4f3fc0d0616U, 0x4348fef61c0f000eU, 0xfb04a60a09ca12efU,
  0xe52009eb0be2100aU, 0xf904ff08f6cbf8fcU, 0x30cfd916f3e90817U, 0x18f8fe06f01ef414U,
  0xf019ef3ddbfefa09U, 0xe7ad250dfdf30c0fU, 0xc70916eff70f10eaU, 0x3a221ce411ffe1edU,
  0xdcd3b0123e7ec15U, 0xfb1322e31205faf3U, 0xff33eb010df2ff08U, 0x7e906f0edf7ee1dU,
  0x27140609070509fbU, 0xcb13ff00f9ee1f20U, 0xdc00f6f21024ea21U, 0x1805f00fc40706fdU,
  0xed011902011aea2aU, 0xc4113e0122566edU, 0x13eefa0d18fcf3efU, 0x18d515e4ef0b0d04U,
  0xf3f81ff1daf8e6edU, 0xa22fafa0a20e8f5U, 0x1a070fd8f4020fefU, 0xf30701f0201dcbcfU,
  0xe2f0ff1bd50c0a05U, 0xf7f41a180011eafeU, 0x17f5300518c9fe44U, 0xff20e3e3f014fcf1U,
  0xfdfc3c29f6faf40eU, 0xc2ecf6001f0e0ffeU, 0xf31ed2ffdfeb05e5U, 0xedda11e61d063607U,
  0x1fee14ed13120515U, 0xba2e0831fd0df2e2U, 0xfe01f8e8e50eefeaU, 0xfffde6defbf5f006U,
  0x10f8e03604c4f1edU, 0xec3a2c17ea0f0904U, 0xfb09eae7eff0e201U, 0xe121dff4ed0b032cU,
  0xeff90916e70005d8U, 0xecfd240202060ed4U, 0xe050a0bfb300ffaU, 0xfe1a0c02090a1521U,
  0xb1e0e09e50f1407U, 0xe0e806041b0c1a18U, 0xf00805ed040402f6U, 0xfb18f2df2d2209bcU,
  0xdd36d5f4c6f7f6d0U, 0xdf0eef0318f4fc07U, 0x24d6e7070ef00211U, 0x1011fcfd23e205e0U,
  0xebeb0a14caea1915U, 0xce9fd12f3022b06U, 0xcf0ce20250540e8U, 0xaf0382621f60208U,
  0xef09f1ef1d05e909U, 0x4a3519f3f3e0f925U, 0xe830e2f4f1ebf527U, 0xfe100621d6e607f3U,
  0x4c80e0bf501f21dU, 0xf5111413c10df2fbU, 0xf1cf31af136f9e8U, 0xdefff21b2104fff4U,
  0xfbf015f00be9fad5U, 0x14e118e22c18ff0bU, 0x1bdf0014fbef3602U, 0xc020fa2113f7dffcU,
  0xef11f53eff0ce513U, 0xf33f31cf8e7f7f2U, 0xfc150a2f0217f0e1U, 0x1ef400fffee74efaU,
  0xd0a0dc6bf0e0bf8U, 0xcd0b14e920fcf928U, 0xfef90806f2cc02cdU, 0xfcee05ddf11d492cU,
  0xd4f7f0dc05e2eafcU, 0x150df506d603fa08U, 0xfb1311edf514ff32U, 0x210ef3fe09eeebacU,
  0xd0e9da0615f40e2eU, 0x13eaf214f20aed0eU, 0xf82a0215e70f0d1dU, 0x30204c201220812U,
  0xef0dec01134134f5U, 0xf10bf125faea3ed4U, 0xb1ee900ed1214ceU, 0x15ea0bd10b001b12U,
  0xbf2ef311d4a110dU, 0xee08f4e91f190f1bU, 0xe902e9dc0e1ed330U, 0xf11dffd6d1f0e71aU,
  0xdd7e741e02bf9f9U, 0xd2fcd7f4fbca0701U, 0xf3da1d2003eae2e1U, 0x1b3d00f9fd1915fcU,
  0x2d500f412fb0617U, 0x22d032b1a171811U, 0xfe4f1f9dc15fbe3U, 0xdf40c1106f2e824U,
  0xf250fd0d9ef4e30bU, 0xe1fef2052de10428U, 0x150d23080b17e2f5U, 0xf40f1cecf9ba0dc4U,
  0xecf9f9f21d2207ffU, 0x1cf0f02c11052207U, 0xd10a21edde01fdf7U, 0xc6250338ea1deb04U,
  0x17ededd3ed0b01efU, 0xe20cb1e22a17dbf5U, 0x6fd0c011611fef5U, 0xe21c37ef11fcdb33U,
  0xfff7edf8eff0021bU, 0x1f193a150c0cfef5U, 0xbee8eafaf1e22afeU, 0x19f812f6f0f5d802U,
  0x2adee31c17e53804U, 0x9f5ccf7dcdf0dddU, 0xcad6e1f63af3e8e7U, 0xf63dfafaf2ce1206U,
  0x1f030a0b00053700U, 0xf0031206edf80de0U, 0xf422230523ef0f12U, 0x1ffad7f705d00d24U,
  0x4301060ded19e320U, 0xf1ede507f92968eaU, 0x19ec1bf7e8e3f419U, 0x60f0204f70c1b1eU,
  0xedf4fcdefc0fceU, 0xe6fcdbf0f3020218U, 0xe91bfaf517fb0f72U, 0x5e8e9e4f80401e1U,
  0xf12151dfbf308f4U, 0xf513e816f6ef1df7U, 0x2080a0c2402ff08U, 0xf106ed150af41210U,
  0xf80236c70b1bcc2fU, 0x120f1a0310f9e2e3U, 0x1af51d0cd8cb0536U, 0x70b15fc0517fefcU,
  0xff3fcee0419e411U, 0x62b150207010605U, 0x3091d010f0a040fU, 0xc5f9fc2305faf219U,
  0x823f5ff11deddddU, 0x2017070123eef220U, 0xe8f1d1fdfb1d0510U, 0xdf1efffb05ccfe30U,
  0xf509b5effde71212U, 0x82104f6f81105faU, 0xd1fa21e90423fc15U, 0x31d10429fe0918d3U,
  0xfe0101cbc81f1404U, 0xfdfefdf4fb22e7ffU, 0xff08dee52428251dU, 0x70013f201f9ffdcU,
  0x1bee12d5fb056c02U, 0xe1beb0e1f000809U, 0xa116f201f92f21fdU, 0xf1ff14010cecffd4U,
  0x5d0fa1303f61e1eU, 0x552b27f3f702fdfaU, 0x12e8fdfdfc08cfd1U, 0x6d2f9d802330fe2U,
  0x1bf3eab60bf0fb0bU, 0xf341e9e718071ce5U, 0xfe09e5fa20ee083cU, 0x1e2f3efea252dfdU,
  0x70c10ff25150c13U, 0xef071ace0e1512faU, 0x240712f5eb07060dU, 0xcb0cf220f7f6faffU,
  0x60a13c00f2f09dfU, 0xdd112000080c03f2U, 0xdf5fdf517eff0f8U, 0xe9e900220c1e28f9U,
  0xfc06fcc51af80b23U, 0x1aff01dc3807f538U, 0xebe7def1f10cf4d0U, 0xef02153af00bf3f8U,
  0xfe110ffcda150c00U, 0xafb141c06fef0f8U, 0xf9f9f2d8c7f2eeecU, 0x5efe5fb03fd09e5U,
  0x26f2f713ea01fce5U, 0x14d3c3e80728ff10U, 0x1cffde101910cfU, 0xfd98c7272a1cfe14U,
  0x904fb171617f6ddU, 0xf0fffc04f3f9d4d0U, 0x6d4eae9e100f2ebU, 0xfe0f71b05fa0ebdU,
  0x19211f1c12171b00U, 0x1d1a1411ec22d702U, 0xdb030a20f10af20fU, 0xf00bf40fee32e9f6U,
  0xe129051203fb0b13U, 0x4eebc4f110cd6d3U, 0xe823fcfcf9dfcef2U, 0xf800f7e4f01cf7e9U,
  0x1100fe11c170502U, 0x9ea07d6d1dbff0dU, 0x2121e31200f1fd09U, 0x1302eb0cce0831f3U,
  0xb41210e5fff7ee0fU, 0x18490907040cfc09U, 0x2c04021a04122cf4U, 0xfef90510ed0cedc5U,
  0xfb0fea001903f9fdU, 0x1300e8dc1a170fecU, 0xb4bff1f1bd3f123U, 0xb051e0c0f20d009U,
  0xf81ff408140608f4U, 0x180003d30f15fa1eU, 0x1300dd3212fa1f05U, 0xd411ebfadeee0212U,
  0x1314f735140317dfU, 0xfb0aedcc08fccccdU, 0x1a0121f40e01f0f8U, 0xece4fc2620014624U,
  0xcd13eef61a26f805U, 0x1f29f81a0cf0fb12U, 0x70df8fff3c9fd1cU, 0x29efb205d7d121feU,
  0x211e050113e92004U, 0x612db0ce91ef5ecU, 0xfb07ecdde018e106U, 0xd5f621f604eee6c8U,
  0x2dd1d5332b1dfe1aU, 0xefe91532fefef40eU, 0xfef7fef915f9ffedU, 0x9fb1f0704d809deU,
  0xf3ed330309db04ebU, 0x11ecdf4a44ff25edU, 0xfff3e6f120f80901U, 0x1ed7ddf00e04ed10U,
  0xd21317220ef30912U, 0x111a28150fedede3U, 0xaf42636cff3d4fbU, 0xe2d71e1113f41700U,
  0x16060320ef00f60fU, 0x174af91906fddc08U, 0xfc101d22ff12eee4U, 0xe00605fb14f1edfcU,
  0x827fc10f4182ce2U, 0xffec04ff0701e0fbU, 0xf9ed19f105fe00deU, 0xe62ff336f029eebeU,
  0x23f4f43f0de1090aU, 0x31290afa230cf01cU, 0x1038dce9ecf002e5U, 0xf1cdfce2fdd738deU,
  0xf7c2d9f8be05eee5U, 0xf91d0be8171b06f9U, 0x220033fd180e230aU, 0xbfef1002dfe0defU,
  0xfe0107f7fff8f7f1U, 0x7f9192111002d26U, 0xf1befa19e4f617fcU, 0xd60fecf231270be5U,
  0x1e28f50f0915b5ecU, 0x10eb0bfefa38eafcU, 0xeffb0ee6f6f00719U, 0x1009ead9211929ecU,
  0xbf30a27f8dfef20U, 0xf501ca01fae11107U, 0x17121503090e04f9U, 0x512f009c3031128U,
  0xdf45f00a0bcbebfcU, 0xecf215f321dfe913U, 0xcff0b0bff0dd00cU, 0xf30c01f8c30b31U,
  0x512fcedf70e08e3U, 0x313071500ee0b0fU, 0xfff2defbf50f0155U, 0x4d904e00e1417f0U,
  0xcb03f20c1617c30cU, 0x27ff02f62ee6010bU, 0xf7ece90bfff5faedU, 0xae107eee622efffU,
  0x64ae51ffe180715U, 0xfed7e6e1f0f6f520U, 0xfe0d90cf0f320b6U, 0xf72efd1718fd0417U,
  0xcdd1807dff2ee09U, 0x10ec090df0fab73fU, 0xd3fef500f6eef91eU, 0xf40b0ed1e900f00aU,
  0xef09eae4f90a230dU, 0xdb1af9e3ea06070fU, 0x17f2f2e812060d33U, 0xeb0ddbf40de0f7f9U,
  0x15050fe5ec09ccf9U, 0xc80a080912020ae3U, 0xfe2eef00105fff0U, 0x19d8321607ecf9ffU,
  0x18e7db0e152cea05U, 0xeceff70be3031526U, 0xd21df100d913ddecU, 0xe8be1614fb13d3f3U,
  0x361cd600fdea0711U, 0xf709ede62e0bd2f3U, 0xd208e6050b0c07f7U, 0xe909fdf7100bf705U,
  0xd20f4cfd21fc070bU, 0x34e712f81cf9e609U, 0x4f2ffe726c50904U, 0xe918f9e80027ffe7U,
  0xd01a15ebefea04cfU, 0xf402daf2eff6f018U, 0xe0fb0229e9d3fb27U, 0x1220111f2ddd1f18U,
  0xc08c809f92c1710U, 0xea171e05fdeddd09U, 0x13e0cb140618c7f8U, 0xde101425140b0fcfU,
  0xf61f09eee9130409U, 0xfb03d715f0f5ebdcU, 0x1fd8fdfd1a2b2d33U, 0x80502c9170bdbf4U,
  0x17f90311f1f4f817U, 0x1a0905ee0d14071aU, 0x41053be010eaf30eU, 0xde230611210cf9f7U,
  0xc0f070ad9f2ede7U, 0xf80c0e1904f3200bU, 0xffd5241230ede700U, 0xd4bf05081afd074bU,
  0xd0fffc03d000fa1fU, 0x1d0aed0cfbf12f18U, 0xe9da0104fecbf307U, 0xb13f81df9254de9U,
  0xeee1bf7ef03e8eeU, 0xef22700e3ede1daU, 0xc82506e827cc0407U, 0xfc1b2cf4ef1300f6U,
  0x1cf008f711eff516U, 0xfb19fc0cd40efdfbU, 0x9eb3314f3302a15U, 0xc12f61c1d06f916U,
  0xb1220231bebc2dfU, 0xeff2eb37f8150b3dU, 0xe60d0923e805e628U, 0xf200f0050521dee8U,
  0x7e500f8dbdf371eU, 0xe1ddf33816f33a14U, 0x262e0c02d2f61bdfU, 0x8efe5e9041d2a22U,
  0xd7e1f5f605cb0513U, 0xfc2c14fffde215f6U, 0x2063502125e0400U, 0xf508f117151007e4U,
  0xdd1714e2ef1a1608U, 0x28f4f5ed4323fe05U, 0xbfe0f06e359e1d5U, 0xf802ff10d4f71316U,
  0xf9ff020fe90a0902U, 0xcdff9e60ae1350cU, 0xdfde0ffddfef24fbU, 0xfc04f920140ed9e7U,
  0xec428fbf805cb1aU, 0xf20636f4e41bf41dU, 0xfa110efbf4f6e916U, 0xf20cfdfd260c0bfeU,
  0xafc1a23f411de0cU, 0x121bf00fa313fc2eU, 0x91bf3020b08f0ffU, 0xf6ece8193d0d10f6U,
  0x20e30316dcddd025U, 0x3a0cf10129fadd2aU, 0xf70ef00bfbe10b07U, 0xe1dee62415feff07U,
  0xff0b08d3381b2113U, 0x9e7ff350109dfc1U, 0x31131311ef5eb1aU, 0xc3fa0902ffffd3f5U,
  0xb726fef4f212031cU, 0xf21f09ecef0af9faU, 0x2f9fafaf0040435U, 0xeed9f7e2d5c4eaf7U,
  0x32f1f106041111eeU, 0xf20d09f3212f19eaU, 0x5300cfdf225d207U, 0xffee21092008e808U,
  0xebd21ec4d5eff2e1U, 0xdb0d011fe7e409dfU, 0xe6ff03d4081ed018U, 0xe7121510caf825ecU,
  0xebfbd9180e181e27U, 0xd204ed18100d0af8U, 0x7390b07101d234cU, 0x14deec0bd5060df6U,
  0xf016ff17e003d214U, 0x3724072d09f907eaU, 0x2eb2f17f8112df7U, 0x2df30a16fcf8fefeU,
  0x1aea1dc3fe36d2e4U, 0x1efe1410ffe912fbU, 0x25e936d2d72cfcedU, 0x7ef1516e602f407U,
  0xfd071fe1161beb2aU, 0xcd220ae8191b05e7U, 0xf3fa1514001f0a04U, 0x9f6fee2f7d7e5eeU,
  0xfad51d18e0e9fec4U, 0xf90a0cff0804ee3dU, 0xb03e9f5ef33fb10U, 0xf8efe70cdc0e0ffeU,
  0x619feedfdfd2615U, 0xe110fa0ff20d17fdU, 0x2f6bcff160bf626U, 0xf6eaf40617f2fe30U,
  0x3120f6f5e6cfad03U, 0xfb1d170b051cec13U, 0x3fee5f133c9e9f9U, 0x1df8bd010f101b03U,
  0xae263015060205e4U, 0x3a0a0f1bdcea0b14U, 0x13040f01e8e2ed16U, 0xef5d9fee9f511efU,
  0xd905f2d40b27f613U, 0x133bd400db1df2f2U, 0xdf12d8dbc1022b05U, 0xb1401eed0e5e91dU,
  0xe70ffb0b17d3e700U, 0xfd0a17db0f04ddecU, 0xf03f3aefefe20135U, 0xf41a020fe4def509U,
  0xebf7f8ee1b1cf001U, 0x10bf3bf03ea190fU, 0xbff11bf5f9e90500U, 0xe8fe1e0eee13f500U,
  0x6e2ffe4ee0ffdd6U, 0x5090a20d519f201U, 0xfbfeffecf80b031dU, 0xea22c7064446f7e4U,
  0xd2330ceb1d09f2d7U, 0xfd0cf803ca0de300U, 0xe2140020e3e90120U, 0xde19e3d71033fb41U,
  0x1618f90806eff6fbU, 0xe1f234cd06dee1dfU, 0x140b1a03e4100bffU, 0xd51cf6d1f6ed081eU,
  0x2ee1ce0d121fd9f9U, 0x7e50211dbef17f9U, 0x22d0eef6cf0a0bf0U, 0xcf202f60af7dc1cU,
  0x59eff2d6e6fffe19U, 0xf8e3eaf7e422ec35U, 0x1207e906e20c0412U, 0x17f51ce80c261200U,
  0x3e521120c140d1dU, 0x1240d02fff8060eU, 0xd715db05e6dee42cU, 0xdce029080315d4f8U,
  0xf123ee00d9dfedceU, 0xa0f081c15fb262dU, 0xebf3fe23dbec0818U, 0xfde6da0dd51a1919U,
  0xc0f01f61a02e5U, 0x27041be0fd0be1f9U, 0x9e4d535e5062cedU, 0x5db1702261420cdU,
  0x2a100905f315e111U, 0x4f217d1f1fcdd07U, 0xde2bf81a07e507e2U, 0xf6e44b1408d01af9U,
  0x2c1206fd1bccf119U, 0xfeebd7bcdcc8ec3aU, 0xdf1115010f16faf2U, 0xa2233152ff156d8U,
  0xfce9d1040123f4edU, 0xbf6120bde012ddfU, 0xcbf51be5ffe8f326U, 0xed0118eafd0b1ce7U,
  0xee102bfd48012500U, 0xf624fa022507fc20U, 0xdd2f6d2020034eeU, 0xfef7dd17170be606U,
  0x14e417e10b170108U, 0xeee40e0addee3704U, 0xd009fcf9f31f1800U, 0xd1071af5e007d713U,
  0xa1f11e9e614fc1cU, 0x1b0ae3caed1ff8eeU, 0xea09ed32ef1520f2U, 0xb0f16dffbfcf007U,
  0x1dd80bebf83811c9U, 0xe71ff7fc0af73201U, 0xed0a0500ef110103U, 0x28ec0aebd50901e7U,
  0x11f70cdf0dfbf810U, 0x170d0e0123e8e9d2U, 0xe60dde2b02ec58f2U, 0xefcc0ee2ed081805U,
  0xf1d102100903ee04U, 0xfc0c0a20fff8eb0bU, 0xf51241041f13f60dU, 0x32e22a3c0c071223U,
  0x2fb13f8ef03f4f5U, 0x23effae900f3e5d8U, 0xebf5e906fd02ec09U, 0x18f3050b0924fbU,
  0xc0e100701fbfa10U, 0xe8f3300fefe500f9U, 0xf52202ff320d06e3U, 0xfa20ca22174dd201U,
  0x22e5e809360f051aU, 0x33e3f616e7e40117U, 0x3ee0dcaf2df070aU, 0x420db0ff6c1f2f7U,
  0xf91c160df0f923f6U, 0x2413240934ffc8fdU, 0xf4fed8ddc00e010cU, 0xe1fbf8e4f3f001f8U,
  0x193fd93bf421f830U, 0xf51126f30cfe3509U, 0xe116d50cee19ede5U, 0x122302e5fa1f0b08U,
  0x21a210c01e01304U, 0xdbe90537f51c1414U, 0x2f16131608bf00ceU, 0xd0247162de6e0c4U,
  0x21eaedde22fefcd6U, 0xf21019f701e0ac0cU, 0xedfbde1def08f4f7U, 0xfe0d02090613fb13U,
  0x322ebe3e017e30eU, 0x19ff4e1f0300e5baU, 0xf16fd0b081cf50fU, 0xdedf7e322f318f6U,
  0xf4dfe6f9e0e6f7f2U, 0xe90d0f01d8d7eff8U, 0xe070ef628f8f325U, 0xa1d120f4a0de70bU,
  0x17ff08f90d050716U, 0x281a2c1e0325ea0aU, 0x60f1d15ec1efedcU, 0xf53fe001ecf1320dU,
  0x1108eff4fa02daf5U, 0x3dbbc26f719e515U, 0xf70411eed2230cfdU, 0xf32e160b040ddefbU,
  0xff150f0f03edd906U, 0xf1e4f32bfae1ea14U, 0x706ec04010cf5fdU, 0xf2ebeb0ff4351adeU,
  0x330d0402edf90dcbU, 0x31f109ef08d4ee0aU, 0x7031004f1e5faf6U, 0x21ed01e2ecfcf22bU,
  0xf806fee3e9fdf8f6U, 0xe71417e63bcf1ad5U, 0xca100e05fd04f427U, 0x22d920211bf3c721U,
  0x205306ec190d05ffU, 0xe120f50609f5fc18U, 0xfd0ffd170ef912ecU, 0xfc24ede707e7ec04U,
  0x1a26fa042810eecdU, 0xfc1bf705e41eef08U, 0xfe070d0823f4f20eU, 0x2ad918fc0101e3e5U,
  0xdaedfa27f1bf1ed9U, 0x19331502efddf610U, 0x45e9f016fff4e1edU, 0xe7fd0917d70a06efU,
  0xfce5e7ecf3d1eb04U, 0x1cf206fe160e0805U, 0x1fc31bd3ce3111f6U, 0xcfc718051f12082fU,
  0x10d70bfd1709132fU, 0xde81b2c1502fb2bU, 0xe8fbfb12ed141e0aU, 0x6d60eddf658fa02U,
  0xf208d2d3dce72df2U, 0x9200be3fb0d0cddU, 0x3006ec1c060ee609U, 0xe4fad7fdecf225d1U,
  0xe60f1204f5f7e812U, 0xe330fe02fb14e815U, 0xe6f4fa06e9251420U, 0xf9e801002deffee6U,
  0x11b16e30307dff2U, 0xeb140ef9f8e4fff2U, 0xe91c1f271d0cc4f3U, 0xc8f60af6f902d1ebU,
  0x80705c11529eefcU, 0xf8d71e1306f6f0f6U, 0xfb0ffb1921f7fdfcU, 0xf12fef0615e4e20aU,
  0xf7ff3b48000a01efU, 0xf7000dff1ae52ad8U, 0xbed06eff525fde3U, 0x2e0e0406f8100dd6U,
  0x1b03efd6c3d90d1fU, 0x3ee0905e5fde1d6U, 0xf2d703fa110ceeeaU, 0xcf1e0ef6d60f23ffU,
  0xe318f50e18f7c200U, 0x1527da00130f03d3U, 0xd7e02ece17e70cfaU, 0xe5d613edcc06ecf6U,
  0x11ff05e20529fcffU, 0x105fef3ed09e6e3U, 0x13eb17171d07f81eU, 0x3006bd0b37dfeef4U,
  0xe3e3fde9fe0c01f6U, 0x20ecea200af901dcU, 0xe3e53212d1fc0df3U, 0xcbe32742ee231504U,
  0x8051900e124071aU, 0xff0cf50f23020afdU, 0x213cfaef1101f6e5U, 0x13014217b81d5d2fU,
  0xdfbfd150922c50dU, 0x1d01ff041dedfe09U, 0xfc10f3faf3d1fb18U, 0x31f42509040b25e5U,
  0x4fee805f4f0f9e6U, 0x22e00fe207ddb413U, 0x307fd1cf30f290dU, 0xef2203e8d3e802ebU,
  0x19f23de0c622d6dbU, 0x51116e316d3ee18U, 0x3010eeff120f17f3U, 0xade612ea21f50105U,
  0xb0706e90c2207fdU, 0xe907f000fbcf1028U, 0xe1ec020617db0f18U, 0xfedb19f7142af4edU,
  0x14fc1af808030befU, 0xd60611e83e381a11U, 0xffef14f9f527ed1eU, 0xeef8fcb7e51e07efU,
  0xfd11f8b20322f6beU, 0xbe0e6ee1f0b1f0aU, 0x2af3ff0de6e40732U, 0x1f261cef1005e61cU,
  0xdd0ceb1bfd1bf711U, 0x7f614f6190cfdf6U, 0xdb0cfb214719d81cU, 0xf5330232d8fd2726U,
  0x300cf2d4f00e10fbU, 0xf80b181ce2f4e71eU, 0xe4be3efa1c1620d4U, 0x133008fded02f606U,
  0x1402f30a15ece2e4U, 0xf40446cd18d81108U, 0xe3ffe036dffeddfaU, 0x261122ccfb160820U,
  0x909e922fef3fe32U, 0xfa0a01d654fcf2ebU, 0xe412e50415d5010cU, 0xccdbded4ed0c06U,
  0x1837dc20ea0bc9ebU, 0xebffdc081007e613U, 0xe31cfa19e32333ffU, 0xfae9f4e3f2f7e700U,
  0x16160b10d2162f10U, 0x3e3d71800d72538U, 0xee810f321fbe5f5U, 0xfbe3c60d0c05db1aU,
  0xf61c07180d1ee40dU, 0x1bf71306dbdc3ae9U, 0xf5f80214fffa162dU, 0xf51e0ddae52c0ed8U,
  0xddf4db02d7fef821U, 0x15fe00124d26f100U, 0xf80dd3fc1de90af7U, 0x18f70be4ec160408U,
  0x806081a1a10054dU, 0xd01101eeadef405U, 0xe7edd5f7d81ceb09U, 0xc7f0fcfdecfc09e9U,
  0xc91700fe08faeafcU, 0xc07c5ecc813fffaU, 0x2aee15ff010df4edU, 0xe509e2f614f40312U,
  0xe8f20b131103f40eU, 0x270a131022f11deeU, 0xd1bd32af61407e6U, 0xa5e110c06ed030bU,
  0xf7fceeec0af8defcU, 0xf615f50c2fd403f5U, 0xb8e0b2cc12fb07ebU, 0x17ead6083af3ed1aU,
  0x140b133afe00e7efU, 0x2a15e00cfb220612U, 0x1cf1c5e0f0dfe6e3U, 0x1528cdddf626fdf0U,
  0xd8e21a00f31404deU, 0x101115ffdad310daU, 0xf52ee005f71b1b27U, 0x9ed1efcfa0823e1U,
  0xda06210ae7dcc1f1U, 0x1006e5dd192c05e8U, 0x8180cf2e6e611e6U, 0x3007fb1008fae125U,
  0x434afdec1b0e100bU, 0x3ee130800d20edeU, 0xc0c1a0cedfd13e3U, 0x121df6090ef7e7f9U,
  0x3050a29cb1120e4U, 0xef6d2f80f041b08U, 0x20313d3240ffb09U, 0xca1a24f9ec1601eaU,
  0xdd02f10fe424091bU, 0x130ff0e3f6160417U, 0xede1ed21ea1f2b56U, 0x1f2304f4f5180ef3U,
  0x1811edf101f9e0daU, 0xcdfbfa0efed81ae8U, 0x20c24901f5fd17e6U, 0x9fedcc816010f19U,
  0x720e1fc160a3ffcU, 0xa0b07f9b8031bfbU, 0xe62cdefada011afcU, 0x240209fdea02ffefU,
  0x1ff4240523f1faf4U, 0x1023f6fbfcda0eU, 0x318f02003daf4f3U, 0xe7f5f3f6f52ada62U,
  0xbf1e2f503fddb0bU, 0x1f1b1d010be323f5U, 0xea0fffede10eef16U, 0x1db403f70125df1aU,
  0xf1da09cdf4f8dee4U, 0xf80def1301f6e815U, 0xf7cc1ececc20030eU, 0x2b14f204eafd0800U,
  0x11de4ed03d3d116U, 0x50f22e94504291eU, 0x19f1001116e3f2c8U, 0x510f1eff7e7070dU,
  0x1b0009f01c0b13bfU, 0xc34ae1f8120bff0fU, 0x1f1f6daf21606daU, 0x1320f9e70afd02e1U,
  0xedf5110c22fd1f18U, 0x2e112119fedb03efU, 0x19e910151314d500U, 0xf30fdee00017f0d5U,
  0x1fcfecfb0e2df826U, 0xf30eef1d080f0ff7U, 0xd40014ed07cf1113U, 0x28d71717f6021dbcU,
  0x2003d9f6131ed814U, 0xd505f0b21a060104U, 0xf21fbe1e0ce60933U, 0x110832e61d04e40fU,
  0x607031027fe0d1fU, 0xc2a28c408d9dceeU, 0xf2de0aebdef325cdU, 0xf0f504f202161410U,
  0xe8141832f723ee22U, 0xf448e41bf01103e6U, 0xe5100a15efcbf315U, 0x37181ee81cbdecfaU,
  0xfcf01f5ef14f4e6U, 0xfb001510ece71903U, 0x212700110fce13ecU, 0xf1200e27e9dee4f1U,
  0x241700f7f812ff13U, 0xecf42829f30b0fe4U, 0xb8090e00ff10012cU, 0x30ae6fcd7030c2eU,
  0x1a0ad7f9f810fde7U, 0xf3ff0e1bfbfba5fbU, 0xfe411216db10e1e3U, 0x120ae7fd0e020727U,
  0xf8e40edde70cddd1U, 0xff2ef5f9f6e3e615U, 0x41e70bd908df2b19U, 0x6130a072118220dU,
  0x32ffb091c18edfbU, 0x4e20fc020ae813e0U, 0x19eb05cbfdf0f814U, 0x500fe10f2de171dU,
  0x10dff12fed70923U, 0xde51ee6ed17eefdU, 0x4513f717170ff8e2U, 0x1314f4f120ee00e9U,
  0xd81a0705e4ea2a1cU, 0x304f70a181a1315U, 0x1a0e1b150e48380dU, 0x1304dc0814070aedU,
  0x7d2d3f4e9fbf3eaU, 0xb2f715fcddfd0bc4U, 0xbf62011d209f5faU, 0xc5f20b06d8010302U,
  0xce131a02dc2a2cd0U, 0x231cfa082404fd2cU, 0x1d0001fb0706fdcaU, 0x14011be6ea05eac2U,
  0xf60719fef60ef00bU, 0xfbeffb102017b9fcU, 0xc14edbfedfde310U, 0x30922f6e9f9fc10U,
  0xd1f02df609edebedU, 0x13e2200605db1aU, 0x10ffe7c01a0df401U, 0xfd0f1ffc01fbeb03U,
  0xf93c0afdfff9151dU, 0xf4311f150bfb09d1U, 0xd16e117ffcff4f6U, 0xfd1a0413fffaf608U,
  0x1724000bf4ede3faU, 0xe8c50be72127eb17U, 0xa15e8ffdf14e60dU, 0x5f00602f1fd32f2U,
  0xf3d8150214f604eaU, 0xd302e01901de2a39U, 0xcee1f1105deef0bU, 0xe62811f0fbfd24e1U,
  0xdaf9f5f21a1007f4U, 0x318cc1dfab6e53aU, 0x2ee0effc0313f122U, 0x12f8feecf706faf0U,
  0xfac3e4170212e304U, 0xfdfcfb13ed0d2904U, 0x2009edeef4f5cb16U, 0xe5f50530fff6fe02U,
  0xb1e80f3c1afcef02U, 0xf9dbfb3f080f1b09U, 0x18f107f422e82911U, 0xdaf1fe27061de22aU,
  0x120c0a061912ffdcU, 0xfdd301170806f4f7U, 0xfefb12fefb0b0d28U, 0x320f41fc0bcc2ce5U,
  0xefb222602fb2010U, 0x12d3f6ea03f719dcU, 0x26f9ee1109fd0cc6U, 0xef4824dafc291505U,
  0xeef71508181f09eeU, 0x3fb0b0f129df6cdU, 0xcc12230de10f1333U, 0x1bf207380f0406f5U,
  0xe52d2a15f1ea200cU, 0xfefef420ece51707U, 0x13f7e4e11f11f5ecU, 0x1b1af92a11abf62bU,
  0x7ddf82a100ef2ffU, 0x2fd7e7f7041622fbU, 0x30c0d29ea102ad7U, 0xe0e906271a0bf522U,
  0xfef151cd70908dcU, 0x2fef395df6101af7U, 0xed9f11cd30b1dU, 0xb2304faf70cf524U,
  0xe118f0e2fa2c0ff9U, 0x5e1ee12ee011b12U, 0xefda0eec050ff023U, 0xa91afcfc19f904ebU,
  0xcc318ec05f50f05U, 0xdf01328ffe2ff06U, 0xe61f32fc371a062aU, 0x13eafa362304060dU,
  0x3e8ffff0d020afcU, 0xff1deff30fd721fbU, 0xf2c1c0a0f002c21U, 0x251a0fe9e113f606U,
  0x102af715e0efef0aU, 0x19be0bf71c21131fU, 0x302eedaf1e4e6dcU, 0xf324450a101927ddU,
  0xf7131eeff1d81ff9U, 0xfbf31300fa2c181cU, 0xcea0ef80430260bU, 0xf813f401cdd00610U,
  0xf50002040e1eeff8U, 0x511f40bfdfb4315U, 0x210b0032c3e7f5e5U, 0x21ec1d15dd11ec11U,
  0xfc0c1bf40127e510U, 0xdfedfa01cae1e4e4U, 0xf2f7c1f4f1e309efU, 0x209c502dcf8f5e9U,
  0x17e3f725e7090437U, 0x3091f03ef04c901U, 0x8f5191f06fcf114U, 0xfd260de000eee9fbU,
  0xf9e922e81514fbebU, 0x16c9f31bf1f8e323U, 0xf905f9ec152b1613U, 0xf628db0912ec1510U,
  0xfc060dc8f80806ffU, 0x1f5f4d82a131807U, 0xebedef21fc14c900U, 0xe6df1fd3fff30909U,
  0xa22df2fc4e1070bU, 0xfb24ec3a1eedfe0dU, 0xeb201f0b05ef16e5U, 0xfc2eef26180700f4U,
  0x171af5effef4161eU, 0xf5090aeb0216f118U, 0x1926fa141014261dU, 0xf5ffd4fffdcc1219U,
  0x111cee1900f4e206U, 0xf10703e2c9ec3c1bU, 0x1402b825012904ebU, 0xfdf406f51cd1fc0bU,
  0xeb0af6effd1aebfcU, 0xeb0dc002da333909U, 0x201dcf7f6fb1302U, 0x2b6ebf9f0000eecU,
  0xf5fd0006f6e710edU, 0xea07e6fa033a1d11U, 0xfa110d051afeeedfU, 0xf7c40729fb0ce8d4U,
  0xf916122efcb956f0U, 0xfef7160110230617U, 0xd41ef80ce4dcdbe7U, 0xb5170ee40eda180dU,
  0xf7182b0534071a1cU, 0xaad6d6f1040b10fcU, 0x3f2fc1c1afef1U, 0x131827ee1203dce6U,
  0x2ee9f1e3141404f7U, 0x182d0afa19e8f224U, 0xf0d11a141a050121U, 0xfe17e505bc061314U,
  0x22fe0623e1dc0b0cU, 0x24e80a34f30b04fbU, 0xfbfae228f1430c0dU, 0x18f90c0512f6ef07U,
  0x7e9f2f4132231fbU, 0xaef05e70214fae4U, 0xae7171bdc44d8ebU, 0x160fe0f20dfc1615U,
  0xb6f13400eb0709f8U, 0xe3f106090e01ecf8U, 0xfc08fd0b17e501U, 0x4de70a011c2518f0U,
  0x23d114120a07f6e9U, 0xe9f2db09f22407f6U, 0x1803f710fc05110fU, 0xe30c251a18240504U,
  0xdf0907e4e84537f5U, 0xd501e40213face33U, 0xe3f7f102df1a18e7U, 0xefcaf5fefbfe0323U,
  0x1f69c80a2be61704U, 0xf51cf110f1f5ef0cU, 0xedfd0002eaffd30bU, 0xf6f40a08eefbfcf9U,
  0xfad3fb0258280307U, 0xef0dfc2321dad9f3U, 0xe8f90cf30b2903d6U, 0x15f9f6d5f7fdeef6U,
  0xf91255d2ef0eec0eU, 0xd3e191303f6e633U, 0xbecf1f9e6e811eeU, 0x1f0bfef8fdfe2df5U,
  0x3240b180c15e2e0U, 0x200cf104fb173308U, 0x26ee19f817ec05c4U, 0x10ee27102016de03U,
  0x7e0212f0b282018U, 0xe8dd4ef419c7d9ffU, 0x13e705f216e91ce9U, 0x11cf927e1e1f7U,
  0xf32220ecedeb0bd5U, 0x1bf6f1f7f91fe7d5U, 0xfc1027f2e9edcb1cU, 0xbffe6fb11ea2b01U,
  0xf01008f2f40a032aU, 0xff341cfed42bd4f3U, 0xf238380df104e6ecU, 0x150beedbfb18eaf9U,
  0xf2fd0aeff4ed000cU, 0x1cf7f7ea12e81601U, 0x2e120dfa01010b0cU, 0x180903d92213f8e5U,
  0xf925edc3d3c62de1U, 0xf7e5ff0901e51211U, 0xf7fdf8f11ec10601U, 0xef214128ddea11f5U,
  0x2dbff2e20b18ded0U, 0x1bf5fad801df1a1dU, 0x4eeebfa31ebf7e5U, 0x7e5f820150819e9U,
  0x29e90c29e10ae60cU, 0x1a0800e0532b0defU, 0xd2d8070dda26fffeU, 0xcd23ffedd3d91dd8U,
  0x17040312ecdef850U, 0x6e813e60af8eccbU, 0xda0ff5d3140806fbU, 0x810cbf2f1f6010aU,
  0x3c5fef5db2316f7U, 0xe21236e1eb40e3daU, 0xff6db2815d8e12bU, 0xafc0ff1f8ef211fU,
  0x1807f93ff6180509U, 0xfaa1bf2d016f9faU, 0xf20c1fdb19d0041bU, 0xf914f80ae503f00cU,
  0xf608efff0800211eU, 0x12150fd5daee0afeU, 0x183cd00af7fc05feU, 0xfa3b0bef0d19e9f6U,
  0xd9fd020e1e1f0337U, 0xf223fc1ff0e43fedU, 0x25fcc401011132d7U, 0xf100e71a2c1424e0U,
  0xf927000102e6fbe5U, 0xe912f0eedaf9ed0bU, 0xdc0dfef8e7192a3aU, 0x1dd315ef112f441bU,
  0xe3d405ef2c16e003U, 0xe41206ee02d9ea0dU, 0xedf319f3f5f739d1U, 0x15e6e328e20612d8U,
  0xfed000f612ffd229U, 0xf01be6e1fd2e1fd5U, 0xe0402f9dc180d0cU, 0x1d04e73618110939U,
  0xf620fb040cc52a25U, 0x42cdc0208d0ef1aU, 0xf706e6130106e902U, 0xee1cdb1826fe1813U,
  0xc11ece40c140d0fU, 0xde119e3fb1011fcU, 0xe1ce1d2315ca0bf5U, 0xf40f23fc00f128e3U,
  0xe40de7f0fb2c320fU, 0x331c0d3e21db06e2U, 0x406f4201308bbcfU, 0xe21af0f12ff0070bU,
  0x28f7e60b0efc11e8U, 0x1226de22210cfbccU, 0xfce2f14224f0cd44U, 0x10ef2827fce6ece5U,
  0xeaebf9fef0050f20U, 0xe9dedbfff5ffe1fbU, 0xf3134eaefcb0a08U, 0x17f5071509c615f1U,
  0x4e0e3200a090bf8U, 0x290501f90afbeb10U, 0x2ae0e923eb08e5daU, 0x21e21b0115fa2011U,
  0x2c0de3e0d8e3e623U, 0x1ff008fe0a1cf8edU, 0x18bbf4f30218e8e4U, 0x1ddaff30d54a05f8U,
  0x2f1dee1d12ff19fdU, 0xfbeff22008da040bU, 0xf00302f8e4eaf4fbU, 0x1448f423b2fdf9f7U,
  0xdb2012e1f617f7dfU, 0xec0007fcf600cd0fU, 0x5dff6f3f7f3dad0U, 0xfa02fef4aad3ffffU,
  0x10e8f30ef812d0ffU, 0xfc07ddf11de2f407U, 0xdfebcbe61c05ffeeU, 0xeea20f11b0320c0U,
  0x1af829e91211f7eeU, 0xf900d6da0809d603U, 0x323171603e60316U, 0xe01411dc27f9fcfeU,
  0xffdd11f3ebf2f1ddU, 0xae833183c52f223U, 0x19fdecfe100301U, 0x706111ce720fb01U,
  0xda040106f3ee0214U, 0x823021f0c20ef07U, 0x23c9135c07f1c2eaU, 0xfffc062c031014f1U,
  0xf3f4f3ebe60bfafdU, 0xed231fe025f02502U, 0xf44ce5013536f2f7U, 0xd8c9e8e30d13cb1cU,
  0xb0300d404fe25cfU, 0xdcfefe04f0e73225U, 0x1dca010ef8fde6f4U, 0x5debe7ec0409f6ffU,
  0xe4f1f7051a09f306U, 0x16f203fdf8f71a05U, 0xfe1d1f1108060517U, 0xef02e01ff3e62b1eU,
  0xe5cdfbfa003bcef0U, 0xf8ee0efed72e1505U, 0xecede30ee4fd1cfcU, 0x5042562d60410f2U,
  0xc90fe8eefc08edeeU, 0xf2e0f61328f7ddU, 0xfad80c192bea111aU, 0xf8fc130f1cc21610U,
  0xe7eb06193ff42dfaU, 0xfa0ef0f8e411db2aU, 0x108f9fbfef80ddaU, 0x3000df19e9bdda14U,
  0x112600140dfcff08U, 0x111b190016100a0dU, 0x6041105dc1a0f0cU, 0xe811d20613fffc08U,
  0xe006fff0f4fdea06U, 0xde204f6e6cbe8f4U, 0xe16d7ca1c08131dU, 0x1213bff1e7fb3104U,
  0x141708f913f4ee10U, 0xdcfe27f99fc416ffU, 0xf5f6ddf1100c1914U, 0xf80928ed08f8d7f5U,
  0x1117d4cece0f0826U, 0x31260ffc0e10f50fU, 0xf2040b270601c2efU, 0xee1dda09e91627f0U,
  0x180cf201fdfa30fbU, 0xf6fbef040435fcebU, 0x2012173bdb16db01U, 0x2c13300be0e2U,
  0x121bfd1b040ee302U, 0x31ff1f4e51e001aU, 0xfef2eb0b22f50f1eU, 0xbe83e155b5e0be9U,
  0x1aeddd0b0c3d07fbU, 0x1df5ff1021dbe6fcU, 0xeef11f17f9e103ceU, 0x12e6f21bebf1dcf9U,
  0xdf1b07242d0be0ebU, 0xcf610d5ef1c0c25U, 0xe1120c000c20d727U, 0xc80cfafd40fce310U,
  0xedf547152606e429U, 0xf109f512dffa2dd6U, 0xfdfcefdffb0bf0ffU, 0xe817f02723bef901U,
  0xa29e814f6f8f004U, 0xb20317e824e3d4f0U, 0x1f6fb120ee603feU, 0xf703ddece8e4f301U,
  0xece20b29141ef0ffU, 0xf90f0f2b3e17e126U, 0xf2f80211f7f6ff00U, 0x33ebecff17fbf207U,
  0x9f71409232721fbU, 0x1800e8120204e507U, 0xd1fb03f0021b1309U, 0xf1f1fe14dded0dfaU,
  0x1208eef4cc150717U, 0xfcea23002a14120aU, 0x80415dd38241f20U, 0xccf0021206f706f8U,
  0x1fa0138e30f0b12U, 0x1c0b0d0dff130506U, 0xf8f80fef0f14bcU, 0xec19f31207f2dfffU,
  0xf917001635f82213U, 0xd20526f711e5d7faU, 0x25080df8f4e40f0dU, 0x104012d2ee14e016U,
  0xeb16edfdcffcdce9U, 0xfee4ee0ce022ec0dU, 0xf719e8082011ff2cU, 0xbf1caecda280ef0U,
  0xd80c0afffcecdb25U, 0xecece3160d1ecd02U, 0x10f9f2d6191b1b22U, 0x1af1ee1eefeff2ebU,
  0x8e7c30d3133021bU, 0xfa0106e2e411ecfcU, 0xfd2a0803efe301ddU, 0xebf80810efcf1dU,
  0x1bd3b7e60701f3fdU, 0xcd09e621f203f3edU, 0x19180cffca1704e1U, 0xeec17e505101ee5U,
  0x2152a00f510ee01U, 0xe50ad60bfce3433bU, 0xfdffe2dd170ee504U, 0x220af5ca0a160307U,
  0x2405e8ff07f90f2eU, 0x360ff600d80febcfU, 0x8f5ebffdee31c11U, 0x181516d7fe131bbdU,
  0xf6edf8001605fbe5U, 0x3b112a1905dde7f0U, 0x1809f51506151effU, 0xf2012ce5011a14ddU,
  0x8fef801280508U, 0x30afbe40e0340eeU, 0xf2110ff94214dbfaU, 0xd40a2ffe09f714feU,
  0xf70f0bf6041a1be6U, 0xfc02e9ff08e30ef6U, 0xfc200a04f605eed8U, 0x151b010f0c05e602U,
  0xe8de42ecfac4fccdU, 0xbdfff5f4efcd1e14U, 0xbe110a21f3f3fbe1U, 0x1906f8f2de0a0e10U,
  0xea39f7f411d1fe0cU, 0xe1eecf0bf3df2bd9U, 0xf2cd21e912ee0704U, 0xeb0504b0f2ff11f8U,
  0x27f3fbe4d023e61bU, 0xc0218f5c5f6d1e3U, 0xfbf93d090805eb37U, 0xff07e3df0e3310f7U,
  0xdb1aecfc1805f2eeU, 0x161de51039fcece0U, 0x60defc8eceffc12U, 0x1beff202f8f410dcU,
  0xfbcd04edf313f41dU, 0xdeee170b1726152dU, 0xf4e5e707fd04f0f2U, 0xc6eb2808fe0e0d14U,
  0xf41dfc11211c0e28U, 0x12071b16d7efdff8U, 0xf0aca0e1614e3f9U, 0xf1e8b9fdf601fc01U,
  0x2fcfee7e6e9e3ffU, 0xffd7f2dc132b0f1dU, 0xe2e6240aea093e09U, 0xffd203ffd8f9f400U,
  0x41d3030c0b0410fdU, 0x14e6090e03dcf5f5U, 0xffde1bf2cbfcf4e2U, 0x70b051701dffe13U,
  0xff0fec1df7b21bdfU, 0xc26d1240b1c18c9U, 0xfb1216f8fc3aed04U, 0xf2cdf20d021504f4U,
  0x12e4f3e1271407f3U, 0xf0edf309ed0bfdf1U, 0x1bfceef2f3f31a11U, 0x6da3b0af8c100f3U,
  0xdf08d9d60aea0b09U, 0x221efdddf5c43527U, 0x17ea01ef090fed0bU, 0xf5f9e304e0e5e7f1U,
  0x91807e0f1f41e09U, 0x25e0f70edb1d53d3U, 0x101296200de00c0cU, 0x450504d1fbe1ff2cU,
  0xfbf7d922dc18e001U, 0x14ecff11d91cd5dbU, 0xdf6e206f81104fbU, 0xf8ff0132d610021dU,
  0xe807dcc925ec01f7U, 0xdbece7f1f01730d0U, 0xe24f70d14022f07U, 0xe8ec01e321d5f13eU,
  0xe72a04d71ff200d4U, 0xf5eb0acbd4efd2e6U, 0xf11fa1826f40103U, 0xdf051f08f1dec3ffU,
  0x4fb111c130f0521U, 0xf6c0e6fb070aee03U, 0xf60501e7f912e832U, 0x3405fcfece1fe035U,
  0xfcdfffd8030f0321U, 0xe60afe02f5fd2b06U, 0xb0f851121d23f327U, 0xa0913edeef01101U,
  0xd909031308eec6d1U, 0xef9e3140135ef10U, 0xf60df6effafa0503U, 0x826e9d3d5f92025U,
  0xc205261b05ef04fbU, 0xe2a17c402fd0900U, 0x1d1a0001fdede708U, 0xecd6f1da0204eaf7U,
  0xfb391bff3543f9f4U, 0xde0926fbe10309bbU, 0xd5f11bf717effb06U, 0xd5f0171af21522f7U,
  0x200f0914dc1529e4U, 0x52feb110f1f08c9U, 0x290a011d070c0cfaU, 0xc7f517fbbebdfe46U,
  0x1c0eee12fa19e000U, 0x120c11e0171e27aeU, 0xfe1ce5f716052003U, 0xfde9ebf72802ef0aU,
  0x191fcd1e01fb100cU, 0x123ef1ee1c1cf80eU, 0xf46eb05cde0fbe9U, 0x241304de0a18002fU,
  0xfee601ef1cf3f71aU, 0x25c92909e107f711U, 0x38fb10d816042ffcU, 0x19efdfec1a0802f0U,
  0xf902ee17130100faU, 0x2224fdbfbb190228U, 0xa08feecaa00070aU, 0x1b1ef8141a0221dcU,
  0x140213c502f8faeeU, 0xe9ff1506eec50a1dU, 0xca6417dfd21a10f0U, 0xb340af91edb36d6U,
  0xccf9110116f01617U, 0x10df102111eef8fdU, 0x181afbd2170f01f3U, 0x311f2fdd404c0f1U,
  0x32d1106ea04e508U, 0xfc150afdf1132aedU, 0xfb0bf32bf8fafbe1U, 0x3d8e10c10ef260eU,
  0xe3b5eb09280d1a15U, 0xf330fa1ef90007f1U, 0x6dd262015eaf41eU, 0x1324fe28fdf3d205U,
  0x27f3ef1cf20e121cU, 0xd041d05f230fde6U, 0xcfc251601ece8ffU, 0xfad70fe7e9f9f519U,
  0x3bdfd807feed2213U, 0x6efeb04ce2cf2e9U, 0x102fc07dc111f19U, 0xc4b203ea0efb1b10U,
  0x160616f4def0f910U, 0xe4fb04f22a0d27d3U, 0xfc2805fed2f01f10U, 0xdd26def13704fc04U,
  0x3514130bf42afe04U, 0x386714ef081bfffdU, 0xe8e91efc1102063eU, 0x20dff0ff40ef8f3U,
  0xe5290f33dee9ec0cU, 0xddf81916090505fbU, 0x2c20b2fe19e30f03U, 0xf01203f9e7ee24deU,
  0xebe1f7e107f3d805U, 0xcbece7002325031eU, 0x2f3150b1ffa1b07U, 0x350e0d21fee64fdcU,
  0xd16151afa100ffdU, 0xbf304130010e1e0U, 0xd2dbdff3e2ccfa09U, 0xfb02f9e20708e60aU,
  0xe2eade081eeff92aU, 0xe1ebda1b0114f301U, 0xf0f6f4110230ed1aU, 0x12e6f91bea011403U,
  0xe735e30439090200U, 0x1e1126150e112cf5U, 0xfaf10b37a4f80d30U, 0x8d636edd7da2111U,
  0xa07e81d0ce11dfdU, 0x5f4faedfdf231ecU, 0xf52a05ebf713fa01U, 0x15fb09e5013aece0U,
  0xd3e0191ef51c0819U, 0x1813f6a9f20403efU, 0xe6131c04c224301fU, 0xc01f31f072de2faU,
  0xf91e0eeb2710fa02U, 0xe902ffe6210cf511U, 0xe5f30f1c06ecdb1dU, 0xd9e0fd1f0117ba0eU,
  0xffffb3ceffffa316U, 0xffff95b4ffffac1dU, 0xffffbca1ffffb6f0U, 0xffff9679ffffa1e5U,
  0xffffad7dffff9328U, 0xffff9198ffffb15aU, 0xffff9aadffff9140U, 0xffff9b78ffffc052U,
  0xffffd034ffffbf8bU, 0xffffd04effff9ae8U, 0xffffa7bbffff9b72U, 0xffff9567ffffa84fU,
  0xffff9933ffffa11bU, 0xffffad26ffffb58fU, 0xffff975affffaf4fU, 0xffff9895ffffb747U,
  0xffffb832ffffa11aU, 0xffffbc00ffffc9a8U, 0xffff9ab0ffffcbb8U, 0xffff923effffa624U,
  0xffffa7d0ffffaa6fU, 0xffffb065ffffb77eU, 0xffffa01affffaf1fU, 0xffffc9d9ffffc62fU,
  0xffffaf21ffffc553U, 0xffffbf9effff85e4U, 0xffffadc9ffffb3d0U, 0xffffa706ffffa104U,
  0xffffa261ffff9afcU, 0xffffb17cffff9451U, 0xffffa736ffffc032U, 0xffff863fffffaad1U,
  0xffff94c1ffff9d90U, 0xffffcaa6ffffb6e3U, 0xffff9a2dffff9b60U, 0xffff9cffffffa02fU,
  0xffffbe35ffff9104U, 0xffffb641ffff9121U, 0xffff8844ffffc58fU, 0xffffa809ffffb5c1U,
  0xffff9f2bffff9f9dU, 0xffffb5f8ffffc28fU, 0xffffd459ffff9266U, 0xffffa15effffb869U,
  0xffffb194ffffce75U, 0xffff90caffffc86dU, 0xffffbd7bffff96c1U, 0xffff9c2fffff9baeU,
  0xffffb1feffffa216U, 0xffffa78effffcf54U, 0xffffc39effff9f73U, 0xffffa4b5ffff9063U,
  0xffff80c9ffffcfcfU, 0xffffabacffffb646U, 0xffff98f7ffffb5ccU, 0xffffae72ffff9a9aU,
  0xffffa24cffffb04fU, 0xffffb779ffffb2a4U, 0xffffb641ffffcfd3U, 0xffffab59ffffb37bU,
  0xffff9fbcffffa126U, 0xffffc5feffff9f3cU, 0xffffbb7bffffc460U, 0xffffaaf6ffffbe64U,
  0xffffc324ffffb0a6U, 0xffffb183ffff9b85U, 0xffffa5dfffffb305U, 0xffff95e8ffffc475U,
  0xffffb766ffffb0c7U, 0xffffd39fffff93e2U, 0xffffb3d4ffffcbb6U, 0xffffac59ffffbaaeU,
  0xffff9f14ffffaedbU, 0xffff9a9dffffd2f5U, 0xffffbf62ffffa735U, 0xffffb4d0ffffa84eU,
  0xffffbdb0ffff9d86U, 0xffff99a4ffffca77U, 0xffff9dceffff980bU, 0xffffa446ffffc10dU,
  0xffffb9cbffffb0f0U, 0xffffa5b1ffffa622U, 0xffffa49bffffa3d9U, 0xffff9dc4ffffaf16U,
  0xffffbf2cffffc7e9U, 0xffffbf58ffff8cb9U, 0xffffaa81ffffc8ebU, 0xffffa1f1ffff9df1U,
  0xffffa869ffffa6b1U, 0xffffb36dffffac40U, 0xffffb70cffffad5fU, 0xfffff71dffffaeefU,
  0xffffa9b2ffff9d90U, 0xffff95a3ffff87f2U, 0xffff9d9cffffa299U, 0xffffbee2ffff8fb8U,
  0xffffa942ffff8691U, 0xffffad50ffffc828U, 0xffff9553ffffa5adU, 0xffff9579ffff9a5dU,
  0xffff973effffa77bU, 0xffffc6d3ffff8cb2U, 0xffffb4d8ffffbb1cU, 0xffffaf85ffffaff8U,
  0xffffb9e4ffffb36dU, 0xffffaa6bffffc455U, 0xffffb67bffffaf65U, 0xffffaaacffffa295U,
  0xffffb4faffffaca3U, 0xffffc3dbffffa479U, 0xffff9b2dfffff35eU, 0xffffb723ffffaad7U,
  0xffffa392ffff8e7fU, 0xffff959affffd100U, 0xffff9c1cffffb2cfU, 0xffff9062ffffae3aU,
  0xffffc4c0ffffb466U, 0xffff9f46ffff9348U, 0xffffb195ffff9ba1U, 0xffff9203ffffd3f4U,
  0xffffa7edffffd8feU, 0xffffb56dffffcc8fU, 0xffffc601ffffaa40U, 0xffffbd6affff9f66U,
  0xffffb424ffffbd73U, 0xffffaaabffffa631U, 0xffffa82effffac5eU, 0xffffb268ffffa37aU,
  0xffffb444ffffab78U, 0xffffba4dffffc0c2U, 0xffff9e46ffffac35U, 0xffff95bcffff8d6fU,
  0xffff9394ffffb9d0U, 0xffffc3dbffff860dU, 0xffffcabdffff88bbU, 0xffffab08ffffadb8U,
  0xffff98faffffa91bU, 0xffffa630ffffa071U, 0xffffa9f7ffffa679U, 0xffff98e1ffff964eU,
  0xffffcd80ffffb767U, 0xffffb4bcffffb0bbU, 0xffff8f3dffffcaedU, 0xffffc7e8ffffa5d3U,
  0xffff9c67ffffaf70U, 0xffffaaf0ffff9f46U, 0xffffa092ffff9d86U, 0xffff9e07ffffd418U,
  0xffffb079ffffc474U, 0xffffc0c5ffffc23cU, 0xffffc514ffffaf05U, 0xffffa77dffffc13cU,
  0xffffb9a7ffffb27dU, 0xffffb54bffffbf9bU, 0xffff9d74ffffb19dU, 0xffffb466ffffa902U,
  0xffff985affffabcbU, 0xffff7a8affffc522U, 0xffffa89affffced9U, 0xffffa3f7ffffa83aU,
  0xffff9942ffff955aU, 0xffffaadfffffe1baU, 0xffffb531ffff995cU, 0xffff8903ffffb213U,
  0xffffc1fcffffa9a8U, 0xffffb6b6ffffd6d0U, 0xffff9c9cffffa243U, 0xffffbbf9ffffba53U,
  0xffff9ab9ffffaf4cU, 0xffffb2a4ffffb635U, 0xffffce0dffffc514U, 0xffffa318ffffb48aU,
  0xffff9e2fffff9fe7U, 0xffffbbb8ffffa89fU, 0xffffada3ffffb049U, 0xffffa7f1ffffb66aU,
  0xffffac5effffb60aU, 0xffffa313ffff9667U, 0xffffe333ffff9139U, 0xffffbfc2ffffadeaU,
  0xffffaea5ffffa275U, 0xffffb5e1ffffa3cfU, 0xffffa308ffff9850U, 0xffffaaa5ffffa759U,
  0xffffe3d3ffffacf1U, 0xffffc30affffc063U, 0xffff918bffff98e8U, 0xffffb9a2ffffa1f8U,
  0xffff9d98ffffa081U, 0xffffbd89ffffc742U, 0xffffb1e4ffffc459U, 0xffff9c12ffffbdaaU,
  0xffffba36ffffb50aU, 0xffffa1f5ffffa139U, 0xffffc4a6ffff9d48U, 0xffffad78ffffb7c3U,
  0xffffa7c6ffffbfbfU, 0xffffafd4ffff9c2fU, 0xffffbb03ffff9f57U, 0xffffb0f9ffffb72aU,
  0xffffa42bffffae4fU, 0xffffa594ffffabf2U, 0xffffb567ffffa133U, 0xffffcc81ffffb176U,
  0xffffd1a4ffffc673U, 0xffffa304ffffbc65U, 0xffffba38ffffa45fU, 0xffffad13ffffa363U,
  0xffffa3deffff936fU, 0xffff9fcfffffaea9U, 0xffff99e0ffff8918U, 0xffffa5b9ffff9c7dU,
  0xffffa954ffffabbeU, 0xffffa6caffffa977U, 0xffff9f8affffa392U, 0xffffb42dffffb240U,
  0xffff9efaffffa518U, 0xffffb5d5ffff9e41U, 0xffffa201ffff90c6U, 0xffffb704ffff92d7U,
  0xffffbc50ffff9ce3U, 0xffff9f19ffffadb2U, 0xffffb075ffffa7d5U, 0xffffb201ffffbd97U,
  0xffffa7f7ffffa7fbU, 0xffffa463ffff9844U, 0xffffac15ffffaf7aU, 0xffffaf37ffffa36cU,
  0xffff97c0ffffb706U, 0xffffd367ffffad8dU, 0xffff9e3effffb344U, 0xffffb4daffff7f75U,
  0xffffbccdffffb0f2U, 0xffffb2c4ffffbac9U, 0xffff9fcfffffa6e9U, 0xffffc583ffff8e16U,
  0xffffb758ffffd017U, 0xffff998affffa798U, 0xffff8917ffffa162U, 0xffffc55fffffb34cU,
  0xffffa8e0ffffc2c6U, 0xffffc33dffffa007U, 0xffffbc20ffffad59U, 0xffff9e26ffffcab4U,
  0xffffa04bffffbe57U, 0xffffa503ffffbffcU, 0xffffbbefffffadf0U, 0xffff9ecfffff986eU,
  0xffffa8b4ffff9a20U, 0xffff94a4ffffb094U, 0xffffadc0ffff8452U, 0xffff96d5ffff8589U,
  0xffffb03fffffb86fU, 0xffff9917ffffb47eU, 0xffff9e04ffff8bd2U, 0xffffb6daffffa467U,
  0x21d8021af3d725e4U, 0xf1f3deed0f440bddU, 0x2e91816fe3509f2U, 0xf3e4f0e61eeaf606U,
  0x23ea0a05051202c7U, 0xc71c17e6fc0c1f13U, 0xaffead015e8f513U, 0xed0d04132bf5f21fU,
  0x41a091fdd08110dU, 0xf80ed91becd2ec1fU, 0xfbfc020b09e6d6fcU, 0x192814f214061224U,
  0xdddbf91515d83c0cU, 0xe4f10518dfece026U, 0xde032d230626e2e7U, 0x1214f601d93ff5d3U,
  0xeaec0129db2a00ffU, 0x100ffad5f8d90916U, 0xb4f801eacfe9ff32U, 0xfff2dcdefb1ac1f4U,
  0x42f7e0061cfa181aU, 0xcf19db070a0222f6U, 0xfccc26ddf6ec0afcU, 0xd516f8fd1bf219deU,
  0x290503f6e6deca2aU, 0xf90ffc002109dde9U, 0x22b0e141720effeU, 0xf5e3d6cc10020802U,
  0xda0818dfcf11fae2U, 0x3210f4f6d9fdeaefU, 0xfdb15fb02ff021aU, 0xc40826fde109090aU,
  0xf6e5e8e8b9f0f307U, 0x1a23142eeede12fbU, 0xbb4fdedd3230717U, 0x9f805f510071c1aU,
  0xcf2e1f3f805f1f2U, 0xda142313d7cff1f4U, 0x2c06decc0a10ebfaU, 0x3eaf3ff1516f6dcU,
  0xf22324f4fe1ee9fdU, 0xbef9fffef6f9e9ecU, 0xd626f01710d7defbU, 0x5e703dbf813d0e9U,
  0x1efcf5e9d1fbfff5U, 0xe5e1c7f30d08f3f4U, 0xf3e5cf1bcded092dU, 0xd4feea03eb19cce8U,
  0xd2a1ffe1002db04U, 0xf909edfb08140203U, 0xff0303f6f9c0e9e8U, 0xf5fae6f8e3c3fcd8U,
  0xdce3e50e28e0ed03U, 0x38fcfccaf7c7f40aU, 0x3cf28d7f223eb32U, 0xc05e4e93802fbe9U,
  0xf9f3ec0be212f32cU, 0xf3071f0916050107U, 0xc0f813df10f4d9e3U, 0xf00f301b0af4e3ebU,
  0xf1e233f3f9b5e805U, 0x7de22f201f018f3U, 0xcfd3ea2b10e5ff2dU, 0xd90409d7cc2109f1U,
  0x517d601fdf44205U, 0x90ef6f303e5fee5U, 0xd2f1dee5fdd6f7f4U, 0xddf81dd11700d500U,
  0xa02060315f4e9f2U, 0xee23dbf4ff1202ecU, 0xf8b60f0500dcdad5U, 0xe9dfdc140ee9dcfbU,
  0x910de2817f40ffbU, 0xf80cf600dddcdaf3U, 0xd00107c9dcf1cff7U, 0xe1d80412f0fec116U,
  0x1cdd010929ddf512U, 0x1601cf0e0cef0fe2U, 0xdcf61cf001fbedf6U, 0xb1402ec080700e0U,
  0xe62308fff3fdedf7U, 0xea33ec3404ca2d11U, 0xdb0ffc14ecda130cU, 0xeb15fdf9062bfe33U,
  0xffe724c929120af1U, 0xf9f3ee04dff0ff0bU, 0xf9fa05f5ee0011U, 0xf7ec1000ee073cffU,
  0xcae9ee04f7f109d7U, 0xfaf4e8e1e8f2e3f9U, 0xeff702d909d906fdU, 0xecf0cfea0de2f3c1U,
  0x1712f3ece7e2c4faU, 0xf4bb21f1ecfd0ff9U, 0x2def9060e0e0a04U, 0x114031402e003ebU,
  0xfdf405f408f3fef9U, 0xfdc3ebf0f700f609U, 0x2fd32f9df2be2fcU, 0x19fddd25d6071420U,
  0xee05f4e50400fc05U, 0x2effe031513080cU, 0xfc1502f00804f921U, 0x4fa09fcf4ebe8fcU,
  0x12fef50ef23bdf24U, 0xd52dc1f6f1d5f306U, 0x6eefccafb0701e5U, 0xdf0cffe0f4ea05efU,
  0xf30afce30b24e6f3U, 0x15f0f8db01c60af1U, 0x12cbeaedcee2f8fcU, 0x2510e50bd9e413fbU,
  0x1ee9f9d1ff00e824U, 0x8eae00313fff0f0U, 0xca0ccefdaf29cdceU, 0x16faea2f10ef02dcU,
  0xfd2feae420f220fdU, 0xf010cf07dbf203eaU, 0x2ee3f405c702fec7U, 0xda0910ebf00cee0dU,
  0xfc15ecf6f9d8ea0aU, 0xfeedfbd5000200fcU, 0xeeff1203def407c3U, 0xf60718fbe1fa0adcU,
  0x1519ed0bbbc3dbc7U, 0x1ea28ec0627fe16U, 0xd7e521f4f3fef00eU, 0x2117f905dc0cff0cU,
  0x102f3fffd00fffdU, 0x3f2f8fae906fc03U, 0x9fd05e5fbe8f6faU, 0x4050008eef610fcU,
  0x1f8fff6f8f3fbf6U, 0xf2fee4f909fd08U, 0xf4f7f0f600f1f6feU, 0xf8f8f3fbfcf2eefbU,
  0xf20307f310fe07faU, 0xebf70100f9f2ee0cU, 0xfcf4f5f0fd0509f7U, 0xf2e2fdf80604eae9U,
  0xfdf2100417f8f5fbU, 0xf71ef00000fffdfdU, 0xd15fcf00ef9f701U, 0xf6f1090b19fd01efU,
  0xeff4fbf6030deafeU, 0xf50c00fdedf4f00aU, 0xf604f505fe10f8f6U, 0xf7eef301fef7faffU,
  0x102f20712f2fefcU, 0xf2fee8f9f7f20002U, 0xf806f702f40afbf4U, 0xf4f810f602f20b09U,
  0xdf6f6ed01fdf1fdU, 0xf802fcf70d0403fdU, 0xafc0df313f5f3f0U, 0xf901f3fd03f8f0ffU,
  0xf006effaf9f2ff00U, 0xec2a06fa0cedfdffU, 0xfefe15f6edf9f1ecU, 0xfeffecf7f9f8fcfbU,
  0xeaeafcf7fae9edf8U, 0xfb0801fb00f2ed0bU, 0xfbed0cf8f5fe07f8U, 0x5f7ebfefeeefb17U,
  0xf5061f00f7fae0feU, 0xfef0e7f2e12309edU, 0x3f0f2f9f2f8f3f1U, 0xf9fa140c0314eb08U,
  0xf7f921f7fef716f8U, 0xf6ea07eef8f800f3U, 0xff1bf5f803ffe8ffU, 0xaf5f5f2e2f8f5efU,
  0x4fe07f6ebf50b07U, 0x91403f6f3f313feU, 0xfffdf40aed09fcfeU, 0x807fd02fe1101f9U,
  0xb07f6f6f4eeecf7U, 0xfa08fd0404fa08fbU, 0x3feeef7f9f6f9U, 0x12f5f1070df40901U,
  0x7ee160405120303U, 0xf409faf0e701ecf0U, 0xf70203fb09fbd9f0U, 0xfaf8f7fb0c0703fcU,
  0xf8f1f1f003ebfd08U, 0xfef6f2e10720f0feU, 0xf6ebfff7f1ef0b0cU, 0xff5fcf6f5fbf6faU,
  0xfa0506f8eb00e800U, 0xf40ff8fe13e4f8fdU, 0xfaf5f9eff7f80cfdU, 0x6f8f3e6f7fbfe01U,
  0x1b00e904e011d204U, 0xfae5d609edf5f901U, 0xf800f907e8ed081bU, 0xf4f3fbedf009fc09U,
  0xe4fced17fdfeedffU, 0x17f7e61dfb0b1114U, 0xefe2edf0f2080dedU, 0xfce815de11fe06f8U,
  0x11f4fddee7eddaf9U, 0xf5fddaf6e8eef40bU, 0xf1e6f9f30b0ef70dU, 0xfbf70f01f818bcfaU,
  0x101dfbf8db0ff20eU, 0x1bd2d72b12f2f312U, 0xf401f5deeeff03ffU, 0xe70ff51718093505U,
  0x150602e6fc0e01faU, 0xe7f3df00dc14ef27U, 0xdf0a01f20c111becU, 0xecda050bf6f3e8eeU,
  0xf7f4edf7fb0effedU, 0xf2e2fc04e3fdec08U, 0xf900f3ef0c0ffde5U, 0x3fb1407fff8e50bU,
  0xe7dff20df9eaf3ebU, 0xeb0e09fdfbde1fedU, 0xafb0003d8fb0110U, 0xfd05f3e6eaf0fdecU,
  0x2030fd402fffa16U, 0xf515f4091c19dfedU, 0x90a2d0d12ef30f9U, 0xe6fdef18ff0100feU,
  0xe30af2f501f20f15U, 0xe4e30b06efd5e102U, 0xf20718fa03eaf1f2U, 0x2ae9f413f30ffe0aU,
  0xe6e4ffe8f80d12f5U, 0xfefdfaecdf0d1007U, 0x7e5e6f5fc0b0bf4U, 0xfc19ef08eafef9fbU,
  0xfef8220cef0f00fbU, 0xece4ecf5f50a0dfaU, 0xdc01f30de0f8e7e5U, 0x3dbf3f510ef000dU,
  0xfdf609e1f2f5f00bU, 0xf5eff8070010f917U, 0xe814fceb070b00f5U, 0xef070c020dfef1f8U,
  0x100909ffeffd030eU, 0xfe0a03e2e7cdfbf2U, 0x221ed4d1fffe05ffU, 0x7f21b1f01e8f3f2U,
  0x9fcf500fc0e060cU, 0x40b0126e8090d0cU, 0xe1d5faec03fbfc24U, 0xfbe9d5fbd8ecf9edU,
  0x15e40e1107f1ec08U, 0x14f407edfc04f2f5U, 0x25fc04f4ede4feedU, 0x1107fecb0cfaffd3U,
  0xddc0d0e0a0104faU, 0xfff017d6f529e807U, 0xf0142505000706e7U, 0xf90503bf0a181724U,
  0x80413fa0cdceafcU, 0xf601e7ef05ebf009U, 0xfdf9fc07f3f8f60aU, 0x11fe0d000502f80dU,
  0xfcf901ee13f500f7U, 0x5f7fd03f4ed0affU, 0x4ed0500f30e00f8U, 0xfae7f3f3efeef718U,
  0x15f5eceef6f7feffU, 0xf7fe01fe09f5ea05U, 0xfbf4070813010204U, 0x7021000eae9ecf8U,
  0xfe0908ebfd101100U, 0xf9f8fe0003030a08U, 0xf705eaece9efeeeeU, 0xfbfdfb15fcfe000aU,
  0x151c0502fe0ae2edU, 0xfefef406f8ebfd0dU, 0x13f80203f50206fdU, 0x5f00a13fef615daU,
  0xf2f6e8edf9f70903U, 0xf809fcddeaf9fc06U, 0xeafee713f2ec15f5U, 0x26f6f4f1f906f2fcU,
  0xf9ecf2f11ae5f00eU, 0xecf1fe00fbf6f9f5U, 0xf6ffedf7e9f50afeU, 0xebe8082004f3fbedU,
  0x12f1fded01f80604U, 0xf608fc00fa06fc0fU, 0xfee9f3ec04fef500U, 0xf7ddf1ff1b02f517U,
  0x2f2f919eef1f0f9U, 0xf8f4f505f5fb0209U, 0x7edfef5fadb00edU, 0x602091206edf5fcU,
  0xf72505df2affee06U, 0xe5dff2eef2ecf3U, 0xf1fefd141cf9f708U, 0xffb01f20ef20b09U,
  0xf8ff0cfae8f0fbf0U, 0xf50af707f3e6f9f7U, 0xef7ef0405ffe4fcU, 0xdfdf0edf20900f2U,
  0x308eb04fe06fc01U, 0xbecf500f8ebf503U, 0xfa0fdcf100f30909U, 0xeef7f1fdeff0fcefU,
  0xfaf8ddf2fc05f5ecU, 0xfd08f10ef706e6fdU, 0xe3f60ef40413fff7U, 0xe070ff125eb06fbU,
  0xf9f700fcf7feeffdU, 0xfd0701f0e7f8050cU, 0x10dffdee4ed04f9U, 0xff151400f7e8fdfeU,
  0xbe903f918fc0402U, 0xecf7eef5e7fdf4f9U, 0x601f6f8eae8120eU, 0xfbf9030ff8160cefU,
  0xfa01ea10f403fbfbU, 0xfa03070bf123e209U, 0xf102efe20a0d02f3U, 0xef00fdfd0ae6f117U,
  0xf1ffe1dfe3f5f1faU, 0xfff909f3060212f1U, 0xe5ea06fff0ecea0dU, 0xf608f6f6f00df2eeU,
  0xe9f808fcf204fc06U, 0xf00722e80000e8fdU, 0xf6ec10fbf4eafc0eU, 0xf9f8f4e8ec00fe1aU,
  0xfbeada1c0b13f7f6U, 0xfcf2f6f807f1f8f6U, 0x5fdf3f2f9fcffeeU, 0xfafbf5e6050605e9U,
  0xf0eb0eee07f8fbffU, 0xf0f5f008ff11fe05U, 0xfe0ae6ebf2130bf3U, 0x1ef8f1f90003fbf3U,
  0xf7f5f707e2fa1c00U, 0x12ef0ef20bf8faf2U, 0xef7fefbf4feeff6U, 0xe8f70aea04e60000U,
  0x7edf7eee5f7fff3U, 0x5f8ea04ebf51a04U, 0xe60101edea110d14U, 0x100f8ff15030808U,
  0xfd00fef50c08e0ffU, 0xff00f61209fef014U, 0xe70be7e207090cf0U, 0xf71e0604f7f6fae5U,
  0x303f0f9fe02ffe7U, 0x4070003fc0feffeU, 0xf1fffcfbf208070cU, 0xfa1000eefcf1f8dbU,
  0xf209f909eff3eef9U, 0xf414e1eff7fd0003U, 0xaede2fffafc00efU, 0xedf8f4ea08fefd02U,
  0xfae8020b0cf60eebU, 0xf410e3fa05e1f609U, 0xf3fbfce9eefdfbf3U, 0xdecf9f9fa0810faU,
  0xe806f7ef07120cefU, 0x1fbf4fdf40afeU, 0xf50705fc0aef1bf4U, 0xe8f0edf9eef7fdf1U,
  0xe8170afa0bf8efedU, 0x202f80df7e3f0f4U, 0x1006f8de0406f304U, 0xff10fa15e5f72006U,
  0xf8fd0a0cf7f801e9U, 0xe40220fdf6fefdfaU, 0x221fcedfc011904U, 0x1fee1040aed0ffaU,
  0xf516fef9f3f20eecU, 0xf2f0f6e8f226e4f8U, 0xfbf3e9f2ffeff9ecU, 0xf3eff80324ffee0bU,
  0x13fcecef04e1f201U, 0xdf9fffef4ede9ecU, 0xfbf5f1eaf707e8f8U, 0x1207eef500f207eaU,
  0x50c2703f6d214f5U, 0xd8e20f13e9edfcefU, 0xfeee02f8f8070304U, 0xf102fe00f8ff01e4U,
  0x20307e8e1f711efU, 0xcdfedf7f4e2f3f9U, 0xf8f9110cf1f4f8f3U, 0xf8f003f80202feU,
  0x14f3fa0203f5fef8U, 0xf5f317f709fef6f7U, 0x1713f1eae0f221ebU, 0xfcf31bf50406fbfaU,
  0x13fbf7e903fcf303U, 0x6fdfdd811f7f200U, 0xed04f210fc06e41fU, 0xa0b10f9eef10222U,
  0xe90de0f5f713f8faU, 0xfff3fd07f8090cf1U, 0xf90411f2eaeaf5f7U, 0xecfde01108eefdecU,
  0x102f8f7f9de0b0eU, 0x1ed04eeff0efa02U, 0xfffff9f2f1fff8fdU, 0xf7e9f30af6fb04eaU,
  0xf815fbea0100f00aU, 0xf41bf3e7ee01fdf3U, 0xf8ee010ef209f5efU, 0xaf601feec12ea20U,
  0xf51608fd02f90200U, 0xf215e909e805090dU, 0xf3f9f6f2faea0619U, 0xfcf7180d00f4e105U,
  0x3ea0dfbf3f301fdU, 0xf6fa05f306f5e8f9U, 0x2be5ee03f9f9dd11U, 0xebf6f404db05e205U,
  0xe7ed010ad9d4fcfbU, 0xfffc09ef0ff306f9U, 0xf80ef8eaeee61405U, 0xe801f7e4e9e6f0ffU,
  0xf9fbf7fe06f4e6f9U, 0xfdf8f02b04f728f2U, 0x18fa03010aefea00U, 0xf70c01fe05fdfff3U,
  0x140204ee0af006fbU, 0xfcfc23fa0700ee00U, 0x1d08071ceeff0c0fU, 0xc06fae7eef7faf2U,
  0x50604fef00bf502U, 0xdfe0f4f6081008ebU, 0xeb15d514f7f618f6U, 0x7f4fa13e31ae9f1U,
  0xf5fdf0f91bfa03eaU, 0x30efc0effe7eef3U, 0x1f2fcebf52cffeeU, 0xf0e3e2eefee9ecf3U,
  0xe80eff0ff5edfef7U, 0xd0707010d1609f4U, 0xf6fffc030c16fb05U, 0xefeaf11508ef050fU,
  0xefff19fa1c180bf1U, 0x70af2f6f1e202e4U, 0xdf02f2ecfbfceeefU, 0x12f4ff13f1f603fbU,
  0xf6f8fa16ee3901ecU, 0xf9fcff0ffefeefebU, 0xf3faff06ed0705f2U, 0xebfd0be5fef808f9U,
  0xe00119e8d6181018U, 0x91a05fbce0cf2e8U, 0xdec07efefd4fbffU, 0xe717ee02fdf80de5U,
  0xeeef7231713da1bU, 0xf6fb09130100d508U, 0xfbf3f4f310f6e10dU, 0x21d9c4e107ebcafeU,
  0xdf222f7f7dff8e7U, 0xe908f603f70df5ccU, 0xf00020160bea050aU, 0xc1262fe5f90a023dU,
  0x2618f9e30025f9d7U, 0x100ae41e0ceef4f6U, 0x10f2191aebfe1505U, 0xf500f70bfc02b6e1U,
  0xe511f6f7e5f2d5faU, 0xeff9da0a1903f93eU, 0x13212b000523f710U, 0x8f7f72dde0a1124U,
  0xf9dee72ac507f911U, 0xb6f1f102f1fe001dU, 0xff1d2608eedcf5d0U, 0xf30217f3fbfb0bdfU,
  0xf919f02c0729ffbcU, 0x102e61be6cc2c08U, 0xe7c706cfefd90500U, 0xe1f2170902ff0205U,
  0xb0ddff1dffef303U, 0xbb10e0e7da07f504U, 0xfcefcaecf62ee006U, 0xe8faecebd610ca1aU,
  0xcf2c625effa0124U, 0xeff6f6290d191d0aU, 0xfaf3fac010f61c1dU, 0xf1ce03eae0c73a21U,
  0xcee5d41e1ce4f604U, 0xfc120af916f33cd8U, 0xe22af2fb11d7eb3eU, 0xd112cf30ef1ffd2U,
  0xe120dbb03e400d5U, 0xe60e1d1623f60fd2U, 0x34e7fdfdd4f00000U, 0x110ce3e50bf6df3aU,
  0xd70716ea0cda23fdU, 0xfad9f9f911e1ebe3U, 0xc3eefb3208e61300U, 0xca10e5070728d703U,
  0x12fcca1fdf150eedU, 0xf4f1f0edfb1616bcU, 0x10fbf1e80101d70aU, 0x1df21be1deec3213U,
  0xf3eef009f9dafcffU, 0x15fd37b9f616e71dU, 0xe4e8060ff4ffc0e5U, 0xea0006eb02cbf117U,
  0xd8e0f327ce04f6efU, 0x97f8df12cd0f0d02U, 0xf62f0fed0419f5fdU, 0xefe80afa1bf0edecU,
  0x14ebdaee06e706eeU, 0xbed6dc11d703f9ffU, 0x160d03c5d2fffef9U, 0xede7ffcc11c30f04U,
  0xdc05c1f2e30eead6U, 0xe4f20d16f805fde2U, 0x1702f60d0bf5f40eU, 0x1305e6f419eed70dU,
  0x1bf3e5f80bd318faU, 0xe4051a1200dc10f4U, 0xf6ef16cf23f6d521U, 0x2f40f0bf0fbde14U,
  0x17d511f92811e6ccU, 0x6e20dfae801ebf6U, 0xdeffe40efd14f8fcU, 0xebf0fd052fd9f320U,
  0x4fb13f6e5f6060fU, 0xde04fdedf501fefeU, 0xa20280307d40b04U, 0xfc16f61bf0f230f0U,
  0x21d60ccfeedde2edU, 0xe8f211ddd6e512e9U, 0xdb05dbffe4f6f8f3U, 0x1528f500f0ef2603U,
  0xf126ebfcc2eedb01U, 0xecdfe6eef3fef708U, 0xe71020db01f504edU, 0xe705ef0df8ecd80bU,
  0x21f7f6fe1d2008eaU, 0xf8f60b1af3c4031dU, 0x8f5fe11fc1afb22U, 0x1cf4f0d4ddfaea17U,
  0x3ce00eae0e6fdU, 0xf8f3f91f0604e0e0U, 0x90813d3d2fdecebU, 0xe4e9d1e72de0f9f1U,
  0xe9f7d5f4c8240cefU, 0x80b08ecf2d9fbc2U, 0xf6f80311e4e2c40fU, 0x23e6f411b90118e9U,
  0xcf26c4f5031bf30fU, 0x53412fbe4e3f30bU, 0xfcd40614dccf0708U, 0xd40026f31bfcebe6U,
  0xe1faffdbd2e9ed01U, 0x15fdf5d703fc0bfdU, 0xf501f9f0ef09f7f2U, 0xe3e08e50c29e6fcU,
  0xea121621fff2f7f4U, 0xe5e5e3ec0cf802ebU, 0x40302fdd5daf21fU, 0x3de200c40e0119f8U,
  0xd9de14f8150afb1dU, 0xfaedf3020808d0f4U, 0x131503011ad4f7d6U, 0x111ed801fbf2fcf9U,
  0xfed9eb0de31b12ebU, 0xafb1c29f0e705edU, 0x23f6d0e4f2feeee8U, 0xecfa2bff11fc001dU,
  0xf3e5f4f614ebfb07U, 0xcdffedf1ca31091eU, 0x2d8d20508010203U, 0x28140901eff9011bU,
  0xc7dfe8effd1ae509U, 0xfbeb1af90a00291fU, 0x1afafbd4dffbfff1U, 0xea07061cfdf6f3d1U,
  0x120004f002f404f9U, 0xf8f4fbfcfff5f80cU, 0xf6fcfe030406fa06U, 0xf9fcfafbfbf5f7fbU,
  0xfcfa03f9f8f3faffU, 0xf800f9f904f8f704U, 0xfb0100f5f9010007U, 0x2fcf800fa0d00U,
  0x108f9fbf907fa01U, 0xfe0dfc00fdfdf8f7U, 0x2f5fdfd06fb0400U, 0x3f9faff01ed03fcU,
  0xf7ff05fcff0407f7U, 0xfcf7fd040403fb04U, 0x10403f8f700f6fdU, 0xfef90e00fa0306ffU,
  0xfc02fafdf50402ffU, 0xf5f703fcf7ffU, 0xf800fef9fdfcfd04U, 0xfafe00fbfff3fafcU,
  0xfbf800fd06fbfefcU, 0xf903f701f8f7fafeU, 0xfcfe04f7f707f710U, 0xf2f8faf6fbfcfa00U,
  0xfcfefafcf0fef802U, 0xf9fffc07f9f4f800U, 0xf903f9fc06f4fcfaU, 0x8f9fff9fb0200fdU,
  0xfef5fdfd02f7fa0eU, 0xfd0bf8fefbff0afbU, 0x2fa08fcfb07fefcU, 0xfdf702fffcf803f9U,
  0x304f8fdfff208fcU, 0x1fdfb01fdf5fffdU, 0xfcf6ff0ffd0401f6U, 0xf408fef9fa050d12U,
  0x2fd08f9fafa0100U, 0xfc06fefffe00feffU, 0xf3f6f6fa04fafdfcU, 0x60001fe0301fdfaU,
  0xfaf5fefefeff04fdU, 0xfaf4f4fb02fbf909U, 0xff04fefa02fe06feU, 0xfbfaf7fbf5faf601U,
  0xf4fbf0fafffaf8fdU, 0xf1fcf9f50900fbffU, 0xfcfaf908f7fefcfcU, 0x400fb010201fdfcU,
  0xfbf101fcf905fa00U, 0xf805fff8f9fd01f7U, 0x103fc050401f8f7U, 0xf7f608f806f905fbU,
  0x6f9fefb08fc09U, 0xfd0002fcf9f9fc11U, 0x4fc02fdfaf60101U, 0xff06f3fef1fc06ffU,
  0xf2f2f7f4fdfbfbfdU, 0xf2fb01f802fefbfdU, 0xfb00f6fbfcfffcfbU, 0xf803fc01f601fd04U,
  0xfff6ff02fe0002ffU, 0xf6fefc01f4f70df2U, 0xfaf70100fefdfbf5U, 0xfd05f7fe00f6f6fcU,
  0x1008db04f2d00211U, 0x18eefd021b0b1208U, 0xf50e1efc05170217U, 0xf40c0d05f2141040U,
  0xd314fdf801ccf112U, 0xda10dabc1cdcdfddU, 0xefebfc1a1c21fff6U, 0xe40805eddbce0011U,
  0xdce1000b0cfff30cU, 0xf006e0eb16f1d605U, 0xbeafb1e140e1e1cU, 0x8ec1314f504fb05U,
  0xef1418faf8f4cbf5U, 0xf6d716e7f51820e2U, 0xefe9f1ede411acf4U, 0xe71acdf4fbfafafaU,
  0xbeb17f708e1cff8U, 0x40512dc0aebe0deU, 0x41013fbf9f63fe7U, 0xa09fb1a062b01e4U,
  0xfb02d01204ed0f1bU, 0x14fb000ff4f1e4eeU, 0xc7e50a0306e4eb22U, 0x31519e723e2ca07U,
  0xf1d904fded19ecU, 0xebf111d60019e4f7U, 0x150e04f3fadddde1U, 0xe508f8eceaf225f7U,
  0xea02ecf3da00ed25U, 0x1dd8f7fcf4350626U, 0xec0cfc1e10f1f5faU, 0xaf0fd1412ff0ae1U,
  0x2ccf18e910ec061aU, 0xf8e0ff06f705ee1eU, 0x4fb25d102fcfae9U, 0xd4e7edf1ea01120eU,
  0xe9fcf3ed0dfe270dU, 0x2600f3f305df200bU, 0xe10419d716ef0204U, 0xfffc0b00f3f9fef7U,
  0xda510c01f41ff3d3U, 0xeaf41f01fefa1407U, 0xf1dff103d4f1eeefU, 0xf80b00f7e1f00bf9U,
  0xf0ffe6fbf11ee401U, 0x2cf10c190008091cU, 0xbe80ad019fd00e6U, 0xe9e3ed000800edf4U,
  0xfd0c04f3e90eef1fU, 0xfdebebdad2e6f311U, 0xfe06dffb10f5e10fU, 0xfddee1f406d901feU,
  0x109161c22120e06U, 0xddf41f15f7dc0bd7U, 0xeced080b13e21f0aU, 0x1ad9fe1a2d102227U,
  0x1f3f926df21e708U, 0x12f90ae3ecfd1618U, 0xafb2e05eee70cfbU, 0xecf8070ff1f9dc0bU,
  0x140bf8edf318231dU, 0xfbe7f317d7fbf015U, 0x23f7e421eef6fc1aU, 0xffc2ce13e82301bcU,
  0xfefc02fffd02feffU, 0x1faf8fb01fd0303U, 0x3fff7fdfe010103U, 0xf7fefc0800fdfa01U,
  0x10106fe00000303U, 0xfbf903fcfa02fcf9U, 0x4f9fdfa07fd05fbU, 0x3020002fe01f701U,
  0xfafbfefb030406feU, 0xfa01fbfafa0003fdU, 0xfffefa03fb0800fdU, 0xf8fffa01fd0102fdU,
  0xf7fffffa04fefa03U, 0xfb01f9020101fb04U, 0xf802fe00feff0202U, 0xfa00ff0200fffdfbU,
  0x403fbfa000403U, 0xfc00fc01fefdfdfeU, 0x304fef802fc0407U, 0xfe00fbfdfcfcfb02U,
  0x6fff9fbff040002U, 0x1ff0603fdf900faU, 0xfefff8fe02fff800U, 0x20002010100fefcU,
  0xfd060506fcfdfbU, 0xfafdfefafc000103U, 0xfa0402fcfcfdfaU, 0x1f904f8020102f8U,
  0x5fe06fef8fd0505U, 0xfcfefafcff0302feU, 0xfbfd0201fefdff00U, 0xfd050400fb0001fbU,
  0x1fc06fefffdfc03U, 0xfa000206fdfffe01U, 0xfd05fffc0000fa03U, 0xfe0002f8fe0501ffU,
  0x2000801fe05fb07U, 0xfef9fdfdfffd0002U, 0x1fefe04fafffffeU, 0x6fffffafcfb00feU,
  0xfaf804f8fff9fdfdU, 0xff000202fefcfa02U, 0xfffa01fbfd0106feU, 0xfffe0400020003faU,
  0xf903fffb02f90301U, 0xfc04feffffff00feU, 0x201fcfcfc02fc00U, 0xfcf9fe0507fdfcf8U,
  0xfc05f9f9fff8f701U, 0x1ff00ff03fa0006U, 0x2fc04fbfefa01feU, 0xfcfc0000fa04fef8U,
  0xfdfdf9f80300f800U, 0xfbfe00fefdfa01U, 0x50301fcfdfefcf9U, 0xfafa0105fef9fbU,
  0x3f8ff06fdfa0504U, 0xf7fb03f90101fbfdU, 0xfbfffafcff000305U, 0x5fef8fb01fd02feU,
  0xfbfd00fbfffffbfdU, 0xfefcfbfcfefdfc01U, 0xfbfbf90202ff00ffU, 0xf8f601f902ff00U,
  0xd06fdf20501edf6U, 0xfef20bf1fe000ffbU, 0xfb0efef7f6fcffU, 0xfef4f30000feff02U,
  0x1f902fbf1fafcfcU, 0x3fcf7f6f80202f8U, 0xfdfbfefef2f5fbfdU, 0xf100f8050afaf8fbU,
  0x1f2f3f8fafcf4fbU, 0xf9fe00fdf5fcf90cU, 0x5fdf5f1f9fbfbf1U, 0xf2fff9fcf700f9fbU,
  0xf6fd010a03fef70dU, 0x8000df6f6eefefcU, 0xec02f501fa05fe07U, 0x1f600fef4f9fd05U,
  0x2fd01f9f90000ffU, 0xfefc02fbf805fbfcU, 0xf807fdfef8f3f801U, 0xf3f9f7fc03f5f0fdU,
  0xf904f403faf3f6f6U, 0xf803fb02fa05f9fdU, 0xf402eff7030ffbffU, 0x16fe0bfafff60403U,
  0x6f2000908f000f4U, 0x1fdfcf702fdfe01U, 0xf7f9fffc0304fbf5U, 0x1f103f5fa03fd08U,
  0xf8fbf305fdf802f3U, 0xf8fcf9fcf40bff04U, 0x7faf8f7fff60af7U, 0xfbf8fcf8f4fefdf8U,
  0xf4fbf3fcfe00f5ffU, 0x13f801f30ff7f5U, 0xfbf4fcfa0bf3fef7U, 0xf6f4f909f5fbf801U,
  0x2fa010cfbfe0dfdU, 0x2f5fff8f301f102U, 0xfefffdf40bfff7f8U, 0xfafbfcfcfaf3f900U,
  0x1fdfff719f8f607U, 0x205f9fefbfdf400U, 0xfffcfaf600fafc01U, 0x5f9fb04fbfdfb09U,
  0xf7fbfcf9f5fa09faU, 0xf70ef501fdf80200U, 0xfe0607f3f90bfcfcU, 0xfb13fafef4f4fdf6U,
  0xf3fffefdf4f801f4U, 0xfd03f8f405fefd02U, 0xf7f6fbfef6f5f9U, 0xfefa02f7f7f9f6fdU,
  0xf4f4fafdf9f1f702U, 0xfef802060cf8f7faU, 0xfdf902f6f7fcf105U, 0xfef9f9fd09f4f305U,
  0xff010bf9fd000bfbU, 0xfdfcfaf8f5fbf2f2U, 0xf2fb0509fff5f6ffU, 0xfafa11f6f9f8fc0eU,
  0x501fbf605f7f001U, 0x2fcfafd02fb02fbU, 0x706fffb10fd05ffU, 0x12fef3f9fdf9f907U,
  0x12eff40feb1f12f9U, 0xec1af9fefc0eeff4U, 0x7e811f301f7f10bU, 0x5f004f41703eae9U,
  0xf706f21106f0ff2cU, 0xfef306020015fde2U, 0x5f111faf30700deU, 0x7fdf4e40013ebe9U,
  0xf3eef4fcfd0bf4fbU, 0xff05fb11faee0aeaU, 0x8ecf90303f2e410U, 0x205fcffe8fff7ebU,
  0xf90902fb0f130b19U, 0x1108e7f2e8e1f710U, 0x2fff9fcf6ebf607U, 0xfceff9f7fbfb0ff7U,
  0xf9ebec13f5ebea00U, 0xfefe0efae820e018U, 0x30ef1070ff50a15U, 0xe30ffded04faefebU,
  0xf6f11af2f7f702eeU, 0xfbf1e0eaf0f600ecU, 0xef06ef03db13f3fbU, 0xf806f101e9f806f1U,
  0xfcf0f30e0a15fee5U, 0xee04f4f4ef04f3edU, 0xfef5fddf0c160d0eU, 0xdd10040cede9fef4U,
  0xe502eff5f9001be8U, 0x7f5f70ff8eb1204U, 0xfbe9f7f909f3e3ffU, 0xf6f6d2fbedfc0607U,
  0xfe010aedeae2f3f9U, 0x41aeaf5d3ee1df0U, 0xe9f8ebddfbea00edU, 0xdf0fee0405eeefefU,
  0x1e8fb0b0bfdf9f6U, 0x200e9ed000df1faU, 0xf9e0e607e8eff2f9U, 0xf9f006fff6fceadcU,
  0xf4ef09fa060508f2U, 0xec11ec13dc09e31eU, 0x17f5f7e9fbfb020dU, 0x7e9ee0d08ec0405U,
  0x21bd3eee6fffc01U, 0xf009e91fe618def0U, 0xfe02fe0ff7fef5eeU, 0xfa05f41fececf112U,
  0xeb01f0fefd02f221U, 0xed30a06f0e7f8U, 0xd70af0f8f4fdf1fbU, 0xf4e4e0fae009f3f4U,
  0x206edebeefd01f7U, 0xe405f50201f6f622U, 0x9021bf3f21ff004U, 0xf1f902f8f42ef601U,
  0xfb0df9f61ffd0cU, 0xec01faf82404f2f4U, 0xfc01fde4f101f603U, 0x3dff0e80e02eaefU,
  0x1411eaec10f2f218U, 0xdcfbfbf2ece6ddfbU, 0x8ff0808f6f6dd0fU, 0x29f3f1030a09fc05U,
  0x4fcff00fb01f7f7U, 0xfcfcfe0504fa04U, 0x302fbfd030701U, 0xfefa02fdfdfc01ffU,
  0xfdfe01f8f9f902fcU, 0xf906fbfefefa0103U, 0xf8fdffff03fcfbfdU, 0xfa01f7fe0401faU,
  0xff0101fff9fa03feU, 0x6fdfd00f9030701U, 0x401ff04fbfcfe09U, 0xfeff00fdf9fffcU,
  0x404faf9fe0303U, 0xfffe00ff01fa03feU, 0xfd02f801fc020301U, 0x500fa02fb060002U,
  0xfe05fffa04010306U, 0xfd07020406010202U, 0xfff90204fcff0302U, 0xf80405fff7ff03U,
  0xf8f903fdfef702feU, 0xfd0208f601fe0101U, 0xfc02fd02fbfaf6feU, 0xfe01fd00fffa00fbU,
  0xfcfdfc00fd01U, 0xfc0001fffefbf9fbU, 0xfd02fffffa02fffcU, 0xf7faffff01f9fefbU,
  0x3fefdfb0301fe06U, 0xfd06fd00fb040001U, 0xfefb03fffdfcfffdU, 0x701fefffefd02feU,
  0x2fdfc03fdfbfef9U, 0xfbfdfe000303ff02U, 0x20002fafd02fdfdU, 0xfa020002ff0501ffU,
  0x5fb0104fcfcfcfeU, 0x1fffcfe0006ff05U, 0xfdf9fb0200010604U, 0xfefcfd02fbfdf6fcU,
  0xfd00fcfefdfdfff9U, 0x2fd070102fc05fbU, 0xfb02f807030201ffU, 0xfbfc0304ff06fdffU,
  0xfafb03fbfffffbfcU, 0xfefffc00fcfafc03U, 0xfafdf6fbfefdf9fcU, 0xfffbfdfefbf70003U,
  0xf9fffc0205f90001U, 0xf9f6fff7fcfbfb04U, 0x104fef9ff02f801U, 0xfffafdfe03f9f8ffU,
  0x203fffafcfe04U, 0xfbf8fe02030004f8U, 0x2fc0402f8f6f600U, 0xf700000301fc0004U,
  0xff0303fdfcfd03ffU, 0xf9fefff802fcfbfbU, 0xfbf9fd04fbfd03ffU, 0xfffcf9fe0008fe01U,
  0x202fffd01000200U, 0x6fe0100f7f80600U, 0xfe00fe0201fdfb06U, 0xfdff0302fdfdfbfbU,
  0xf2f90be1f803f5ffU, 0xfef3f101fbf4eef8U, 0xfa16f3f209fff20aU, 0xe9fe0407f91ae4faU,
  0xfa0917f70cf8fcfcU, 0xeffc03edf4eee6efU, 0xe61ef8ffe404fae4U, 0xff0efebf0f3e7fbU,
  0x113eceae0f6fb1cU, 0x1000f509fffaf6fbU, 0xf2f51c0a00e9fb02U, 0xea02f9f2ebf608f7U,
  0xfaf1f801ec14ec06U, 0x9e819eb02fe0103U, 0xf4fd05eaf8041006U, 0x514fae903ec0411U,
  0xf7f7f2eff00404daU, 0x22fce80d05fdef12U, 0xfbf8f0fff5e9f6edU, 0xd100afc00ff08fbU,
  0xefe607000d16ef02U, 0xf2e50223e9d7e8dfU, 0x14f608fdf31ae803U, 0xde00ff030be2fdf4U,
  0xecf7f4ec050ef423U, 0xf1e4f6edf7190113U, 0xf0e9fe0bf71104f9U, 0xedef061906ed0aeeU,
  0xfdf814f6140c01ffU, 0xde1af317ecf104e4U, 0xcfef0fafedff30bU, 0xf60ff7eff7eaf606U,
  0xf3f81bfef2f4f9fbU, 0xfdeffbf413e8fb00U, 0xf2f6f7040809f4faU, 0xf104fefaf30123f9U,
  0xfdd908e2e0e5e505U, 0xf715effde4f6f2feU, 0xf603010afe0f0006U, 0xf2eaed04fbf8ddf2U,
  0xffe20302e6fef7fbU, 0xdeef8ffe8f5f305U, 0xf2000b0306070b06U, 0xf1f2f10d01ec0cf9U,
  0x22f0f5f5f101ed00U, 0xf2fc040007fdeb09U, 0xf9f7e6f706f1f30aU, 0xf2f40df50606eff2U,
  0xf608eaf8fef9ec0eU, 0xee9fbeefce8080cU, 0xe809ee0be9fbdc01U, 0x2f2edeefa1bf2faU,
  0xe5ef12eff4e60aefU, 0xf5e3f302f6f7effdU, 0xf303efe70c13faeeU, 0xbf3fdf2fffffffeU,
  0xe6f3e7f8eef60afbU, 0xf9ede4f60402f614U, 0x1fe03ecf2080f10U, 0xfdfff3f8f609f009U,
  0xc09f0eeefedf3f2U, 0xfc00ec04e4f408f5U, 0x6fb01f1eb0cfcf0U, 0x12f7f8120de0e8f4U,
  0x2810ec2aeae61ab5U, 0xfbf1de909140c0bU, 0x250009ddfff3dad7U, 0x28fd19fed4e0f21eU,
  0xf80301f8f0050efeU, 0xd40a091bee051426U, 0x801301a1a031ce3U, 0x41c0fdcebfc18f7U,
  0xbf605fe12ef0ceeU, 0xec1ad1ed210414e3U, 0xf7ebfabdfdd4df27U, 0x1b18e002dfe5eedbU,
  0x23e5e20abf1127efU, 0xf111fce4ede91224U, 0xe2201809e0160c05U, 0x1d1c0b1714f51e24U,
  0xdaf3d8edf8f3ed13U, 0xe70c080ef9edd502U, 0x1607cafdd30c0bc2U, 0xe9102214f9fef1dcU,
  0xff01f0e91006f2faU, 0x10d8c5fef3e3f209U, 0x13e1c3f5e2cbf4faU, 0xddebe6f1fdf0e309U,
  0x1ffe2dfd1eae0dcU, 0xcef50feb04fbffU, 0xdf0a2318e40ef0fcU, 0x8c2e9f20d35f7e6U,
  0x11feeb1efe2101e6U, 0x3e0009dd04fdeb03U, 0xe6bfb6fee2f5042bU, 0x12eeeddff20100efU,
  0xc6f83b1010c501eeU, 0xf6c1f3e705c6fcf8U, 0x1414f6fdecf3d10dU, 0xe704000a1afab0cfU,
  0xd61115d8d203cef5U, 0x231c1a180d03f5f9U, 0xe4eff01716f60bd8U, 0xeef61b10eae4fe1dU,
  0x13fbc8fbd1ac0cecU, 0x3ed08fbf930cbf3U, 0xa030f110220f4f8U, 0xca0c18ee040406edU,
  0xe92029e0f4e7f50cU, 0xe50be90ee004fd0cU, 0xb1afe0ff4edf3d4U, 0xec0cf325ee05d601U,
  0x3e11df1e903cd0cU, 0xd117f8ffedf4e50fU, 0x2e27f9ccf506dbffU, 0xf4c4f4ed09dfbd2aU,
  0xde1c04f51ae4efe3U, 0xec14e4fd0ff3080cU, 0x391605f205bd0ef2U, 0xe103daf2fcdde5e4U,
  0xe108df12ebe1f605U, 0xf4d4e014c3f8fae3U, 0xc317f3f5fad02515U, 0xf4f812fdec3304feU,
  0x2fdf3e71d33eb04U, 0xf81723fd04f7e315U, 0x22b0ee918f018d4U, 0xf10df9c00ca501caU,
  0x306fffafe01fefeU, 0xfafffcff01fb00ffU, 0x2f9ff01fffcfd04U, 0xfffffb02030503f9U,
  0x2fb02fcfafc0104U, 0x4fef9fe030101fdU, 0x4f9fcf706fdfef8U, 0xf9fd03fa01000404U,
  0x1f50002f9ff03U, 0x3fb00f8fdfefff9U, 0xf901fafbfbf8fffbU, 0xfdfffe01040101fcU,
  0xfffafafdfdfefffdU, 0xfbfb000203ffff04U, 0xf8fc05fa02fd01fdU, 0xfd0101fe04fe0503U,
  0x202fc00fffc03faU, 0xfcffff0001fe03fdU, 0xfefcfb01fafcfcfbU, 0xfefefbfcfa02f8ffU,
  0xfc01fffc01fcfdfeU, 0xf801fe00fefc0201U, 0xf9fbf8fcf7fcfb00U, 0x7fafffbfdfdff02U,
  0x40100f9fbfefd00U, 0x6f7fbfe03f9fcfbU, 0xfd06fefb03fefeU, 0xf6fbfefb00fd02feU,
  0xf8fdf905f8f9faf7U, 0x1fe01fdfafe03f7U, 0x4040302fafe00fbU, 0xfbfffff900fb05ffU,
  0x201fe00f6ffU, 0xfcfd0000fffe03faU, 0x1fbf8f800f70100U, 0xf901f8ff0401faffU,
  0x101fffd0403fdfbU, 0xfa0302fdff00feU, 0x605fff8f800fcfdU, 0x300f70202fbfa04U,
  0x704f8fcfa02f604U, 0x203fb03f9ff01fcU, 0xfffd010305U, 0x3fe050002fbfefbU,
  0x50001fef80005f8U, 0xfe0202fcff01fb00U, 0x5f7f8fd07fe03fdU, 0xfcfa02fe0200faf6U,
  0xfdfafdfafa02f8fbU, 0xf9fffefdff01f700U, 0xfe01faff04fcfef9U, 0xf9fe03ff01fb01fbU,
  0xfaf7ff05f7fd02f9U, 0xfefefe0203fdfcfaU, 0xfcf901010200f903U, 0xfcfb04ff02fd0300U,
  0xfefe040001ff06fbU, 0xfefa00fcfe00fb01U, 0xfb010000fa00f700U, 0xfd0100fbfd04fbfbU,
  0xf8fcf9fa0105ff04U, 0xfdfffffbf603fffeU, 0x404fe0101fe0303U, 0xfb00fefefcfa01fdU,
  0x3efeced1aefd719U, 0xf0d1bfc0dd2e9f9U, 0x1a1903f6eee91af4U, 0xd807f4e9fcf80804U,
  0xee110ff2e2fdeb15U, 0xfe020ae72be5fe11U, 0xe7281bea0802e8f4U, 0xd713e6f7fce2fd03U,
  0xcdd09e3f10004e5U, 0xefed06ee08050fe8U, 0x12f8e0f73705060aU, 0xeef9f9f8fed7f71dU,
  0xe533eef8fa081f07U, 0xf2ebdf0627f6f9U, 0xfff8e7ee1e08e9f8U, 0xfe0602df0e05d8U,
  0x8f8fc0513ebf9deU, 0x100201ddf707e01eU, 0xfb0d19d5fc10d9U, 0x717f5f5eefdeaf8U,
  0x210e2fdff070016U, 0x71f21fefff3f0f3U, 0xfaf7ddfdefe7fef1U, 0xeaedfaeaf506d5f9U,
  0x1803ea08c4f710d8U, 0x8eadef6e8ebec00U, 0xf20de8e20704ffffU, 0xbdef619f9e3e710U,
  0xd7e5cc09f4e6f4dfU, 0x1af2ebf202db053cU, 0xee0601f1e3080cd8U, 0xf4e1eaf9f6e828f0U,
  0xae60bff181d1c08U, 0xfe6f407fdf105feU, 0x1ae1e5fa151009e7U, 0x2dd1fc80703ec12U,
  0x3fc030ad3e10b08U, 0x18e00cf518d12a17U, 0xf7f6f70dfc04f9ebU, 0xd9050402e4f40001U,
  0xf3e3f602dfda01eeU, 0xd40f05080efd1dfdU, 0xe5f8ede000eb1f05U, 0xfff7e2eaedec05dcU,
  0xd210c30b1b2b0101U, 0xfecfe07f12407e0U, 0xe4f812f6e1e909f9U, 0xecfbde08fde00b1bU,
  0xf903e2fcf801fe24U, 0x4f0ece7ef1c08f7U, 0x12ff1c0908d617f4U, 0x11df8d5d4ee1617U,
  0xf0ff19f81508e8U, 0xf3e628ddf9fc0a08U, 0xe0d7df0cfcf11f04U, 0x3707aa27faf306f8U,
  0xe1f7f83507fdf809U, 0xee0126fee70fe7feU, 0x81a05dcfe05f41aU, 0x210d00307fcf9ffU,
  0xf815e7f634fa1904U, 0x7fc1cf0eedd07ecU, 0x10f6e0f0fd1de4fbU, 0x20f1529f61bfb0eU,
  0x1b02140814f209eeU, 0xef2f508f7f6fafbU, 0x40419e0fa00f4feU, 0xf8e9f505031403fbU,
  0xd0715001600f202U, 0x16fee3fcfc0b0302U, 0xfafc07fdf9f500ecU, 0xf504e8f3f4fbf2f9U,
  0xefe30b070608f8e2U, 0xf8f4f4f9edf8f0faU, 0xfefbf8eef4f7f6fdU, 0x12fb1af8f5f1fcf0U,
  0xcff13e909150c0eU, 0xbf902ebeefce70dU, 0xfdeffbf6f817fbe7U, 0xf0f8e9f0e2f8fc0bU,
  0xfff205f011f0fcf2U, 0xfa09ec0904f9f4U, 0xbfdfc060efdf003U, 0xcf4e81807ede1e5U,
  0xf1e803fcf8e809fbU, 0xefaf9d704fcfb01U, 0xbfcf1e0ec191dfdU, 0xf90608ebea02U,
  0xfdf2f1ea191ffae9U, 0xfbf2e713fa11e9f9U, 0x7f7eff204f3ee0dU, 0xef10fd06f7f4f911U,
  0xf10af2f5edf2f2f4U, 0xbea0607e8f90cffU, 0xf0fdfbe5f4e9f5fcU, 0xf3fcf9f1f8f8f8f9U,
  0x1f5f8f4f210f5fbU, 0x6fb0f07f603f7f1U, 0xedf5070fef0ff3f7U, 0xbe6f805defae0feU,
  0xffe9e8fff803e2f1U, 0xedf1f7f8fcf7f2f8U, 0xfb0007fafcebecefU, 0xcf3ff17e706f0edU,
  0xe8070018e61ffbffU, 0x6fffdff00e90303U, 0xe50cf2fdf71e00f3U, 0xbfaf90af4f7f901U,
  0xe90be80df8f7eef3U, 0xf6edf0f0edf4f505U, 0xdf02fdfef9f600f2U, 0xf5fbee03ed0500fbU,
  0xf4fff6f2f602f4feU, 0xfd1103fee004f8fcU, 0xceb11fefffdeff8U, 0xf0fafe08e6f7f3f6U,
  0xeefaf2d9f9f902e8U, 0x2bf8f5fa0303fa11U, 0xf1e612f6f7f9f60fU, 0xfb05fde501ff0bfeU,
  0xe11609f7ed00f7f0U, 0xfcfe1df4d9f5f302U, 0xf101da07f4f8f0f4U, 0x7fbeaea00010502U,
  0xe7f1f3fcf5faebf6U, 0x13fbeef0f1ebf8f8U, 0x805141101f5fa02U, 0x130c07f2f4f8dff8U,
  0xe701f3f204fdfc09U, 0xf10cf8eae5e30205U, 0xf7f8f7faf40109e6U, 0xe405f702f50ddaf1U,
  0xfef8f40afbf6ee11U, 0x1f5e507eeef03U, 0x2e7f60bf8f0e11fU, 0xfb04e80dfef6fdU,
  0xe4f1ff060c070d00U, 0x4040cebe0f3feedU, 0x12f3f4f1fb1217dfU, 0xf6f20804ef0e21U,
  0xf5eef6fef9e2e40eU, 0xddfffdebffefe913U, 0xb0aedfbf6e908f8U, 0x150515fdf9090a03U,
  0xf511f1150b0619daU, 0xfffdf4f7ec0dee0eU, 0x5f3f7e2100cecf0U, 0x9f2d625edfaf400U,
  0xfaecfaec1cedfa0cU, 0xf4ee060ffbf6f4f8U, 0x10ff109f1e5f40aU, 0xf9f4fbf50506f0dcU,
  0xf7e9f7141e09fb0bU, 0xefe8edfde003f9efU, 0xf1e4ed0d050ff416U, 0xdbebe716ffdef3deU,
  0x600f6f0fb0001f4U, 0xe61b1afc09fbeb0aU, 0xe8190c12fe08edefU, 0xeedf6fb14e9f10bU,
  0xeff8f0fb08f202ffU, 0xf512eaf406eeeaf7U, 0xfdeeec12eef1f406U, 0xe20410f6f5fefd01U,
  0xcecfdec04fdf8f6U, 0x2f10fe6f00bf5f7U, 0xf5fc03f2e2f208e7U, 0xf5f5d8fa0afaf7e7U,
  0xf407f5f5e5fefceeU, 0xfaeff0fce4f1170cU, 0xf6f4f70209f5f205U, 0xaeae704051ef8e0U,
  0xee0d13f7fffee6fdU, 0xfee81df2f3f0ef04U, 0xebf0f7ec09ecf1edU, 0xbedf6fdf90e00feU,
  0xf20909efe7fd14eaU, 0xaf706fbf3fefb0cU, 0xe505edf92916f402U, 0x160be101f8f30df4U,
  0xfbf4f4edfbf712f4U, 0xfff4f931e5e0e905U, 0xf5f512edf6f30600U, 0xfc09e6f5ebf70fe5U,
  0x2e3ee000febd2f8U, 0xe4f6f4fcda0804f0U, 0x14f7f4fbfaef0705U, 0xf9fcf1e5f210faU,
  0xdd04f42eed0910f1U, 0x17e6ee0bf506f8e0U, 0x14edf2e0ee02e3edU, 0xefb11feee06f5fcU,
  0xfffef8f8f7f7f700U, 0xf6fe01f100feff03U, 0xf60900faf3fefafdU, 0x2000000fcfc0304U,
  0xfff9f8fefafcf9fcU, 0xe00f80006fefa03U, 0x402fe01f4fb05f8U, 0xf7fffbfbf8fe04f6U,
  0x2fb0501040004fbU, 0xfef5fa00070b01feU, 0x407fffb05fc0effU, 0xfb06f6f600f8fbfdU,
  0xfa02f900fdfdfcf4U, 0x301fd01f7f4fa00U, 0x1f9fdfaff0dfefeU, 0x202fc01f4fafc09U,
  0x700fbfcfefc020aU, 0xfa00f6fbfefd0100U, 0xfdff020303fefd02U, 0xf4f8fc00ff02fdfaU,
  0x4fa0001fb02fffdU, 0x4fcfefdfafdf800U, 0xf9fbfcf8f90bfc0bU, 0x300fdfe0605fcU,
  0xfffff0fd01f80205U, 0xfff602ff00fc01U, 0xfffcfbfafdf3ffffU, 0x2fb1cf8fdfdf8feU,
  0xfffefeff05fe08fcU, 0x404fcfffd06fefeU, 0xfefefefbfffdfbf9U, 0xafcf7f1f9fbfbfbU,
  0x2fbfcfefaf6fafdU, 0x208fefcfb07fcfdU, 0xfcfef900fdfefdf1U, 0x7fbfff102ff0007U,
  0x50102fdf8fc0efcU, 0xfef5ff0001f20301U, 0xf9fdf7fafc0b02fbU, 0xfa05f9fd06ff0106U,
  0xf7f8fdfdfefdfcf9U, 0x3fcfafff7f1f900U, 0xf6fc02f5fdf80affU, 0xfffbfefffefd03U,
  0xfa0001fe02fdf9fdU, 0x102fc07fff8fb06U, 0x301f7fdf60bf601U, 0x1fd0402fe03fbfcU,
  0x5fcfb0dfbf402f8U, 0xfdfbfefdff00f602U, 0xfafcfdf802fcfcf8U, 0xfd04f8f8fdf8fc05U,
  0x106f8f6030200feU, 0x2f9fe0101f702feU, 0xfbf8fef5fdfdfcfeU, 0x30005fcfafaf7fcU,
  0xf6fa01fcf9fcf7ffU, 0xfcfef7fd00f9fff6U, 0xfef5fbfc02fb00faU, 0x2fbfff9fa0303fcU,
  0x203fdfceef1fcf7U, 0xfc05fefb0103fff9U, 0xe00f5fffe03f9f9U, 0xf6fcf3fc00fa04fcU,
  0xf3f0e5fa10f0e7f0U, 0x2904fde1e614e204U, 0xf4e20c10fce407f3U, 0xe6fdf901dcf8eafeU,
  0xf1fb0b19090424f2U, 0x1fd000005f2ef19U, 0xfbe8f7e3ede00de4U, 0xfde72aecec05ee07U,
  0xf9fc0afa07ecf3d1U, 0x170f09eeea0d0ffeU, 0x1112ecf4fc1a10d9U, 0xdb0c0bedf7e5ea13U,
  0x5e50a15e3dbf1fdU, 0xe208141ae1faefd5U, 0xffe8f7f221eaf709U, 0xfa2404fd0e030b03U,
  0x105ee06faf0dbe3U, 0xe1f5fad8f0fdf4d5U, 0xd5e604edf0030befU, 0xc6f0faeeeb211e1eU,
  0xe8fafe06fbf2100bU, 0xf415f4e2e019e7d7U, 0x3efec01edfff908U, 0xdaee0008130eecf7U,
  0xf516ffe60e1e03e5U, 0x81608e322cd27efU, 0xf608fb20ece0e9fcU, 0x19e0e3280402e903U,
  0xea1208f011f0f30fU, 0x471cf6fff1f0f1f0U, 0x811f1ee1d19f30cU, 0xe3e3fdeff2f112faU,
  0xf90f160d03d4f71cU, 0x23e3ebf2f218f401U, 0xf0fae0e5f2ff19f4U, 0xe80900dbfffce802U,
  0xf6040cf51fddf518U, 0x17e6f9e7eed80d08U, 0xfbfdf5ead4211a14U, 0x31eae715dae5e5f1U,
  0x10cf08ca03f6fd23U, 0x111509eaeace0900U, 0xaef07f4fa211d03U, 0x17e5fbf8c6281301U,
  0x1309fe0efbde37fdU, 0xf4fef204f7192cf6U, 0xeaf90cf7eef2e40dU, 0xeee6d8f90d0c06e6U,
  0x7e61001e814fb12U, 0x8f8fd0aedf3ffeeU, 0x160e01fa10e8f4efU, 0x2617d8e5e7ebfce1U,
  0xf8fcdd2a051408e0U, 0xf3eff3ede9e11502U, 0xce6eaf8150803e7U, 0xe8011a10fce522ffU,
  0xfc01e407edf5df1dU, 0xf30602fd15e007f9U, 0x21e1dd1816f70226U, 0xf911f50009f500e7U,
  0xd9cc03f504e805f4U, 0xf9f9f7f9f803e606U, 0xe3f1f2eddde116f7U, 0xebfc0502d5e8eef4U,
  0xfdf9d3dbee0f8cf4U, 0xe01ff1e8f3070ef5U, 0xfe3db53b5f9ecf2U, 0x2f705fbc2010a0cU,
  0xd7f0ca20e922fdU, 0xea03bc2d15dae6d9U, 0x171cf7e3f10234faU, 0x8f80324e8d302c4U,
  0x16e8eee6d6d80806U, 0xc418e3fee41b0ce9U, 0xf31bf4e4060ce40eU, 0x1108edd812f6ea01U,
  0x529cee8dcecf940U, 0xf2e1d60d140af016U, 0xff13e50a2d1bde07U, 0xeef1f00b120e3d07U,
  0xfffa1c0418f0050bU, 0xc9b413e9ebd404fcU, 0xf3f8e3dd0afc18efU, 0x14e807f2011fcdfbU,
  0xc8fe0fc0ebf617e2U, 0xd410fb07eacbe2fbU, 0xf61ef80efff10603U, 0xbaee0505d7c4e922U,
  0x5e5d908faabfc0fU, 0xa906fb060817f2c0U, 0xfa02f502d4b6db23U, 0xed0ff30907f001f0U,
  0x20c32f110018f10cU, 0xed000ec3f01c04efU, 0x10c183817e923f9U, 0xf40e1f16daec04e3U,
  0xc010f4e701baf11bU, 0xf62001ea06cce00aU, 0xef09f415d2cedd03U, 0xfdef6fefc1727d3U,
  0x48f00113d01d0306U, 0x200b0d1be7192206U, 0xead1191e00fd28e2U, 0x53df9def8060cf3U,
  0x2af72018f1f2e7ebU, 0xe2d1e516f6031514U, 0x1a0b1d2d120b0210U, 0x2b22f60b0018d2fbU,
  0xc40c221801f6e8feU, 0x26f0ef0cc4011ef8U, 0xf9e5d53201270eebU, 0xf40e16ff170bf412U,
  0xcf3ece3ca2514f0U, 0x601f701f0f3e7feU, 0x163211ec29fd03c6U, 0xfaff24f924fa06d6U,
  0x2329dafff70d0cf7U, 0x2bdcec10df0e1b18U, 0xecfee1f413f9fa1fU, 0x2011faf5f3d1e502U,
  0xaf9eafd1ce0ffe2U, 0xed0aece2fdff26caU, 0xf4f1c01632e712f8U, 0x12ee09ef0adeeaf5U,
  0xc5ec0b4700f8e109U, 0x1125e9e1f217ee1cU, 0x12c5e9e4ee1df0eaU, 0xc0ed17d0e1fedd2cU,
  0xf1f8fdfa00ec05faU, 0xfef9fef603fbfa04U, 0xf1faf0f5f1fcfff1U, 0xf104feff0501f009U,
  0xf1f809f2f5f30316U, 0xfff7fefe0100fef4U, 0xfbfc0507f9fefbfcU, 0xfcf30005f808eefaU,
  0xfdf50b011200f5fbU, 0xfaf2f400f8f8f7fdU, 0xfcf9f7eaf407f600U, 0xef511fcfefefdeeU,
  0xf700f2e9f7eaf4f6U, 0xf0050ff6f4fefb0bU, 0xf6fa05f9f3f304faU, 0xf8fbf8001afcf7ffU,
  0xf7faf9ee05faf0faU, 0xfdfffd0d04f7f1f7U, 0xf8f50107f5f101faU, 0xf7effdf7f9fc01f2U,
  0xf9f10ef7f6f1fc05U, 0xfdf3fd13f2f70500U, 0x709f7fbfcfc09f1U, 0x4fe01f8fbf9f2ffU,
  0xfffff9f8f40705fcU, 0x4fbf107f9fefcfeU, 0xf90dfefb00fe0801U, 0x5eefb04f500fcf3U,
  0xf90af9f0f8ddf9fbU, 0xff180cfaf5020201U, 0x2e7f1e7fbf40bf6U, 0xfefa06f5fbf711ffU,
  0x8f6fa00f8f5f207U, 0x1fffaf9fdfaf0faU, 0xfef9f9f905fffdffU, 0x5f8f802f201f8f9U,
  0xf8fefcf5f60efd00U, 0xecfe0003fd03f4ecU, 0x11fefffcfdf203f9U, 0xfffc0afafb0d0004U,
  0x201f30cf815fdf8U, 0xf4f8f2f6f5f800U, 0xf3f7f8f6fbff05f1U, 0xfbfcfdf606040004U,
  0x1fcf5f117f8f1f0U, 0xfdf3f6fff0f3f2f4U, 0xf7f4edeb0a02f108U, 0xf2f6f9fee8f6f9f9U,
  0xf4fcee03f7f4f6U, 0xf6ef09ff12f90400U, 0xfefeeb06f6f5fb01U, 0xfdf1f40ceefc06f7U,
  0xf0f705f50605fc04U, 0x1ff030602fcfe0aU, 0xee04fefcfbf9f8f7U, 0x1f5fb0703090bfdU,
  0x106fcfbf8f201faU, 0xfaff09e3fef9f0efU, 0xf900f6fafbf2f8f7U, 0x10303fc00fdf5f8U,
  0xeafe03f1f8faf6fdU, 0x8f6effdfcef0e01U, 0x1fb0cf9efff0003U, 0xfbf8fafefdfe01fdU,
  0xd5e20218f2f51ffcU, 0xbdd9dc26dddaddf7U, 0xe6f6e8f10ce2e6c6U, 0xefde42eb1e0c17fcU,
  0xe9fddcfe02f6edceU, 0x32dae82610d80605U, 0x4ebdee5c717d01aU, 0x1427e81c0303f8f9U,
  0xcef72d0cede802e5U, 0xfe372d10ef0a17efU, 0xe810d0c0f303160eU, 0xea04000610fae8d2U,
  0xf5e8e507f0f10312U, 0x5d6ffef0808fb0dU, 0x24dd0afdf70a0be4U, 0xe3ff00ca040308f5U,
  0xded170404edfaf4U, 0xfcf314edf025fdfdU, 0xfa38022707be1129U, 0x201fd80e0edf0cf1U,
  0x17f30cbee6fdd1f9U, 0x23e403e6cff324e7U, 0xce070cf2d402e8e5U, 0xf1f10efaece206e5U,
  0xfad6f3e8d6fd0cfbU, 0x29eaf8fcf60d0ae3U, 0x14eedcdecdf706d3U, 0xf7eb22e51803e5e9U,
  0xf5dae2f4c1cf0011U, 0xf6fedbf1fb241ef5U, 0xf6fbe1e9de240ee4U, 0xf412fe0404080dd6U,
  0xe3d5fcfbd81006eeU, 0xdaf7f6ffedf428f6U, 0xf9022af80507c3ecU, 0xd82d01bc01ef2f2aU,
  0x17e10edcf7280cf3U, 0xf011f2f1c9f3eedaU, 0xbfff4e3d2eed403U, 0xfeeef8e2ebef1efdU,
  0x20de24e6ff3ccdf2U, 0xf90a07f102d1220bU, 0xfc1103f2f9f7d8e5U, 0xf7ffc9e5f4fe23bfU,
  0xf4210a11f6fceac8U, 0xe7dfe226ebe4ce0aU, 0x81fdd030be4d7dbU, 0x1aff18dce3e4caceU,
  0xfb130d01f5e2e1f1U, 0xe6dcd0cfee1521f3U, 0xd62ad5f820f9eee6U, 0xfefadd142122e9edU,
  0x1309ff26e6fb06e0U, 0x1cf4f7b20bf3dfe0U, 0xc20d09f005d2d811U, 0xdbeae210ef13ed21U,
  0xf0fe210717f5ddd0U, 0x26d6dff4f9c6e125U, 0x2a281100cacff8d3U, 0xfdf6e0f6fb011000U,
  0x8030c04e401ff06U, 0xfef50b10c8f3020bU, 0x6ec231e12ebfbedU, 0xf7f1d3cf0ef32833U,
  0xdfe0e1dff9e6f511U, 0x1e1af3091e0f04e5U, 0x183215e9ce07fbf0U, 0xf1ff1cef0e05ede8U,
  0x13edf6e9f7dee8e3U, 0x38d9f311f7f3f80fU, 0xdd1214c7dc02d0edU, 0xf4011ee105f80602U,
  0x7d0090a05fde3f8U, 0xe4f0ddeeccf41911U, 0xe4d6081331fe1dbfU, 0xfafafedd14f9e009U,
  0xe61930c4f0d8eaU, 0x30fd0ff220e710f7U, 0x1426feb8e6091116U, 0x1e7e2e0e2eef416U,
  0xdeeaecede71021ecU, 0xd3ee151cd0d4ea02U, 0x905cf10f7f6d8d6U, 0xf0091ee4dde9f2f3U,
  0x3e4ff15f3e61dcaU, 0xfc0ff9e6e0110702U, 0xda00f6d8001916ebU, 0x1d1517c7d3f01a0eU,
  0x33cde0f208f8fbe8U, 0xe1dd07f508d202f2U, 0xf419eed61f05db11U, 0xb51e22e5faf1e1eeU,
  0xe5efe60dfffe01f3U, 0xefe0e0de0710edfaU, 0x15edfad4d81603d6U, 0x14f3eddff4e9ed25U,
  0xdbd1e9f2dff40eebU, 0xf828ff04acf41406U, 0xeb00f4fbffeedaf0U, 0xd407faffffff15edU,
  0x17fefb0af0fd19e1U, 0xf7fa09e9d9fe3223U, 0xc2f022c2c40ff5faU, 0xf2e902e11ddffbeaU,
  0x19f2f0e9033424ccU, 0xffebe809f7ad0cdfU, 0xf400d5dff11ac503U, 0x11e00ceedbf9e2f4U,
  0x828d1d0e3f215e0U, 0xe61f05f90c0509e3U, 0x1b11f2f237f4eb07U, 0xff1dd5cce00ef80dU,
  0xd0be900dac901d6U, 0x3314ebd8f114dfd2U, 0xdaf2e803dce20316U, 0xf7f51106fb0c0309U,
  0xefdb060416e62e20U, 0xfbcade0508edebddU, 0x10fafef8fed2d3f3U, 0xf9fe04e7210f1310U,
  0x2bf9ec4035e63b25U, 0xfe05f5eddf07ebdaU, 0x2113e3f508d826efU, 0xffee26fde001edd5U,
  0x1ceae317ea0c1aebU, 0x7fdf5d3f6141d0aU, 0xe2fd1a0ef1f9ea18U, 0xf2dc23f1f104d9f8U,
  0xf8e1090e1704f003U, 0xfaec0bd2dd18dc28U, 0x2bf610e109d9e02eU, 0xd6f0fb02fbfb100fU,
  0xd32d02eae8ddcefbU, 0xb9061ff8041d2730U, 0x211210eb120509e5U, 0xf6e0fc22ef130df8U,
  0x8a8ebf821fceddeU, 0xd2f70f1e050402dcU, 0xf2f0160eea031710U, 0xa715f5f62816fdf4U,
  0xed20001410ecf232U, 0xd60f1de40ae7f7e5U, 0xdffd27eaeb1409f9U, 0x3e2d6d817f3f2feU,
  0xd8fbf412c4060bf6U, 0xefcc06160c071703U, 0x60cfb02ef0508e7U, 0xfce1ebdefe0b1fffU,
  0x70b071b0219fde5U, 0xfa102312f708db3aU, 0x3513390fe71e17ceU, 0xc01afd041f1a09f8U,
  0x6d7fbd5dfe81706U, 0xff25e107ed19fa1eU, 0xde06181d11070612U, 0xeb17ec28c9fe1b06U,
  0xfe10e8cfe5dbcb25U, 0xe6f208f2e3ff0de0U, 0xfa1a01c4de08cd0aU, 0xbbd21cfd0f7e7f2U,
  0x19f5e319d6ffe0b5U, 0xffecdf34ebf91113U, 0xe5de02ecd8e323feU, 0xf5d0eceb150beddfU,
  0xf9d8f6e3f0f4f0e3U, 0x15eaebf8fbdee209U, 0xd7ecfe17c40ce8f5U, 0xfdfc022af814cdU,
  0x80ce4f3f6f0e4f0U, 0xf4f8f816fd0d05feU, 0xd3da03d7fffbcddbU, 0xf919d1d1ffcd2a2cU,
  0x14cfe11dff1bd301U, 0xf6fafb26d41fdb0dU, 0xeb06fc093e1ee7f3U, 0x6f6d615e618ea0fU,
  0xf33ef2fa0c02e21bU, 0xc5fef13ffaf5f22fU, 0xfd051ef5f301feffU, 0x251428e9e3040228U,
  0x50fee0d2903fcddU, 0x12fa1919fc052102U, 0x4f9edd60a15fc04U, 0xf7e6feee1b143527U,
  0xcfc2f0fce5f0f7fdU, 0xdff9c9e111121314U, 0xdaeffdea0108f613U, 0xff15ec17130b03f9U,
  0x80ad807f92cee09U, 0x15f2e3ff10f031e6U, 0x1ff6e61df5e619e9U, 0xf7fafbee10d8e60eU,
  0x2fc04f7ff0404U, 0xf7fffffcf9ff0002U, 0x3ff05fa02fafafdU, 0x2fafff6000100fdU,
  0xf80303fff500fafeU, 0x50301060202fc05U, 0xfcfffcfb02070003U, 0x502fffef8ff05fdU,
  0xfb01f8f8fef8fdfdU, 0xf8fdfb0002ff06fdU, 0xfafb00fe06fbfb00U, 0xfe0102f9f805fffeU,
  0xfa0102fffdfefcfbU, 0x200000601ff01faU, 0xfef9fb06fe0000fbU, 0xfe0401fffe0100feU,
  0xfcfdfefefd03fffcU, 0xfffffcfdfbf7fef8U, 0xf800ff00ff000100U, 0xfffefd03fafe0105U,
  0xfefef706fc02f8feU, 0xf90000f9fffefcU, 0x4000002fa03f6feU, 0xfaf8fb0005fc00faU,
  0xff02fcff02f90401U, 0x300fcff07f8feffU, 0xff06fdf9f9f9fcf8U, 0x2fafef905010102U,
  0xff000104fc03fdfcU, 0x5fafffb03f8fdfbU, 0x1f903ff01f6fafcU, 0xfefe00f8ff0205ffU,
  0x3fbfafafd02ff03U, 0xfffdfcfff9f801fcU, 0xfdfa00fdffff02fcU, 0x303faff01ff0301U,
  0xff0106fc03fdfe03U, 0xfc04fbfdfc0504fcU, 0xfdfcfcfbfffef9f9U, 0xfdfcf90202fafc02U,
  0xf9fefbfe01fefcfeU, 0xf800040105fbfa00U, 0xfbfcfbf904ffff00U, 0xfff9fbfc03fffaf9U,
  0x1fcfe000000fc02U, 0x1fbfafafd06fbfcU, 0xfafe01f6fc03fef9U, 0x103fcfcfffcfaffU,
  0x3f9f8f8fd01feffU, 0xfb0400fcfffffff8U, 0xfffffd04030301fbU, 0xfd01fdf6fe02fc02U,
  0xfc02fbfd02f8fa03U, 0xfbfb0101fdfd0402U, 0xfefa0604fd01ff05U, 0x1fa03fff9fb00feU,
  0x3f700f904fffffbU, 0xfe0304fcfd02ff03U, 0xfffffd00050001ffU, 0xf90700ff04fd0202U,
  0xfefdf9fafbfd0001U, 0xfb02040400fcf9f9U, 0xfafbfefc0102fa03U, 0x201fbfd02fe0602U,
  0xf903f8fdf8fefc01U, 0xfd0307f7f9000103U, 0xfcfbf804fffffb02U, 0xfbfcfbf8fefb0102U,
  0xf8fefcf704000501U, 0xfdfdfafbfcf9f8feU, 0x3fb020400f9f8f9U, 0xfb01f9040503fbfeU,
  0xfa00fc01fffe00f9U, 0xfa0200fdfcfe05fcU, 0xfff9fb03fefafcffU, 0x5fcfefef6fcfcf7U,
  0xfdfe03fefbf8fffeU, 0xfdfefcfafefdf9ffU, 0xfcf6fd010201fffcU, 0xf6fc0001fd02fdfdU,
  0x700fffcfc00f9fcU, 0x1feff0103fff9faU, 0x3fffc00040001ffU, 0x7fdfbfafdff05fbU,
  0xfafffcfefd00fffdU, 0xfff90207fe0503fdU, 0x204fef903f6ff04U, 0xfdfd0305fefcfdffU,
  0x10302fefdfd01U, 0xfff8fffefbfbfcfcU, 0xff030300fcfffdf9U, 0xfa01fa04fa00fc01U,
  0xfcfffd000301f9fcU, 0xfffdfdfe0405fbfdU, 0xfdfffcfaf9fafdfdU, 0xf90005fcfbf9fa05U,
  0x201fe00f9fefdfeU, 0xfa0102fafcfbf6fdU, 0x1ff000503ff020bU, 0xfc02fcfff806ff03U,
  0xfffbf90202fffa00U, 0xf9fa03f700f5fe01U, 0xf9fffeff06fbf903U, 0x205fc05fd0505U,
  0x7fe06fef8fdf4U, 0x404f9f80102f9fcU, 0x300fcfd07fdfffdU, 0x307fc0601f9fbfeU,
  0xf901f8fdffU, 0x203fbfafcfefc06U, 0xf9fefe01fe03fb04U, 0x1ff0100000100f5U,
  0x200fe030104f9fbU, 0xf80106f7fcfffdf7U, 0xfbfaf9f8fe0104f6U, 0x706060200f902fdU,
  0xfdfe03fd0403fe03U, 0xfafff7f8fe00f9feU, 0xfc01ff03fffa01faU, 0x602fe03fafdf9feU,
  0xfdfffaf801fe06fdU, 0xf700f7fdfe03fb00U, 0xfcfef80200fe0301U, 0xf7fcf802f6f8ff03U,
  0xfcf9fc01fbfa05faU, 0x502fffefff9fdffU, 0xfc05fb020705fffeU, 0xf8f9ff0101faf8ffU,
  0xfb00f8f70100fa04U, 0xf8fffe01fb000100U, 0xfff9fe05fefc07feU, 0xfc03fefc0302ffffU,
  0x1fdfc03fcfffafeU, 0xf40000fff8fafdfcU, 0xf8f7fd0103f903faU, 0xfa020002fffcff00U,
  0x2fcfb02fcfdfbfcU, 0xfcfcfdf4fdfe01fcU, 0xfdfef7fdfe06fc00U, 0xfb01fffffefe0103U,
  0xfd00050004fb01fbU, 0xfcfdf8fffa0105feU, 0xfefc01fdf7fbff00U, 0xfef80101fd01f6feU,
  0xfa020103f8fafdf7U, 0x20304fbf9faf8fdU, 0x6fbfafcfe03faffU, 0x10503050101f4U,
  0xf9fbf505fc060100U, 0xfdfafdfc0403fcfbU, 0x204fef90003fffbU, 0xf902fcf8fefffb04U,
  0x10207fd02fc03fbU, 0x6f7f9fc03fc0002U, 0xfcfa04ff05ff0000U, 0x200fbfcf9fdfbfdU,
  0xfcfafbfbfffafb00U, 0xf8ffff0103faff00U, 0x104030001030300U, 0xfdfffa03fffdfffdU,
  0xfbfcfef5fa04fb00U, 0xf8fe03fe000401fbU, 0x4fbfd01fffbfdf8U, 0xfdfffbfb0304fc02U,
  0x4fd02fcfbfdf6fdU, 0x3020405fefd01faU, 0xfe0703fff9fcfdfdU, 0xfdfefbf9f500fffcU,
  0xfdfbf9fb02060303U, 0xfdfd0000fffe03ffU, 0x60003fdfbfbf903U, 0x4fe02ff04fbfbfeU,
  0x6fcfcfcfdfbfff6U, 0x4fb04fff905fd03U, 0xfdfefefffc01fefcU, 0xfefa02fffef70301U,
  0xfa020004fff903fbU, 0x3fefcff01010504U, 0xfff8fcf8fefb00U, 0xfef70100fa030502U,
  0xfafefeff070600feU, 0xfe06fb03f9020002U, 0x1f8fafbfc00f7U, 0xf9fcfc00fdfdfc04U,
  0xfcfcfffb04fe00fbU, 0xfb03ffff0002ff01U, 0xfbfcfdfafafe0700U, 0xfefffe0106fffcfeU,
  0xff02fd04fc0202fbU, 0xff01fa00fdfef6faU, 0x2ffff0003f70401U, 0xfaff06fc06010302U,
  0xf7f5fc17fa080ff9U, 0xf0f5fbfefdfdef00U, 0xe6f6f515f107ea00U, 0xd0608f8fe08fce8U,
  0xfffae7f5ec03f706U, 0x1aebf1eb01001500U, 0xfbe6f3f2f9fee9eaU, 0xf001f3f1f5f6fcfbU,
  0x10e01f7f7fff1fcU, 0xfdf802effdf80005U, 0xf4fceefff8f807f5U, 0xe912e900f908fdf4U,
  0x8fdf4fbff050be9U, 0xfd07e6f6effa16e2U, 0xfffbdcf3e601e906U, 0x4f2ede904f7f0f1U,
  0xf9f8f7f6f3e20de1U, 0xf901faf5000512f1U, 0x140df2e70dfa000aU, 0xa0cf3edf9f606fdU,
  0xfbe6e4f5fcfdf8fbU, 0xfdf0f4f2f2f102f3U, 0xf802e317f502ff0eU, 0x23f2fcec02fcf502U,
  0x12ea0a0d081506f5U, 0x2fafff9fdfef108U, 0xf6f0fa04f5fe0feaU, 0xf7fce40b01fbfde9U,
  0x2f6f1eb06f21107U, 0xf0f8f207f205e5fdU, 0xf011f212f60efde6U, 0xf9f5e027eceaedU,
  0x2f0fcfc0c050cfdU, 0x28faf712f8f3edU, 0x2f104fb1312eb04U, 0x18fe14eceffef805U,
  0xf814030d06f916fcU, 0xf40102f91a03f2feU, 0xfc17f523f7e6f3eaU, 0xecf9f3f1f4de1f06U,
  0xf3f9f5e7ee15f9fbU, 0xf1ee06f9edef1000U, 0x208f6030afdfce3U, 0xe41af50109040108U,
  0xf6f9f5f500ef0518U, 0xafbf8ffefe9fafeU, 0x6160ae5f9f9e4efU, 0xfa090afdeeeaf9e9U,
  0x5d7020403fefce8U, 0x4f1ebeae912edfcU, 0xf8f1ee00f21deed3U, 0xe712eefdf703e804U,
  0x21109fde4fc07fcU, 0x2eef1d3f8ff0005U, 0x10f6fbfdf7fd10eaU, 0xf9121bedfeeaf3edU,
  0xf3e118fc06e6fa0dU, 0x4f3c802f5f9f2ffU, 0xf8e61402f0f0faffU, 0x19e7f000f9f9fff5U,
  0xebf5f4ff0e0b1cf9U, 0xe8f704f6fa14fefaU, 0x21100d8f70bfbf3U, 0xf2f700fdfb0000eeU,
  0x702f41002feeeebU, 0x26f7fde7f00006d8U, 0xe0cc2fce8efff14U, 0xd191b00e4f4e90fU,
  0xf70cf7e50902fdf9U, 0x8df05faed10ffe8U, 0x90b0002ebd3e111U, 0xf8ec00eee7f80315U,
  0xe2fef40ef8052412U, 0xf7faf4fdf5e701e9U, 0xede406de08e5e7f6U, 0xdf4def6f6f62e10U,
  0x9e601f9030c11feU, 0xe40fdcebefd0eb0dU, 0xeeeffd10e519defcU, 0x91506e807ece101U,
  0xedff07fcf606eaeaU, 0xee03071aebfff6fbU, 0xfdf1000310f3f0eaU, 0xe507f8fa11261201U,
  0x30ee3eef4fefe0bU, 0x8fd1debeafffa0bU, 0xf204eb1ae5f1f20eU, 0xf0e001ec180802e1U,
  0x2f3f30007f6ffd7U, 0x304fb19e7fff8f8U, 0xfb0e07e6030d0810U, 0xf5f709f408f6f2d7U,
  0xe517fe0cf7120efeU, 0xf113fdf5fa04ed24U, 0xe2da1539e8141212U, 0xfe10feff0808f9efU,
  0xebf10dd91df6ecebU, 0xfae6f5ec020406efU, 0xf9f8f1f2140012f2U, 0xe8fd0b130522f005U,
  0xfdd07e01ef7f9f2U, 0x11f0f6f7eff7e1f4U, 0xfaf1fde0fc061ad4U, 0xfee0dec03f9f1e3U,
  0xfd1a040fede4e8e8U, 0xf703fdf0140de2f8U, 0xf1fa17fa0106fcfaU, 0xde5eb15ea0af525U,
  0xe1ffedf8e801caf0U, 0x1e05e210f6f011edU, 0xf60506fbfcf4e2e1U, 0xf007fa02fe01e310U,
