/**
  ******************************************************************************
  * @file    fourline_data_params.c
  * @author  AST Embedded Analytics Research Platform
  * @date    Fri Oct 27 15:55:46 2023
  * @brief   AI Tool Automatic Code Generator for Embedded NN computing
  ******************************************************************************
  * Copyright (c) 2023 STMicroelectronics.
  * All rights reserved.
  *
  * This software is licensed under terms that can be found in the LICENSE file
  * in the root directory of this software component.
  * If no LICENSE file comes with this software, it is provided AS-IS.
  ******************************************************************************
  */

#include "fourline_data_params.h"


/**  Activations Section  ****************************************************/
ai_handle g_fourline_activations_table[1 + 2] = {
  AI_HANDLE_PTR(AI_MAGIC_MARKER),
  AI_HANDLE_PTR(NULL),
  AI_HANDLE_PTR(AI_MAGIC_MARKER),
};




/**  Weights Section  ********************************************************/
AI_ALIGNED(32)
const ai_u64 s_fourline_weights_array_u64[12274] = {
  0xeaff1cd80d04db26U, 0xe80404db022af4feU, 0x1af3e603e8e8ea2aU, 0xcc1f422b1d14eaf2U,
  0xfd1a28fc1900f0f8U, 0x613f119ed1203e6U, 0xf10e11f9e5da1cfeU, 0x18e814dc0c0d1805U,
  0x1012e2afc020203U, 0xdd7f316d2e502e6U, 0xf9f91adef505390cU, 0xdfc0debfefcfcfcU,
  0x1e81321e70bf8d0U, 0x11f507210dfb16f9U, 0x40feef1c1ae2f401U, 0xe41be5fd160c0e19U,
  0x1cfc0db5321801e7U, 0xfafcf1fef1fa17d7U, 0x16070c240ae726fbU, 0xe4fc1a17e50a053bU,
  0xe3c05e0263df1f4U, 0xf2eed09f214ec09U, 0x11fbd60805fe2417U, 0xff0602f31512131eU,
  0x21d3f5ebf039c832U, 0xf7f00330ec0c031cU, 0xf506ff11e3eae308U, 0x24f4011f11ffe301U,
  0xfea051ef6ebff00U, 0x181b0cf3094127f3U, 0xf91214000bed2420U, 0xf8020f17eb010404U,
  0xfef72cfbfa2c1f11U, 0xede8f80af7250e13U, 0xf7dd071823052b3eU, 0xd1e1212a090e0f1fU,
  0xd25f0100afe1b10U, 0xfc0203feeceb0efbU, 0x2d31f3e9cad50503U, 0xf01526ffe1fedbd5U,
  0xf6f236fe2ef005e8U, 0xf939010bfbed01f6U, 0x1524eeff0ce802e5U, 0x2e1f505140e0c26U,
  0xff020e1e25f2dbd6U, 0x141ae53e09effff7U, 0xfe170efbeff6f2f4U, 0x34fe120f03f102f0U,
  0x1efb0fe2e9f6e9d4U, 0xede6ed000e35f81dU, 0xe81fda09e7f70d05U, 0x16eb03eeefe52b03U,
  0xef1d112112efd601U, 0xd309e82ff3effad2U, 0xc2080cfcf00ef90eU, 0x22fbe812f2dc1300U,
  0xf20edf8cfdafb0eU, 0x432afb16eb08190dU, 0xe7fe00ff132f10e2U, 0x905d0d00cf7f2e7U,
  0xd81c1bcfe237e3f9U, 0xb00e3e7e4f812fbU, 0xe0f530df23f1f503U, 0xfd1cfa280604f8d9U,
  0x30cffee27100e36U, 0xfdd304f2e9e306f9U, 0xde0a57eb1ce31b04U, 0xf5fa0cf0e7ea1c20U,
  0x41de8141908f728U, 0xebfb03f41602f404U, 0xaf2dcf1e715fcc0U, 0xf80e0f0006132607U,
  0xf3e5cede15131813U, 0x19281948ede1ecf9U, 0xe9f9efff29121a0eU, 0xfb02f62b21f8fe09U,
  0xed1f0ae7e513f31dU, 0xeb1818ed03180d19U, 0xf4eaeef5e4d504e9U, 0xafef3061c0e0720U,
  0x180a09d3edf901feU, 0xde103eeda26f411U, 0xf12e81a17de3812U, 0x31e0cfceb0f0a2fU,
  0xa200c05fbfa3c26U, 0xc250d00f929f5fdU, 0x241a02f927e512f4U, 0xe0a0403f2d0faf7U,
  0x2020f9200e2ce7e7U, 0x1de802f138080716U, 0xf62ef4140ed6e039U, 0x1803f20c0037150fU,
  0x21fc05f3f1c5dc20U, 0x18e4e2fde901f108U, 0x51207ebfdfc0607U, 0x9dcd4d2ff090811U,
  0x18e3fb0ef90bf017U, 0xf91f0c132cd9fe04U, 0x25e40cf8010bf5dbU, 0x3206fa0ef706f513U,
  0xe61fdedef9e3fde3U, 0xe7e51cee0f2501e6U, 0xe5fe04ea2ef608d8U, 0x210cf31be2193719U,
  0x2aed04e1f3d72127U, 0x300f9f1f711f92aU, 0x100df80627e7e9e9U, 0x24f2ba0813ea0608U,
  0xf4fefe19fd142511U, 0xe7f51c2b0f241dfbU, 0x1f20527f809fa14U, 0xe5f819f0f3d11be1U,
  0xeae9fe16dc0b0103U, 0x60ffc03ed17fcd5U, 0xfc1213f8fc170815U, 0xec12fff9f22612f5U,
  0x6f6f4180eefe0f7U, 0xe02021ee1df00929U, 0x27ef042003080efcU, 0xef0af6fdf5cb1d50U,
  0x1acdf004f007ef1eU, 0x3f8eefd04f3fdecU, 0x22fcd9161e1dec17U, 0xf7c7d8e2020e051aU,
  0x40833dbe4fafbfeU, 0x1314140101e60003U, 0xf5101421e905f8ebU, 0x10e9fa020ce3f41fU,
  0xfa121a1eda00f7e2U, 0xfedaf9f2f70cf91cU, 0xfe0fc3ecefc1e32dU, 0xfde0ff19160104fdU,
  0xf10404da03fd04abU, 0xfcfe24ff070df813U, 0x2fb210cdf0811bfU, 0xf1d602f6000eea2aU,
  0xff3100df3ef004e8U, 0xe7031500eef2f0f4U, 0xf6faf6220b00110fU, 0xfef8231efe5d04e1U,
  0x29f203f70024f523U, 0xfcd1f4dd09f5041eU, 0xef8f1cffd13f32aU, 0x3d27ee150d1e151cU,
  0x10fe0d081210f90bU, 0xe61a0721fbf5f84dU, 0xe0e31ccf0922fcfaU, 0x2710fcfa00120d04U,
  0xf9290a00f4edf7ccU, 0x15f51c15372409e0U, 0xcc0747210feef013U, 0xeee1e80706e6f2U,
  0x1309e90eea0ef0f5U, 0x1d14020d10f0f531U, 0xe204e121f102cc1eU, 0xeed5100c22e9f9f2U,
  0x14fae4e2dde50508U, 0x16e6f2eaeeea042fU, 0xe91e11d4e80b01fdU, 0x170a0a45fcfcf6feU,
  0xfb151c01e9e52b07U, 0xffde6080ce1ddf5U, 0x232816f3f0f906U, 0xe50d00f4fd10ec02U,
  0xfdf3131de016f712U, 0x171f24eb17f5f0U, 0x907dff707f5b71fU, 0x1709f8f3a4d9010fU,
  0xdd02fd070afd3215U, 0xf2f5fa1ce625ece0U, 0x2209f31b16edc51aU, 0xda12e5ef0a091bf9U,
  0x1ed315011718e7f3U, 0x2bdfddf7300ee206U, 0xfdfdf3f8fc0cf209U, 0x704fb0523f2f9e9U,
  0x2cff16ee2710fe1dU, 0xcbe302190b0ee9faU, 0x421171f07fcff61U, 0xdcf3c2ec2b0aeb36U,
  0xdad12115f60efb02U, 0x260eec39ff0630dbU, 0x2914ff0810edda03U, 0xdef718e2f20608f1U,
  0x9fb08030b08060aU, 0xbedf703d907f7ecU, 0x4170ce0fbeaffe6U, 0x1821f1131016d7e0U,
  0x1082026f8392521U, 0xfaf20bdb0121100dU, 0xe61a1c0af53b3000U, 0xf11eb04fde603efU,
  0xdd1338ea00daf40eU, 0x130a03feff0b012cU, 0xf60d1120041e0102U, 0xcff4e8fb090bf8daU,
  0x16ed0bfc1201570dU, 0x9fbdc1f070be2f0U, 0xef60f0d10ff121dU, 0xe6110004cf1627bfU,
  0xee0d1f271503f311U, 0xa14fbed17fa13d5U, 0xdee117fce81c0903U, 0xf62de60226ebfa02U,
  0xde1ff608fb04e60dU, 0x22201b06f62de8e0U, 0xe119e5eb0d0ee0e5U, 0x1ae916092a0de809U,
  0x23fdf20f1ad5e1efU, 0xd20411250919d200U, 0x26e6d7ea000706fcU, 0xf11dfefcfaecfde8U,
  0xdf603f9e4280814U, 0xfa06f115defa1500U, 0xfa0207ecf0e0ed45U, 0xe3050cfc28f6f1fbU,
  0x10dfe0fc13030407U, 0xed400e8f91feb17U, 0xdd5cf0511ed02fbU, 0xf008f31bf3eec2faU,
  0x180cf6061aeffcebU, 0xf509fb05c4ff2007U, 0x10dc2417f4e3f70fU, 0x2ef8f91004fbf807U,
  0xf0f6fee6f50204f6U, 0xf4d511e4e50f2c02U, 0xe1d120f6f209eaf5U, 0x29dc32f010fecb23U,
  0xe70807f702201e0bU, 0x8e0f208f0091f2cU, 0x920fb190bfaedf9U, 0xfaf6fb14d3dbf5f4U,
  0xe00efef1e012e132U, 0xffebe10ef6c1f314U, 0xe805e708080b0bfcU, 0x11ffecfee3ea1b10U,
  0xf9db1bef15d7f10dU, 0x210d60808f21f07U, 0xf8ec17f4fb0e0607U, 0x11fccd01f009d5e1U,
  0xdc100ffef41deb19U, 0xff110105e0faf7cfU, 0x1402e5eaf5e2ec0bU, 0xd4142f1f17fff000U,
  0x229ff131911e528U, 0x1003f7e0db01091bU, 0x3ff20f60913081fU, 0x20913eaecfbf608U,
  0x19f2fdf7b6e80018U, 0xf426fe10f60726feU, 0xce2051900e202e6U, 0xe14dffaee0eec0cU,
  0x1e6d4191b061217U, 0xf409efcefefc04d3U, 0xf7f901021cf6ecfeU, 0xf90e1810f4081030U,
  0xe3e1ecf10bfe06ebU, 0xed0718fd0c0e01f2U, 0xfdf9f8fefc05ebefU, 0x1400e0ff21dc0bf8U,
  0xea14f41d0e1de4c4U, 0x27f9d3162127020fU, 0x191911143a00e901U, 0xd8e5e2f70201d228U,
  0x3e604ea10f21df4U, 0x2f2213e610f2f9d5U, 0xeb18f62d11e1e7efU, 0x10c03050a11cafbU,
  0x1722051ef4def2U, 0xe608dd0af72503f4U, 0xe9f90506f5ecfeedU, 0x1efeec10f6e10c26U,
  0xcfd04fd030f1c1aU, 0x2d25e8042efb00faU, 0x5e8dbc9e5f4e1fcU, 0xdcf513030ef61805U,
  0xfa0107c50027d101U, 0x19c4e9140c0b1eU, 0xdfff7041801120eU, 0x180330e5d80c0807U,
  0xdff2ee16def3fd04U, 0x2a00fb1a1e03f918U, 0xf7ee19c9faeef007U, 0x2faf307fbb6f1f8U,
  0xe82af91018d1fff2U, 0xf9e7f4ff07050f1aU, 0x5100a12d43800ffU, 0xee34f9fc14fed9f8U,
  0xf8f5040d05142c22U, 0x2021de913faf709U, 0x13f1fe09f40f06faU, 0xdaf8011c0cfff312U,
  0xfe13ef1a2a21070dU, 0xfacbee2202f01d13U, 0x4fee3f1fcfcf10fU, 0xf10ceaf8f7fb03fdU,
  0x1d1cfbfc5531e5feU, 0xe909d60ff6f8dbfbU, 0x150e33e6f507edcbU, 0x6101405ed10e619U,
  0x161cfa1aed061e0cU, 0x240803f0f9b30d14U, 0x9f028d203301005U, 0x4ea0ef30cdbf612U,
  0xeed309fdea04f0fdU, 0xcff80ee2e50d02U, 0xfaf710f1f6e20406U, 0xe132e8eeff311808U,
  0xf5f829041806de0dU, 0xf8f95e1b17f31225U, 0xfd04050017e541d6U, 0xf11bff07170ae9e2U,
  0xfbd5f315faf9cedfU, 0x1ffefb24f6dfd628U, 0x161be6effeee2bc2U, 0xf8f5dddf0011de06U,
  0xf1f8faf53625f2f7U, 0xd10a21f9fcea04f5U, 0xecf9e408f8f70500U, 0xe60d170223ab12e2U,
  0x1ff6321d1110060bU, 0xdaec0c03eef218ffU, 0xafe38eff9ee0025U, 0x18341312fde70c03U,
  0xf501fffcd0f82204U, 0x191903f504d51923U, 0xf31407f0f027f9f7U, 0xfc1a05d314fa2802U,
  0x2feeb050311f62eU, 0x1c100d05cef4f5eaU, 0x150a04eef2021cf8U, 0x1fb2cf9c8e5fef4U,
  0x32d8fdda0d10113dU, 0xf420fcf30be707f8U, 0xf8f008000d0f22dfU, 0xf4f101132406f906U,
  0xf0f6fcfd121600edU, 0x238080911f7ed4dU, 0xe1b7ff2d1006fafdU, 0xed1cd5db0d22f7ecU,
  0x409cc010b01f719U, 0x21f1fc0905e9dbf6U, 0x6d502dff9fa0c13U, 0x18e30e17f0e0eee9U,
  0x19f6da00f4e910f5U, 0xeae718ee30f3d0d7U, 0xe401f6f3f6d30e17U, 0xe8c6c21a0f0804ecU,
  0xfd0a15cf10f8f0ceU, 0xff12ff04181f02ffU, 0xd8e319f820f9e513U, 0x1d011ef10cd00918U,
  0xe201bd300010122U, 0xf6f71f15d1fff1f7U, 0xf9f9e128e10808dbU, 0xf60deec2ee0901daU,
  0x201906f702100012U, 0xd5fdc3d408f92bf1U, 0x160d060b05ecebf5U, 0x14f8fee3f409f1feU,
  0xfffffce9fbdc06fcU, 0xf9fd10e8f2062512U, 0x21effb21f4f61d06U, 0xf0200b17e7e9ea02U,
  0xf8a01627f6eae900U, 0xe4fbf7ef1d01e2fdU, 0xf306001701ed28U, 0xafee331d3de0615U,
  0xe4020339ebf90708U, 0x12ec0812e1ece711U, 0x120f0a0aeef806c9U, 0xf3010fc99d09ff07U,
  0xe0f31923040a051fU, 0xe0f30afdffd715cbU, 0x1001231cedfcf805U, 0xbdbec070ff6faf6U,
  0x13ff0e0d3304ded9U, 0xdd9f803fdefe1d6U, 0x170202f7e600f03eU, 0xedfa09dd201d0f0cU,
  0x41f5fafe14dc22f4U, 0xf1d9ec0b0a1cefebU, 0x1010f53febfa06e3U, 0x1a190ceb09041709U,
  0xe7fb00eb1ef80bU, 0xff426fc02fc14e9U, 0x5e403f6f4f510dbU, 0xf4e5f415051d1b0cU,
  0x9fd03d4130823ffU, 0xddbce9e8f90af133U, 0xe3f8f20cf9edf807U, 0xe5240a1ae207e11cU,
  0x904341c17fbf50cU, 0xf9c62be41a15dcf4U, 0xffe4fd183dd5f0ebU, 0xf9f70803210cfe01U,
  0x8f809e3f3e9181dU, 0x617ff2c0c051208U, 0x5ff07b3f80ecffdU, 0xe608f70d0d05e500U,
  0x260be22118ebf5f0U, 0x1510edf608f91d01U, 0xebf40b1825d41b0bU, 0xf104ee0fecdde7edU,
  0xd1f9fd0507e20cf2U, 0xa141817f014e916U, 0xe9e5dcfe3016f203U, 0xcbeed5ea16f4faefU,
  0x1d07dde7e1e90222U, 0xa0de6fe280f24f6U, 0x6e92414e5ee46fcU, 0x5fffbf8fbeee8eaU,
  0x10fd11f5f808fae3U, 0x2f9dacd18180a1fU, 0xfbd3c0e10814f9f8U, 0xeeebf2e8071d0437U,
  0xd6f20e12110fe208U, 0xa2bffef05e8020cU, 0xf2ededece413091aU, 0x25e918fc00f801e4U,
  0x60ffff6fc27fcd9U, 0x1e212106e9df0303U, 0x17f1fad819251612U, 0xc80f05e40ae9f205U,
  0xd4de03263afceef1U, 0xe9f70d08f11c0306U, 0x1107fe06fb11dfdfU, 0xdfc13e5004f0afcU,
  0x16050d40d4df0cf4U, 0x11fffe092a1335f0U, 0x9ed0a01e7e9c304U, 0xedf3edf927f4fe0cU,
  0x5efd7e205081efdU, 0x60635fd00f5fb02U, 0xfcf103f910ede708U, 0xeb080f030b0ef5efU,
  0x9fb12f70a010001U, 0xef202608ef06d413U, 0x10df601f80c0b01U, 0xeef4e6fd081200caU,
  0xf8df1dd6f71f0601U, 0xc50a2f05fa1dedd7U, 0xc5d4db0e19eddafaU, 0xe1e04e72110f5fcU,
  0xdcf617170adf0af6U, 0xfafcd41b1515f105U, 0xfdfc2218241a0c05U, 0xc81206e70112f307U,
  0x10d81306fa17190aU, 0x8f11700f7122706U, 0xe004d60308d7230cU, 0xead7f91f09dd130dU,
  0xbfd0dd214163513U, 0xe604fafde8252404U, 0x1bf7f61e050cfe1dU, 0x2200d2db08f6e1e7U,
  0xfceeff06fb0530feU, 0x5060230ed392f13U, 0x23fe10f614b834f7U, 0xbe16fa14f50d1bf6U,
  0xd0325fd21e8f4fdU, 0xeb0b27ff12f8020bU, 0xfaeff12ffef70d0cU, 0x18e9ffdde9e1e010U,
  0xd406eaf4f507fb05U, 0x1dff6e919171aeaU, 0x50dea34e8fb3431U, 0x18010f02dd06071fU,
  0x1bfe1f0bf413230fU, 0x2505fd170df313e1U, 0xd8efff150104efe1U, 0xf338f1cf01ed0afdU,
  0x22fc0119242114ddU, 0xce50f01e30ada0cU, 0x61100eeffd91326U, 0xedf4f52beccfe219U,
  0x17e4eeef00fbde2aU, 0xfe320202f70b0d0cU, 0xfe1439f3ed07f80cU, 0x16dacef0f7e3fde0U,
  0xdcecf70b0eeefc17U, 0x4f306feea21092bU, 0x80804c8132c32fcU, 0x2adaedfa070616d5U,
  0x2fd170a1a11f91eU, 0x1915b7e3f30f0929U, 0x201a0803fd04fd07U, 0x21517041515efffU,
  0xe8150f0de60b1301U, 0x21e3030610f3dfefU, 0x160a05c8470c1632U, 0xec1501fe321832fbU,
  0x5f00ff01d06e82bU, 0x1bca1536e9e81a23U, 0x9f8e1e6e8230005U, 0xf201fd13f101e81bU,
  0xe706200721e8ea2cU, 0xf916e3d70503f70aU, 0xf50213fa13f8053aU, 0x1603e311f90700fdU,
  0xf3e21d00f1022631U, 0x2be7122ef21bdc15U, 0xef15e3e30714ec35U, 0x26053118f3ffed33U,
  0x30f9f3fc1003fdf6U, 0xf9100efef934fcf8U, 0xcf43f361dea0220U, 0x23e53040ff0f0805U,
  0x1dc9fb10fcf7fd20U, 0xecf9da25dc12042eU, 0xf723f81300f11df0U, 0xe7190aecf5f628ddU,
  0x17fcf8df0f0002e6U, 0x1d0dcc09f332e9f0U, 0xf211030902f6201dU, 0xef1608c8ed0a090cU,
  0x2d060f080f220619U, 0xa0d10f6fd1016faU, 0xfef5f32e1fe6e213U, 0xe9f636e7d910f210U,
  0xb8e916fffedb1ef6U, 0xf609eafed8ff060eU, 0xc0201e902f8fa0bU, 0x8b5ee09e8f6f30dU,
  0xf20de81aef07b71cU, 0x38e0dffcdb020421U, 0x1f71cef03f9ef26U, 0x9fe20f9f408f5f7U,
  0xf91d1deee809ed2dU, 0x13190337fb031034U, 0x2417d70aff050d33U, 0xd0818fee5e733dcU,
  0xe9d6f0fbfc03f413U, 0xf30eed17fcda10feU, 0xcfaf9e317f5f5e5U, 0xfce3c812dc14112dU,
  0xed10fb000308230eU, 0xe901fe01e337f3f8U, 0x18f72903efea0f26U, 0xc141d16fbec0fecU,
  0x13092b0ffb0601U, 0xfcfeec13f5c7003dU, 0xf4f1ddf6ec01f4efU, 0xfaf7f507de0b0310U,
  0xfcfdfb16de493713U, 0xeae81913cdf3fafcU, 0xf8fef0d8fd14192aU, 0xe720e8edecb32916U,
  0xfa1305020a17f3f9U, 0x805f8131f0c13e6U, 0xc2f1251ce7071325U, 0xf7cee5ee020e0405U,
  0x8feefe0f7e8f60eU, 0x180237210d2adf0eU, 0xf9fd10f4000cf5ebU, 0x1b030a37302ffc01U,
  0x308c4f4f4f9f5f4U, 0x8f801fdf40f0402U, 0xe0e810e6ffe60e09U, 0xf3f30c00edf6e8f7U,
  0xf5e81915f6f80304U, 0xf313f7f2fd0de109U, 0x14def0faee0bf508U, 0x45150af9cce6e6ecU,
  0xe331115f8011323U, 0xfee80a0416090c05U, 0xce0f84408f80500U, 0x662413080513fa0eU,
  0xce071701f1f5e7edU, 0xf01a220be80c0f0fU, 0x11f2e80ffaef0325U, 0x2ece40416c8ee2fU,
  0x41d31134923e7ddU, 0xfdfb27e7fcf4f7f0U, 0x2b06f70e1dfd0a15U, 0x15111f13e319f1cfU,
  0xe0dc0506030ef227U, 0x16edf9e202e44108U, 0x4e91acfdb2815f2U, 0xae632dce708ec44U,
  0x105151a51071ddcU, 0xfdeef2ee041ceefeU, 0xede7ea0de3e5edd2U, 0x2317f30319df2805U,
  0xff080ef3d7f9f7f9U, 0x45fde902f7e00534U, 0x5f7f913de16e717U, 0xc0608fe12fcf6f6U,
  0xc3f90ce00908d81eU, 0x15ed4c2426ff09e1U, 0xfe270df2140c010dU, 0xf5bcf8f014d7ddf8U,
  0xf1e5c422fcf8f51dU, 0xf71b2012fc360215U, 0xfa261007f1e70dfbU, 0x14f1f4230b09e2d0U,
  0xf2f71758fff6d5e1U, 0xf70aebe6efe5f514U, 0xef06090f0cf10f2eU, 0x16fd132420071a04U,
  0xe021e7e2fcf5ffd4U, 0x715bdd02b02e300U, 0xf91d30050ce3cce8U, 0xf5fa0d1bf1ebfdf6U,
  0x8f3fee1f0f00616U, 0xe608f61cfb1e1003U, 0xd14ff0122f7e1d9U, 0xcc1f0e10dd1fe002U,
  0x800f2d23ef205e5U, 0x1d1511f103fa2c0dU, 0x1010a0b1000ff4fU, 0xfefef40c02f801dcU,
  0xf9fde6d1fbf90d37U, 0xe8fa49f3123eff0eU, 0x1409090d1cd81507U, 0x3000107fcfe0922U,
  0xcf71313f6f90a02U, 0x5030d0e07fd1619U, 0x100f09f4ec07fe0eU, 0xeaf111f604f711f1U,
  0xb5eb2b3f27fe0aeeU, 0xcf19cee4f3fdf1feU, 0x9e420071a11cde5U, 0xf711fafc0a0f06c9U,
  0xae809fe080b0104U, 0xed0310f8f4170900U, 0x1e02fef91eeffa03U, 0x460b0809e40302dfU,
  0x7fc0dbaebfb1bdbU, 0xe8d4ffe90af50324U, 0xd04caff0f11f2f6U, 0xf15cef6ee232defU,
  0x1a051b1a0f02fc19U, 0xf504ee0a102402f7U, 0xed0cff0a1fe2260aU, 0xf9ff1913df24e1e0U,
  0x80f09f60e002a40U, 0xf9fbca1de8c00212U, 0x2e16d74502fce1d2U, 0xe10dd7f4ebfd10f8U,
  0xf10e1a10f7310205U, 0xda0910cb18f41732U, 0x80b18fc01ff2ce9U, 0x40a09132744defaU,
  0x2321fc1901d0e70bU, 0x31fd03f3c61adefaU, 0x12f9f1c61ce9dbfcU, 0x408fd0a0e030620U,
  0xfcf807cdf7f1f719U, 0x16ffee06112de8edU, 0x1af2190f9ae639ffU, 0xc29efd204090e08U,
  0xe5e9ebf4f90411d8U, 0xf528150efc0fdeebU, 0xdceee1310fb0503U, 0x802e3182b36e24dU,
  0x6f8efd22320f7fdU, 0xffdf03e5fb08ff04U, 0xfdfdd304f2f02af0U, 0x2927f2e712e9e714U,
  0xa1c11fb0613efedU, 0x1317fec8edd3e302U, 0xf01402f0e913e4eaU, 0x5e6d40b1f0d0914U,
  0xb01d6040c322816U, 0xf3ab0401f21f0a2cU, 0x6093bea0cea1f18U, 0x13d9f915fe1a04eaU,
  0x4ebec0b04f80002U, 0xe5f918c72bf616ffU, 0xf3ea07ec13050f1bU, 0xe1ee040dfcf4dafbU,
  0xcfacbf9fc17fcU, 0xff17f1fbd049f8d3U, 0xf700ce2126caeb0eU, 0xc3190836f9171547U,
  0xf21315e30226e0f7U, 0xa1111e02005f5feU, 0xef14f60d1ffa1afeU, 0x37fdfc1122030d12U,
  0xfa06172714f3ec01U, 0xdf07ea072a0210e4U, 0x3213151b06021613U, 0x6ec120fe50de8d6U,
  0x15f22af4d911fd1cU, 0xfefce0d7dcfefc08U, 0x21fcf406f9ded8U, 0xf1370f0112e8f3U,
  0xf5e70de119071c31U, 0xec01141bf1fff01bU, 0xfd02d8ef00fc0217U, 0xfd23e9e5f362032cU,
  0xc170b045fc907fdU, 0x23fee8e70af6f6edU, 0xf2eae40221ec0908U, 0xfbe4cbefd52604e9U,
  0xf9f810fe071211ddU, 0xe518f13aebd0f910U, 0x260d21fcd707f426U, 0x15ea040de81ce1ecU,
  0xf80516d7f01efe17U, 0xdeaf80036fbddf9U, 0xd8fff3f701e2ec15U, 0x30d0c07edfa191cU,
  0x3060ef33fe4ea2eU, 0x23390905180dfd02U, 0x1f8f00916051213U, 0xf60bcbc0efecf200U,
  0x1dff1ef704191a0aU, 0xf000eae21012f7eeU, 0x16f1f00e061ff3daU, 0xd20b092c0011d900U,
  0xec0325d5e0f425U, 0x10da14180900f819U, 0xdf1611cf00fdf70aU, 0x1521e9ec0e03f2ddU,
  0xf4f610f9bf0d000dU, 0x1b112dfa1619cacfU, 0xf911260232fd1314U, 0xec000321ed1f1611U,
  0xfdff270005effa01U, 0xf51625d7e216ea14U, 0xe8feecfd310c0a08U, 0x2305090a0dfe0cf9U,
  0xe7b907060118dbf3U, 0xfcd7e9ec22f90308U, 0x11f20c0207f2eaefU, 0x240ffcde02fafa21U,
  0xf2e213e205081afcU, 0x2cd7f820062b0340U, 0xebe81907f90d1505U, 0xcbf6ce0a22fdea01U,
  0xd1fdeaf6ff090edcU, 0x19e80710ffedf60bU, 0xbff050a192613f5U, 0x29f6f7e9fa101505U,
  0x40014f3f401fe20U, 0xdd05f6c6ac121cf3U, 0x81af8131116e510U, 0xf1e0fc1833a4e8f2U,
  0x1915177f03fe02faU, 0x260c380cedeff8f9U, 0x20f0308d80b0c36U, 0x31ed23fd03fd1bddU,
  0x1000f7eddbffcc05U, 0x420611f4131c0b08U, 0x403ed13e9ca0eecU, 0xfb06e1f715eb0cf1U,
  0x50232e227f92714U, 0xf21eb2df101deac7U, 0xfced14bb0306051fU, 0x1dfc160b11e7e6f6U,
  0xe6dcc81620071b07U, 0xce33240b23151220U, 0xbf9f7f7ec05f214U, 0xf6fc060b30deeaf8U,
  0xbf50e09fbdf06f0U, 0x1e06d2d91a0c0615U, 0xe2ff0504b8ceffe3U, 0x613df1afafaf2f4U,
  0x9f91919f6e933f6U, 0xa00f2f228caf719U, 0x1ae7fef70915f633U, 0x40bf2f31c1303edU,
  0xe611161f001bf70cU, 0x1cf9082cec11fefaU, 0x2901f408f2ef1af5U, 0xd0f811fef011dafdU,
  0xfe04070ecef9030fU, 0x1910e9e8d4000011U, 0x13261c030a0ce917U, 0x13060f02e1ff17fdU,
  0x5fad8f50918e4e3U, 0xbf91d1a14f6fb0aU, 0xcd0f020504f3f21aU, 0xef7fd014e14e728U,
  0xf4ed22edcb15e9feU, 0xe5021306f40ae009U, 0xd818bc002b07200bU, 0x16da0c09e7ee070aU,
  0xe1fbcbc6fd01ec20U, 0xea2622180a0e17edU, 0xfff831c9d8e5fde6U, 0xc050101ffd3f623U,
  0xafbf51fe102fa32U, 0x4d20fef11f8ce15U, 0x2c16f8f40bf41837U, 0xe8fc03e9071ceaffU,
  0xff2621121c060ff5U, 0x31e00908d3fb37d9U, 0xe6fa0be2ee08f803U, 0xfce2bedd031b2a23U,
  0x2fe51204f30d2220U, 0x40bf510eecafad9U, 0x9e4e61913f6010aU, 0xd71ce4f7d1f907eaU,
  0x26e0ebfa00e6603aU, 0x17f4241efefdf2f4U, 0x28ff27140b0402f9U, 0x1e1621ff00e202ebU,
  0xb19f01b160cf115U, 0x18fefb01e90c0ae5U, 0xebe5140cf4f50104U, 0xc21a33dce6ff21f5U,
  0x17f52d17fdf9f4e0U, 0x1821efe129940bf2U, 0xcb0c28e4f7ee0e0eU, 0x11f7ec2edb001407U,
  0x30f2f5fff40c01d4U, 0x17f00f12fc09ff08U, 0xdf18060cfbf4ea03U, 0xfff06d3ec0e08f4U,
  0xf20a100b450307fdU, 0x1a4c00f9f1f20217U, 0xf6275c03f1093a17U, 0xda16faf41ceffa2fU,
  0xe2c92413f70fe0f4U, 0xd3e50de6fc0420fcU, 0x3030445fc0c2405U, 0x390affea03141109U,
  0xe7e0020a1af603d1U, 0xe3fa1d222ff51ce3U, 0x19f41ef5e7fdef19U, 0xecf3dc15090de3f7U,
  0x14f80807e8f6f903U, 0xe7fb03d214f50b03U, 0xe7f00b15381c011dU, 0x1c2412fa26e80121U,
  0xdbe4e2f701f518d7U, 0xf209220512f2f613U, 0x24faea02e9ce2820U, 0x3f1ef80e340108f0U,
  0xf5fdf209ece40d0dU, 0xe3050dfb19edfdefU, 0xfff116150723eaf9U, 0xfef2050b0de0f9d3U,
  0x804fc0ef114f714U, 0x13f9eae6ea000f24U, 0x3b1de81ffffaf418U, 0x15bbfcf2d5cb26U,
  0xfa1b1bdfe3f810e2U, 0x10e513eefb1405U, 0xf22621d319133413U, 0x1ef8fff62314e204U,
  0xe0b19f4e616f7fcU, 0xc205db1c04ec021eU, 0xd8fbec02eefaf6fbU, 0xf0e74a041f03081eU,
  0x45125f905142ae0U, 0xe5f5d2eb10eeb910U, 0xfe03140cd30c1cdfU, 0xcf80736fffbf4ecU,
  0xf81721d805121410U, 0xd0703f7fc0523e4U, 0xf102f6fff7f7ff19U, 0x2ed192c110d0ee3U,
  0x715fefcd9fa18f8U, 0xf1eeecf7f111012dU, 0xf1ed080c1b1c0800U, 0x1502effd0201de08U,
  0xf611060deaf91e0dU, 0x1028e02347f6f3e1U, 0xf5ebf7d312f5ef2cU, 0xfcf11932fb1d00edU,
  0x5e217030318f22cU, 0xae2120ffcf00110U, 0xf5f10002f1031917U, 0xcdfa0112f8f50201U,
  0x13edfee4f2ea3bf4U, 0xf69c3e041af91b05U, 0x1a10160b00f4fb34U, 0x501ee03f618f344U,
  0x919112904e00fffU, 0xe00dbaf6ec01f4e9U, 0x250a16f3f1f0e2f7U, 0xfbf3f2f826ec22cdU,
  0xfc43072f0d130effU, 0xa0fe2e7fbfc0edfU, 0xfbfaf2ce1f27e602U, 0xdb01e01c01f92503U,
  0xf3050206110cf713U, 0x8e7fefef7b1f62eU, 0xf700162205e40ff8U, 0x111033eef0faf3edU,
  0x7ee0f000d380207U, 0x25e1d527f70102fbU, 0xf1f02a0b182435f3U, 0xeeb761f8e81ae1faU,
  0xffde0213fd04d806U, 0xb390d2514d9ee0cU, 0xe42aef2433f2f6fbU, 0xfa0d0319f20111e5U,
  0x9fe0dd01e0424edU, 0x3efebf90cfcf6f9U, 0x1213f2f5fcf9102dU, 0xe902fefc0b2c1844U,
  0xf20ff00d2318f1f1U, 0x1afd11f506ffe9daU, 0x12f62915fe06e902U, 0xf7ed19f9e404fb05U,
  0xa030803f4d8dce5U, 0xf7140c4406070612U, 0xfeea04e8fb0e19f6U, 0x190add092834f9feU,
  0xf5ecfd0f04f10afdU, 0x151ae30cf9fd141aU, 0x28043906fcff0703U, 0x305ec0033c30104U,
  0x28011203e3eefcecU, 0x27021a270ef41521U, 0xf5f70bebe8331207U, 0xd318f2f8fd11fcf5U,
  0xdeeafa1828eb20d2U, 0xfa0f200e0dfbe703U, 0x172b09f4fee21bdfU, 0xfdc1eff20ee1f912U,
  0xccfdebff0ef7f1e1U, 0xd1219000e0dfaf1U, 0x1ee9170bfd05f5deU, 0xf2d2fd13fd46f206U,
  0x32002f900ee4404U, 0x1ded2ebf4e0e215U, 0xf42a0cdaf609180aU, 0xb22260ee3ecfbd3U,
  0x23e1f8e700f30610U, 0x222418fe121cf702U, 0xd01011ce40a2e10U, 0xff01e613cd0eebedU,
  0xd3e2f3f503202d08U, 0x8040cea2318f5edU, 0x21b010508073bffU, 0x534f302d41602fcU,
  0xf41613fdf811fce2U, 0x1a1bdf15ef180414U, 0x35eff4e414120bfeU, 0x141cc110eeec09f9U,
  0xf10cfffdd313f924U, 0x213e318f7dedcffU, 0xe71dd520fff3e41dU, 0x2604d7d9e5092bf8U,
  0xdcf51bfdf72aff20U, 0x506c6121015ff12U, 0xfce3151303221413U, 0x71301e310f7011aU,
  0x3f7fc0ef43b03f4U, 0x1632edf905e8170eU, 0xed15d1e60cd65c09U, 0x91f07f52edd04f9U,
  0xed23f20ffefb0209U, 0x429f60927f234U, 0xa1204d427dbdbeeU, 0x2415001df0f220f7U,
  0x2800f1ff1f09ebf0U, 0xfa10dd03d425d9efU, 0xf8050904fa011501U, 0xf70eff06f8a3ebf6U,
  0x25413cebfcef1be5U, 0x2c8eaf4f0080aeaU, 0x203f40d12220904U, 0x6db18f5d71410e2U,
  0xa0e0a09fdfb07d8U, 0x10120815ff4bf6d6U, 0x1830116133e001f1U, 0xef0a130afffc06deU,
  0xc12deed16fae93aU, 0xeefebd116f50b00U, 0xf9021bf5fd1b0506U, 0xf8e4f71303e8d4dcU,
  0xecca3d59fd010ae6U, 0x14fcfbe81205f212U, 0x27ff3afae830f815U, 0x22040407fff7f921U,
  0xb0007f5130c03cfU, 0xf504f227f7a505eeU, 0xf23af126e3051ce9U, 0x342d001202112734U,
  0xffff621fbfff8feU, 0xb180705f0f4fc08U, 0x20ff01fe07ecfd05U, 0xee29ffc1020ff7f7U,
  0x6f71ef8d70026e9U, 0xf11e101ef90bc131U, 0x1beee70817310901U, 0xff817ebfbe8dfebU,
  0xf114f5f0fbe3f4eeU, 0xfdf9d913f115f8f4U, 0x1c1afb24def7e201U, 0x5c912080f0d47fbU,
  0x21252f08f1ded9e7U, 0xf9d2ecf5cb241a10U, 0xee280af206faeb02U, 0xed0af3d008fceb01U,
  0xce713f8eff2f216U, 0xe2fa151309020609U, 0x30a0c0dfddf20e8U, 0x10f407071aea05e3U,
  0xdee0e700e9060d13U, 0xf329f560f4fa0512U, 0x93df106f4fbf5faU, 0x1c110e0ae7f8f614U,
  0xe1c16023cf3f818U, 0x4f5cefffafcea0aU, 0x104e10cf516e922U, 0xe500fdf5f0f2cd0fU,
  0x50401efd022f800U, 0x4020e01f4e2270dU, 0x6f90ffc0914294bU, 0x430221e7ff1317fbU,
  0x16fd07e6020d121bU, 0xe7f20302ddfbe4f1U, 0xdef2e5fd17f90e42U, 0x2ed12f909132305U,
  0xff0be9c90313e1deU, 0xe300dcca05f3f70fU, 0xe9fcebf9fbf71101U, 0x3c200d924b41ae5U,
  0x310eef1209f2ea03U, 0xcf5ec00f420180aU, 0xfc0cfdfbdf0fe30dU, 0xf93517ef070df9U,
  0xfeea0f161cf3ec29U, 0xe711f1e31a0e1332U, 0x1c010af9dace24edU, 0x7fa09ef271af8ebU,
  0x120906e7f8feea2aU, 0x2e704081df5eff1U, 0xe07ed1b0be6042bU, 0x101209171ae0fbf3U,
  0x23effa07efeb0910U, 0xfe0f1e7ebe9f3fdU, 0xf6e41e1c08daeef8U, 0x2ce5e4df13190023U,
  0xf05fff40e020113U, 0x713ecc8d8dcf60eU, 0x2bf9e715c8c70d19U, 0x6eaf9f61505f8f4U,
  0xf0f4d8f90a4f09U, 0x2a05fe050b0ecf04U, 0xe6f1fd071a1908b8U, 0xf8f2e906fe0afb29U,
  0x1105e9de18ff140cU, 0x7f00409f5eb0410U, 0xf10bcff5e9231133U, 0x1dfce5f7fdf6ddd4U,
  0x212302effb150cfeU, 0xee6031fe2d9f04cU, 0x2201cd0b05f6edU, 0x6fc250bf6df0200U,
  0x24f6fd06011016ffU, 0xf5f60dd90efeeaf5U, 0x281d05d4070fc9fdU, 0x331eec16273e1b0dU,
  0x231607170eff040cU, 0x4e60df0e4e50609U, 0xff0e142c1e0eef03U, 0x18ff16f20ef5f8dfU,
  0xed14ccfd0711fc04U, 0xe201fd0cfbf304f0U, 0x2828ddbb0f1ad1eeU, 0xd003e9e5f5e51725U,
  0xf6ec0d161207f512U, 0xf9ed1ce0fff4f4eeU, 0xebe3fc07f9fdeb0cU, 0xfd1b10eb0520f307U,
  0xfbe701f7052601ffU, 0xd3f004f901f2f3ffU, 0xfbe41cef00e52538U, 0xce21b0b90f0d01f3U,
  0xf0103eff310d07d0U, 0x162fe20202eb0a05U, 0x7c41d10f3e4162bU, 0x320421fc0201f50cU,
  0xfe1de10bfbff18faU, 0xe3dc15d9e4ece601U, 0x4f301ecff150117U, 0xfd2c11eaf5ef0840U,
  0xe017f3102b06ededU, 0x5d4f5040cefee0eU, 0x1fcf23b02090e03U, 0x3e21cf9e5e91013U,
  0xe9db1006d119090bU, 0xf603f916eced18f8U, 0xfb08fb120cfe1a2fU, 0xa1bf7fb141e0401U,
  0x2116f0f905f9ecfbU, 0x109aff00e04fff7U, 0x2e8fd21100f1a20U, 0xf0d7d20cd633f6e0U,
  0xe6daf80321bc3ce9U, 0x1cfc29e716ecef07U, 0xfcee06f1071f0f18U, 0x6fbd9ff08fbfcf3U,
  0xb15e2fb11d93bf7U, 0xfb2202eeb30aec04U, 0x3033f5f8fee607e8U, 0xe6f22505f60df911U,
  0xea1a0911e3ec1d06U, 0xcea0aec080b02ffU, 0xf6f81f2dfe110802U, 0x1bfde7f502ec04f1U,
  0xc336040ee9fcef11U, 0xcc0deaf50500f8e1U, 0xef1a0811e5f72c06U, 0x11081bf40602d737U,
  0xe2430bf0efefe807U, 0x140ce905f209eb06U, 0xb06e009ee09fc2eU, 0xfd54110b1efff8ebU,
  0xe4fef1d02b0112eaU, 0x1e5f1fdda11022fU, 0x11120ff703fd0334U, 0x5f92fe0000b0cecU,
  0xedf4191308d7260aU, 0xf510010216ea22f4U, 0x913edf3f2def718U, 0xf9110ce1d30ff801U,
  0x1ebb51103231cdaU, 0x82011f7dc062e0cU, 0x1a021b15edd0eaf0U, 0xf1edfaec120ce108U,
  0xee040df30b150e17U, 0x1eeccdd02121e50bU, 0xff6f2e7fef0f70fU, 0xfa38ec201908e41dU,
  0x2339fe160dde321eU, 0xb91dee0514fb10f0U, 0xeff4f0dce2fa1e34U, 0xe305db1509e7fffaU,
  0x1a09eaeefbfed4c4U, 0xfbec43021ceb31fcU, 0xb26170123ec0b0bU, 0x208f62d1c0222f9U,
  0xc6d92e09021f0816U, 0x1edcea1101f310faU, 0xbf4fcf8190aededU, 0x31df13f6fb0cecf4U,
  0xe6eaea22f71b17e7U, 0xfcf94513e20ff1U, 0xe106fbe700e6011dU, 0xd8e929ece20a30d7U,
  0xf21b270dfc151be4U, 0x5f02828dcca27f7U, 0xf517f722f8371003U, 0xefe9310bf3f70d02U,
  0x16ebff070fcaecd5U, 0xf309e9fa1adeef03U, 0x1ae51807e6dfe2ebU, 0xe4efe6f9f8e3f0edU,
  0xefd220feeff017f8U, 0x211f6f1faf31a29U, 0xfce602f24713fd0cU, 0xd2031f07f314fa1aU,
  0x1422fdf11f09fa01U, 0xa09fa15f4d0c8e9U, 0x140beaeeebfced0bU, 0xe41f0cff09d71239U,
  0xf60ae916efef04e2U, 0xd50bf9fa3f11fe19U, 0xc0ac7faeef50afbU, 0x36e6131905e2fd16U,
  0x304e40d11091cf0U, 0x2b0c160cdbf0ee04U, 0xe7d3de0709fe0c08U, 0x1f81418faf909faU,
  0xf4cff3f7e7f9f92bU, 0xe920fd1efe030cU, 0xef08fd0405f00aebU, 0x310371b29eb15ecU,
  0xfdfaf2e316e01910U, 0xe0f6f90313e4edf8U, 0x10190cfdeadfe729U, 0x182cfc09f8e104efU,
  0x33f0f7ec32022403U, 0xca0aeefdeb380901U, 0xf4110306f30ef8d9U, 0xe8ecec29fad3d604U,
  0x41bf8ffe8eaf31fU, 0x1804151ef9af012bU, 0xe01e0a20e41204eeU, 0x1021f17ec07ebfbU,
  0x291aff11ede90924U, 0x1a122502f80215d3U, 0x810190fcce6151fU, 0x18e42709f13905e2U,
  0x260d05ff0c290711U, 0xf7fa1a00090adff5U, 0xf20d00f1cdebf118U, 0x5f309f6f5f01705U,
  0x29ff04de12001af4U, 0x23000b0005fa0eedU, 0x7fefa240ff0180dU, 0xb91410f9d4e6eb04U,
  0xf821ec1c2218e028U, 0xfdd0e1612cbdd10U, 0x271006f1f401d828U, 0xd5f10fe6fbe9e0cbU,
  0x26e9f306fe0c040fU, 0xfc1002030ffdef25U, 0x702ec0414ebf80aU, 0xf30f16e4f00816d3U,
  0xf0d10d1418f8ef0cU, 0x1118f7e3f200fd29U, 0xe9e7ece401fcf404U, 0x28fbffe005d8e8ffU,
  0x1f0af0d603d45631U, 0xe0021c18e6ee05fdU, 0x12e1f1cf1e1ef209U, 0xa0cdc370a0bf003U,
  0xebf91d0d0b2a14c6U, 0xf72df2f9f205faf6U, 0x71f01e6000225d9U, 0xa02f3eef8ea1c0aU,
  0xf90408e70e08f0ecU, 0xf21ff422c2fefd0fU, 0xeb06230b0041e012U, 0x524f1ffefe8fc03U,
  0xefe0f8fce00c07deU, 0xf3022b0c1a11050bU, 0xe5e3fcff15ea0d02U, 0x4e20beffcf8f003U,
  0xf40410021b160640U, 0x25d4140f131ee013U, 0x5f920efeaf7f606U, 0x5f5021a0df008dbU,
  0xbec57cdee1125U, 0xe01ef214f0dd1e0bU, 0xf912f6f4060afc08U, 0xe42cfb052213f80fU,
  0xfecd6e5f90b060bU, 0x1d28e3f7f618faf8U, 0x1815fd10fffd131cU, 0x2401d9e7c5f6d821U,
  0xf3f8f000f80f04f7U, 0xec1ffb01eb0729f2U, 0xf4f211fa17ede8c3U, 0xefe1180747e60704U,
  0x7f919d503f00005U, 0xe705ef100114e2faU, 0xf8133f26041d0e11U, 0xcbfbe11318ff1c2bU,
  0x2be2f8f43e07ff15U, 0xea0e17fa21160312U, 0x1d300a1ff9d8f8U, 0xef406f20b18d0f3U,
  0x100416f20d0d090bU, 0xfb18ed06ffe6e9d7U, 0x6070119c6eef8fdU, 0xf4a3ecf000fc09feU,
  0xf0f4ee04f0faeb10U, 0x28fcdcfc01a2ef09U, 0xf824383cf8eaedf0U, 0xe31e0b06fd0101fdU,
  0xbe6f22330dbf5eaU, 0xfbe7f4ec000ffee4U, 0x50ef9e0f1edb630U, 0xf5f5020f07ac1c13U,
  0xe1170f01fbc6e6f7U, 0xe8f6fc1edff1ec27U, 0xa2428173bf803fbU, 0x5012008de18040bU,
  0x1917fe0f0bf4e913U, 0x2d0a0d04f40d0f07U, 0xd9e1e0dc271c12e8U, 0xf3e40bf2fef8071dU,
  0x2a020238401ce510U, 0x1c0d3bf329092724U, 0xe0140110f0f01b09U, 0xdc14ea0af008f51aU,
  0xfc2120131926ffdfU, 0xd8eeff150419e90aU, 0xfbe101c415f811f5U, 0x1291b1a1ffa3213U,
  0xff081efeecfcf836U, 0xe41d12e5d40910f4U, 0x1828370bf113dc11U, 0xdf1edd0dff00c204U,
  0x23e80dea08f116fbU, 0xe820e6e301f902f5U, 0xdbeffe07f61913e7U, 0x805fcf906faec0bU,
  0xcc19fd0208e7c3efU, 0x2f82c3e16ebedf5U, 0xf6ec10fd2af6271fU, 0xfaf306ed101af624U,
  0x12ea1215cce90515U, 0x80d020e281c031aU, 0xf6e2ce4fe0020eefU, 0xe9e8fd151a171214U,
  0xf90f09dbf3f7d9f8U, 0xf3d922eae8fdfe08U, 0xf000041e0c1ce7f2U, 0x8e702e7f33f0bf9U,
  0xa26ef022bf2fc0fU, 0x9ec1b252003f308U, 0xf3d5060bee36131fU, 0x1ee82a08e2ee09ffU,
  0x2113e92afb040fffU, 0xf6020ff71df6e2e6U, 0xe32cdc0d1eeafcffU, 0xfb0df8daff0ee6f0U,
  0x8cd2b281ffb1328U, 0xcdf90e19f40916e5U, 0x9e203e31e021014U, 0x2b111c1c0dccddfaU,
  0x1c030cffe1f80217U, 0xf0e2e02af8dc0c09U, 0x1ff707dc45d2db25U, 0xfcc5f1e012f70f24U,
  0xed13e4e209ee1417U, 0x11f0f2e604150e3aU, 0x1dfad73307dcf8f6U, 0x1719fbf6e60b1500U,
  0x4e5eaeef0f0e00eU, 0xf3e12affe00fffe6U, 0x5fefec1fbe801edU, 0xfa06280017ff23e4U,
  0xfe05f2f007f5e40eU, 0xe1f70327fce5fdcbU, 0xf9e732fad9fe1b06U, 0x17e727fffc04f516U,
  0xe719e8dd05fe0209U, 0x1b0be8093c060209U, 0xf00404150dc9162fU, 0xfbebf8dbfa1f16f3U,
  0xde1906161819280dU, 0xf40dd4dd03440607U, 0x2ae7e8061a0834f5U, 0xf5fb09f5d7b1fff0U,
  0x13f5fefa2903ede3U, 0x9fa1ae50225f203U, 0x200e140ed00ef81cU, 0xa0e0ce91f09190dU,
  0x1d07f8fdfafbe8f2U, 0xf9e2f4050c000be7U, 0xf3fd15300a02032dU, 0x1021ef15f91ed9f6U,
  0x5f501e6e2f7f81cU, 0xaed2220638003125U, 0x4db03e4fbf1f5deU, 0x1a260e14e6f41306U,
  0x3a071d18fc10fc05U, 0xf3dff3f8cc24f4fdU, 0xe6edf3370ada31f5U, 0x1ffe0e120d0b1020U,
  0x191d25fefb1915f9U, 0x18f40307dd2e01f1U, 0xfcecdd263512fef3U, 0x1924f1faf61611e4U,
  0x4bd7ecd0edcdee1cU, 0x16fa3bfcf6dde721U, 0xeff7f1eafdf311U, 0x2a02f6fa11eb27e8U,
  0x2710fd0b02290216U, 0xf73b182df80f08f6U, 0x23807f42ff9fffaU, 0xfae022f806ef0612U,
  0xeed3010e0e17dff0U, 0x18f81b19151eedceU, 0x53b1a0504f7030aU, 0xef4f7eaf8fbcc43U,
  0xee18f3e10afced0dU, 0x15d50b08db21ebf0U, 0x15f21fe40503143cU, 0xfe180b0adf4e1e43U,
  0x6fd070e19fd1a00U, 0xcfe80b1eed291b0eU, 0xe803030d12e50e00U, 0xf3030604e105fd11U,
  0x19190303fce8ef0bU, 0xe5072e102207df03U, 0xf0fffd220efe2504U, 0x6091908fcf0271eU,
  0xedb11509d6fcf4f7U, 0xfd12f717c3ff0d03U, 0xf428fe2422e90b0dU, 0x2415b51dc4ec09deU,
  0x2107f8fc1e1402f6U, 0x16040416ea06f920U, 0xe00421d80cfc11e0U, 0xf91b1e1705f3fa16U,
  0xe006041afd020c31U, 0xebfff8080ce61be5U, 0xf7ee0a020f0bf30aU, 0x1cfbf40ebd45fe00U,
  0xf6fcede7380cf1ffU, 0xed2ae4f80bf4010fU, 0x1fee122501f0f001U, 0xf200180d131b1803U,
  0xff32fef70a181918U, 0xcaeeecf8fb22e5f0U, 0xf1ee0a041011ecc9U, 0x13deec04e5ecf31cU,
  0xfd7c8cd2012c516U, 0x24f404ea070514f7U, 0xc4eee8010ae22105U, 0x11408ef090b31cfU,
  0x90e0df405e50607U, 0xf6ff26f0f703ebf9U, 0xebf6f10c14fecf1dU, 0xc8cbe416f319fd09U,
  0xaff1d132c1202f9U, 0x2c12161a19401302U, 0xf6f01014bd03e4fbU, 0x3d6cdf2d400f000U,
  0xdcf9dc15f0fa1b05U, 0xf61b0ae306fdfc09U, 0xae5e4fd18032212U, 0xf61bede1f01534e3U,
  0x8ee160219281422U, 0x180802f2061619d8U, 0x1124e21b0f15200bU, 0xbff0f02fde7f42dU,
  0xeef841cad50eeffbU, 0xe9eae31af0040a29U, 0xfa231304240efe16U, 0xfe0f2500eedf1c0dU,
  0x182210050cfa15d7U, 0x5f3f60ef224defbU, 0xf3ef1d20040c06f4U, 0x30f220ef00e4fe3aU,
  0xfce20df3e6fee2f0U, 0x14f91dc80206f8eaU, 0xfc2df9fdfefbfe09U, 0x20f9fce7f6fdef08U,
  0xd911f00f09141618U, 0x2befd60704f907ecU, 0xeddf717e6320207U, 0xe9560f0febfdf6f3U,
  0xdbd011dc0ffd1208U, 0xd8fd04d0eefaf801U, 0x7d90ffdf1e90b20U, 0xf2ff18fe0d1abd1eU,
  0xfa02e40dff0524f5U, 0xf71005eb1eecf404U, 0x72ce8162b30290cU, 0x70ef90e23fc0b07U,
  0xf611f8f03df12906U, 0xf2f3f7f404f0f607U, 0x17ffe3fee0d50f09U, 0x12030801190ee617U,
  0x3ebecfb0df813faU, 0xe22dfe030d3131f7U, 0xf6120edd1401f0caU, 0xfc09f700f409fdf6U,
  0x3ecc7d7ffe0e938U, 0xf06daedf0ebf4e8U, 0xfee4d817fc0ce5fdU, 0xcc0114f2efc4f520U,
  0x622bf17d9f627f5U, 0x1607f2fc1dd429f4U, 0xa0ff5e7221be724U, 0xf7050d2209bd2010U,
  0xff31f21e14f70602U, 0xbfff92113150e2aU, 0x1e050a1e1fef0dcbU, 0x1eef12fefcdf0210U,
  0x4060be9a610e111U, 0xff3c3061ae1fe0dU, 0x20d0219eddc20f3U, 0xdc15f308dc2419f5U,
  0xdfd80efe1fe21c38U, 0x19f445f9faebe1f0U, 0xf11df331db0b0d33U, 0x3a0add1403e00206U,
  0xf8eb0ef71fee06fbU, 0xff0be1fc11e31de9U, 0xe427f8f1073a1110U, 0xf28eef7dd0f0bf9U,
  0x717cbf01409033dU, 0xeb06fc293ee5ed17U, 0x8f0ebf51bf3df1dU, 0xedf3e71c0418ef05U,
  0x1f1314fbf90a0807U, 0xf34001002f004e6U, 0x807e2eef40bff14U, 0x2a05d1f600cfdb18U,
  0xe1528230c0701ffU, 0xebfaf61a0df818f4U, 0x12128aa0409ffe2U, 0xed18260b19e40c05U,
  0x71d16efc20b261cU, 0xed3d515f70304eaU, 0x90ce10cd4fc0ce5U, 0xec101b25eb231215U,
  0xf8050b11fbfd17f9U, 0x23cbdafaf22cf810U, 0xf91aef0d0d1009e5U, 0xc400250b291fedeeU,
  0x9fd26030defeed8U, 0xe7e7e8f0f905da36U, 0xfd0503f422133401U, 0xe13027fee82c1217U,
  0x13080e1b04e60f22U, 0x9062012f2edfb06U, 0xd4082106161201f9U, 0xbe7110f140f1c26U,
  0xeb1e1a1bc7df1323U, 0xfcef1417e304eb0cU, 0x5e8e4fc1914142fU, 0xf5071fe811131ce9U,
  0xe916fef4e6daed11U, 0xdee62e1bfb09e20fU, 0x14fce1f91dfffbdbU, 0xe1010a03fd19f5f3U,
  0xf019e204fc00e811U, 0x2af114f005fd2018U, 0xf6111be9f6f000caU, 0xed0b0ecfdb05f1d7U,
  0x31822f106efea00U, 0xdffd00ecee15fed5U, 0x1330e80a2a201b16U, 0xe9ececf60d00fafbU,
  0xe00fb1c121710a9U, 0xefee71200eefff6U, 0x1402fe1ae7f61110U, 0xf329054c01d7f4U,
  0x109e8c40308ff22U, 0xf212ff0ffad91308U, 0xf1517eaf52beff9U, 0xfcfc141dfb44fff1U,
  0x71d0ae3d3e5f61eU, 0xce15130b190e0aedU, 0xcfeb24f2011117e7U, 0x45311c2504f6ef11U,
  0x1eeb160fe3030c02U, 0x13ff261c1f07f6edU, 0xef7f3d933ff0603U, 0xfed7f0df0ff70309U,
  0x111d311f910d911U, 0xd9eaf70a0716fad6U, 0xda28ed111d0725f9U, 0xe414fb03092ddf0eU,
  0xfad1fe1622df15edU, 0x1af9f4070a040725U, 0xdefec1300bf918ceU, 0xf0c00002d1411e0U,
  0x220b16f2d3f0101aU, 0x130909edf510f42cU, 0x21ed2a0b1ffbd7fcU, 0x5010b0fd80effe0U,
  0xf6000df4f52d0512U, 0x25ecf61cdbe117ddU, 0x416fc29f3f7e209U, 0x130922eb34ff05c6U,
  0xdf00348eb03101fU, 0xfaeb030308060c13U, 0x3f90cf8dfe51717U, 0x19eae81dddf0e7f1U,
  0xf9f5d3edfff202U, 0xe5de2123e80108f6U, 0x200a140b03eaddd5U, 0xfeffcef2ff4fa06U,
  0x7fa282705fc081cU, 0x171ee40c18070901U, 0x90c0019e811f819U, 0x17f51b230418d806U,
  0xfcf10f06e8040112U, 0xb0a00f51df1f323U, 0xce000329e4d5de04U, 0xbead0181d0e12c4U,
  0x213fbe710ee0e08U, 0xff2d0113fd3efc0aU, 0x2520f60a1905fb06U, 0xf829f9040107e3e6U,
  0xecf307f2fb1c06f9U, 0xe10122177181b0dU, 0xfdf2e92f03f816f4U, 0xea090bf614fcd2d5U,
  0x505f9f3ed11df27U, 0xe2f0fe34ffd7d4fdU, 0xfc02000f11fef9f1U, 0xf40403ebe2cd2406U,
  0xf8b4211df0fbf80cU, 0x140a07f41022f2fcU, 0x2df11ef4ec091015U, 0xf90104d3000310eeU,
  0x1c08f20c08ede8e4U, 0x22f9feeaf9fb0debU, 0x1af6fc040cf4dce2U, 0x1f70af529252bU,
  0x1af12925f703d9cbU, 0xecdea040be70003U, 0xf5ee2801fde50506U, 0x3f1eff3caedc805U,
  0xcef10c06f727d119U, 0x27f7d5f6e0d6eb08U, 0x2336f8e1f1e8df06U, 0x21e1104150019f3U,
  0xc8eafcf51013350cU, 0x516c705f40ddb1cU, 0x100ff903fc110b01U, 0x90321100c130000U,
  0xf2ea19e8d4f7040aU, 0xfef2030805140dU, 0x2f7fdf70001fe11U, 0xe90def0f01fa044aU,
  0x3de0db4fb02151cU, 0xf331f0f10ff71cf8U, 0xa020223e1e72129U, 0x23fae900dff20df6U,
  0x26f821ee091d0313U, 0x2cf0fa081dfcfeffU, 0x24eb05f9ff0cd2c0U, 0x1dbe4efeef408fbU,
  0xaed15c504ff26e9U, 0x8f602f2e7e81809U, 0xfa00ea08370b2feeU, 0xd3fd0f072cfe06f5U,
  0x1208e9defaf6d429U, 0x1b0cdb0ee3f8eef7U, 0x4d9f928c1191723U, 0x3b1607ffdaeee81aU,
  0x2517d0fafd253815U, 0x2cfaffeed7f6da27U, 0xcdfd0120eefecec4U, 0xd900f2e4081808d3U,
  0x1203291c0d14f3fcU, 0xe4041af3f404fd0cU, 0x1e300df2e62e36f7U, 0x1c18ecfe0ef403fbU,
  0x30af3fa0c081c08U, 0x102108f6e6ebe8f2U, 0x1d3ccc1ce2e4f320U, 0xe108da17f70f150cU,
  0xe7e9dd0a01fc08f9U, 0xe5ff050b1fed11d9U, 0xf900f6df32fff50cU, 0xfd110216f9e80639U,
  0x18e7ec0b18290b0fU, 0x71ae709dc10e7e2U, 0x12d7effd11fedeccU, 0x80913060e1c0001U,
  0xf00dd10fe0cee06U, 0xf00e0af8ec0e1707U, 0x19f805ea25d0d529U, 0xeaf4f8230d1bf908U,
  0xdc171d190628f8e0U, 0xeb0b0104120eefdeU, 0x31fffe040f0f102cU, 0x17011d211bf6fb0eU,
  0xf00d3526e509f70aU, 0x260deff2fcf60ff7U, 0x10fc01e0f4e9dc17U, 0x19fce5f9fb0223d1U,
  0xf9ecfd0a1cf51024U, 0xf3d729f9ed53f70aU, 0xfadf0beefb100ae9U, 0x90d230ef60a04f7U,
  0xfcecfdf0fe0d1e12U, 0xdff60e2d13e1f902U, 0xfc0df9ee0c0fdef5U, 0xee0af0e51708faU,
  0xfa01ffda26fa23U, 0xeb31e410dd0cf4e9U, 0xfdfe34e6cd29eeU, 0xff2a1d0de63f0e20U,
  0xedef1c45fee50710U, 0x1a2ed6f9010f1a06U, 0x17d8fffdf525df08U, 0xb02f504f40afa09U,
  0x3beff63313fa0a0aU, 0xf812fdfdfa240200U, 0x91ef4e1f102fa05U, 0xe519080cf8e0131dU,
  0x101dee2bfd0312f4U, 0x1ffa071deae51aecU, 0x1208cc2df908d215U, 0x2b02d5def5e0382aU,
  0xfbddf80ff6e6fff0U, 0xbf414da0e05f91bU, 0xe11308030ce60ff3U, 0x94c191515fef100U,
  0x102802f3fc12fef5U, 0x27053e2810d2f819U, 0x7f1e8df03f8f412U, 0xeb070f0afa1401f2U,
  0x20ef0fe41001ffeaU, 0xef1e11fe30053505U, 0xe5fa0b191b0ce222U, 0xfc12f50e02dc084bU,
  0xc51000fb320de8e1U, 0xed01fa1d0917060bU, 0xd0020dfdffbd30cU, 0xfdf6eff004fdfefaU,
  0xff0190b0de612f0U, 0x4e4d9021528dee3U, 0xf3e707dd0bf9fddeU, 0xfb1aebce01d8ece4U,
  0x1407e8d612f1f90eU, 0xc2302222f4e23001U, 0xf4f126e70135f0efU, 0x140ff007edfa2013U,
  0x26dbe72a0e0c0831U, 0xfd2507e817010be4U, 0xfb0ff333f7de06e1U, 0xd8ef171e0d04f901U,
  0x5da04f72e24f2fcU, 0x27fc17f4de2306f0U, 0x1fd0207e0d910f5U, 0x4eb18061a12fb0eU,
  0x21419e5effcfb1cU, 0xfe0d0a18e30b0ef2U, 0x40b64a2306e9f8deU, 0xfe1cfef1e7eaf103U,
  0xfed92c20fbfacffbU, 0x1f609f604f6e5e3U, 0x4ff1dff22cf1526U, 0xd2c0af4fd0803eeU,
  0xeb18fb1cffe12322U, 0x9f7dee7dee4d7e3U, 0xf737c3ef241afa2aU, 0xf3e415e907f90425U,
  0x13fcf3f1fd2211f6U, 0xf51f001d1aff0ff6U, 0x100af1eb23fbf91eU, 0x1000f2dd1dde1ffeU,
  0x32611bf00df22deU, 0x5d5f7ef012617f3U, 0xdc11200806f6f805U, 0x131fe2f506fb4ff9U,
  0x1fe6c6f8ec0d1a1cU, 0x11e407d2faf800U, 0xea0bf6f80a150115U, 0xf42602eefea80fe7U,
  0x1fd2f5f612e7fd1eU, 0xe220ea280aefe601U, 0xffd090f1ef31a28U, 0xeb0a2618e3c8f926U,
  0x5030ceaf0f4011dU, 0xe8efd7020de913f2U, 0x1811261035e10c08U, 0xf008171c1af3f42fU,
  0xfd1c1b40fe4c1beeU, 0xdeef31f0908241aU, 0xb0eedc5ec0a191cU, 0xcd342b16f3de28f3U,
  0x1d0ddc0de9fffd1bU, 0x13e305f623ececf5U, 0x28ff00fcd4dcfd06U, 0xe3d8f7fbffe92ce6U,
  0x9edf5e7fd0af5e5U, 0xadbf308e3edde1dU, 0xea14e70e171f08faU, 0x17e8f5102d2110e9U,
  0xf40510fef7fc040aU, 0xeee704df17dadcfaU, 0xd2126fc0fde31fdU, 0xf30e070f01f717cbU,
  0x2a12f9ed130f0903U, 0x9f60526380dec1cU, 0xe6060af111f6183cU, 0xed05eae3240510e8U,
  0x15f30a021ae6f50eU, 0x8f72a13f818f414U, 0xea12fc02bdff0200U, 0x30cc11f9f914cf10U,
  0xc40217f9f0f8271dU, 0xe8020b0429db02edU, 0x2ef9d913faf5fefcU, 0x20bf2f612120effU,
  0x130c2927dc2c0aedU, 0x42912dcff020e06U, 0xffe334e82814e1feU, 0x80713f4140ddd0dU,
  0xfe230f0f1ffedf08U, 0x250dea0209251342U, 0x21191344222bef00U, 0xecf6f5f3f6e501f1U,
  0x2fbe0f4f21cddc6U, 0x7041e13f4eb031fU, 0xf310ce072113fa08U, 0x1611de15fd1c1ae3U,
  0x32fd1406c104e511U, 0xf7e2f0ecf5dc1a38U, 0xf4d3f5f7dc371bf8U, 0x30f5f60401c6e4eeU,
  0xf3d5fa06040ee903U, 0x392f26061a02f5cdU, 0x25074505eef5fdcfU, 0x2fc10dedf2011f0U,
  0xdaf3f3eef00cfe14U, 0xb090cff0ef317e8U, 0xc4aed07f414e006U, 0xde80d0106f30bfaU,
  0x1e2a29f809eef2U, 0x101aecf9f420dbf1U, 0x4b80f1b0f02120bU, 0xe2ed32ea1018ecefU,
  0x206f50a0e000608U, 0x5e2e4dc19f9f7e2U, 0xeafdebe53c3af11dU, 0xbf21f50111d6f413U,
  0xee1708f9e728c130U, 0xe0318e3efff11f0U, 0x1f6d317fef9162cU, 0x281a03000fe6040aU,
  0xfc0a0a0908daf604U, 0xd10ed61f1df8e411U, 0x28f7f3d2e5e3fb39U, 0xdaf402fb1405150fU,
  0xfdf4fde2fafd2a02U, 0x2d22d9f22107f9d8U, 0x8f6e2fbf201eb05U, 0xfb02e5234410f8ccU,
  0xd703fe111311fd0fU, 0xecef2aec38e3f9f2U, 0xf5f7d51a1d0606efU, 0x100e08f10cfd0609U,
  0x4c15fe1b0c05d31bU, 0xfff214fee50a2f08U, 0xdc31f405e8e10ae9U, 0xf160e0bf5e504e6U,
  0xd5e4d7e9160f040bU, 0x2402fe2ff1fbfff8U, 0xe6f5fe01fbe8f60dU, 0xb151123c2161838U,
  0x23fa150cf1e60208U, 0xea01fcf513fd12d3U, 0xd9e905030401f925U, 0xc0b0702fd29e7e8U,
  0x716bff8001f02fdU, 0xfaf9f32d0bea0302U, 0x1a01f8050d091b25U, 0xf6e501f1ee230ccdU,
  0xddee0d1500141f02U, 0x51b0ef51716fe11U, 0xff1606d621e7f8f9U, 0x34fdc3fa17fd13fcU,
  0xf8ea0e042507233eU, 0xf81af0f42712de18U, 0xf4164ff2fdf3f4bfU, 0xfc03ef103bf9ece7U,
  0x24fcfce525fcdaefU, 0x13f7fcf51ed9ce1cU, 0x1cbf7f0ee1402f2U, 0xf1eee922f8e0060aU,
  0x1bd81ff51ee4080aU, 0xe0fe03f8042815f4U, 0x270719fff6f10527U, 0xfe06f9eaf2c826f1U,
  0x6d22221fada070aU, 0xfa12060b03e30615U, 0x14ea0000280300f8U, 0xfae7fa0dfc09090dU,
  0xf700e76021cef8d0U, 0xcf20815ef10d3e0U, 0x812f1f2f1ededf4U, 0x50628ff01fce5e4U,
  0x503ede30d260919U, 0x160f05e705171c12U, 0x15d9fc4ace01ebecU, 0xfbe2daf617ea01faU,
  0x40fc0c0512e5e9eaU, 0x1ffd09100e09df21U, 0xf81c08ceec0c20fdU, 0xfc1217f3f605dff3U,
  0x90dd5dd18381cfdU, 0x581d212efd0724f5U, 0x1107fe182a08fefeU, 0x41914f83609faf5U,
  0x1404390c01f1fcffU, 0x16eb00eee321e3ffU, 0x11c1ce60af8c410U, 0xf502ed17fb02fb1fU,
  0xe2f124f900e8ec33U, 0x21f0f8ecd1e4dc27U, 0xf927f0d20d111117U, 0xfb05edeed1d9171fU,
  0x1ffbfefef7f7f2f0U, 0x4f313120402300eU, 0xfbfa0530f2061503U, 0xf8d727ef0908f7efU,
  0xe1d0e922cd0d17ebU, 0xd922ee22e603f700U, 0xe6f024140b260dfdU, 0x35040d08f10e1102U,
  0xfc360e10efd907efU, 0x8fff3eb17f20ce6U, 0x4d805f419e51417U, 0x515000932f72312U,
  0xff0818deea20f5fdU, 0x2dee18071406f8f4U, 0x31930efebe1d521U, 0xc9ec1805f7e1f920U,
  0xec22ecf91f150500U, 0x170303fae9ebfcfbU, 0xeb1bff2229c7d9fbU, 0x2bd9fe1927f3d216U,
  0xe13f713effee11aU, 0x2de416f60a0be3feU, 0x16d7eaf229fefadbU, 0xceb35e8d1e0fa11U,
  0x8f1fa42f1fd1e1fU, 0x3e7f8f116fb0de8U, 0xfe1ae42c1707c7U, 0xfbdb120718faf109U,
  0x1e208190805f9fbU, 0xfe022a0d01070100U, 0xec04fe210cd5f810U, 0xe4c6e9123504d101U,
  0xf2fbfe0ce918f1fcU, 0xdc08070bed3e0c0fU, 0x1afaf2f70109fcf7U, 0xd5081bffed1a220cU,
  0xfeefede6eeec0008U, 0xf8e51e02c1ecf4cdU, 0x1301ed0e150c0a17U, 0x150203d9dd07f4faU,
  0x3f1030a09eaf906U, 0x100fb2d0820c20bU, 0x8334cfa16f80ad7U, 0x17dc00000ad6e0faU,
  0x4d400efe90e19ecU, 0x190ce8fcfaff1112U, 0x20fef50e02030f15U, 0xf1e7ff210b0d0013U,
  0x1cf3fc00eefe0ff9U, 0xf1f4ce00f2e73afcU, 0x131170cf2e70d00U, 0xebe3fb06090621ebU,
  0xe3050f24fff0ec2bU, 0xdd2604f6fc39fce1U, 0xed1e553f0fbeeU, 0xf4080a2715fe38f9U,
  0x8051908f9ef19e7U, 0xf41701fd0e11f00cU, 0xed060b2b030d01eaU, 0xfff119eae513f0f9U,
  0xf6eb26bd11e60b08U, 0xf0ebcd18e90238e1U, 0xe40901fbcf02f8cfU, 0x14150ae5f7f4fdeeU,
  0xf52a14f2170514e6U, 0xf210edfefd1c0e45U, 0x13d9082e0ff2c80eU, 0xced0307fa080ce6U,
  0x2605f8ecda072e1aU, 0xf102f00220f70b18U, 0xfbff060517fcb61cU, 0xfac72d1fe10ee043U,
  0x3b0902da1be619f1U, 0xbfb0d06fdf3f013U, 0xfcc81b0b32f6f7e2U, 0xf3d729eb18071015U,
  0x14eae9f6fde11204U, 0x2e32f1017122d01U, 0xfd00f6f1df0214fdU, 0xf21c0c0b08e4f42eU,
  0x28fef20503e711edU, 0xafe1add20fff622U, 0x26eb03ed10082effU, 0xe60e09e6f6fde6d8U,
  0xf70017f1cae6e909U, 0xdaf1fcf30af917daU, 0x1a0b0c1d3b132b1fU, 0xafefcf40903010fU,
  0x3f32a0800fae3e0U, 0xe61605ea1fdc0df5U, 0x13d90ff4f81ff014U, 0x1917190102ef2601U,
  0x27e8e60cd43be809U, 0xbfcf2fdea201bf9U, 0xf0e8e9f8fe073529U, 0x1321ecfc0e1915f4U,
  0xfe174a0f46f70109U, 0xbf7ff0b1d00f8fbU, 0x1c2edaeef5facd0fU, 0x131bfae6db2afdf5U,
  0xec17ecfe2d082b15U, 0xe91def2009e2d409U, 0x22f5e804e8fd161aU, 0xd80dfcfdce04eff9U,
  0xd70ff302f915f110U, 0x1608161d101cf913U, 0xff05100c051c05e0U, 0x12f22f0a00fbfb13U,
  0xe301d72427f0fce6U, 0xf831efffde01fefaU, 0xf2ebdefe1c02fccfU, 0xfae8f40f30e808f6U,
  0xf7f30bf9190cf81fU, 0xfe0411012c2c0c0bU, 0xf32a14dfeefbe4f1U, 0x1c1f01d107f50fd9U,
  0x2316e8f7f23713f0U, 0x17ddf9d1d8dc0ccfU, 0x111a1b171c1001c5U, 0xf05e6e510dbff30U,
  0xe82e1114d5130209U, 0xed1716faff10e935U, 0x2f010a2eef24ee19U, 0xfc1a060c17d0eed8U,
  0xaf3231a07f11b1fU, 0xf0ecddebfae1f512U, 0xf71c16ec012ffc0fU, 0xd8090f2a31d6f305U,
  0xee09f0eff0f4e9f8U, 0xd70538fb390f1019U, 0xecfa043af2f7e1c8U, 0xa2214ee0803edeeU,
  0xf3fd041ff407e503U, 0x7160a1a164c140aU, 0xff25e6f51ff6f610U, 0x19f905e21bbfffcbU,
  0xfaf719c30716190aU, 0x2b13dd0d0dfae8fdU, 0xe1a04f80b271a54U, 0x5f3fb0fece905daU,
  0x231bfdfd11f0f0ebU, 0xeefee914cfeeddf6U, 0xffe6000afa0b1ae1U, 0x10e30191fe6f103U,
  0x2df0f9f5efe9e709U, 0xf63af9e8eff217e0U, 0x1f1fc09011111ffU, 0xcce0ef261403fb14U,
  0xe3e3fcff1b1b1de4U, 0xfc07f0fef6100a29U, 0x419f6e6482f0fe6U, 0xe6fce20b00f4d306U,
  0x331512000fe8121eU, 0xfde6ed03da2de7fcU, 0xc6e5f11c10171f02U, 0xef022a0b30090601U,
  0xe50015f6e24015f9U, 0x142d02ff1f06f9efU, 0xfc1416dcf8ffd8fcU, 0xde2fd09a0f4fc10U,
  0xf2e0ecf9001818f1U, 0x251601fbeaecf5d5U, 0x2306140c20230cf6U, 0x310203fa2ee015eaU,
  0x9f10afae3ee1913U, 0x2d06dc1e2e0a030fU, 0xfd034eee15e7ffebU, 0xf40dd63202ecfae5U,
  0x7ef01eef90ce10dU, 0x22e516d9cb14fee0U, 0xf2f0020701f5eef5U, 0xfd293408f321f806U,
  0xfe040edb172919f0U, 0xb29151a1a1dff16U, 0xd918f92debc0e8f9U, 0xe7d910e12afdf102U,
  0x10fff20de500f8fcU, 0x10d6dff81113220cU, 0xdbcf11ec0209d5d5U, 0xd11041cd1f2ee14U,
  0x116f61823053009U, 0xfeeee8c9fa2aee2bU, 0xfbe90e13f2e808fdU, 0xb28f81f15f1ed1eU,
  0xee0207f325f9ee14U, 0xf705d2020ee4e7e1U, 0xf617eb121d14fdf4U, 0x191c1a38140b26d6U,
  0x11ede6ebdd16f2daU, 0x1514f7f6ec11f409U, 0xda120ff720211515U, 0x6fcec02e9fd2408U,
  0xebf319c816dbec01U, 0xe1fe0712ebe802f8U, 0xbc0cf0160cfe1f09U, 0x20000a1e160c13daU,
  0x1c16e8eefce90c06U, 0xdae6240c151eed01U, 0x2a02ef05eb0efc10U, 0xfd07d6e0e7c9fb1cU,
  0xd4e5e824051de004U, 0x12f007ddf31fe910U, 0x1635f3e215fc1423U, 0xee07f2f50620f121U,
  0xaf3e62209f7e3f1U, 0xec1debff221cc90dU, 0x100f006deea012eU, 0xf0fe1af4cd0902c5U,
  0xf4fd16060bec3600U, 0xf7f00e2e03001be2U, 0xc082ae2402608fbU, 0x21100df51807e835U,
  0xe8edf818e6fa19cbU, 0xe5fad51ff3e3e7e0U, 0xf41cff16f404100aU, 0x3edf72b0ec709U,
  0xae5d8f32616131bU, 0xe7c7030b41fb0611U, 0xfb230bdedf13f810U, 0xffe1fde3d517eadeU,
  0xdddee9f51516190cU, 0xe61705ebdad9e81fU, 0x130b08fde5fdfbf5U, 0xe304f3ffe1dd12faU,
  0x6dffa0e3de2f1dcU, 0xc7e9f8fdfa04e003U, 0xcb07181def0bf8e3U, 0xdc2df5ecf31bfdebU,
  0xf6fff6ea0221160aU, 0xf9e22ee5ec110817U, 0xfbe31116fb2506fdU, 0xf5fb1de806080cfeU,
  0xa0efbfb121d0712U, 0x21f51a1af7290700U, 0x8d419f8ddda04e9U, 0xfee3010b0510ea14U,
  0xae3ff11f4133aeaU, 0x1f722fa00e83d1eU, 0xf09e4fb11121309U, 0xd611ef24e80710e1U,
  0xeb311c58fbfc1ff0U, 0xee1113eff70713fdU, 0xfcfbe0ffe1fb13caU, 0xefff08f30e21f7f6U,
  0xf9ddf703f4ee0bf7U, 0x41080d0b06f127daU, 0xefd0cfbe2cc02fcU, 0x5ef01393be30919U,
  0xfe00f0f3fe12eeedU, 0xf151eebfd3ad520U, 0x4f51d1900fdf909U, 0xfdda09c103d4d625U,
  0xf2f9e9ea06ae1a20U, 0xfa14e3f8260ff0e3U, 0xf2eeee1017040a02U, 0xaf7141e37feee15U,
  0x7f8f8e80a0a010dU, 0x1d181bf6ed05e718U, 0x2d0a0beae52a1919U, 0x18e2f5e2ed0e1602U,
  0x9fc06df1dc6101aU, 0x42cd061d1f07fdf3U, 0x201ae201effdfa1eU, 0x10bff19f4d2ef03U,
  0xf90e09e6d4110cd7U, 0xf0e0f3f4e5e6f1fbU, 0xf6070bebf2221510U, 0xcfd71dfdfa1de30cU,
  0xe10102fa10090ae9U, 0x17edec0a22d6e031U, 0xe10b32f0e1f20df4U, 0x1432030a002a1a03U,
  0x330df8200ae5051dU, 0xf107facad1ff2d0cU, 0x180906d803fd0c0dU, 0x10deafefa09e2f8U,
  0xf2f5d431e8cf1405U, 0xc3cdf9fa0403feU, 0xfde7f9f2f5110706U, 0x10e022eee9d03e00U,
  0xfff3ed18fdf913f0U, 0x41af818000a04efU, 0xaec09dbe7051424U, 0x8eed123fd34f3fdU,
  0x2b1f1302ef1c10e5U, 0x22dd2af80ceddff0U, 0x3e052916f405f20cU, 0xfdeb07e1f1f800f6U,
  0xddcefef4062e1106U, 0x6180f0411faee0eU, 0xffef000c141b2a26U, 0xf50ef70b01330bf9U,
  0xba07e9c60d0eec21U, 0x100507012efe0e10U, 0xe7e22ffd500e1c11U, 0xeef630d8100313e7U,
  0x17de00ea090d13f7U, 0xeb04ed17e716020bU, 0xf0e7d911faeb03e0U, 0xff10181cf0f2e8fdU,
  0xe06f9fefadb2f0cU, 0xe0f3f80cf5040c08U, 0x1c21fcf61e16005cU, 0xfbf92d1827ea071eU,
  0xf12dceffebe80f0aU, 0x33ef111efdf10009U, 0x7062df307e72a05U, 0x2fd62afdfc07e60fU,
  0x2f2f3da08d71622U, 0xfbe73c113e1bf808U, 0xf7370be3071405fbU, 0xeed4f9030514111eU,
  0xee130820e9dd3122U, 0xe5f1f901edec33daU, 0x8f81fdafffd0d00U, 0x18d6e525f5e1fe03U,
  0xfe0c25ee0710fffdU, 0xe82f280a03ffced7U, 0x9f8e1fb0a0e020aU, 0xe03402fdca26f5f1U,
  0xee2d0004f1f906fdU, 0xfa1fdd0bdf1ff30cU, 0xf108ebf5152204beU, 0x510f745ed381212U,
  0xf80e0ff52801fe1eU, 0x1403f4ee18f5e20fU, 0xf9f20cf3f7121d1dU, 0xf7095f220310fe03U,
  0xfcff14190e130f1aU, 0xff1f1dbe401e929U, 0x1a15fd2a05ed01f1U, 0xdd1cec070ffbed2dU,
  0x7f3cb41f1002cU, 0x821282efb050c19U, 0xec30aef030b1efcU, 0xe7fd0b012e09e5U,
  0x220fee3406ef0e29U, 0x34cbdfff1efddd1bU, 0x170afef0e51312ecU, 0xcaf112f43aeffa05U,
  0x5f54cdc3a03e201U, 0xe01210e8f2062405U, 0x8260d06f5fb09f4U, 0xed2910e711f9fd40U,
  0xf7efd6fdec0619edU, 0x140ce5e4ec2f0300U, 0xf720fa141b080302U, 0x9e605c9fc010b17U,
  0x1a25c86521fd171dU, 0xd5ef0ff20412f9f1U, 0x1be3fefc3dd421f5U, 0xfd040e05f5040edfU,
  0xf8e40a00190a11f6U, 0x434310514100c1eU, 0xf71d122bd0def3f4U, 0x3cbefc200ce0f3feU,
  0xcdc0ce5ed0fd9f8U, 0x5f5e8f819fdd10bU, 0xdc2f2ffa2bf10bf4U, 0x22e5e9f80409fd05U,
  0x2001fa06101b0507U, 0xae4eef1030b08f5U, 0x280507061221feccU, 0x1407150bf2eecbf3U,
  0xb10f4b51405f32fU, 0xf805fd0ff5111debU, 0x5f621fe041fe9deU, 0x120f0ae91725f1f3U,
  0xfc5e1e1712f613f3U, 0x60af21d080415e4U, 0xf9def31c03d6f30dU, 0xcd5f7fee3e3050fU,
  0xff04f60ee8ddda2fU, 0xed170bfc16fe2822U, 0x14e3f411fff2f73aU, 0xf6e83df1d6dd191aU,
  0x7f52ff40fe5001fU, 0x1ff7ea03fc1a04edU, 0xea31f228f4b0f3f5U, 0xfbe905cc0afb190fU,
  0xf4fef706f50cd7bdU, 0xf8f0ea1b170a0e0eU, 0xf3081204f00509d4U, 0x7daeb4ad41e07f5U,
  0xdf5fe0cf8090806U, 0xe000240022062702U, 0xfb39de0bee0219f8U, 0xf4fd02e6ef000b00U,
  0xf522fbe0fbfe101cU, 0xec03f6f3f3fdee04U, 0xdf1f1a063127eafdU, 0x1061608f2320ee5U,
  0xf0a9f9f801f01c2cU, 0xf90ed8160bf718f1U, 0x7e70600f2011827U, 0x10b08f30525fc4aU,
  0x1613e72aecd41716U, 0xfe39e32dd4f5ebe5U, 0xefdeb201209ed17U, 0xfdfff1f312dd0109U,
  0x240eeff9170a2107U, 0x10ae21bcdffec2bU, 0xda2ef30eedf1ede7U, 0xf9ef27f7e0fd0c00U,
  0x8110dfd24ebff08U, 0x1fe93bdc1bcf2b11U, 0xd06f50608f5faf6U, 0x1426430b08ee1afdU,
  0xee1901e30a070be7U, 0x17ef180df6ff26ffU, 0xeeeaf916c2e86209U, 0xe8f2d8170e2e06fcU,
  0x1a213321f5020313U, 0x22ff0202ea24f503U, 0xefffeef6ee220a03U, 0x391efa190e13f0f6U,
  0xfd150b272302eb01U, 0x210ac1db0508fd12U, 0xebebe1d914f0101bU, 0xe7012ff5f92919efU,
  0xeeec0c1503dde718U, 0xecefefcd150ae6ecU, 0xfd04e0dc1cefe506U, 0x2218fefddc05e90cU,
  0xb22f3f317de04f1U, 0xc03e93dff0116fdU, 0x21d13f7efe30ff2U, 0x711e4fc160dec07U,
  0xf914fc2fddf54b0aU, 0x4eae1dadd07d303U, 0x605fae7d9fbe340U, 0xe9fa4415fadd2d05U,
  0x253de0e7e8fc030bU, 0x1ae60ce600ed11edU, 0xe9f3ddfef6000fe7U, 0x915e805ec0a060fU,
  0x1cda47ba12110de8U, 0x2f9dc08fedbe714U, 0x1df61917c511f700U, 0xd0fc1509fb130d06U,
  0xf62707023139e1eeU, 0xf5facce80beb0425U, 0xef0cfbf1f5f71b11U, 0xfce5f0ed02090b0bU,
  0xe323f5f924fc07eaU, 0xe30534f7e0f52a47U, 0xd243ebcff510de02U, 0xfbfbd51bfaf51109U,
  0x3190a19f9f7ee15U, 0xfa19190c02e1f527U, 0x1201f2f01c13f4f3U, 0x250602114af50ef7U,
  0xc639f423ecf90a0fU, 0xe0a0d19fc052002U, 0xae90ffaecf9f4d9U, 0x3004ec161eabf0e8U,
  0xf0dfdd4011ee07f4U, 0x4e5fee1cdd9f6ecU, 0x1003fcfe0efb2014U, 0xdf03180adff6e9e4U,
  0x170117fae703f4ebU, 0xf2e42c2402faf61fU, 0x171e0dfe0c0ec717U, 0xd6eeee082002ded5U,
  0xf219f110d70af100U, 0xed27f41d11fff3b8U, 0x10c10ddc4f9f2f3U, 0xfc0efd41240f0e0dU,
  0xfa33f7001039f11dU, 0x1aee23f608f6f424U, 0xef9f2fbfbf629f8U, 0xfaf00bee031ffc05U,
  0xee20eacee4e82204U, 0xf7ede1c32cd7242aU, 0x28f5fd0ffffe0406U, 0xffeb43e2fd151dU,
  0xfa0107ff0a0c1613U, 0xfb0b00e9e91a0bfcU, 0x1d0b00ead6f413feU, 0xeaf6ff000e0ff729U,
  0x81c22062a0109e1U, 0x3d0209fd292a1712U, 0x8ff162006f60905U, 0xd615faee03e7fa0bU,
  0x1822273813f3001fU, 0xf4221f15102bf7f7U, 0xb25dff0db221122U, 0x12241919dff8da0aU,
  0xffe04e60bfe00ecU, 0xdf41bda36dff701U, 0x320110e0afe033aU, 0xf90f0ffc15ecf5fdU,
  0x2224013d30061b28U, 0xff09fa0700d5f0feU, 0xf8dc0304290415e9U, 0xf080e1e04090be4U,
  0x13071f2725101a01U, 0xe3f3ef00ff24e9f4U, 0xdf27f9f30626c5ecU, 0xe7eaf508fc1bec1dU,
  0xeacc1df9f1180b02U, 0xddf00ed800eaf5e8U, 0xfce601c8ecf1f6f8U, 0xf20a361414d0000fU,
  0xf8edfcee1cd1f709U, 0x1ae402db30f7fb15U, 0xe60f0f0206e7ffe0U, 0x11fee4e8d8ef081fU,
  0xee2623f31605f504U, 0x2b2de7ecf40df1dfU, 0xe723f91310e5f2e1U, 0xc62ffa27eb2afe02U,
  0xfaece4effa0ae605U, 0xfe0d23050ef914deU, 0x16e70302d7f90fbdU, 0x1211e805ce23100aU,
  0x527051403e615d8U, 0xdd14e7f807f60815U, 0xc1e2f1fbf2f40e1fU, 0xc130124f9e42b20U,
  0xe20d7fa0113fd22U, 0xf5f403010117f5fdU, 0x9136f13dfef1408U, 0xc3d80f1a00f81608U,
  0x13efebf817ead700U, 0x2b0ee10cfb1719d5U, 0x304062402e30ad5U, 0xfe0116f7ffc7062fU,
  0x19d3ea20c4f300f1U, 0x9c41efb0008eb2dU, 0x1618ef0ae4f42939U, 0x1802101feb01c8f8U,
  0x12e8ecfd0619fb1aU, 0x111deedbfe130203U, 0x110814d1fc293df6U, 0x2ffcc5f91620e705U,
  0xd30bfc0d23d51cc2U, 0xf8ee04f8250b0ad2U, 0x190d310af703140eU, 0x28f30e02f20203f5U,
  0xf9e00c04fe0f0a0aU, 0x719fa0d0b18d71cU, 0xea09f6ff04d20ce0U, 0xf0febd0dedeb1302U,
  0xe5eddf04120bfc18U, 0x1bff32fc1b0a020dU, 0x26dce917ef1317fbU, 0xfb0c130b061ac007U,
  0xcf9ec0920fc3608U, 0xecff14e91a43f9e8U, 0xdfc05f30b09eef2U, 0xef3f41832afef1eU,
  0xe5da1e1bc408280fU, 0xfc0e0f1df7e2c20fU, 0xebfb111018200ffbU, 0x170a010c11f30401U,
  0xe62f02f215fd190aU, 0x18fc240a24f9eceaU, 0xd916ec08e7220efdU, 0xdef500eefc14f0e8U,
  0x2c10ee2119e5fee6U, 0xa060c2e24cefeedU, 0x11ffcfc11f705e4U, 0xff20dfc08d7d9d9U,
  0x1fcaea1825d100e2U, 0xe90a0409e3d50c27U, 0xd0204fe0d160ccaU, 0x190b0a0113d4fcf1U,
  0xeb22150e07dff628U, 0x1030be9e7201d26U, 0x21060c0ef7fcf1f7U, 0x7f1f50c18f116d5U,
  0xe4cbfe05041bebefU, 0xcb13fb1120261014U, 0xaf520f5ff0ffccbU, 0x2e07fa2216f9100cU,
  0xec1de20f02ed0320U, 0xee9e9e51af8ecf4U, 0xa0913091a0ad613U, 0xf223cae91b190307U,
  0x5041c1202fc17f5U, 0xf7fb0338032ff3f7U, 0xfc03e9d9dde614f6U, 0xc19ef0c1a0303e1U,
  0xfe19fe1f29f2ea1dU, 0x1be118e6f01a04f7U, 0xafcec1fe805012eU, 0xfed5f9f8043df1ffU,
  0xfb0c1bcf0820081cU, 0xe6170ef8e4100712U, 0x303fde8131700f4U, 0xd91af3f56620210dU,
  0xfeff11120f08023fU, 0xfd090201f306fad4U, 0xef080e212b3d1e0dU, 0x2c1715ef013f13e4U,
  0xfc04060fdef9fb1cU, 0xfe060900081b0b14U, 0xdff4000a03080517U, 0x12fddf00f52003ebU,
  0x11c0d0808d1f3f9U, 0x1410ed18ff090101U, 0xf80713010ff12917U, 0x2ce60004170309d1U,
  0x11fbe81d160ee2e6U, 0xf70eecef1ae6e5faU, 0xeff0711510082002U, 0x10181beb01ebf7deU,
  0x7f70718dfe90620U, 0xfef90af91bdb10e7U, 0x426ed03ff0dfc9cU, 0x102fdfa23e90d0bU,
  0x9fe052412fd0107U, 0x1b2f07eef92406f6U, 0x4e901122c104235U, 0xfc05e41af0ef11e1U,
  0x1c4090801f8f9dcU, 0x193be41e03fe15e8U, 0xe0e2090cf233f4f6U, 0xb5e904e70804f8e7U,
  0x19dd230af824fce8U, 0xf409f5fefaea0727U, 0xf4fe1b25e701f310U, 0x2a1437061001d41eU,
  0xedeb1d31081a0803U, 0xf1f807e51b0ae8U, 0xccf906f2efef4bd5U, 0x1bd0ebf521e8f70aU,
  0x1f5fa0beede4208U, 0x2f401fe39e00f1aU, 0x1a05370e131a09ebU, 0xfd12f6fbfc030aecU,
  0xd51af8120104f809U, 0x2ef191ff8f42e20U, 0xf61de00f0e08fafbU, 0xd5eeecdced01f801U,
  0xff13436db1001fdU, 0xf50104fe4a00d404U, 0xe3081a20080133daU, 0x3fd1ade1002160cU,
  0x3a10fd2bf3d6e0d9U, 0xe9091e1012dbea26U, 0x923fae6171ff5e7U, 0xf60a2407171408U,
  0xff1124f804daef08U, 0x80df6faf608140aU, 0x11a040301102019U, 0xee16121aeb3515efU,
  0x110bfe06e11021f4U, 0xeaeef0dbf0172741U, 0xd9f0dbfd160e1305U, 0xf3fe1c1fd31b1c15U,
  0xed05f1f0f5f70215U, 0xfb08e9f632ff1954U, 0x10e120622d5ebeeU, 0x3903efdefdede60fU,
  0x203f4fbd925e1feU, 0xd0e2101d0006e715U, 0x3271110270f060eU, 0x622dfe3f4fe2034U,
  0xf3061f14f3e219fbU, 0x92208d8d1e30308U, 0x2923f0090fe4f031U, 0x61ff802481df6fcU,
  0xfa18cbd81d0d1bbfU, 0xe6101532ea06fed2U, 0x50314fe0df6230dU, 0xf9f902f01300c0efU,
  0xf4fc1bee21fa192aU, 0xf1d4fef1150c02e7U, 0xf6e3151e1c12ece9U, 0xf101231d0efae602U,
  0x1bf20bfb0d0c00e6U, 0xbffdefd905e5e706U, 0xf7ee24f4ceeef30bU, 0xa7bf0bffe1e4ea00U,
  0xef0c0200efe80621U, 0xd1a12e80137d5f8U, 0xf432fd05d6f8e3f8U, 0xfee1130024ecf1eaU,
  0xdbeff6e1fdeef718U, 0x151dd6f1fbec0511U, 0x71cfef4e4fa14f8U, 0x6fce6f0f9eafb25U,
  0xe031cff17e84312U, 0x24fc0606262004ecU, 0xfc0d200423e2ef02U, 0x2af71b050af0f210U,
  0x14282110eef9f80fU, 0xf31c1c231bf4a2f9U, 0xdfd14ffdff306f6U, 0x1204431ff6f2f107U,
  0x40106f101efe103U, 0xec00f2fffefb03f9U, 0x2e2f50908fddde4U, 0x9fefd11f61df5ffU,
  0x1b050f0acef8f215U, 0x340cf7f526e9fefaU, 0x1b1cf412f7043ddbU, 0x2e6fbf31308d50bU,
  0xce9f5022bef05e2U, 0x308e2da230e0e06U, 0xe5221a05e8fe2b0aU, 0xce3cef2140820f6U,
  0xf335e81a0c23df1eU, 0xf531e9190cf4ec0dU, 0x3192f0c29d8280eU, 0xdde1bde0301080fU,
  0xf4fcf32dfdfef600U, 0xeff5def900fd051cU, 0xf4f01cdd1419f11bU, 0x4bfc01e204fa2218U,
  0x18fad90bf52b15edU, 0xf90decee031c0004U, 0xc92c36040ee3101aU, 0x9e415e5f4fdeaf4U,
  0x7141d19f43c1503U, 0xbf0a12ece601040fU, 0xfbf5e30afaece310U, 0x241fd3fce7fa040cU,
  0xfd003227ff12091eU, 0xee120515360f33ebU, 0xffefcf218e9c314U, 0xffeff3e60f1609ebU,
  0xfadffa15dd260f0eU, 0x10d2f115e91c27f5U, 0x310df81c13f9ddf1U, 0xfbf1010027fc020eU,
  0x310ce531111911d3U, 0xf6f2fded10060701U, 0xa001e250905190aU, 0xf806010cf800e90dU,
  0x171cdcf9f903c6f0U, 0x12dd826180fe6e9U, 0xe70d1921080ef4d5U, 0xff03e212ec271522U,
  0xe006e108f405d747U, 0xbce2fe04eb0fe5e7U, 0xb15fdce24e6f40cU, 0xd80f0109011ff12fU,
  0xfccb0a01fdf60e12U, 0xb02dff60907ea0dU, 0xf8f7f7e5d013cffcU, 0xd1d7ed22131f01feU,
  0xe4ce0f1409f01e14U, 0x43008fc3a0e14d7U, 0x16ee1cf6f2cc3223U, 0x25f40421dd04fcfbU,
  0x17ee0df7ebf24215U, 0xfefc0014ea16070aU, 0xdcf8eaf3220f0006U, 0xe2df2e05fd23f9f0U,
  0x15ea02ebfa210924U, 0xdef211db19f7fa01U, 0x18f808ce190b11caU, 0xd20323db043c2bf0U,
  0xf74d2d1a220b1308U, 0x10f41818f2fe11feU, 0x6f6f205f7e6fd12U, 0xe1072d02e80cf7ffU,
  0xfeeaea17f0ef2acbU, 0xfbf9032303fb1137U, 0x6f0ef1af0f9d4f3U, 0xdc05e2051f0d0f1eU,
  0xfa28003fe51ce715U, 0xe6f205fa110d0f00U, 0xfc0b1413fcfb20e5U, 0x2dcec192df709e9U,
  0x822b71bda0dee27U, 0xc9eed91101f7e50fU, 0x171cf406f71e4801U, 0xcfeff1e52e6f509U,
  0xbdf60eedfd083b2fU, 0xf01203f8d320dff4U, 0x42a060e14ea0aceU, 0xfd02e0060afc0513U,
  0xf2f6f4f6241306e9U, 0x51905e7e510f509U, 0xe5fc26f0f8f0ef0eU, 0xfa0e27f4e3fee832U,
  0x8f4d62ecaeb0508U, 0xda1ce50612fcec0bU, 0x3ee160302000b0dU, 0x1be4e3d74f13f812U,
  0xfee5f60117090dbfU, 0xeb0111e523f9f208U, 0xf1f0a3d0302ecc2U, 0xfcf5dce918f3eff5U,
  0xcfc0313e3dbf627U, 0xc4ed19e2f7e8e326U, 0x1623071407fdfc17U, 0x9fc0fd720fed4f8U,
  0xfaf7eadb2e0dfa19U, 0xd513f608fffffc25U, 0x1f131a16f2f9fae4U, 0xfc18caf0daf40d09U,
  0x804f9e810ffded4U, 0xf8dc0f030ee40bfbU, 0x1102f61d1ee2e21fU, 0xa33fcdaf607090cU,
  0x714ec0bfafcf0fbU, 0xf9de17dc97b2d6faU, 0xfe081ff50c0001U, 0x7f4f9e7fd0cf703U,
  0xcff6fcfdd0bcf807U, 0xedfdfa11f8ee03f8U, 0xe0cfbe126fe050dU, 0x718f426dba2172eU,
  0xf112f20412e6daf2U, 0x104e7fd1306f1f3U, 0x121ed3fffb03ef25U, 0x3c0feff9fe21d7fbU,
  0xf2f303ed27f10e24U, 0xfd2ea3f6d70a2507U, 0x1f5fef9ea02daeeU, 0x19f906f135291910U,
  0x290303031de1ed2bU, 0xda12ecfb1e053403U, 0xc16e329f7ecf8daU, 0x161deff72322e50dU,
  0xf906f6f2f810f0dcU, 0xdce9fb0b0415e9fcU, 0xe70c0704d81417ebU, 0x1ab6003905e2fdfdU,
  0xeb08e725f416052cU, 0xf60deb1b0f0a07bdU, 0x1606f63214ea1ef7U, 0x71b0f230f240303U,
  0xb09e2d440e61feeU, 0xfc1a0617edf82cf3U, 0xf9ea191809d6e408U, 0x282b0213ecec18f2U,
  0xfbd90d29111befdcU, 0xf4ebeffefd35f4d3U, 0x19fafd26cf0316f3U, 0xea1b0bfdff01e518U,
  0x628eab53deff307U, 0x180b0722f30efffbU, 0x1d331117fd17d103U, 0x190129fd0410200bU,
  0xf1fbe2e608f7fdf7U, 0xf9ddfef50ff9f6f8U, 0x7f62305083608f9U, 0xfef19e2fc0f0b03U,
  0x25140919f5fc01b7U, 0xe0518eb04192b1fU, 0x17f52c100f0ef514U, 0x19ebed092006b7e8U,
  0xe503f4ededfc3c41U, 0xfc13d9c4f5090f0fU, 0xf9fafcfcf1ffd803U, 0xe40910e60bd50416U,
  0xf908f76eef1edadcU, 0x2813fc13fcf4e415U, 0xf7cfe90cd218d4d9U, 0xf0f728fa03f1edf5U,
  0xee13d4e907f2eb03U, 0x1801ec020ffe03beU, 0x1b15fdde4c21fe0eU, 0xe8f2f926e31c02fdU,
  0xe22a0717140c3a26U, 0xd1121062bf90c01U, 0xe5fdfcf505e5fae3U, 0xfec9f5e6fe12e7U,
  0x1608ea080b00fef6U, 0xf6f11ceefb0aeb03U, 0x90d09fef60cf5efU, 0x30e210f1fb02f8beU,
  0xf0f513001ce9fd39U, 0xf5f0f3e4f20be9ddU, 0xdf41e1cf600fa07U, 0xe20620fdce0cffe9U,
  0xee010d1303ec1903U, 0xd81addf9bf03d41bU, 0x130d08ea0f3107fdU, 0xc191212ffcc0c00U,
  0xf1e520dff1040c1cU, 0x322ff50cfef818efU, 0x6e9081bfb230de9U, 0xde0310efc902fb0eU,
  0x18f3f20d090beffbU, 0x10fefbf1281cf0ecU, 0xfafbe269ff0918ebU, 0xe2090d061cfae70fU,
  0x812fcf1f903ec56U, 0xf9fdba250817f827U, 0x2a252e0711e522f5U, 0xafd140000b90607U,
  0xcd1715e8020afdf4U, 0x2afbfe0cf000f82cU, 0x504d2dc0d012019U, 0xe702e5263afc0821U,
  0x26eb2af3fa0af420U, 0x1310f332f4e8f7f1U, 0xee0cfbf140fae20cU, 0x6f4cb2b06fa09f4U,
  0xff2700220fe91815U, 0x1fd0317080cdff8U, 0xedfe0112150d0003U, 0xf9221f1c012af311U,
  0x1a0a2809f1eaf520U, 0x2508d1011e1f1012U, 0xf5f3e608f4e6f6f6U, 0xdd0c11fedaf913dfU,
  0xee616090103f105U, 0xe0011a012031151aU, 0xc13fced2501ea05U, 0xd70ddff9ede31723U,
  0xf20af10402f21908U, 0x2111909f018dc0bU, 0xfff7efeb0b02d36cU, 0xf50af612caacf219U,
  0x1616f9f2fefe1aedU, 0xe010e6f900fd121bU, 0x8faf4f20ed7340dU, 0xfaefe8e8e4ff04d7U,
  0xef108dff71a0b16U, 0xa12e30a0115f2f0U, 0xfce530febcd3fdecU, 0x18153d200a14d70bU,
  0x16dd1218ff10f8dfU, 0x2810ebfee7f7f5faU, 0x20af021f0b0015f7U, 0xaeff508211f043aU,
  0xf817f4064958e511U, 0x201d01260cfa11dcU, 0x131603f419f9f1ecU, 0xf5feff0e03f8eacaU,
  0xeef7f7e4dd18fef2U, 0xe1918ecaff9ee0cU, 0x604fddae0101bf6U, 0x1ad003f1370a020fU,
  0xdc0b0be423f2ef0fU, 0xfc1cebeff8fdd61dU, 0x40002ec13fb340aU, 0xa11070d15fa0de9U,
  0xf0181815d91bec08U, 0xf7f2001422ee4af5U, 0xff1728230600fbedU, 0xf816ddf017fb19b7U,
  0xccee151cf80b0408U, 0x4fee007e2d307e2U, 0x2112ef23b82b080cU, 0xfdf3d021420f0cfcU,
  0x4fee802eb12111aU, 0xe8f009f9f81d070bU, 0x82c1608f2f42bceU, 0x27ec15e30d3105ffU,
  0xcaf9f823fc06fc03U, 0x518f6c3d50cf5ffU, 0x2e200b19ea251bfcU, 0x15290900fa1ae40eU,
  0xe303192f08e7f0fcU, 0xa1f130ffcf3eedbU, 0xecf8d0ae20ddeb29U, 0xeb12fa2943ecdfd3U,
  0xe5ee0b050015e611U, 0xf4e4e2f4fc1f1ddeU, 0xed9f014e7e509d6U, 0xf5ff1e10fdeffcU,
  0xf9000727ff0105e6U, 0xfaf5062dfe291dffU, 0xd4ef211dfa05ec19U, 0xf25f8d301f806e7U,
  0xcc03fcdf1c07bdf8U, 0xfbf4fce712e325dfU, 0x2505db172bf70afaU, 0xeb04e813ec180ff1U,
  0xe8e2f4f500edeffaU, 0xf5f00f01ca15fd27U, 0x12f4ebded0f90814U, 0xe1131009111f1502U,
  0xd7feff0a3b071aceU, 0x1dfb100ec7fce8f0U, 0xe317f517ed02ec0bU, 0xf0a09fefc0a0721U,
  0xfc07ff07df0f1d0aU, 0x1009ffd9fa07f3f8U, 0x202ef3ffcfe13d00U, 0xe5e520efea0f27faU,
  0xfff2b07e4fc02ddU, 0xe6ed1505d9fd211eU, 0x1309e901f3f0fc2eU, 0x2e2020e610ece807U,
  0x3cfcf6ecffe51df8U, 0x14fb10e9151900eaU, 0x7090b050022e6d7U, 0xf9202f05fc101518U,
  0xfa0bdd150100fb19U, 0xae309d6d80610f5U, 0xd2d212ef6fdfaf6U, 0xeb05041819063406U,
  0x2b24d721122b06f9U, 0x1e118f329f60906U, 0x1e16e20210e937d9U, 0xc502090ded1bd200U,
  0x4ef040127011e09U, 0xcb33030ffbf50be4U, 0xdef51de5e4d74d05U, 0x1a01e20efef8ee13U,
  0xd0cf4ea1622f5e6U, 0xd314ef05ed00230fU, 0xf09fa1e0a2102ecU, 0xe5d1e9ffe3011706U,
  0x1d3831061df0ce06U, 0xf9dcfa1638f9160aU, 0xb140b041c1b06fbU, 0x1606f9fde4001afdU,
  0xde1118d017f810c9U, 0x34ec23e5e9d7201dU, 0xdff8e9ff23e4ea28U, 0x1e1815f5f00ff1e6U,
  0x2514f6fbf6161d0bU, 0xe003eaeb1900e828U, 0x2401e5e902fbe9e6U, 0xfc3222e60527fce7U,
  0xd9e9f1f6eaf7130cU, 0x2efa0de608062810U, 0x1819f3f0eef3fd18U, 0xfa0f16f91c06f70eU,
  0xfce91f1afee3e100U, 0x11e9f303e9ee0cf0U, 0x908e819eeed1820U, 0xdbcef421f214d002U,
  0xff0d141a0d2ae706U, 0x1a0708f3ecf10bU, 0xdf4fceb16dd0609U, 0xcb3a14e4ed1c0d04U,
  0xf90a180c09e61633U, 0x2fbf4f6d502b021U, 0x9f220f616072131U, 0x11eaddfc06300916U,
  0xedf5def73d2df50fU, 0x21f3e90ce4ea0015U, 0x160e1713fb08dbfeU, 0xa26fce5140014c6U,
  0x1322e20be41cfc17U, 0xf1dd3efbe411f7e6U, 0xedcf0a3d160315f4U, 0x18f5ead902e721eaU,
  0xcdff709fc08fbf9U, 0xe3fbf8e32e09f91cU, 0xae8010d0a0ed7caU, 0xfbfcf32226e60c1fU,
  0xafbfaf80cee05f0U, 0xff2fc3603f00001U, 0xf712110f2a321c00U, 0xf2130f1d05f8fdd4U,
  0xf0fee8f105e618f7U, 0x14f7fee923efddf8U, 0x102e47fafafbf9f1U, 0xe9ef0d1403e500f2U,
  0xe9f00706d122f0eeU, 0xe3db1b16e9e0eef7U, 0xe9f8050113e3edeaU, 0x19d806f91eb3fad4U,
  0xf604f006dd20e6feU, 0x16faffebfc15dffbU, 0x1505ebe12003f804U, 0x12eae90e0518fa1fU,
  0x1afff91005f60620U, 0x14070920ec2401f2U, 0xf1e427fcf215130dU, 0xf9f700150b24051dU,
  0x4f70cfaf2f700f8U, 0xc5061925f6ddf02cU, 0xf1020907e7ee140bU, 0xfe912effd06fa16U,
  0xf2fe171f0be9ee24U, 0x47c2081f08f9de40U, 0x1f81bfa0ddef1dbU, 0xe90dedd306c51c02U,
  0x312f523e51dda04U, 0x9ec000e0e1f1910U, 0xc17d6c705f42713U, 0x7ebdffafcdfc932U,
  0x19eff0e70811ea02U, 0x17ddedf1e9fbf20cU, 0xdbfb09e108d904d7U, 0xe2edde2ce6450de8U,
  0x43d8fc09f1ea240bU, 0xec161ff506deee06U, 0xeff90be426080dfaU, 0xf6eb2ff82a0f09e6U,
  0x22f8fb13f01afe16U, 0xf9141eecefaf1004U, 0xfbeef4f0fd0711ffU, 0xe7defc0de51bed0cU,
  0x8d2fd0b0b461cdbU, 0xfef60b00efe7183aU, 0xf9ccf1cdf7edec08U, 0xa0d1e0504e302fbU,
  0xef1ffb3dd127e5e5U, 0x110103f736ea1ce9U, 0x32160d0cf7ecf231U, 0x13da082823f3100bU,
  0xfdeb02e92109d2d0U, 0x12f0191506fc0922U, 0xf501f3f205deee0eU, 0x30fb0ef4f702e4faU,
  0xebe6051ae916ec3bU, 0x2504c1f3fc0a0cfbU, 0xdef6ff1f27cd18f3U, 0x3512b25e80506e5U,
  0xdedd022324f51914U, 0xfb24eb16e8f4f627U, 0x633011411f3e10fU, 0xe8e0e8edfe25330cU,
  0xdf3d0500ef0609d3U, 0x6d7ff19ddd608edU, 0x2e0b2e3c291bfadeU, 0xedf3fcf4e803f74fU,
  0xe119e1d505f41df0U, 0xfd16f91b22f9f327U, 0x11ae904f5f313feU, 0xfd0fdfeff5cf0effU,
  0xefe40d0a10f307f9U, 0xf3f8391e16f3e3f7U, 0xecf8ff0807f4421aU, 0xe109300cc7050f06U,
  0xf8f12005f0faf90fU, 0x1cdfe7f60e1fffe0U, 0x9040222a72ad7feU, 0xbb1d102b0a020612U,
  0x108062411f81405U, 0xf10df9f3230af407U, 0xbf17f9f50bf90d23U, 0xf20ffe1ffa0018f8U,
  0x11a080b05d8fbebU, 0x30c702f9f3110c1aU, 0xe900061de30b2f0bU, 0x5fbf90122e4d8e9U,
  0xffd7f03a04fd2103U, 0xf120207eb1f1220U, 0x625060a15b2ef24U, 0xd14de13fdfffc17U,
  0x14f30f08fe0b1139U, 0x130b20081422f8faU, 0x6d7040b05f921e0U, 0x1d0d2301fed8fae5U,
  0x1efa1beb31f4190dU, 0x99aec13231214f9U, 0xe2d13ffdf1c1cd2U, 0x300f9020032f5e4U,
  0xeee1eaf402f5050aU, 0xf70e02feed230323U, 0x209bf4020200112U, 0xf9f11407db0211e9U,
  0xebf304ee0a23c4f7U, 0xf70007eee8ebd2ebU, 0xf3ff0f200000de08U, 0xe91cbbf0f8390b0bU,
  0xfe51053efa1bf315U, 0xc1cfb02ecf8f1feU, 0x8ec0e02ef000610U, 0xfae434f801f4f5f2U,
  0xe30ae8f51a1306edU, 0x3d6f21904cafd07U, 0x17e2bfeb1409f4f6U, 0x1ff10cf3eb00ff0fU,
  0xf90f07254403da44U, 0xa05070dfbeaf3ecU, 0xddfcedfaf6ef04e7U, 0x21f9e748fdcf08f9U,
  0xda2be81efb10fa0aU, 0xf00c1702011c0be2U, 0xd11b240df1060bfaU, 0x309e9f700f6e709U,
  0xd0a19efece7fe01U, 0x21ec132103ff01eaU, 0x26e509eb2f2ae4dcU, 0xeb041309001cd8e3U,
  0xa0f1ffbfd032cfcU, 0xedf6ed1e16e1f9f0U, 0x26def3fd10e2ffU, 0x11f81af1e9e5ede5U,
  0x1bed140df9de14fdU, 0xbfcebf410e804deU, 0xf715091a43120a32U, 0x24edfbf4ceed1006U,
  0x1007e7d1f3f7f110U, 0x52003d1f9e40812U, 0x25d2171605fbfa07U, 0xf2f71608eb2322e8U,
  0x10e92fcc401feafeU, 0x1ee521230c0e0813U, 0x18e2d805fa03020cU, 0x200406051b420b1eU,
  0xf3e7f40630faf10cU, 0x71a0210f31a102eU, 0xdf1906ec0efcf609U, 0x19d815e6def1f3e3U,
  0x1c0717fedaf8d4f9U, 0x21ed010aff240f16U, 0x14edee122ef11503U, 0xe315f4060719fd21U,
  0xe1fcb1df41b07f5U, 0xf7fa051de4eb09faU, 0xb0fef101eec1904U, 0xd809efebf9f81c0dU,
  0x1615dddb1802f41cU, 0x50e3ef1f0601f91bU, 0x15fb0dfef6ffdd35U, 0x18ecf0f7e1f6f518U,
  0xffff9156ffff9073U, 0xffffbfd1ffffa294U, 0xffffa725ffffce00U, 0xffffab98ffffa59fU,
  0xffffb1e9ffff9850U, 0xffffa490ffff9cbeU, 0xffffb4a0ffff9e88U, 0xffffbc2cffff88acU,
  0xffffa968ffff9f71U, 0xffff9a1fffffc437U, 0xffff914fffff9786U, 0xffffa0c3ffffa6fcU,
  0xffffa21effff9310U, 0xffff8f07ffffbe5cU, 0xffff99daffffbe7cU, 0xffff8833ffffa69fU,
  0xffff9a9bffffa26fU, 0xffff8ca6ffff9352U, 0xffff8cb7ffff797fU, 0xffff929cffffa0acU,
  0xffff835bffff8e31U, 0xffff6fbdffffae9eU, 0xffff9973ffff9c2aU, 0xffff9e0effffa118U,
  0xffffb34cffffcad2U, 0xffffac6affffc7b0U, 0xffffb7a4ffff9392U, 0xffff926cffff9d2eU,
  0xffffbb84ffff897cU, 0xffff94b9ffff89baU, 0xffffa379ffffab8dU, 0xffffb086ffff9880U,
  0xffffa4c0ffffaaa2U, 0xffff94b3ffff9843U, 0xffff8822ffff9315U, 0xffffaa70ffff7487U,
  0xffff7214ffffa9e1U, 0xffffa56cffff91bcU, 0xffffa5ecffffa5fcU, 0xffffb58cffff99e0U,
  0xffffbe61ffff9910U, 0xffffce94ffff9d36U, 0xffff89daffffb986U, 0xffff7fcbffffaccaU,
  0xffffa14dffffae1bU, 0xffff9348ffff8ecfU, 0xffff8940ffffadd4U, 0xffff8e2affffa36bU,
  0xffffa447ffffab0cU, 0xffffaf86ffffb332U, 0xffff8e88ffffa22bU, 0xffffa6d9ffff9eb4U,
  0xffffaa8dffffa804U, 0xffff8497ffffb5c9U, 0xffff78eaffff9c45U, 0xffffaa3dffff9fc1U,
  0xffff9afaffff9cbdU, 0xffff9478ffffa4e0U, 0xffffa712ffff86a1U, 0xffff963dffffa473U,
  0xffff8c09ffffb092U, 0xffffa566ffffa375U, 0xffffc2a9ffffacb6U, 0xffffa797ffff923aU,
  0xffffa1a5ffff9aa4U, 0xffffb017ffff87bcU, 0xffffa959ffffa8beU, 0xffff9c3affff8c8cU,
  0xffffa76fffffa2ddU, 0xffff94ffffffb1cdU, 0xffff9afbffffafa7U, 0xffffa69fffffaf53U,
  0xffff9b34ffffb955U, 0xffffcaaeffff85eaU, 0xffffdd2affffa5b3U, 0xffff9f1effffa290U,
  0xffffcba4ffff8a16U, 0xffff9659ffffa4edU, 0xffffb5b4ffff8d33U, 0xffff7a08ffffc050U,
  0xffffa8afffff868bU, 0xffff940bffff8e63U, 0xffffaf6bffff99b1U, 0xffff917effff9927U,
  0xffff8ad4ffff9d4bU, 0xffff9a8dffffb129U, 0xffff9170ffff8431U, 0xffffac60ffffa634U,
  0xffffb51dffffa771U, 0xffffa5caffff9d7eU, 0xffffad62ffffb567U, 0xffff91e0ffffa543U,
  0xffffb6b0ffff82f6U, 0xffffa865ffff9a94U, 0xffffa8a2ffff9cfdU, 0xffffa4d0ffff9aefU,
  0xffff9a77ffff998bU, 0xffff912fffff9bbaU, 0xffffa3edffffaa66U, 0xffff9f27ffff89ddU,
  0xffff99cbffffb933U, 0xffff931effffa032U, 0xffff869bffff98d7U, 0xffffb72affffcf51U,
  0xffff8063ffffb4dbU, 0xffff9534ffff9ba9U, 0xffffb6e7ffffaa00U, 0xffffb714ffffbff0U,
  0xffff9499ffffa120U, 0xffffbd2effffb9b6U, 0xffff9438ffffc5b1U, 0xffff9b3effff9d74U,
  0xffffaa26ffffaa15U, 0xffff9debffffc18eU, 0xffff923dffffa48dU, 0xffff9bd1ffff8d04U,
  0xffff89f6ffff8ca4U, 0xffff9f45ffffcc75U, 0xffff94dcffffa6b0U, 0xffffa021ffff8737U,
  0xffffa893ffff965aU, 0xffff8068ffffaee2U, 0xffff9f33ffff91edU, 0xffff95f3ffffc69bU,
  0xffff9b10ffffbfd3U, 0xffff8df7ffffb005U, 0xffffa0d9ffff985eU, 0xffff94b5ffffa28cU,
  0xffffaa13ffffa87aU, 0xffffb7adffffa46cU, 0xffffbc9affffb4a3U, 0xffffb7c5ffffa3fdU,
  0x2d8effffb4c6U, 0xffff90aeffffc0ceU, 0xffff96c2ffff971aU, 0xffff97baffff9467U,
  0xffffb20bffffa594U, 0xffff9ea2ffffb9ccU, 0xffffa340ffffa75aU, 0xffffae13ffff8379U,
  0xffffaa85ffff9539U, 0xffffa337ffffb442U, 0xffffb83cffff980dU, 0xffff9573ffff898cU,
  0xffffa58dffff8904U, 0xffffbc3dffff8817U, 0xffffb59bffffa739U, 0xffffa731ffffa8c6U,
  0xffffa43bffffba27U, 0xfffface6ffff90f4U, 0xffff93d4ffffb6f5U, 0xffffed2fffffa29eU,
  0xffff913bffffb7ddU, 0xffff8b6fffffa584U, 0xffff78bbffff9dc7U, 0xffff9cd3ffffcac2U,
  0xffffb483ffff9351U, 0xffff9b0bffffab09U, 0xffffbabbffffaee2U, 0xffffbbaaffff9a11U,
  0xffff8c24ffffa8e7U, 0xffffc059ffffaf72U, 0xffff856cffff8b8fU, 0xffff9b69ffff8fbeU,
  0xffff9107ffffc000U, 0xffff941cffffba32U, 0xffff9906ffffc07aU, 0xffff9bdeffffb5b4U,
  0xffff8b61ffffb1c3U, 0xffffa1fcffffa65aU, 0xffffae5bffffa2edU, 0xffffbcabffff9207U,
  0xffffc675ffff9723U, 0xffffbdd2ffffa054U, 0xffff8159ffff92b7U, 0xffffa32bffffa2f8U,
  0xffffacdaffffb160U, 0xffffa4b0ffffb32eU, 0xffff9889ffffa0e5U, 0xffffbab0ffff9b91U,
  0xffff8bebffffb372U, 0xffff9bebffff998aU, 0xffff8a2fffffb075U, 0xffffabb8ffffcd13U,
  0xffffa193ffffc1ebU, 0xffff9794ffff9ab0U, 0xffffa77dffffa1a7U, 0xffffab8affff91afU,
  0xffff9c2fffffbf2fU, 0xffff9872ffff9ec9U, 0xffff9bd9ffffa4d9U, 0xffff957effff9a31U,
  0xffffb0ddffff98faU, 0xffff92baffff9368U, 0xffff9d06ffff9e10U, 0xffffa50dffff8ecbU,
  0xffffdf79ffffbcbfU, 0xffff74c8ffff9ef3U, 0xffffad00ffff87e8U, 0xffff9984ffffacd2U,
  0xffffa1edffff81a7U, 0xffffa59affffb893U, 0xffffa2c4ffff98c6U, 0xffffa6efffff9b6fU,
  0xffff8ccdffffac72U, 0xffffa43effff88bcU, 0xffffe7d1ffffa586U, 0xffffd046ffff82beU,
  0xffffb702ffffbe45U, 0xffffd2bbffffa43bU, 0xffff86a6ffff9189U, 0xffff839fffff9beeU,
  0xffffbeaaffff9d4cU, 0xffffa3e2ffffbee0U, 0xffffb11effffaa65U, 0xffff9bc6ffffaafaU,
  0xffffa975ffffa16fU, 0xffff9f53ffffa3bcU, 0xffffb2d1ffff9fd3U, 0xffff9852ffffbfdeU,
  0xffff818fffff9c44U, 0xffff9992ffff86adU, 0xffff9f4bffffafe5U, 0xffffaf89ffffa7ecU,
  0xffffb424ffff9db7U, 0xffffc51bffffa524U, 0xffff9503ffffbbb7U, 0xffffee70ffff85a5U,
  0xffffac97ffff9dd4U, 0xffff80c1ffff99efU, 0xffffbfa1ffffac04U, 0xffffb332ffffa9d6U,
  0xffffa857ffff993bU, 0xffffa936ffffa400U, 0xffffa44bffff9e97U, 0xffffabfaffffa68fU,
  0xffffab2cffff74b3U, 0xffffa30affff9345U, 0xffff9bf2ffffb064U, 0xffffb0c1ffffbfeeU,
  0xffffdb1affffa026U, 0xffff91c1ffffad1fU, 0xffffb527ffff912dU, 0xffff72deffffb86dU,
  0xffff9234ffffbb42U, 0xffff8afcffffb242U, 0xffffa9d0ffff99cfU, 0xffff9d3fffffa6d2U,
  0xffffc0e4ffff89edU, 0xffff942effffa4e2U, 0xffffa2faffff8c5aU, 0xffffcd54ffffc114U,
  0xffff9327ffff82d3U, 0xffffcf43ffff8d9dU, 0xffffc712ffff93b5U, 0xffffa940ffffbe06U,
  0xf604d9050fe0d3e9U, 0xcd30a0be8201efcU, 0x110111cfbfe020dU, 0xfd90c010ff81af3U,
  0x4e7dcf0182512fdU, 0x1f403fd110b0320U, 0xfd1413e2ec0b13dfU, 0x203081117d81407U,
  0x14f9df011419f60bU, 0xf0211503f9f401f3U, 0xe1060df2011bedf8U, 0xdbe9080a12f6f309U,
  0x1cfbff0b03fe0aeeU, 0xe7130c0e0006d918U, 0xfcfcf920e501ebebU, 0xfef808f8fdf50d09U,
  0xff10fef6040914fcU, 0xe413d406f7fa0516U, 0xedfdf3f9cffbefc1U, 0xd11df501fb12e4f0U,
  0xdf3fbf111eb1d11U, 0xde17db1507fbfd09U, 0xf4e5dfff00feebf3U, 0x226e6f8d5f305e7U,
  0xfd08e6d718e20f03U, 0xe00505f6fff70effU, 0x8fafd03e7fefefcU, 0xe5f00ce506e205fcU,
  0x7feed170702ea2bU, 0xde0a1807de07e4d4U, 0xeafef016fa05e4f8U, 0x1f15d51124e6defaU,
  0xeef2f2f707f8ef00U, 0xf8fd1d1302121b11U, 0xee5fbfaf2eae60aU, 0xfb1bfee508dd09fcU,
  0xc0d181ac6f9ece2U, 0xec0f01f2f206f900U, 0x1e9ec07d90b02fbU, 0x211f2070dff0319U,
  0x10f1bfd0f09f804U, 0xbf1de0bdeeefed5U, 0xf8fdebf2f009f102U, 0x1616fa00e310c500U,
  0x1f7fa10131127fdU, 0xdd5df16f102d3f7U, 0x11e00e03eae3eae9U, 0x160bf1c61af4000cU,
  0xd3f6fc18e6fdf817U, 0xfae8f20ddbd8d0caU, 0x605f5e810e7020eU, 0xffff0c0206f4e4fdU,
  0xde09dc00fb0916fcU, 0xdbf8e91a0d20f3eaU, 0xf7fd2fd9e70ef414U, 0x2bfdf3f102fef2e5U,
  0xbe0115d9120b21feU, 0xeffff709fd02f9eaU, 0xf10ff713df05081eU, 0xf112e40215ea08f1U,
  0xfaf6e6fbc8f50b0dU, 0x1404ecf4dc06f5e6U, 0xeffbf6e313f701fcU, 0x12f5def6160810e6U,
  0x2f40a0d0903faf8U, 0xfc06fb0200ff04U, 0x7190102faff03f4U, 0xf8effafe0901fe03U,
  0x2f6f9f1ff0ffb09U, 0xf801f4effa0b0000U, 0xf701060716f7f3fbU, 0xf800f5edf2fefb0eU,
  0xf8ed0504fe02f30eU, 0xfff9fef8f8f9fbf9U, 0xf106f7f606fdf3feU, 0xf602ec09fdf006fcU,
  0xf7f7f103feebf908U, 0x809070a00f9fc03U, 0xf0f9f708faf1fc05U, 0xf5ef03fdfdf406f8U,
  0x405ee00f3f1ff0eU, 0x1fc090402f7f508U, 0x2f3f1fffbfff1f1U, 0xec05f8ed00ff03fdU,
  0x10cf1f1fbfaf6f0U, 0xf8fbef04f9fdf304U, 0xf4f30905f610fe01U, 0x9f804eb0502fdf3U,
  0xe8fffc0df9fc12ffU, 0xf90efd05fdfd030aU, 0xf105f6070b03fcfaU, 0xfb01f30707f906f8U,
  0xf10106f70b0ef804U, 0xf508f70207f2f9f0U, 0x202f405fe0efbefU, 0xf10bf5f8f100fb0bU,
  0xf50b03f01002f802U, 0x5f60908fb071200U, 0xe7f8000bf3ff0901U, 0xcf610fffc0bfc17U,
  0xb120104f2fcfcf8U, 0xa0bf5f104fd0108U, 0xfd01f5fcf8f2eb02U, 0xe00f00f3faf1e5ffU,
  0xf006e4fb080efdf8U, 0x1ffeafb03f9f8f9U, 0xf80307131106f8f4U, 0xfe0807f4f8f10a02U,
  0xedf9fbf8f0fced04U, 0x104f80408fbf7fdU, 0xf5f408f00301f80bU, 0xf3fdf901f4f9f6f9U,
  0xf702f2f30cea02f8U, 0xfc0201fa0e0d0202U, 0xfef906f701eff7fcU, 0xf1f609f9fbfdfef9U,
  0xff0dff0310fe0cfbU, 0xfff40af7f70ff807U, 0xfb0102f9fefbeef8U, 0xfafb02f601011007U,
  0xdcfe03f4fa0cf0fbU, 0x6130a140102e4fbU, 0x6f0fefbf9fe0001U, 0xff030904fbfcf9U,
  0xf8fcf4f5040ee7f5U, 0xf3fff904f6080601U, 0xf906f0f3fcf0f5f8U, 0xfff901f6f1fb00f8U,
  0xf5f3eff1faeaffecU, 0xebfeee17f8f5fbf7U, 0xf7f3fcfa0b00f4efU, 0x3effde9f7f6fe02U,
  0xa0111f305f1f3f4U, 0xffeb03edea0ffdf2U, 0xf2e8ffff0b0802f3U, 0xecf7160503fb05f6U,
  0x7eefff901f8f5f9U, 0xfdf4faecec01fa03U, 0xfc080df6e901fcf0U, 0xf1faecf401000befU,
  0x80c0afc00f5f40aU, 0xf8f7f8070e051700U, 0xebf9f90609f102f1U, 0xed02fdfa03f00a05U,
  0x9fb06f104fef3f8U, 0xf608f9fefa0ef6fcU, 0xf80310160e01f7edU, 0xf8f1f9eff910f2feU,
  0xf002fe0cf5f805faU, 0xf6f7f9000402f6f1U, 0xfb0ed9e9fb06fce4U, 0xf509fcf50a0006fbU,
  0xf4faf50c000702eeU, 0xef60d05fc0309faU, 0xf5fae7e313e31703U, 0xfdf7fa0efcee02f6U,
  0xf7fe1920fbecf4eaU, 0x1bf7f903f9fbf11bU, 0x4e400f802f204U, 0x5fff402feeaf3eeU,
  0xefeefbf302f302fdU, 0xf5e4ea0304f6edU, 0xfff7f2fe09eef7eeU, 0xefeffef100fde801U,
  0xeff1f016fbfb0df7U, 0xf10fedf00c030af1U, 0xf4fceaf2fbfbf4eeU, 0xfdf9e6f5f409f414U,
  0xf4f402fbede806f6U, 0xf1f5f4eefcf7fff6U, 0x2ff08f6ffe7f0f1U, 0xd0016ec0204f9f0U,
  0xf702f9f1ffeaf5faU, 0xf0f0eb02fef80406U, 0xf4f9f204f302f9f4U, 0xf310ffffe000f9f7U,
  0x4f9f7f1fff104f4U, 0x201f608fe0502fcU, 0xf7fe0502f1fe0807U, 0xfe06eee0f9ebfce9U,
  0x19fdf402f000fdefU, 0xf62703fedefaf4ecU, 0xfbf0f803f9efeaf5U, 0xe9fff8ecf40f02f2U,
  0x2206e9f509ef18efU, 0x10fe0b07f8fbf3e4U, 0x1400fbfaeaf3f9e4U, 0xf50101ed02070b03U,
  0xf7f912f70810f3f3U, 0x21f206f0ebf50ef9U, 0xfaf4030015f02afeU, 0xecf607ece4f910f3U,
  0xfefd0203fcfbfefcU, 0x4fdfe00fcfbfefcU, 0xf601fc0201f8f8fcU, 0xfc0201f801fbf7feU,
  0x2ff06fffdfefcffU, 0x5f9fcfefbfd0303U, 0x5fa02fc00fc03fcU, 0xfc02f503fbfb0205U,
  0xfc06fd00fdfc0101U, 0xfbfcf903fafd04f9U, 0x4fcf9fd030300U, 0xfcf9ff00f8fefefbU,
  0xfc05fc01010104U, 0x3fcfafb07050301U, 0x2fcfffdfdfbfdffU, 0xfe05010204fff6ffU,
  0xfcfefd0400fffbfbU, 0x3fe00f600000300U, 0xfe0805fffdf8fffaU, 0xf904ff03fafffefbU,
  0xfcfd000101fffffaU, 0x30200f8fefff9feU, 0xfefaf9ff04fffd08U, 0x2f902fcfffffeU,
  0xbfffefbfefdf901U, 0x6fc020001fbfbU, 0xfff5fa01f9040302U, 0xf9fc01fdfbfffbfeU,
  0xfefa01fd0000ff03U, 0xf9fefff9fe01ffffU, 0xf9fcfefffd02fafdU, 0xfcfc0301fa03fefeU,
  0xfffef9fc0400fe04U, 0xf901fd0102fefafdU, 0xfcfbfdfdf8f90003U, 0x1fcfafd0502ff04U,
  0x1fc01fdfdf9fb00U, 0xfa01fefdf9fdfa01U, 0xff0501fff9fefa01U, 0xf904fcfc0200fbfeU,
  0x202fa0004fffc07U, 0xfef9fdfbf807fcfdU, 0xfd0002fcfcfdfff9U, 0xf700fbfdfbff0a03U,
  0x4fcfefd03fefe06U, 0xf8fefefffa070301U, 0x30303fa0101fb05U, 0xfefbfdfffd010104U,
  0xfdf803010201f9faU, 0xff03fd01fe0205ffU, 0xfefc0601fb0506f8U, 0xfef5ffff02fdf8f9U,
  0xfd01fbfe0700faU, 0xfffcf905fef9ff05U, 0x4fd04f9fe060502U, 0x1f9fdfe01fcfe01U,
  0xfefffffcfffc0201U, 0x90101ff0901fb03U, 0xfe02fbfe030202feU, 0xfffbfcfcf703f8fcU,
  0x50206fe03010100U, 0xfff6fa03f7fdf800U, 0x101fbfa030101U, 0xfefb0103fef7fefaU,
  0xf600fe040002ef12U, 0xfaf306010212f1fdU, 0xf7eafbf6fcfd00fcU, 0xf4f1fcfdfa0103f8U,
  0xfdf5fff305fcfe08U, 0xf7f8f0f7f4fb0507U, 0xfef04fdfe02f406U, 0x408f0ff1c06f603U,
  0xe913f004fd0efdf7U, 0xfd04f70d0c080afbU, 0x9fb02e8f709f600U, 0xf7f8f5fef30a02ecU,
  0xf8f4ff0401f2fffeU, 0xf0d04feff00fdU, 0xc05fbf803fc08f4U, 0xf6f8fbedeff1fdffU,
  0xf815f40202e80806U, 0x5f300fd09ef04f5U, 0x502f8f2ed12040aU, 0xee0af4fafcf4f5f7U,
  0xfbfe04effdf7fa00U, 0xf60201fcedfa01f7U, 0x3faf2f900f6fafaU, 0x502e5f80307e806U,
  0x1406f800fcf5eaf6U, 0xeaf10c0501f2fef3U, 0xedf6e90cfff6f1f8U, 0x1f8f2eb02f9ec03U,
  0x305f6f8faf610f1U, 0xf10bf7f1fdf4fbf1U, 0xf303ff0af9f803fbU, 0xf2f800e912ff0608U,
  0xf201f9f900feeb02U, 0xf3fcf4fa090a06faU, 0xfcfefefa0afbf6e8U, 0x5fbfc08fd000c00U,
  0xfdefff05f9f3fbfaU, 0xf6f7fdedf20600f7U, 0xf1f8fdecfb0d0cf4U, 0xfff3f3ecf9f9f5f3U,
  0xf60b0200f7fb07ffU, 0x13fb070906fa0905U, 0xf8fcf9f104fefef8U, 0x4eefe04f3f6e8f3U,
  0x1405f8f8fe100ef8U, 0xf804fd05f40600fcU, 0xf5f9f7f9fb1206U, 0xf3f8f7050ff7fdf5U,
  0xf2f9fbfbfaf20211U, 0xfd06f90dfef6f7f4U, 0xf5f0fd0f1109010aU, 0x1013ffef050df9U,
  0xf8fe04fefefefcU, 0xbfef6f2f6f914f8U, 0xe9f6fafe100b02U, 0xf3f8f6f006f50cfdU,
  0xf801f6fef915f6f0U, 0xfbfcf00410020c01U, 0xf205f11709f2fb02U, 0xf2eaf2faf802f905U,
  0x15fd00ee0100f005U, 0x4ffff0817faf407U, 0xf7f5f9fc0200e9f4U, 0x6f5ef0dfc010103U,
  0xffe6fd0b05ecfdf8U, 0xf013fcebf70aeae4U, 0x2f2edf8000ef6eeU, 0xedfefffef1fcf907U,
  0x1fbfd0deaf1f1f6U, 0xfaf0f7f9e60701f6U, 0xe00906e20ae8ddf6U, 0xff020b03fcfae6eeU,
  0xf9ef02f8f6ec0c06U, 0xeffee2a0ae3e9fdU, 0x407f8fb0702fb16U, 0xfd18faf2eefb020cU,
  0xf20500f7f5fafbfaU, 0xf9fe0102fc0df3faU, 0xf4f1f303eb0af502U, 0xfaeef409ebf5f1f0U,
  0xedf0effae314f000U, 0xf50e1606ff0312U, 0xfaffffec1e0cee03U, 0xc04080cf0f61f04U,
  0x60ff21001eedbe4U, 0x30209e6f9ecfdf3U, 0xf7ecff07e9fa03f4U, 0xf8f709f111de0107U,
  0x100dfbf71d11f012U, 0x206ffed09f7e0f6U, 0xebfb1affeeeffef9U, 0xfafcf3fe00faf7f2U,
  0x160a07f81403f307U, 0x3010609f006edfcU, 0x106ee03030000faU, 0xb00fcecf8faef00U,
  0x508fd05010407U, 0xf7eaf8030bf20103U, 0x19edfc0a0518fff6U, 0x4fb00f40b12fb04U,
  0xf9f90b1407f808f9U, 0x14140cf1f6f80d0fU, 0xfe1e11fe0ef604U, 0x120f08ffe9050207U,
  0xf613f4051500fc0dU, 0x7eeee03f9e0fa10U, 0x9f6e607081aeff3U, 0xfc06f406f60f0511U,
  0xe9ec09f3effbe6fcU, 0x403d405e40c05e6U, 0xfbfb0410fef3f9f8U, 0xeae9f6fee615fbf7U,
  0xfff7e1f501f90cf6U, 0xf80904f2ed161900U, 0xf8ff0ff6f203fa06U, 0x6fef5f9f808fd08U,
  0xea040dec1c0f0ffcU, 0xeeeaecfe0a010908U, 0xf90908f1dcfcf10eU, 0xd02e3f3e00cf7fcU,
  0xed07fa110dfffbfeU, 0xb081006f4f2e706U, 0x11f4f50c02e506eeU, 0x70af0f4f3f008f5U,
  0xf8f7e00d1617fafbU, 0xfb06fa02f5fefaffU, 0xedf70bde02fc02eaU, 0xfcfdf4020ffbfdf2U,
  0xfffb00e8f7f404fcU, 0xdd03f2fc12e319e2U, 0xf2cee71801f200fcU, 0xe903ff0901e7f901U,
  0xfc001bfa0e00fb1fU, 0xf4f1fdfb0606ff0fU, 0xee0712f7f2e7f712U, 0xd120306f3f4090cU,
  0x608f304e6f01e00U, 0xf1fef61dee011de2U, 0xdde9fade0103100cU, 0xf90cf9f9f3ff0c14U,
  0xfe03eaebf9e4ff01U, 0x7d8fd0a00d7080bU, 0x50a0ae706fd05dfU, 0xf8e7f1fc010df4f7U,
  0x27feed04e2defeebU, 0xff318f1d117fb0dU, 0xde30d0fe5f20905U, 0x270509e70df40bfcU,
  0xf50df1f3fff603deU, 0xd3e605f3e603f5d4U, 0xe9fd10fb2dfffaU, 0x1fe20f900ed0e13U,
  0xf0ce3f9e8f505e2U, 0xdee9c8fe1300040dU, 0x503ec140c04e105U, 0xf1201fae0fb0e05U,
  0xbf7fff101f8fafcU, 0x9fe03e1f4feea09U, 0xeafdf8e5f9bb1811U, 0x10e9fbe202db0d0aU,
  0xb181ff9f1f8eaffU, 0xe7eff710e60ae1fcU, 0xe12e0171503f901U, 0xebf9f0fe0203f9d0U,
  0xe10c0b03f614dc0eU, 0xfc0017080c22e0efU, 0xff04e8f3f9ecdc19U, 0xdffa0fe5fdc10014U,
  0xe909f7f0f92efff1U, 0x1ae909f21405f909U, 0xf501f8f5fefe0dU, 0xfae9f5fa0afeeee6U,
  0xe700e4e6fe130cU, 0x80f07feffe207f0U, 0x50efb000c0a0022U, 0xcd00f7eaebf90f1dU,
  0xf412f7e6fff7fa10U, 0xef01d5eefc051aU, 0xe3f2daf2e9fbddf9U, 0xf42305f506f3ef10U,
  0xdeb07ecf2f80505U, 0x8091d0e18d809f2U, 0xf4fdfa0902f9fdfbU, 0xffe1e8e1e2ff08ffU,
  0x1bec07fdeee90500U, 0xef190afa04e605edU, 0x1304fe16d7d62219U, 0xe4db0d18f3fd03ddU,
  0xd1f8f6db0707ecfeU, 0xfbe92af6fa00fcf7U, 0x13f5f7212a00d5U, 0xe40912fef8e702e4U,
  0x814c202c5ffde38U, 0xe8fa0605101be7eaU, 0xcad42e19ede5f305U, 0xdd12ffd61518e9ffU,
  0xf6202215fbdcfe0fU, 0x6ea0201e9e2250fU, 0xffcdfe0f40fcc0bU, 0xf7f1efc3ec0cfa12U,
  0xe30d1aebf0f1e9e7U, 0xe212f4f1d4fcf209U, 0x30ee0de0041701ecU, 0xcef8dbf1eaf726edU,
  0xece3100f3cfa1403U, 0x10e8e8fcf9e9e003U, 0x10fb0218ece4f3e2U, 0xf212e7e3ff33f4fdU,
  0x27f1f2f3dbf8d70eU, 0xde03111205ef04ffU, 0x3a16e10bd108ebfdU, 0xf619fffe062ae205U,
  0xf00c06170e05edfeU, 0xd020fbebf7ea2413U, 0xef2ef00edf8f902U, 0x109fbfa17e12707U,
  0xf0d02f604ea000bU, 0xe17fffa192910e1U, 0xf0f511010ffaee08U, 0x2409e9f7fb3dddebU,
  0x1f1be4f30318e8e8U, 0x9f7f701f5e0183cU, 0xe00300fc0317f909U, 0xf013f6070fe1deddU,
  0xdff21a16f7dafde6U, 0x1708e6e20ee911dfU, 0xdafae025dde804U, 0x161afe140819fbfbU,
  0xebc2fe16e7e6f6fcU, 0xe3ebe119e016e1fcU, 0x701e5e3da0805e4U, 0xf119180128f90114U,
  0x71a0ef2e8071ee5U, 0x3e70503d706181cU, 0x6031aef10ef27ecU, 0xeff1e9e7f008eb05U,
  0xc02031ceff301dbU, 0xffd3e11302f10115U, 0xd319f5e0d6e90212U, 0xf616041712cb01faU,
  0xe30e04f0f3dc01faU, 0xe70911f808e5f209U, 0x2ff1108fb0709e1U, 0x4132d1fe6eadff4U,
  0xdad709fbe1270009U, 0xd051ee1ed01f30cU, 0x15f4e40bf1ea14f8U, 0xe716fc0707f9fff5U,
  0xa4f10efd13efffe2U, 0xd6edf8ed1be50406U, 0xd8eeecf3f2f4e1f1U, 0x1bddf9e810eefa07U,
  0xa05f20dda18feebU, 0xe603f60af4fc0de8U, 0xc9d5ddecf4f9db23U, 0xf2f6d015fcf6e11cU,
  0xfcff061314050fe3U, 0xfefff9ffed110602U, 0xdeafcf800ece4U, 0xd04edf7e7e7f5eeU,
  0xd8eb0211f310f40fU, 0xcf8f808fbf9fe07U, 0x14fcd6011502feU, 0xcf7e9fcfa1dd90dU,
  0xf3c7ddfe0ef9ee0aU, 0xf306fdf2eef7db10U, 0xcfb1a061336efd8U, 0x4ed180a2ae21425U,
  0xdff0ce60711f8eeU, 0x9dbe805df111cfbU, 0xf6f602f1e8db1ee3U, 0xfe0e1512f407cfecU,
  0xeb1113d9ff0bfcffU, 0xecea0dfaedf3eb0fU, 0xf2f7fefaf6fff704U, 0xdf14e115d81701cbU,
  0xeeff50afff3f4d8U, 0x18fdd9f8faeaef11U, 0xfc070e0fff12eeecU, 0x18e5280e1222fe00U,
  0xf5f72be5ea1f1dfaU, 0xd91a091519ebf3eeU, 0x11701ffe703eff8U, 0xe8fd0f04fdfb1ae5U,
  0x6ea0a14fbf0dae5U, 0xf518e7ffd6f1ee15U, 0xf9e216f4150b01e1U, 0xfa13faf1110905U,
  0xaea1b19fff4f60cU, 0xd1bd603e3fad603U, 0x7f4e8150708ea0eU, 0x3ea0ae7030cfafbU,
  0xfafdeb06f003fd03U, 0xefee081ae9eeec0bU, 0x27f033fb02010df4U, 0xec19fc11fe0e0b0bU,
  0x18ede6fa1df1eb0fU, 0xf82a18de15ff1f02U, 0xf7e4f30c07d8d00eU, 0xfc01030ee309100bU,
  0xeff4e2f71c00f6U, 0xf0f70110fd190006U, 0xfa1209f9ffe8ea06U, 0xcf3fee3f5d6e4fbU,
  0xfe0125f50dfbfeffU, 0x8f0dae2fef724f9U, 0xe7f7fbef07f218faU, 0x27d50bede7ceede2U,
  0xfef9d5f30706e8fcU, 0xfffd19f20ae101f5U, 0xe7191501fe02fd17U, 0x70ee3ff1afaf9faU,
  0x9ebeef40308f7f6U, 0xc13fde2ecfae4e4U, 0x6fe12050600da16U, 0x7fc04fa1cf90100U,
  0xedfffdef00ede8f6U, 0x17dbedf706faf6f3U, 0xa0bedfae4060cfaU, 0x2813dce7f411de00U,
  0x201f4f1040edbf5U, 0xe90f0b080816f718U, 0x1a1010e7ff0df5edU, 0xef080007e0f2fdf9U,
  0x110a02ece0edf2f7U, 0xdaf30f0702ffedf2U, 0x1ae7e0030b16e9c2U, 0xea05d7f90c01e7e4U,
  0x1eeee9df03e8f3ecU, 0xe21217f0fdf3f1e9U, 0xf5ff0710cbf1f926U, 0xe1f1ed0af005050dU,
  0xe8fe07160cfc0cf0U, 0x304f4ec2bc8ef06U, 0x50afef20bf106f5U, 0xec18e3fb13142dfdU,
  0xf00af1f9e2eefde5U, 0xf2240d00eef6f71dU, 0xdaf1f515faf6d5f5U, 0x1af2d8d215faffffU,
  0xd6f40f022408fc03U, 0x24f805e9ff0a01e4U, 0x19170af7ea0403f9U, 0x13fa0aebde0ddd07U,
  0x290bf1e0e3f6ecU, 0xf1e803fd1f1dfd03U, 0x103ff0af9efc504U, 0xbf22ffef6f7ebf4U,
  0x25e3f4d7eff41819U, 0x1a02f6fed10ff6f0U, 0xdcefe1f0080e13eeU, 0xdf00e0514f4fdf8U,
  0xf0e50911edfa021eU, 0xeb0ffdd70ef2bee4U, 0xb06fef2e2f9d404U, 0xfaebf7f0f7f60206U,
  0x6060906fe0117dfU, 0xfefdfcf4f7ebff14U, 0xe9fbf2e1fc09f6efU, 0xf3fb10f60505eefcU,
  0xeaf50dfe052805f2U, 0xe40cfbed0fc6e60cU, 0xd6e0fe0e0526e908U, 0xdfe7f6edfcf10003U,
  0xf6f6f4e3e1fffc13U, 0xfafc1a0df8fed4edU, 0x2d9f9fcf0f40afaU, 0xdffeedf406fbecd9U,
  0xd5fc18f802ffe504U, 0x1cafc11e5dee0ffU, 0xe3f00c011315ef08U, 0xfb011a15fbe7f007U,
  0x312e60a0015fcf3U, 0xf1f8d5edebf4ede6U, 0x232ffc1a08ee0304U, 0xf705fafcd80df70dU,
  0x2a0fff2f0dfa0bedU, 0xe007170bfc0af5f0U, 0xe0d14de05390010U, 0xfae60fe8f1eddf17U,
  0x10100fefe507e0f7U, 0xedf1dfd8fc120ff6U, 0xf6e005f3fb05faddU, 0xfafcf1fdfcf2060aU,
  0xf403f9010200fffcU, 0xf4fafdf909fe01ffU, 0x7f2ed000df5feffU, 0xb02f2fffb0705fcU,
  0xfdfa0108f1fd01f5U, 0xfafefe000203fe02U, 0xf309fd06f90801U, 0x2f90501f3edf6ffU,
  0xedf401fafdfafbf3U, 0xfbf2fefefb09f9f4U, 0xf709f7020709f9e5U, 0x2080004fc12ffeeU,
  0xff0105f8f40007f5U, 0xff02f5f2f8edf5feU, 0xfbf7fa03faf8f8f7U, 0xfa01f5f8fb040ef3U,
  0x901fa04fbe7feeeU, 0xf505000df5f40204U, 0x2f9fef1eaf7f5U, 0x6f8f70408fc1501U,
  0xfdfef7fffc0d0af4U, 0xfdf6fa0100fd04feU, 0xed13faf404fafaebU, 0xfd02f0fcfdf7f7f7U,
  0xdf40d000201f403U, 0xf9fffffcfcff04f7U, 0x7e903fafa160afcU, 0xf5fa08eafefefaf6U,
  0xf90af5f9fbfdf9f8U, 0xf8010707090104f5U, 0x3fb000801fafff6U, 0x3f2f9eef301fd03U,
  0xfcf20a05040af9faU, 0xfbfc00fcf0000ffdU, 0xafa000007fef301U, 0xf900fff504efedfaU,
  0x4f9000409020310U, 0xf70801f6fffcf9f9U, 0x2f1fff9f708fafbU, 0xfef5f40603f3f508U,
  0xfd04f70efefef7f8U, 0xf2ff01041bf4f1f5U, 0xfc0cf901fcf702U, 0xfb0400fdfc0af802U,
  0x8fc00f3fceafd02U, 0x1fcfbf4f9f9f5ffU, 0x10f91508fcf40210U, 0xeefbfa06fb0706fdU,
  0x1fcfaf3f31402fcU, 0xf5fa00fdf4f5f8f6U, 0xfbf1f6f8ebf9ffU, 0xfdf1f9fafe0604efU,
  0xf3eff8fa15f907fcU, 0xf703051603f5fcfbU, 0xf206e8ffec06fb04U, 0xfbf5f3fdfef6fbf6U,
  0xf5f6f6fdfcf6030cU, 0xfbf600fcff07faf8U, 0xfe03fd08fa05f700U, 0xf4000200fbf3f602U,
  0xf9fd020904fbeef4U, 0x7fdfefe02f90605U, 0xfdfa0b09fd03f3feU, 0xfb1cf10103fefa01U,
  0x14f8e708f9cd1dcdU, 0x1a1408d5efecfa08U, 0xdf06eee90205e10cU, 0xfbeaef0c0103f6efU,
  0x901f1e20ce7f5dbU, 0xf304010d0103d6dcU, 0x4eb0517ef2bef08U, 0xf8071b0900190df2U,
  0xf116f50100f505f9U, 0xf5ead4a719f3f70eU, 0x1622081d06feffeaU, 0xda01fbf8e8e3100cU,
  0x201e502eb1000f3U, 0xeef3ef08f2f6ee15U, 0xc1f2f7e2ebd8fcf5U, 0x9f8ef22e918fd05U,
  0xf3eefc0c1107f816U, 0xf30307f8ede9f0f7U, 0xd916e0f1ec0b0500U, 0xf7061f002d07f7e9U,
  0xefdce70ac8fdfff7U, 0xed00e8e10338f8f5U, 0xddfdf801f916ff21U, 0x6e409fb1cf0fbdbU,
  0x110508f00c0809faU, 0xafdcd0ef811fd1fU, 0xdee202f321ef00f3U, 0xeece322fc0201e9U,
  0xf00202e8e5fbef06U, 0x5d4f417dff6ef1bU, 0xef10fb12f2f71106U, 0xeb02110be4f0f4dfU,
  0x14f30007190b03e2U, 0xfaf1d8e612f91e01U, 0x7f7e82c0b1bf50bU, 0x603060a03c804ffU,
  0x7e3f31fee03050fU, 0xe7f8ebf7100ff504U, 0xdb050200190f10e1U, 0x5ed07fce40809faU,
  0xfaf5f9fadf17d1f0U, 0x30ef30c19ee0110U, 0x51104211a09eed7U, 0xf3f80dfcf8f9dd06U,
  0x4ebfaf5fadfe21dU, 0xe6ee0e2614010922U, 0xeb08f7f8e41705f4U, 0xf5190528d6f7110cU,
  0xe918f1e80cfa20ebU, 0x200c21e3f9f1bb08U, 0xf7fce60200f002e3U, 0x2020203fce9f5f9U,
  0x1adae30a03ebfe1aU, 0xf8fe05f90df50f0dU, 0xf7f6d3fb1a0e0b09U, 0xfdf3f3070a0ce7feU,
  0xc7f5021fffc9d2edU, 0xef1ccf3f0f8f30eU, 0xf1f5e4f5ff09e709U, 0x70710091415fcebU,
  0xe5ffd3f602f404faU, 0xe3f811ecdce912d1U, 0xc8b2e8e604f8e307U, 0xe0ecb9fb14dc04ebU,
  0x50300ed00fdf704U, 0x70e0408fd0df8f4U, 0x70200faf2f40c06U, 0x403feeff5fdeefbU,
  0xf9fdf2f3f6f80000U, 0xfe06fff6fafcf50dU, 0xf403fdf1fcfef6f8U, 0x30e0ffcfff40404U,
  0xfef4f70fff02fd07U, 0xfe0101fbf2f5f8fbU, 0x7f2040105fa0f09U, 0xfc04f907f107fdf8U,
  0x2fff3faf6f80fU, 0xf7fff2040df7f4f7U, 0x80101010803effaU, 0xf9f0f1f3e9f1f4feU,
  0x200fbf7060413feU, 0xfefc01f9fc00f7f9U, 0xf70001fee9fafdf5U, 0x8f5e8f6f9f0fef8U,
  0x7fc18f005fc08faU, 0xf7f2ed02f5f8f800U, 0x6f60403f806fcf9U, 0xfffbfa01f8f8f6fcU,
  0x101f6080d0200f0U, 0x8fcfffaf9080d02U, 0xf3150a000309fdfaU, 0xf2fdfa02f300f2fbU,
  0x1fcfffff2f6eeedU, 0xf300fafc13fdfdf2U, 0xeffcf5e8fe00f8efU, 0x3fb05fc0600f302U,
  0x4f7f7faeff607ffU, 0xf5f70819fb100ffcU, 0xfaf1f7fff7fdf5f7U, 0x1f412faf0f4f5f5U,
  0x4f9fc0cfefd06fbU, 0xfaf8f9fdfcfffa05U, 0xf6f4f8ebf6f7f3f8U, 0x304f9f602f503fcU,
  0xef03f90003fdefecU, 0xfcfaedfffbfcfbfdU, 0xf2fcefecfbf40302U, 0xcfbfdfbf5f3U,
  0xf5fafcf8f303e8fdU, 0xecfdf001fa0ef0f6U, 0xfcedfe010807f509U, 0xf9f503eefc1cf90cU,
  0xfcf2f0fe010000f3U, 0x5f5ebfef206fff8U, 0xfcf8efff08f90100U, 0x511f4faf802fb01U,
  0xfafb03f2030c01faU, 0xfdf905f5f5070802U, 0xfaeb0208f4f1fdeeU, 0xf8ef0bfafdfa0201U,
  0x17fef7f4fc05fbfcU, 0x600fb02f6f6eb09U, 0xf50805fdfbf3feU, 0xf2ee00f70df2fefdU,
  0xf2eefffc0505eeefU, 0xfdfafdf4ffe7f30fU, 0xf1f5fe0105f610ebU, 0xfbfd0106fa04f6f8U,
  0xf404fbfeff00fae6U, 0xecece0eae4f43211U, 0xfae5f507e815f4feU, 0x7eff6f70200fe12U,
  0xeff0efe6f9eef8faU, 0x230202f2fbf9dbf1U, 0xf2e00ce80be1f2e9U, 0xfb010de306edffe8U,
  0xf3f0f90bff1a04f1U, 0x806fd0e0b0ce8f7U, 0xfcfdf6e6e4f40508U, 0xf3fbeafbe2ef0af3U,
  0x9fbf1f0160de4e8U, 0xf3f2eef8e104e2f6U, 0x60a03f9100005edU, 0xbff1200f61001ecU,
  0xfcf4f904eefd1bfaU, 0xed01e9e6e5f9ecU, 0xda0603f9f9eef9efU, 0xee218050604f5ffU,
  0xfc03ee04fcebf2efU, 0xf91303f60601fef0U, 0xf7fbf7ec09fb01f4U, 0xe8ede0eb04001303U,
  0x19f60e20eb0dfce2U, 0xfdfc01ea051119eeU, 0xf3ecfa0eede700e1U, 0xf11107f80a050aU,
  0xfaecf504e9d6fd1eU, 0xf3f90bf5fdfa00U, 0xfe0504f7fefc07f9U, 0x210a07f20204f603U,
  0xf7f910f0010df50eU, 0xfe01f5f906f207f6U, 0xe2f3e5f217ed02e3U, 0xfcff0aeafe06dc05U,
  0xeff512fbe6f70befU, 0xf0ffebf1fbf8141dU, 0xebfcefedf7ece801U, 0xffafafae2edfc1dU,
  0x1ef1200ea0406f9U, 0xa0aecf6ff10fd03U, 0xaf4e1f5010711f8U, 0xfc09edf6050a10ffU,
  0xfff50923f213def2U, 0xeded01f0f904eddbU, 0xef0fed1005e1edf3U, 0xfc10effefa0beefbU,
  0xe6e70612eaf4e5f4U, 0xf7faf3f5fafaeefaU, 0xfe0cfb09f20aed04U, 0x6f9100305ff01fdU,
  0xe4f7fff9160f040fU, 0xe0cfdf6fdfd01ebU, 0xfc1403e9e4faf5U, 0x3edf5f5f4f00618U,
  0xe4fce90bf3fffd1eU, 0x4ed0401f0f6f7efU, 0xfecff1e11f1f4f2U, 0x20ef5e9fffc0cf4U,
  0xf7fd03feeaf3fef5U, 0xf7f208e9f3f60eebU, 0xf20213040b06fdf3U, 0xf50602ecf4280810U,
  0xfd06030302ff03fcU, 0xf9fe02fdfefef701U, 0xffff040202fefef7U, 0xfd01fe00fdfe00f8U,
  0xf8f901fe02fafefcU, 0xfdfefbfc0301fd02U, 0xf90101fbfbfcf603U, 0xfbfa03fdfefdfd02U,
  0x6fcfafa01fafcfaU, 0xfefeffff020002U, 0xfdfafcfd00010100U, 0x2fd00030301f6fbU,
  0x2fa040106f80505U, 0x2fa000203feU, 0x3fb000003fb04fcU, 0xfefb0002fe02fdfdU,
  0x3fc04f9fcfcf9fcU, 0xff07fdfcfb02f8ffU, 0xfa00ff00fffbf8faU, 0xfd02fdfbf8fa0204U,
  0xf803fbf9f8fbfcffU, 0xfc01fffeffff01fbU, 0xfcf9fb01fbff00f9U, 0xfef9fefc02000202U,
  0xfe02fa00fefe0604U, 0x4fb04fa04030000U, 0xfdfefe03fd01fafcU, 0xf803fd0603fa0005U,
  0x1fcf600fef6f9f9U, 0xfffdfe0000fc0401U, 0xf8fffa0200ff04fcU, 0x5ff04feff00fffaU,
  0xfafefe02fffc05fbU, 0xfcf901f70105fb00U, 0xfb0302fbfc0200feU, 0xfeff04f902feff05U,
  0xfffdf703fd01fcfcU, 0x4ffff00fcfefe06U, 0xfbfb07fc02fffdfeU, 0xfa00010704fefb00U,
  0x306fcfffafff8fdU, 0xffff0704fffefffcU, 0x5070005fffffffaU, 0xfc00fdfc02f7fc01U,
  0xf8fe020203020103U, 0xfdfcfa0104fefcf9U, 0xf8f9fc05ff01fafcU, 0xf9ff0405fb0305f8U,
  0xf8ff00fe000204feU, 0xfe05fcfe00fd0202U, 0xfa0004fafdf903fcU, 0xfd02f8fbfffb02fbU,
  0x2f801fffdfc0400U, 0xfe02fcff03fbfefdU, 0x1fe04fafa0600fcU, 0xfdfbfafa06f8feffU,
  0x3fa06ff04fc0102U, 0xfb070604ff00faffU, 0x2fe0202fe010000U, 0xfdfefffbff00fcffU,
  0xfdfef90003fefcfcU, 0xfefaff05020000f9U, 0xfefbfb04fcfbfcffU, 0xfefe0500fcfe03fdU,
  0xf7fdf3f6f6f6f9fcU, 0xe402f7f7f8fbf9f1U, 0x8ff05f4e3feef02U, 0xd2130b12f8fcf3f8U,
  0xf1fff7fef4e8e50fU, 0x6f5f507fd0afcfeU, 0xfdf404e909f90403U, 0xedfcfefbf308f912U,
  0xf6f106f7f603f106U, 0xff1813fef804f403U, 0xc09f602f5fe00fdU, 0x11ebf1060410f807U,
  0x507f700fefcf80cU, 0xd0ef8f203fefffbU, 0xfc010a07fefcfd0dU, 0xeafa0f0805e6feebU,
  0x10f4ff000bfb0403U, 0xeff1e3f5fd0ef2f1U, 0xf0f401f801e40212U, 0xf6f60af6f8eeedf4U,
  0x7fbf5f709f807f3U, 0xdff07fbfdf51fdeU, 0xfc080ff60012faf5U, 0x5fdef0807f9fffeU,
  0xfef701f3ea0102f7U, 0x5effdf90d02ec03U, 0xfef3fa08fbff11faU, 0x3fc12f3f1fde824U,
  0xecf8f1f40200fdf8U, 0xfceef4f2fff719f8U, 0x5f6fbedf3ef07f5U, 0xf0fa09eb0fecf408U,
  0xf5e5f300f4fbec0bU, 0xe708f1f500f3df06U, 0xf8eb02f8e7fefc0fU, 0x10f10ee8fdf6f3efU,
  0x11cf50501f1f30cU, 0xee0210f2f8f302f9U, 0xf30be8eaeef008f8U, 0xf1f2efe8f4ffebf4U,
  0x1f5fff40318f2efU, 0xfd0bf1e8f605fbfdU, 0x3f6effefdfeea07U, 0xf901fbebf1fa06f4U,
  0x5f8f3f900f1fffeU, 0xa081f001107f72aU, 0xf7f20b02fa05f6U, 0xeeef06f8fafdf2f9U,
  0xf30c09100f170b08U, 0xedf8fbfbf311fceeU, 0xf3ebf5f1f700feeeU, 0x5ff09f5f8f0f1ecU,
  0xf901fd05ed0602f8U, 0xfd1307f4fef9f603U, 0xf5fe070a150bf5f9U, 0x1fcf9f504f7f8fbU,
  0xeefaeff516eefbf8U, 0xfa01021002fb0aebU, 0xeff6f2f7e1ee1ee0U, 0x6f50423f2fff4ffU,
  0xf900eefdf6f9fb05U, 0xf4fef7fffaf1090dU, 0xf7fafd0102f9fff4U, 0x60c27f7fbf6f5f4U,
  0xfafc00fef5f7f9faU, 0xfe0404fff608fbfeU, 0x802f5fbfa0004fdU, 0x2f9fefa03fafdfaU,
  0x6fdfcfe01fbfe0eU, 0xfd00fcfbfefbff00U, 0xf800fffdfcf701fcU, 0x6fa00f4ff03060bU,
  0xfb01fbfefb0301fcU, 0xfefd0503f807fcf8U, 0xfd0400fbfcfbfaf9U, 0xf9f7030101fcf5U,
  0x90308000100fdfdU, 0xf7fa040101f9fc00U, 0xf902f9f9fbfc0dfaU, 0xf7fd07fcf6fff701U,
  0xf60206fef9fff9fcU, 0x602fdfefdf903f8U, 0xfe05feff01ff03fdU, 0xf802fbfd04fd04f9U,
  0xfb0403f7f70706f9U, 0xfefaf8fafe00fdf8U, 0x2fbfcf800fe0304U, 0x1fc01fb06fcfafeU,
  0xfff800ff01f7fdfeU, 0x406fe0002fc0004U, 0xff0801fd03f8fefdU, 0xfdfd02fbf7f8fdfdU,
  0x1fbfa010400fd09U, 0x7fc0205fa0105ffU, 0xff03fcfafff901f7U, 0xfcfcfbff01fffc04U,
  0xfffdff02fbfa0102U, 0xfdfbf4fafdf5f804U, 0xfcfbfc070201f700U, 0x6fffdfdf8fc04fbU,
  0xf9fa00010305fffeU, 0x8fff8040408fe00U, 0xfe01fa00fffa06f7U, 0xfa01f9fbfd01faf9U,
  0xbfb0000fdfc00faU, 0xfefdff000900fe01U, 0xf9fcfc02fcfd0004U, 0xfcfffdfa08020606U,
  0xfe03fc00fcfe0001U, 0xf805fd0afbfbff02U, 0xfcfdfcfaf6f7fcU, 0xfd01fcff03fdeff9U,
  0x1fe00fb04fefefeU, 0x100030a00faf4fdU, 0xfefd01fafffbff04U, 0x3ff03050003f7f6U,
  0xf900fbff0000fe05U, 0xf8f901010003fefdU, 0xfbfb0501fd0001f9U, 0xfafef9f704fcfafaU,
  0x203fcf7fefc0705U, 0xfd05f807fbfcfcfdU, 0x3f8fefef7fdfefcU, 0x304f50205fdfa00U,
  0x1fefdfffe06fbfaU, 0x205f601fd00f9fbU, 0xfef902f6040202faU, 0xf9fd0a04fa02fef9U,
  0xf3f2fb1315fdfcedU, 0x13fc02070bfdeaedU, 0xeff00505ec06ea0dU, 0xf2001b0400e3efeeU,
  0xf6f8ea04f2020af7U, 0xeff2eff9fcfde0e4U, 0xfa030703e901fdf0U, 0xe6e0f50107ff1b16U,
  0xf4052ff7f4fa0df2U, 0xa1bfcee02f2f811U, 0x405f61016fafff9U, 0xf0eff9e1edf6f3edU,
  0xf5f8f518f01f1412U, 0x4faf9d0ebfbf2f9U, 0x1f2f9f8def9eff9U, 0xe90d04f8f8f3020aU,
  0xfed2f9f7fbfcf911U, 0xeb00e3fff200f2ffU, 0xfc19d506f2efe8f4U, 0x7ecfdfcfe0feef6U,
  0xed0b1401f8f3f2fbU, 0xf0e307ff12fd03fdU, 0xe4f6ecf2f6faf8fbU, 0x13ee00040ffd070eU,
  0xfcf603f210f5e8e5U, 0xc08f7f4fc05fc00U, 0xfcf1f30a14f1f505U, 0xd01fb06f5f1feU,
  0xf5fff00decf0f6f8U, 0xfefcfde6eafbe70aU, 0xf5f11406f0090ff9U, 0xf2e9efe805000fe9U,
  0x7f5ec04eb05e807U, 0x12f906dee8ff18eeU, 0x6fcfc19f2f4f403U, 0x1011fbe8e9030a03U,
  0xfc040a0afaea0cf2U, 0xeb0b08fd030ffcf9U, 0xf6edfcfb01dfebfbU, 0xcfbf4fe0a0c13fdU,
  0xf6eafeeaed11f6f2U, 0xf90df6f2f605fb0fU, 0xffe3eee202e7fff8U, 0xebf9fafef2ebfcf6U,
  0x18f802d4fdf1fefdU, 0xf1ed0604fc1a1414U, 0xfff200fce7f9f7f9U, 0x1bf60c02f0f1f81bU,
  0xf9fdeafbf4ea09efU, 0xcfb0ef104e9f5f4U, 0xdd2612f5f0fff4f2U, 0x10e611def3f4f502U,
  0xeedeeef7fef7fcffU, 0xfafd1aef0701fdfbU, 0xf9e900fb10f1fefaU, 0xed130121fecfd3feU,
  0x9f2140ff2e2eaf0U, 0x10e3f601eefc05feU, 0xf0f40ee0f202feebU, 0x6db170af6f2f8faU,
  0xf2faf001f1f8f801U, 0xf8fbfffce8effef7U, 0x13f2f404f7f8f3f7U, 0xedf90adbede7f0U,
  0xfdfdfffffffbfefeU, 0xfbfff9ff02fefbfaU, 0xfaff05fbfa010200U, 0x1fffefa0302020dU,
  0x10101fefefbf7f9U, 0x40004fdfe0102feU, 0x1fcff01fafe03faU, 0xfb02fdfcfc01fdfdU,
  0x2fe06fef807f5fcU, 0xfbfdfbff020001f8U, 0xf80000fdfdfafc01U, 0xfbfc05f7030100fdU,
  0x1fe01fffffdff04U, 0xff03fffaff02f708U, 0xfffb03fff8fe0302U, 0xfd00ff0002fe03fcU,
  0x2fef8f505f6f9U, 0xfdfc000202000401U, 0xff01fffbfc01fc06U, 0xfff901fefefbfbfcU,
  0xfffef80300f7f900U, 0xfe0200fffdfb08ffU, 0xfd0102f8fb06fbU, 0xfff903fd01fdfafaU,
  0x2020001fbfffffeU, 0x5fafcfe040605fdU, 0xf9f7fb04fefe02fcU, 0x1fcfefe05fc0404U,
  0xfaf9fef9fff70601U, 0xfcfb01f6f9fe01fcU, 0x1fb03fd02fbfaf7U, 0x506fc02fb02fff7U,
  0xfef7fff9fafc04fdU, 0x1fa010201fbffffU, 0xfa02fdfa0100ff00U, 0xf80600fef804fb02U,
  0xfb010201fcfdfcfeU, 0x2f904fd00fc03fbU, 0x3fcfd010204fb00U, 0xfc04020401fefe04U,
  0x102fc01ff05ff05U, 0x20100ff060301U, 0x200fafefefcff02U, 0xfc03ff01fb04f901U,
  0xfffafa00fc00ffU, 0xf80602030001fdffU, 0x3ff00fdfcfe05U, 0xfffd0102fbfa0305U,
  0xfefefdfefdfc0203U, 0xf70401fdf9fb01ffU, 0xfd020204fb030806U, 0x6f9fcfa00fcfd05U,
  0xfffffe03ff01ffU, 0xfcff030205030303U, 0x1fdff04fbff01feU, 0x2f8f9fefefffbf9U,
  0xfffe0200ff02ff03U, 0xf601fffbfbfd0900U, 0x1fa0503fefffffbU, 0x10001fcf605fefeU,
  0x2fafefffefb0101U, 0xf80003fcfa01fcU, 0x1010001fc01fefbU, 0xfff506fd00fdf6ffU,
  0xfdf6fef8f7fffef9U, 0xfb0105fbfbfbf6f8U, 0xfafbf9fb0000f8f7U, 0xfffcfd04f608fb01U,
  0xfe01fe02f9f8f2f7U, 0x8fafcfffc02fdfaU, 0x1fdf4f50208fa06U, 0xfc01fd03f100faf9U,
  0xfcf5060bfdfe01f5U, 0xfefdfd041202fb01U, 0xff07f703fcfb01f8U, 0xfcf7fdfdfaf8fcf6U,
  0xfd14fa05f6060208U, 0x1f504070105fcf9U, 0xf6effaf8fefb00f8U, 0x10100fd02faf7f4U,
  0xf0f8fffafbfa04feU, 0xfdff01f5fff6fa09U, 0xfbfafdfcfbfdf7feU, 0xf6fefcf3f8fdf2fdU,
  0x7ff02f70101fafcU, 0x500fa05f4fafef8U, 0x1f6fa01fa01fdfcU, 0xfffcfbf8fcf7f8f9U,
  0xfffe03fffc0205f9U, 0xf710f7f5f8fcfaf8U, 0xfff500fceffaf700U, 0xf700fefbfafd00U,
  0xfcfef801f700f8f8U, 0xf9fcfbff0cfb00f5U, 0x603f4fdf904f9f8U, 0xfb09000401f90605U,
  0xfbfefcfdfc00fffaU, 0xfbfff9f906f706f9U, 0xf06fcf7fb09f703U, 0xf803fd010ef800ffU,
  0xf7fcf5fbf7f9ff02U, 0xfe03ff03fbfa05f8U, 0xf90600f8070afefdU, 0xf8fffaf900f9f601U,
  0x1fb02fffffffbf5U, 0x3fc04fcfffcfcf6U, 0xfdfc05f602fbf6f9U, 0x10cfcf90301fe00U,
  0xf3fbfb0bf6f9faf3U, 0x4fdfa01f900fefcU, 0x2fe02fafdf70201U, 0xfef8fbfafd02f403U,
  0x11ff04f7f8fffdf9U, 0xfff0f9fff901fcfaU, 0xfe07fd04fefff9f8U, 0x4fdfefafff40802U,
  0xf6fbfcf803faff0dU, 0xf9f2fafa020401f7U, 0xfc0506fff904fb01U, 0x902f9f900fdf9faU,
  0xfcfbf1fcfafbf8f6U, 0x102fafbf6fbf102U, 0x7fe00fff70300faU, 0xf6f4f8f4f80000f5U,
  0xf8080007fcf40300U, 0xf3fdfaf7fafbfe09U, 0xfffafdff01ff02U, 0xfc0001f9f2f303f8U,
  0xff4f5fbe8fcf5ecU, 0xf3fbec10f9fb0305U, 0x8f7f909edf2fee8U, 0xfbf4fdf8fefc01f6U,
  0x11edeb09081d09fcU, 0xfd000af40404f6efU, 0xfdeafbf3f8ee1504U, 0xbeeedfd0601f80bU,
  0x3eef3eaf60afcf5U, 0xf7fffbfc02fafd17U, 0xfefd030afdf7f7f0U, 0xf00ffd04fdf4fcfcU,
  0xf3fcf8fd03ece9f9U, 0xfcffdefaf2fefc09U, 0xfafd00f90ae10908U, 0xf5fc0708f9faf9f9U,
  0xfa09fff8f3f701U, 0x13f4f5ef000af6f6U, 0xf3f2f4e6fefafbf8U, 0xfa16fff6f512fffcU,
  0xfceff5e406f1fef1U, 0xf6f7fbeefcf2e605U, 0xe7f6f4fe05f9f906U, 0x5faf0f90afff7fcU,
  0xf4f7f4fb040502f8U, 0x2050cf1f9fafbfbU, 0xf1fdf911fdfaf40dU, 0x603f5f2f705f9faU,
  0xeaf2fde2f3ebff0bU, 0xfcfcf9fbf902f506U, 0xfefcf80a0afef8fbU, 0xfef410f4f9f702eaU,
  0x2f10901fa18fd0bU, 0xfaf602f1fe1104efU, 0x1602f204fee90310U, 0x10fe0cfe00f1fef8U,
  0xfdecf40dfbfae9f0U, 0xeefffc07110b0a0aU, 0x30afefff4f6fc15U, 0xf7f9f8fdf807eef4U,
  0xfcfa02f7faf8f804U, 0x2f6f4fbf6fd01f5U, 0x19dff8f3f206e1e8U, 0x2fbfe09f80805f9U,
  0xf0f0ecfcf5fb0a04U, 0xdfaf0ff00f0e3e9U, 0xff00f9fef3f0f7f8U, 0xbfe0a06f90702U,
  0xf20df4fffa06f1f7U, 0xeeee0005f7040cedU, 0xfc03fffbfb03f5f2U, 0xfdf002ff0409f9feU,
