/**
  ******************************************************************************
  * @file    threelinecv_data_params.c
  * @author  AST Embedded Analytics Research Platform
  * @date    Tue Nov  7 01:08:52 2023
  * @brief   AI Tool Automatic Code Generator for Embedded NN computing
  ******************************************************************************
  * Copyright (c) 2023 STMicroelectronics.
  * All rights reserved.
  *
  * This software is licensed under terms that can be found in the LICENSE file
  * in the root directory of this software component.
  * If no LICENSE file comes with this software, it is provided AS-IS.
  ******************************************************************************
  */

#include "threelinecv_data_params.h"


/**  Activations Section  ****************************************************/
ai_handle g_threelinecv_activations_table[1 + 2] = {
  AI_HANDLE_PTR(AI_MAGIC_MARKER),
  AI_HANDLE_PTR(NULL),
  AI_HANDLE_PTR(AI_MAGIC_MARKER),
};




/**  Weights Section  ********************************************************/
AI_ALIGNED(32)
const ai_u64 s_threelinecv_weights_array_u64[11506] = {
  0x7fedeed12bd20e5U, 0xff0a23012fd50ddcU, 0x230e07fa0ce8ff04U, 0xedfe12eddcfc08e0U,
  0xe70fdd19e90f1e21U, 0xff2ec150912fcf4U, 0x5fc020a0818ef07U, 0xf7d7d81202245b1dU,
  0x22c2e0fae30b0314U, 0xe0fdefc05f108faU, 0xef08180202d20305U, 0x29c90d0723fa1212U,
  0x603dce202fd1907U, 0xe2ed2b02eeefe3f5U, 0x220deff41adbf40bU, 0x1d10faed00ebe032U,
  0x1f0feef6120113deU, 0xb0df7e820fefb00U, 0xe9f031f71e0026eaU, 0x1315e9e2ec001212U,
  0xeeec0f0f33ed07f4U, 0xc6f206e005fce3f4U, 0xb6f3080bfd1ad2efU, 0x1a153403e8f5f9eaU,
  0x6ee03f40902f9f0U, 0x21f0ef11d7fe07f3U, 0xeaeb0ecdec1efee4U, 0x1615f5e6f1f811f4U,
  0xd2210f000efe0a0bU, 0x2fb1d02ee0f020bU, 0xfb06e7dedc0117e6U, 0xfef32cfcf72224fcU,
  0x1520ec05ecfa0d36U, 0xc6ccfd0710200516U, 0xea1204f4151af410U, 0xf72315e0031a12e7U,
  0x1de8f710e1fb0507U, 0x15f9ecef1b07c528U, 0xf617fec606230421U, 0xdbfd110005e2fadcU,
  0xf6ecfe0a10d8f615U, 0x20415e01604f4f1U, 0x1e09c9f1ebf3cef0U, 0x14141ed8112af530U,
  0x7f4fa070909ebfaU, 0xdd2aedee230b0112U, 0xf91610ffc7f4f103U, 0xf51810ef0ffbfbU,
  0xf01005f7df052deaU, 0x801ebfc1aeb03e7U, 0x1d24ffed12e30110U, 0xf1e8fdff1322feedU,
  0x2440ffe00d011313U, 0xfc082afafa0f05e1U, 0xbf1af0e500f4fdedU, 0x2161410e7f0f7edU,
  0xfae4f8f1ef0ff3dcU, 0xf50008ed07e1e411U, 0xffe9fe1cf40b06e5U, 0xf70af1ff03fb16faU,
  0xd107eb0df7fe0221U, 0x1041317fb19ebfaU, 0x90ee737f6fcd3d4U, 0xf1de2124ec0b12f8U,
  0xfaf5f4fa18101bf0U, 0xf9f714f807010a12U, 0xef00f6c4f4c81702U, 0x90a19f510f419f0U,
  0x15f9f51906c40017U, 0x27f4f31520442710U, 0xf301f71ded1709e4U, 0xf7f8000f11ff0cf3U,
  0x25f112f816eb0d0bU, 0xfd1f505c9eefaf8U, 0x3107fef90f06fb10U, 0x14da1de80ffb811bU,
  0x213f20426170ef2U, 0x11ef5160ee9d7f9U, 0xde0e33ea02002306U, 0xa172c171003edecU,
  0xfa0700dafaefe43bU, 0xb00d92af60d0ff8U, 0x14eef0f1fedef40cU, 0xf902fe0fe028fd2bU,
  0x2707f5f1fa1dcd15U, 0xe701d602090e0bebU, 0xd2e4e3f8aff31707U, 0xf21328040ceb1202U,
  0x2cbe2f9040a1008U, 0xf61ffd04f20d0727U, 0x1d23c3fb0808f409U, 0xe5061304defede11U,
  0xfbf2eeebdef70218U, 0xfb1e2107ebe700f8U, 0x13226f601f6021cU, 0xf00605f8e3151d11U,
  0x16edeef329e2ed35U, 0x29bbf2220820f209U, 0xf00df8fef1fee2e0U, 0xeada1efc32042f06U,
  0x20fa010b19ebef1dU, 0x1236f31a020127f4U, 0xd80df20805f8240cU, 0x8f602f5fb031a0fU,
  0x1b00f8d619e604eeU, 0xede92103f70edcd7U, 0xdb1cf5161b09e7ffU, 0xf1e80df410d81006U,
  0xf914e900f3f4eae1U, 0xceaf3fb10071024U, 0x112c1f1017f50fd9U, 0x34fffcffe5f91cdbU,
  0xe7f204e8ec2dd7ecU, 0xd0f7e20f0ef503fdU, 0x1cfdf707faedU, 0xd2ce0fed1ad9f201U,
  0xe523f0153df61416U, 0xc2fc0304041e0708U, 0xbfe0dfff40003d8U, 0x1021718f5ee2009U,
  0x19f80ff5031418fdU, 0x1d22150801e80c18U, 0xfe071d2af9f6eef6U, 0xfc4ee7f2ffe82206U,
  0xbf10527ef100723U, 0xf718cffdf6ea02e6U, 0xe10df7df1017d9faU, 0xe211000c00e6fafcU,
  0xbf526fbfdf1ecf8U, 0xfc11f9242ce350efU, 0x14fb0812e0f2d7d6U, 0xec06fd0eeafe2305U,
  0xfef519de0908fcfeU, 0x2f0ef41a0bf20001U, 0x1ff4efdc08f6110bU, 0x1ee7ea0bfdead207U,
  0xf300060c1d11f0eaU, 0xe601f1e90ee1d311U, 0xe20fd7efec00f32bU, 0x6fcfff5062622d3U,
  0xf60c0c2bf711e9d6U, 0x22e2f8092529f31aU, 0x271006ff03fc0b11U, 0xfc0b1ee6fe0efbf9U,
  0x10f6e61dee1301f5U, 0x1f5f53811dc0b14U, 0xd80c1ee90f020af8U, 0x3d08033beff416f3U,
  0x260fdb09e720fedaU, 0x11231007f9eb090cU, 0xe72b241a061ede0fU, 0xf704061801fe23e0U,
  0x2119df021dfd00ffU, 0xf4faf82b0f140907U, 0x3ee1d14f7eef9fbU, 0xe8211c1ed6010b22U,
  0xeaeb08e7facf3305U, 0xf3f7fc05014004U, 0xd5f6e926f1eacd02U, 0x150b0616cb10eafbU,
  0xe303eec51815fc07U, 0xfa220cfcd1f21204U, 0xfd17ebe7ff0d36edU, 0x11f21f072c222befU,
  0xf319190bfcecf2d9U, 0xce418fdfa00e204U, 0xdd1200f5f9dc24fdU, 0xdf0614f6022125ecU,
  0x801ed2c00e330ebU, 0xf61b0607ecf30b0cU, 0xee30f302080df9ebU, 0xcf5e601feec1b05U,
  0x12f7e7ff0ebdd5e4U, 0x323d6fc0317f200U, 0x2710c9edfdf6fbfdU, 0xeec81a04f1e81b14U,
  0x1d1bfa04f6f509e0U, 0xf8100526efee1a15U, 0x1b0de5102b05fbe0U, 0xf5ddeef710ef04e5U,
  0x150417f9cf000e0cU, 0x30cf90704253214U, 0xfe1e16000bf2f700U, 0xfffa1bd8230f221fU,
  0xdb12fa15fac70505U, 0xe6f707cf19ee1cd6U, 0xe8e2e30ef3fe060fU, 0xf00f0329150a151bU,
  0xd0fe62df90d0f09U, 0xc001f390202f813U, 0xd337241cf8231828U, 0xfcf9daf5f2ffea05U,
  0x9f70013e514020bU, 0xdf9dff914f204f2U, 0xfff72d3820fa1905U, 0xfa1904e419db12fcU,
  0xfcf90b00010918e3U, 0x318f3e50e06def7U, 0x1d1a15de05380018U, 0x2003fa322204140fU,
  0x1f121f70c010714U, 0x3ebfd0efa12f2feU, 0xdb6faff052808faU, 0x713f118d11ccff4U,
  0xff2ad81908e4d2f3U, 0xeeeff40af410ff13U, 0xf61fe802050c1714U, 0x326d4f30017e302U,
  0x1bf7dd2618eef911U, 0x1f3fd09fced0febU, 0x605fcf0c23ed11dU, 0xef14fdfa00f407f9U,
  0xfa2d4ff303e409U, 0xf1fbf511ec04f806U, 0xc1f7fff7230c14f7U, 0x6f0d500fc0e2dffU,
  0xfdf70ef93bfe1709U, 0xfafcf3ebf81ce02eU, 0xe10c21f3eb06fc0dU, 0xdbfc0bd52cf60c0bU,
  0x7ee0e030c10e708U, 0xae60afaf1e02405U, 0xc1f0328f819e110U, 0x110ee915e605d4f1U,
  0xa25d802c8db0d03U, 0xfd1718f3ea13050aU, 0xc3bf6fb10dc05e5U, 0xecf60500101bfc23U,
  0xe8e334d617ec11fcU, 0x1810f1090dfc1803U, 0x4e223f5f3d4c6e6U, 0xe90af9110feeedf5U,
  0xcea0c1fed1ffeU, 0xeff0309fa021811U, 0xfce9e214ef12fb0aU, 0x1effe82125f7e11bU,
  0x4c9eee6e812e7U, 0x1d15021501e6ee0dU, 0xf920e3f4f92edefdU, 0xeae10d0b11f9f3faU,
  0x9f23608ece8f3e9U, 0x7ffc3e9f513342fU, 0xfde2fde5e9151103U, 0x1802e5dd17ea1e06U,
  0x411de1f2adffff7U, 0xcfe9e01b130a08fdU, 0xfc000af705031a07U, 0x11efdd17eb22f316U,
  0x8f5ec0929eaf916U, 0xed108f612ff02e5U, 0xefe0e7d2f80814U, 0x2ad0f41cf309e40fU,
  0xecee09fee6c805f6U, 0xd6f31f04f608faf9U, 0xb04092814f2fefcU, 0x20f8f020ea111bU,
  0x2f20110ef517eeffU, 0x9251c0f11fb3f03U, 0xf6f102fe0be90a23U, 0x70feaf21c08e8f4U,
  0xfb01f30e0a191a09U, 0x22030bfdfcf0151cU, 0xc4cbef0f0601f817U, 0x810daf6ea1600f6U,
  0x11ee030deff916e7U, 0x4eb0e211bfe2503U, 0xf5fb071af0d6f3d8U, 0xfbdb0812e4100e11U,
  0xfed8e3e30e1015f1U, 0x270e01df01fe0022U, 0x21e80afdfbdc1effU, 0xce1eefd11eec9e7U,
  0x4e502261010ed2fU, 0xf4fe062e1e02ca1eU, 0x18ebfa0f08260308U, 0x9182aea0dfe171cU,
  0xe0ee022feb170519U, 0xdb40618f500e5fcU, 0x11000405f0e3dcfeU, 0x1213df00ff12ebf7U,
  0x23fd0b1138dff440U, 0xbf10f61417ee0304U, 0x1d215f21d0d19ffU, 0xf1a11f40cd3f4e9U,
  0xe14de0407f6f0f7U, 0xecf10afad400fd3eU, 0xfa0fdaf8daf3e0feU, 0xff2af117e519de09U,
  0xe8f8fe180ffb0df6U, 0xde2ef22f607fd17U, 0xf916100bfefc1a1eU, 0xeee4e208f3ffef21U,
  0xfae51d0002c112efU, 0xf6f9f9e1f5d7eb07U, 0x13c9fa070209e6e6U, 0x1d0604272b23f004U,
  0xd3122f71411fe22U, 0xd012e9ef0fece211U, 0x3f904170e010d0bU, 0xf0f5230b1afc0607U,
  0x151108041502fc1eU, 0x24f70f180f0ef73aU, 0xfe00d7fdf5fbc910U, 0x1bf7f9d62121eddeU,
  0x803f2de1d1006fdU, 0x10f9041e1204eae3U, 0xffe20cfc070e08U, 0x1106f6f4d61ff8eaU,
  0xc17c7120c010d61U, 0xf0e1c1bf2f2180fU, 0x1116f9f10f1bef01U, 0xda28fbfcf8f221f8U,
  0x13e90a1be40313f0U, 0xf415d50e1537d3faU, 0xf05201c1d0402c9U, 0x1805e8060e00120bU,
  0xf1f7f40c00f6d5dbU, 0xece1d4defce2e100U, 0xcddcefdf17c5f713U, 0x18e8ec0716fb1a0bU,
  0xef0f1f30b3ecc0dU, 0x21f61dd307f2d7ffU, 0x51108060118f313U, 0x2d8edd813f917f5U,
  0xf1181a0b11fbeafcU, 0xe3f41905f33d0740U, 0xde6f00d1fcdebfeU, 0xfafe00fddffec5d9U,
  0x26edfb05f91bf5f7U, 0xf714081cc609f4ecU, 0xf4ea0fe8fa27e106U, 0xd307fb0afa26eaeeU,
  0x11ede643e801190fU, 0xe7f7e5f2d6e4d904U, 0xfe3132f9ef09eefaU, 0xf61dfb18fd40f600U,
  0xfc10012d0d17fbf6U, 0x1004011018f81810U, 0x181015e11f0af110U, 0xe01fdee0c05fd15U,
  0xfe021f210afe18ecU, 0x90312f7fb0ef2fbU, 0x7f6ddfde8e9d5f7U, 0xc1fdfbf912241b27U,
  0xeffee32408f20711U, 0xebf3e6e31b010f22U, 0xec120924e8eef8f3U, 0xd111cfcf9fd09fbU,
  0x3702c81a1900eb08U, 0xe900c10214f0eb0dU, 0xec4ff1109e5240eU, 0x3112e5e30af9f5dbU,
  0xf1f32350eb2205fbU, 0x2223f8f7f8f8f70dU, 0x2cf0140105d3f4caU, 0x5e91c06e3fc29eaU,
  0x3c1f0900fd00fcf7U, 0xeffe16f9ea3606f9U, 0x1f03e81507fbfa0cU, 0x4fce502f9fae3ecU,
  0xf000921df0bfcU, 0xfff4fe20f9f30619U, 0xd7282efee6f9de24U, 0x2319ef0b18eeeeU,
  0xefedf71600de13f1U, 0x51d1e14fff9f9e8U, 0x3a0e0ef0fded1600U, 0xec1118f2e9eafbddU,
  0x90fe2c6330014e8U, 0xfa13000fe419f1eaU, 0x1423f4f3070af209U, 0xdbf3ef0e08f204c2U,
  0xfaf802132724fb24U, 0xe60513ed03f104fdU, 0x11b6e8180402fdf4U, 0xe917e3eb2d08f611U,
  0xd9ccf1fde1f9f5f9U, 0xefeefe030508131dU, 0xeefcec28f902dc04U, 0x24f3fcdf0712021eU,
  0x31c6ff0d12e70cf7U, 0xd8ea1bf4f91eebe1U, 0x4e8d200eb0918f3U, 0xe7d8f0eb10e2fe15U,
  0x14fa162afa08e313U, 0xfa0933170f1a030eU, 0xfdd7f92ef8ebe011U, 0x24e2f6f504ceebf8U,
  0x80ae8170ae801ffU, 0xe4e716fb12143001U, 0xfb00eaeb00ee0328U, 0xed1425f9fed61f2cU,
  0xf12bdf13eafbf2f1U, 0xeb06ebd81af7ede0U, 0x612e5e8292efd0eU, 0xf4f3f50fe6fefff1U,
  0xe6fef20df0ece2f7U, 0xf3061b2914d1f63aU, 0xe801f014fa0e1119U, 0x708f9fef7f139eeU,
  0xf170304f2dad3fbU, 0xbaed83ad01e22e1U, 0x230a001713ee2704U, 0xdec1e27faf613ecU,
  0xfb010100fbfc17f9U, 0xfb0fe3eb08da182aU, 0xfae0051b18fafd04U, 0xf8e80024e404d9U,
  0xf606e51b0dfcf9f0U, 0x180503e92bfe35cdU, 0xd20ed0be7f0f21aU, 0x40600133bedfb05U,
  0x13f8f31bebd606f6U, 0xf0f7e8e2fe2e0c08U, 0x106ef3b29f818f9U, 0xde30e502f4fa04e1U,
  0xfd211020f4f2e0f5U, 0xf80c19e4fdf0cf02U, 0xc91ef513fd27111eU, 0xf5eed306f9f90800U,
  0xd80300e2e72c1effU, 0x37e12b08fffd12f7U, 0xb08181809f919f1U, 0x11e8001401fc17deU,
  0xf90408f3f3f5d808U, 0xd20bfee803fe0ae2U, 0xfd19fff7f9ed0d04U, 0x240df6f3effb15U,
  0xb422f7061fff19fcU, 0x70bfceb1de505f3U, 0x6da050d1a101cf9U, 0x2e7d5fde5d518U,
  0xf4e20bff1411eff2U, 0xfae0f322d8e718ffU, 0xf71e0b1412141035U, 0x513e2ee04d0d82cU,
  0x1dfd07f70128f4f2U, 0xcd808db0bf7ef08U, 0xda0601d90bfdf40dU, 0x1f32fa00f1e426fcU,
  0x1bfef8defdfa1512U, 0xfee70b18f0dee8fcU, 0x49000d16ff00101dU, 0x5ef220d2301fb03U,
  0x40afbeefff43114U, 0xb0edff1e829f836U, 0x13d3cd0b1922e5e8U, 0xe1fee031eff11e8U,
  0xf5c3dbd505fd23feU, 0xf21beed11ae5f9eaU, 0xdfd061814f0ce0cU, 0xf3f3e60ef0c5d7fcU,
  0x2ea152fe40fe6f3U, 0x12e914cef605f9eeU, 0x1e03c50507d5d9e3U, 0x10fcf7f82317da08U,
  0xfa211a1f0725e6f8U, 0x4fb23fdf8e7e321U, 0x1fe42f18f72405fdU, 0xedfb2e0eff1425f4U,
  0x1ff8074a02f1ef07U, 0xebfb260f15f6ee02U, 0x14dbfdf9deb8e210U, 0xd0b24fcedfb0200U,
  0xebc6fef52612effaU, 0xf5d90b02fcf2022bU, 0x24ce19f6160fcd09U, 0xf7080606e8f2fb20U,
  0xfff5fb15f9fd160aU, 0x13fc323c22ebecebU, 0x1ef2101ef9cf2703U, 0xd4f5fd060ee3e003U,
  0xfc03f3020b0b1afcU, 0x1e111010f6f50e0fU, 0xfe1213e3f9eca9f6U, 0xd5d84209071f0b2fU,
  0x11f2ea01d1ebf506U, 0x11f317eef4f503f9U, 0x14f3f00424c7caeeU, 0xfa0f04f8061407f5U,
  0xd03111710dfe7e1U, 0x30211e505e4e90aU, 0xffe9ff02f2fdfa0dU, 0xd61d08fa0d25d4f9U,
  0x4039e81d13e1f6feU, 0xdc27040108f8fae3U, 0x11181e04ec171400U, 0xf90421f4e9b9eefdU,
  0x38f7f8fd0a0a0dfcU, 0x29f60b29fcfe11fcU, 0x808e7fee9eb00f8U, 0xcb26144014de1708U,
  0x6e92433e43ef2ffU, 0x120a02eefdf51328U, 0x81118d4f4edf6f1U, 0x13f50bf8f5090adaU,
  0xdd090c0ceb16021eU, 0xf0faff0a152219e1U, 0x72d0605f8f30fe4U, 0xdcf4fa0be102e32cU,
  0xfaf1f317010f04e8U, 0xfde503ead403ec33U, 0x220a190f08f8d425U, 0xf92ef5120109ebc5U,
  0xeb23050023f807faU, 0xfefe1efeead9f7dcU, 0x12e7ef1b1e08ebe6U, 0xdf8e1f30a040e13U,
  0x4101bea05ee0e2bU, 0xa1506f40f18ddefU, 0xf905fa230931e5daU, 0xfcf817c8f6f3f305U,
  0xe8eef4f4ed1722fcU, 0x12f91018fb0414fdU, 0xd0e0246ef041018U, 0xd9f7e5ffd90cf518U,
  0xf124fd13fb07f5f8U, 0xe808c8feff38e1f9U, 0x2a0b210eec0609e8U, 0xe40adc3b1a19e8f2U,
  0x31230610111a0506U, 0xf3130bfc1c090905U, 0xd7f314f729daf4f4U, 0xf214f0f5fff919f2U,
  0xfbfa08ff061ce5d9U, 0xee0b03f406290907U, 0xeefad702000dd9fcU, 0xe014f8150b040e0dU,
  0x22db1d2e3d0a0119U, 0x10ff220f02ef06f9U, 0xeb010c1100f40307U, 0xffbe3f1ed0f090dU,
  0x14f00f14c4f218fdU, 0x7e0150df417e818U, 0x18f6ed2127f41003U, 0x13ce04f90000131eU,
  0xf9e51f131c090706U, 0xef12f8e8e7f24e02U, 0xdf2feff050bf003U, 0xf8f0dbe4fcd9fed3U,
  0xf5ea17f81fdaf310U, 0xd0239011efee31aU, 0xefea0e01eb17e81bU, 0x25100cf90f29ee2cU,
  0xe41a00fd12f9f40dU, 0xed072315e9092508U, 0xf8fef305f80cf2f9U, 0xf403041708d3f70bU,
  0xf0e8d8f81ede17f7U, 0xea1a180f22fcfef8U, 0xfdfec9f514d9def9U, 0xe51605fbd905f207U,
  0x2d7fa140e194de5U, 0xb1f0a07f00f09efU, 0xe50e120e05ee1201U, 0xde3bf7000832db33U,
  0xddf7f32008ec0f1cU, 0xfad91af50ef3e909U, 0xe5fbe006ededf015U, 0xda2405110cefd5edU,
  0xec08f2e5e618eee6U, 0xf4f104f3f4b61fd5U, 0xfef1e3fcfae400f1U, 0xdf24a1e918f4f40eU,
  0x1625f90e1afc0ad9U, 0xffd110de10f00f1U, 0x81e091609eee40cU, 0xf2ec17f5082811fbU,
  0x1420181cf5fdf9e8U, 0x3207ff05eb0415e4U, 0x2ff9fc1e0af6c5ceU, 0x8fa1205faee2ceaU,
  0xf420021cf6084405U, 0x141ce2f6f4e9ea04U, 0xe6eadce2e7f4110eU, 0x8dff90103f60439U,
  0xd7d9f4e5e2dd03f5U, 0x1716fb080eee22dcU, 0xef0203fa060121cdU, 0x1c0cf4e2e6d608f2U,
  0x100a12eafd03f5ffU, 0xcaee0402e00f0e0aU, 0xde08ede30d04f905U, 0x183f23b809e9df01U,
  0xea180df419fc15fbU, 0x1a1306fb08f10a15U, 0xe825121a190705fbU, 0xf304ed271cfeeb46U,
  0xf121bea070a0af9U, 0xdf00f61c1417fae3U, 0x1ad303f3ff0d4202U, 0x117e5f7ea05f6f6U,
  0xf52125f502f20b0aU, 0xbe5070cf3e01900U, 0x18eef10cfd0edcf7U, 0xd7f9050bf80bf520U,
  0x7f7f0bb32dcf71aU, 0xf90ffad32e1ce9f4U, 0xde13040dfd0e1eebU, 0x603131b18021ce8U,
  0xe8eedd08eff1e02aU, 0xf02e0ceae215e9cbU, 0x1209faccfc000410U, 0xfbf7fb02f1060009U,
  0x623c3041dcdebf3U, 0xa1ef0e31d091a08U, 0xec1c03ed0de3d61aU, 0xf102ecf512ce0c00U,
  0x13fbf0eddbee1004U, 0xe5e7fd17f4c1cd08U, 0x10e2faf31af8bfe9U, 0xdd00fc0aeaeb00f1U,
  0xd8ea0e0508e7fa0cU, 0x1326010f26c609ffU, 0xff60ff6ebe30104U, 0x1f8ecf81a021fb6U,
  0xe1f3e51af6d4df14U, 0x30d1cf424ee02eeU, 0xe9f5242efdf9013bU, 0xe13dbf702f0eff3U,
  0x5e7010cf1f5f9f0U, 0xe50bdae30603e1ecU, 0xfbede519e2fe13feU, 0xf31cff0ffadbdc06U,
  0xe6021508fffae4feU, 0xe90d0c2304faf5e6U, 0xf1e5f3f8dff3d400U, 0xe2fff06e9120f2bU,
  0xf9f80320ec2cf50dU, 0xbdef00bf10507efU, 0xfef51fe9e3171d06U, 0x25fe00fece09f60fU,
  0x12df01eef830fdd4U, 0xdfd0aed07d4e61aU, 0xc151b0507d926f3U, 0xe9f1ea0700f6030bU,
  0xb473bfbf60a18edU, 0xef10cecec17f7U, 0xe7dce1f3f8ff16U, 0xfc04e5f7dee0240dU,
  0xe71a29d7ea051009U, 0x14f1e522f5f2fe09U, 0xfb1f07140df2192dU, 0xe309dbea182a0a02U,
  0xf1061af1faf708fdU, 0xede91b04eddcfc10U, 0x6011fc30e11f609U, 0xef2217eee4f62c0cU,
  0xffe8fb00f107ff10U, 0x1d13fa21fa02d6d5U, 0x32feedf0a05ec1cU, 0xef2405f902fc1910U,
  0x210fcd0a0a252209U, 0xfae5f40901fd0affU, 0x3603f918eb0600c2U, 0xfb20f2f716050118U,
  0xaff080616092f1cU, 0xfd20f5f92708fd0bU, 0x15d822e0e3f6eeefU, 0xed1bf5fe0bf70ef0U,
  0xfaffe71300fa120dU, 0xfae8001108111bfeU, 0xf60611faf2f8d2edU, 0xe7fa1a26f841f300U,
  0xe3f90418e9f51211U, 0x19240034edfbd6feU, 0xfea25f71e131012U, 0x6052613d71309e8U,
  0xe40a20f012fbe019U, 0x4011322fd27152dU, 0x12eaf40b0f031609U, 0xfa0cc3f9fb0707e8U,
  0x9180f13d6d60a17U, 0x181f02d4efe8e0f2U, 0x7f6fd150706ea13U, 0x300eddecf8f917e4U,
  0xafffbf9fbf3f9efU, 0xe241c2515011d09U, 0xe90fda21d005df07U, 0xeeb0ffdff1215e7U,
  0xdff9020640dffd13U, 0x2e4f6f8f401db0fU, 0x1cce1a01eeed0013U, 0x124217092c050300U,
  0x1b2a0eeceaf4fcf1U, 0x700dc261aef151bU, 0xf5ca142dff05140dU, 0xeb0e0ee50cfa0f02U,
  0xf6fe32f9f0edf815U, 0xf101e8e1c7e8fffcU, 0xc0d16e409df03ecU, 0xee33f70ce0e6f815U,
  0x1308f31aed0d0602U, 0x7ffee04dae0190bU, 0x17e802e20f1f1407U, 0xf3dc0feff4fedbfbU,
  0xff08eeea2108ec15U, 0xec10e9f10817ec1cU, 0x1154071add20d8eeU, 0xe6f5faf52cef0426U,
  0x2107c50deff8e108U, 0x10f09dc00e6e2f3U, 0xeff3022110070b0eU, 0xe6fffb5e17cdf203U,
  0xee07ef0c2e0fe2U, 0x3120fbeb0fccedd0U, 0x12cbfaf6060513d3U, 0xda03efeffbf0ecf9U,
  0x28dcfeea0714f415U, 0x22e08142a300dfcU, 0xebffedead9fde8e2U, 0x2fe301c12f69c0fU,
  0x51e160113150511U, 0xf70bf008d9fe13f0U, 0xfb06ec06fe171401U, 0xb030bf9d50d11U,
  0xcfedef1f1a2b0214U, 0xf4f2151e03e1dd09U, 0x11eae600c7c7f1f2U, 0xf80a18f9150509d4U,
  0xd08f920d6ff10f7U, 0xe3170beadbd1f127U, 0x1f2d0114f7ffda0eU, 0xdeff5faf807f819U,
  0xaf2f602ffddf60dU, 0xdb19fef104f2e700U, 0xf1b07f412e81f13U, 0x251eed0116151a08U,
  0xe8e2f4ea14fee5f6U, 0x27fb160d013a0bf7U, 0x9fe32f6ee0aeb18U, 0x3817e9f9f2031a30U,
  0x6e7e806f30903e2U, 0xf2f1ff03ecd5e0U, 0x131d08080209011dU, 0x3103e5e820e32ce1U,
  0x20a0709ebdef2ebU, 0x7120e1813070f1cU, 0xcac604ff150f0bfbU, 0xe4efe111d6fa1113U,
  0xda0adb0ef4f20e05U, 0xc8fbf1d1f432e3eeU, 0xff90bdeef0a08f7U, 0x251d0bcf11180600U,
  0x1beefbf5ed092c05U, 0xb22f415fc0306e7U, 0xfd18eafdfd02ed12U, 0x2f829fc0cfffa07U,
  0xd7e9012cf1160409U, 0xf1e3faf01af2f002U, 0x327f3cfe9f80306U, 0xf5d3e303edcb22f3U,
  0xd4f6f404dff7001bU, 0xf8fd0c04fa0ff3d7U, 0xf01e11d919ef1602U, 0xfdf0db0fd90ff206U,
  0x1dff700253c280aU, 0xf51be6030219351eU, 0xe5dcff1d16092502U, 0xf50e0925fd27eef2U,
  0xedef2f6022902eaU, 0x1df5f006f91aebf0U, 0xedef613be1fe000U, 0x18b6ec1302f10c02U,
  0xce71d0acfec2be6U, 0x3d100ef4f508ca04U, 0xddbfbd506f8ec02U, 0x50e15fdf4f2e1f8U,
  0xf00b1ed6f0e2fc00U, 0xda0a0f01fc07eef7U, 0xd220404cafb1111U, 0xe9e0e50d0937f718U,
  0xf828042f11ebcc05U, 0xfdf817f6ff1b04fdU, 0xf815d910fdf52706U, 0x13270cf916080704U,
  0x609ebf2100b023bU, 0x2e615f5f6c7250aU, 0xc10f60d1d1203e8U, 0x3fc22fc19fadbe3U,
  0x191e14fa0805e913U, 0xf8ff210defe7e212U, 0x3f707f7fad51f1fU, 0xbed07ea0af9f903U,
  0x5e71cf9fae2f703U, 0xf214e6e62619e108U, 0xfa04fcee210113f8U, 0x15fdf503ebe2170fU,
  0xd5f016ecdef70bedU, 0xfaf2f718022d07fcU, 0x915ee15fe15e8f5U, 0xd180e14fd30e6feU,
  0xe524d315d6fd0e02U, 0xc0e7f417fffb00eaU, 0x1cf5f2110f2405ecU, 0xc1b16f405200a1fU,
  0x90509faf0dbf1ffU, 0xfaece4d033f81d1dU, 0xe3dc1200ede32116U, 0x1026ddf5b61327e9U,
  0xffec00ed04070b04U, 0x7110d0404ea1af4U, 0x190427cdede4f3fcU, 0xc00db03021321feU,
  0x9180a0cca1109f4U, 0x5e614f8f91018c5U, 0x32120ef8efee0514U, 0xe2fbf521ecdbef27U,
  0xf4b9e011f9fde108U, 0xfd12051806f304e0U, 0xfef8152426e2f7f7U, 0xfc0dfbe9ff1b111aU,
  0xedfc060b0f061dffU, 0x70000d5eb3135e0U, 0x1de19505d8ee01eaU, 0x3edc14fb06172109U,
  0xf50a0ff31ed40c08U, 0xc0b13000108f606U, 0xfb08f907120103fbU, 0xa1c19df1615c2fbU,
  0xe23efdce30d041fU, 0x1930f2f71ebfed1aU, 0x12f5d611fafb021cU, 0x4d7dcf4ea0add12U,
  0x5060204eefecddaU, 0xfaf9fa11f93201f7U, 0x13d52c1228d7eb02U, 0xf060b07ec0512feU,
  0x2e6fb1d26fb0bf7U, 0xf509c6eedf1af3faU, 0xf2fe14232efafe1cU, 0xf9fb0227011f32e1U,
  0xe40de10eeefe0cdeU, 0xaea26d2f4efe81cU, 0xe503d9e701e2e5f3U, 0xaf30603db04d60eU,
  0xed00ed1300fb09f4U, 0xef1e10c1606ed08U, 0x2437f51903050d08U, 0x19ff0ef6fef31eb3U,
  0xf7f1d4ed17da25ffU, 0x4f9edd707f5f5ddU, 0xe7ff1f0f24022829U, 0x29da1bdfeaf7f308U,
  0xe302f90303e8dd00U, 0xf7e801e9f50ef612U, 0xd4d6141d05dd17f9U, 0xbf8ff1501ff0a1bU,
  0xecf8ea1d06e72620U, 0xdbdae1db00310ff2U, 0xf3fe19f9fdeb1700U, 0x1723ceee0dda15U,
  0xfcd0ee00f3f11739U, 0xe0f4fb14eefafbd8U, 0x9000ff4fdfcf9U, 0xe2faf600e7ed2420U,
  0x2c03ede8e91ef507U, 0xfd030af60ffbdd4bU, 0x130afbedf3f1f408U, 0xefdcd80f10edea17U,
  0xeb060813fffef106U, 0x3e8f41a06fe0516U, 0xf800d1e8e1fbe013U, 0xb09f3eee2e8f500U,
  0xff113302ec07ce07U, 0xc143509ec0fe20cU, 0xe22c0cf91b090435U, 0x17efd804faea2ff5U,
  0xe7e6fb0a04ecf404U, 0xaee10f61711140aU, 0x1e1f110c0ff2cefbU, 0x1f0ef8071a1014f8U,
  0x422e017111107efU, 0xc071d03f2e4d9f0U, 0xdfed210709fdd514U, 0xf21f041ffcf71122U,
  0xfcdc1213f33d2413U, 0x28f9e90101091d18U, 0xbef141836e7180aU, 0xe2ff19f3e005ed0aU,
  0x10f6a4eae2200bf8U, 0x1a0e111cfd07edf0U, 0xfd142514fa14fcecU, 0xf9ffeef118faf9f3U,
  0x1319cddb070ef90bU, 0xf4fdfaf4e8151abbU, 0x18ecf9ed07d9fefbU, 0xf90e1b1e04ee04f0U,
  0xe8ed0602e50ee510U, 0xfb0c1dd2f3f1162cU, 0xdbff0f04efe70d05U, 0x1d0f22000d21e5edU,
  0x2c15212f00cf0707U, 0x118cf0c06f2f907U, 0xfedfffebde34f4f6U, 0xa0938fcfa2fe61cU,
  0xf00910d715052005U, 0x806eee003e9fc18U, 0xec00de1210f9c4e7U, 0xfefdb0ffbf6f9f5U,
  0x2b08100507293310U, 0x9fdf108df130e1cU, 0x14190bfd00fbfd06U, 0xfffff8f8fefcffd3U,
  0xf9ec1203fb3502feU, 0xe0e82b2af7eaf8f9U, 0xef1eea0103fad81cU, 0xf3eadff21701f8faU,
  0x6091608dacd17faU, 0xb020c0ae3ee1900U, 0xd6ef08f32ef6090cU, 0xfae90ce505070eeeU,
  0xdd6041702f807e6U, 0x30bc8fd08d604f3U, 0xdef09e2080ce8feU, 0xe7e7dd13fa25ff24U,
  0xe810d5f6f0fc331fU, 0x60c10db210afcf2U, 0xfafc16f8de0e1305U, 0xeef9da01fdefe828U,
  0xefc9130837030edeU, 0xf520f80c09d1fdeeU, 0xf60df7080f13f103U, 0x8ec07ebe90512e5U,
  0xebf5041dfcfa1722U, 0xefa01f22f9eefb0bU, 0xd13dd14f80b1107U, 0x1afacf0b4e080ceeU,
  0xdff80bfd08fde3e3U, 0x6d8c301df04040fU, 0x30ce60a0131fc30U, 0xf2f50c04fc04eaf1U,
  0xf3180b0313021bffU, 0x2010afa00f4cfddU, 0x1507f8e11f1301faU, 0x132eeb20e1d916f0U,
  0xf6b6290e1035f9f6U, 0xf7ef140d25e2f6eaU, 0xea1711dcf010d92eU, 0xf7fa0c02e60217f6U,
  0xf31cb0f3fd0103efU, 0x1aed150812fbfcfeU, 0xc04e9021ae1e82eU, 0x5fe23171404fa00U,
  0xf02114eef3fafddeU, 0xbf2f602040d0004U, 0x2f09e8e1fb12e809U, 0x9f60bf40f01fcdbU,
  0xdef7f3e71b26ebU, 0xeb1e121bffe60143U, 0x2811f8021bf7f407U, 0x11713f001e61927U,
  0xf9f1f6fbf10efafbU, 0xdf9161cc4f714fbU, 0x1ce904171c0300f0U, 0x507fd0bf421fbf6U,
  0xc00cf0efdce32316U, 0xe7ffeaf8f7edf714U, 0xd0f2eae7fc25eaf3U, 0xfa06e42932fc0603U,
  0xd3f3081035fc0049U, 0x1b1d2fbddfb0811U, 0xf404e105fcff131dU, 0x1f9fd1cf3cf1010U,
  0xf422fc18fce9fdf1U, 0xfe23fe37ca11ef18U, 0x18fa15ebe5ea08e4U, 0x17132dff0af213fbU,
  0x10e4e6fbfdf3fa25U, 0xff0508102f0fee19U, 0x515042903f6eb06U, 0xe52cf6fff707fe12U,
  0xcded44ffe7f20223U, 0x14151111f623fe01U, 0x13141a26eeebe1e4U, 0xfff804f7ffe4f007U,
  0xeeff1ae81cea1706U, 0xd8c705ddeb1df7e1U, 0xec0620de0dfc03eeU, 0x9fef80214eb0204U,
  0x1f306061d0723f3U, 0xef82aed050e0b07U, 0xeaf509f91afaf7eaU, 0xef07270405ef0ef5U,
  0x19ef1eda44e00601U, 0x60af7fdf407ff07U, 0xf314c10efe1bcd04U, 0x12fb0dd6f922e51bU,
  0xe608d7fff3ec05fcU, 0xf1f4ea1af7f7db2dU, 0x4f3d9f80eece907U, 0xf6f4010be50003d5U,
  0x140f100ffad3f402U, 0x8140cbdf012fa17U, 0x8e80f0512d8e909U, 0xfa1512fad3112316U,
  0xa0de7fdedf0ffebU, 0xdcfc1bfce6210705U, 0x2404f7dc0ee9d1U, 0xf2e1e602eee300e3U,
  0x14fce9ea0402b708U, 0xe907f80505f6eee8U, 0xf01218f1efd21b12U, 0x807f5fafd19160aU,
  0xde5ef24f1c12b1aU, 0xf8f903f50b0ab2daU, 0xfdf4dd05f0fefc09U, 0xed0d1b15f6ff0013U,
  0xc01f1c07e8e0de08U, 0xe11f07e9ff19f604U, 0xf4faeb0111effaf9U, 0xaeff2ffe1f1edf7U,
  0xf0f011f9fff9e4c1U, 0xff1d0cf9de0f05ffU, 0xede7fde2dbdd3405U, 0xfaf4f50c04140efaU,
  0xf505060812230729U, 0x1fef0c11de0a06f7U, 0xf6d1e4fff3ec2407U, 0x1311d419fef80d27U,
  0xa0cf015f035c4d1U, 0x52af712fef8ec23U, 0x10e0d1060a010ff6U, 0xe9f8021207270510U,
  0x1402dfd7d4dbe740U, 0x6f7f111e3100ef6U, 0xe2013b1eff09d61bU, 0x808f1131c25d1feU,
  0x70aff040405faf0U, 0xafee808f70dc70bU, 0x13f901d41f10f8eeU, 0x1af7f0fb0c10160dU,
  0x707e10212edfcf8U, 0xeb06f60cee1ae3f3U, 0xd1ff11d707f807f8U, 0xff0b0bedf5ef1bfeU,
  0xca08f9f905110401U, 0xcbfd20282b05f805U, 0xe3f4faf1e61707e4U, 0xe82ade0001edf500U,
  0xf01718151efef014U, 0xe5e4270e19001bf7U, 0x410311bfaee0600U, 0x1c19fcee1504e614U,
  0xbee24fb0ee917fdU, 0xf6cfe9f51d11f007U, 0xec0ffd1dfdd2f3eaU, 0xf60617fcedd7db3aU,
  0xe7df180ef6effa23U, 0xda1b0b101b0ce7f3U, 0xf3e832e426f5fa04U, 0x17eeca1f220b0fe1U,
  0xe8f00dfeef101901U, 0x12030813fee013f7U, 0xd6ecf1f8e9e61117U, 0xf90cf11608facb07U,
  0xfd16e4dbfef9d3d9U, 0x9310b240c093df8U, 0x1cfd1ff2f404ff00U, 0xfb001a06f0fcf0dbU,
  0xf223fcf9f703d8f6U, 0x2c09f5ee2004f206U, 0x21f720cc1b2cf8f2U, 0x1d0ce00310490029U,
  0xfaf8ea2715e9ecf5U, 0x9f0fc120c18e223U, 0xe601e10df80917e3U, 0xeef30be2010b17e9U,
  0xf13c2311072220cfU, 0xcf9f1e400030302U, 0x914e7e20707f513U, 0xe6e2fa02f80d0320U,
  0xf9f814f1e2060222U, 0x22151ff4fa2af4eeU, 0x710f3152328f8d2U, 0xf11f060609120cd8U,
  0x26050df0fd03e6f3U, 0xe20ce71a0a0922dbU, 0xde23c60700efe842U, 0xe9e1f12725070df8U,
  0x6211e04fbfa140aU, 0xfce42704d80329f5U, 0xdf02f5f046e50131U, 0xdff00b050cf8f1e8U,
  0x3f3e6fff9f80b0eU, 0x2e5d2371d0e0b03U, 0xea10070c09e41809U, 0xec0cf437dd1bff22U,
  0xdf3f810030a0616U, 0x1cd11fedf09d1f1U, 0x27fefe1514eeec14U, 0x11fcd9f9f203210aU,
  0xe8d7fc0df0d1edf3U, 0x80d08fff512e915U, 0xb0f1f300e1703efU, 0x52c0a001cfb15eeU,
  0xe9c4ffe72d080112U, 0x9eadafae003e9faU, 0x100b1df70b07e7U, 0xfcddf7fbeeccfce6U,
  0xeff9021a05e80dedU, 0xe010fd10f132f402U, 0xf5020afcf3d121dfU, 0xfbc6f4e2cbf1c729U,
  0x28120405ecfb24ebU, 0xff601d7fcf9f908U, 0xf9e6e3e51dfa020cU, 0xe0be10c05b9ea0eU,
  0xd807f30dee160612U, 0xe800022c00112a09U, 0x906e8160bef2bf3U, 0xf35d51803fcd5d7U,
  0xc1411fafe06f1feU, 0xa0ff309e2eae720U, 0x1e901d30402dcf7U, 0x22fdf7112ef62b02U,
  0x2f1627fd0c05bf0fU, 0xf3e7fee7e8e01d2eU, 0xf1d0fa1c33202411U, 0xf9100af8050ae10cU,
  0x6fe0ff20e241902U, 0xcefad4ce06131ef8U, 0xe4fe13131605fd0bU, 0xfe8e42ddf4bf305U,
  0xf4f20eeb10001f0dU, 0xf9e2e3fa0e0a0b15U, 0xd6ecf00e0b021cefU, 0x708f003e9f9f70cU,
  0xf727faf618e70e27U, 0xf209f00720181621U, 0xf6ef240d06f309dbU, 0xb1e09021b09dee6U,
  0x19d71a0911e2f0e9U, 0x120efd1fe30ff42bU, 0x18080908fc06ef2aU, 0x26f50123f614f211U,
  0xf6fee0320d2f3ff5U, 0x8fcffd7f4ea1106U, 0x6e1e7171ff702U, 0x260120ec11060b14U,
  0x13f4f816fefdeceaU, 0x3cee13f9e3f5f208U, 0xd60b01072cdaeef2U, 0xdee0533eaf119e6U,
  0x60af6102adaf718U, 0x16fdbc1c06d707edU, 0x230ec6cd14f41aU, 0x2700f7f9f7e8f108U,
  0x2503fce8f8fb0bfcU, 0xd0bfc03e84d0607U, 0x42bbf1f0fcfd0216U, 0xf5111a05f31ae9U,
  0xfb2e29fe01f8eef1U, 0x7d70cfb1bd7e7e9U, 0xe6f8ea1e01fbfff6U, 0xd5ea000103e4e733U,
  0xdd17e4e3e80513f3U, 0x7d23ee21902f719U, 0x2201df2a1507fe0eU, 0xfaf2f212032b1929U,
  0xe0f81d0a0025091eU, 0xebf7f81ae3090201U, 0x16251313dc110658U, 0x221ef31f5d4ea32U,
  0x8f1150e0dd3db06U, 0x1512e10915f000feU, 0xf1eaf6f304fd15f8U, 0x1ee70ffa13db052dU,
  0xc40ced19fd080e23U, 0x15ea06f6f9040b2cU, 0x9fa050206e31bf4U, 0x1a08eb1008ce19eeU,
  0xf10cf3eb06de0304U, 0x3eef70bbf19f243U, 0xdaff0cf8f2f5d620U, 0xe81507f3000d0847U,
  0xc0ff7f03604260cU, 0xf5edfdc8f507f811U, 0xfa08d10ee9e405f2U, 0x17011e1f08def9eaU,
  0x2cdcec09042c0112U, 0x12fff116f11bdd21U, 0xb11f810dfe710f1U, 0x161cea11efe50d0cU,
  0x1c150203f7f308d7U, 0xf7e40014ec03e92cU, 0xd3f54c130efbfb2dU, 0x603eee70921f6daU,
  0xff01dc1107feff05U, 0x4eff2fde1e9dbe8U, 0xfe402d6e4fa07f3U, 0xee06fee5e103dc17U,
  0xe60ffe00fbe80512U, 0x5dcf0c40200ff09U, 0x2202e3f7e2ffdf0bU, 0xdf0cfe1e1120ef19U,
  0xfc190511ca06e604U, 0xffea13091a10f50fU, 0xee0efa091be9f02eU, 0xfcf32d10f6261de0U,
  0xff2eebe41b02eb02U, 0xa1011e0f1f0ec16U, 0xd5c52dfe05fcd7f3U, 0x13efddf8e7042ee6U,
  0x1304ecfdf913df08U, 0xe316092416e00917U, 0xff0e0c12011625f7U, 0x916ed150a08e4U,
  0xe6d129050ef4f8e2U, 0xfcfa160f17eafad9U, 0xfcf619f0f9fbea15U, 0xf3fff5fb1404e416U,
  0xef31f0e03f80801U, 0xe3bc0ac1fb06f731U, 0xf222151f120b091aU, 0xea130aed1f05af1eU,
  0xf2e6ff18ee03ee0fU, 0xe11913e2f2eb0303U, 0x2ff0810e22510f7U, 0xb13eefd28ff1513U,
  0xeb022e28de0f32faU, 0xfde101f210fa1216U, 0xfafad60ff515f2f5U, 0x3f810d2ec011515U,
  0xd8ce001410d80907U, 0xf1920d30526ed21U, 0xedf7180b0b06f6eeU, 0x1af3d11718f8d41cU,
  0x7e811eefd0e16f8U, 0xf7edc2f0e60b27fdU, 0xfa0c250b1af4331aU, 0xe3eafc0a1201e9U,
  0x80af303e3edf108U, 0xee07e11b031eeff2U, 0x15112c10252113f5U, 0x2908fb25fdfb01f1U,
  0x23070ce6fa16e808U, 0xfa17fae5e81bda1bU, 0x29212909ed193118U, 0xde0002f30c10fff8U,
  0xf5f9b4e9fbf91c20U, 0xf18dbffe9f1effaU, 0x170a100022e6d1f3U, 0xeb330808e304f1f5U,
  0x4fe8051dd6fb201cU, 0xe20b01e2e3171a0fU, 0x2f600eeef10f90aU, 0xee25fb00bdeff8f6U,
  0x9120816f318fe0eU, 0xac8d815f3f4c5f9U, 0xef14f119fd1f0d05U, 0x25ffdef7e5f51213U,
  0xf3f50229152be3fcU, 0x13e4f6ecfa331afeU, 0xefc21ec260c0ffbU, 0xeedf31016f1d317U,
  0xda1003fefae8f1ccU, 0x4f9fde9e61fd315U, 0xec111905fff9ebfcU, 0xe15e2f5f70ce4f3U,
  0xe315f903f1ea12f9U, 0xdbfd00eb02d80e19U, 0xf7dcf306090602d9U, 0xf819192a07ecfeU,
  0xe160a0805d02beeU, 0x7c50fdbd9faff14U, 0x1e3e232fd022005U, 0xe0ff7231101f4f9U,
  0xd09e3fe19e8cf01U, 0x928e1fd06ed01dbU, 0x905ea08dbc22b17U, 0xf815e123eff5ddeeU,
  0x522fcedde02faU, 0x90e0df9e3f204f0U, 0xcbe2171fb8161dfdU, 0x2cd0091e1af9170cU,
  0xf9f6082023fae7edU, 0x11befdefbe102U, 0x3b23f1f1f8e9fe03U, 0xef180b0bf4ed0f08U,
  0x51d100e17edf802U, 0x1ec24e81618ebe9U, 0x7dcd1e805cef2fcU, 0x2526e72ce602e0ffU,
  0xf607e0cc0c0a3317U, 0x21f4d4021eec2e05U, 0xf9fc142306f11409U, 0x9161def08f5e10eU,
  0xd6dfeb0511f2010fU, 0xff2614230cf03ff4U, 0x1816f6f123fcfd14U, 0x13ea01e014fa0bdbU,
  0xe1d07f2f70225ebU, 0xb10e6fdf4e80508U, 0x1feb06f10cddfbf0U, 0xf2caececeb081911U,
  0xefcf0fd03ec1efaU, 0xe51bf001fb150ffbU, 0x12e90c0af7e0f316U, 0xf61519eb00cb34d6U,
  0xf51a1ee70bfa000dU, 0xeb07f3f6d32415efU, 0xeee5f1fbfe09dd07U, 0xedf1d70df014130bU,
  0xef1af32f18f7e904U, 0xf0fff8eb0f0923dcU, 0x2e7fe15e6e61f0fU, 0xeb102731f318ebeaU,
  0x22fd0c0df50a1624U, 0x10f70907e309f506U, 0x1f7ec000eef0605U, 0xfffacbe2fe2c140dU,
  0x9cbfd161ccf0a18U, 0x17f1d91025fa0108U, 0x1814e1f514d6090fU, 0xea06f2ffe0ea0210U,
  0xe801f42b2707d503U, 0x13de04f707d94c02U, 0xfb2916150a211301U, 0xa0404f7ff15ecU,
  0x25f3e107e2cdf6ecU, 0xf902e906e9de15fbU, 0x1bdcedf8400c0eefU, 0x628fedee5fddeecU,
  0x120ddb240d140beeU, 0x27f6e809083fe505U, 0x1316f8f90ef5df14U, 0xedfffdfdff010329U,
  0x79cf5e5eb09dcebU, 0xefe5fedf11d918f5U, 0xe9eb170ff7fce115U, 0xf711fa03162802f0U,
  0x2101fc1631deee18U, 0xf91b2fd7e6e20de9U, 0xdf002e0f08010fd1U, 0xdff3f602f00ad404U,
  0xb723cff2261edfffU, 0xfe1520f3f511f90aU, 0xbf91f17e3ff1c3aU, 0x1f50fe7fe14fd1dU,
  0xe4feecf3fc0def01U, 0x23cce6031ef50f11U, 0xeb130effe101e0fcU, 0xf3ee240617eaeff1U,
  0xd220df2e9f2041eU, 0x40ed0dfdedf3e4f8U, 0xf6fada03cdf3e3fbU, 0x51cf90d070808e8U,
  0xf7d10de4050630f5U, 0xaf60bfe1c0810e6U, 0xe71c0df7f0fe1d26U, 0x20010604ddf834f8U,
  0xd30412fc07200a03U, 0xf0d3fdee0efd060bU, 0x1c0eedef050af705U, 0xe405f3cc17fe22fbU,
  0xfcd9e51cffe1ebe7U, 0x34f5ca0ff9cb0c0eU, 0xf3ef13ebf3ebecd9U, 0xf9ecec0be6011903U,
  0x601fcfaf3f80800U, 0x100afd09ebf00c03U, 0x261e12eff622180cU, 0x11e8f6100025d40eU,
  0xe8fa10e70c250002U, 0xe0ffc210c0718f7U, 0x1b08fcede6e60407U, 0xe3204e43ff82105U,
  0xbe07020304f3f3feU, 0x22ce0514d6d6f701U, 0xfae8e9d620eecb10U, 0xcff0c0cf80d0905U,
  0xd504ec0efa030216U, 0xe723effaf5dfe406U, 0x309070adccde412U, 0xe5e9d700f31a1628U,
  0x2e60e0f15f616fcU, 0xebeee2ee0c050f00U, 0x1012ef04faed021cU, 0xe52bbd3f1120fae9U,
  0x2a0319fcf90d0909U, 0xbfff8f40203e617U, 0x1e08d70cf20ef701U, 0xf314011104dd14f8U,
  0x18f62ef808faca0bU, 0xf2803d1070d0ad0U, 0xf115110ee1c8e0f9U, 0x8f9fe14f41ff400U,
  0x1c0818fe2a16f716U, 0x53a23ecfee6e111U, 0xef0c2ee9e608d93eU, 0x100df501f0ecc81bU,
  0xfcf2ede3f50a4a2bU, 0x130517fa04190d01U, 0xf105f8f4f8eafd12U, 0x21fc13f01ffaffedU,
  0x1632e808d2fd12f3U, 0x111d0e1bfd15eef2U, 0xf11501fbfbf9fcc2U, 0xf5f823f2eedb1616U,
  0x2004e9f2f8eba916U, 0xf112f0e60beb0318U, 0x105f2381ffc1604U, 0xfc26080c0f02000aU,
  0x203f90b18ded920U, 0xeef1e1dbf1140226U, 0xdf06f30200f30b03U, 0xea18e937081ceb05U,
  0x1123d00619fce803U, 0xe20610ef01f70c09U, 0x11111c29f542160cU, 0xc1fdb3101eb03f3U,
  0x1309da1b17210804U, 0x15eedff222ed11fbU, 0x4b1deb1aef02f0e4U, 0xfe09040c090c1018U,
  0xcbfe19d221fafc03U, 0x1f1a32f90a1eedf7U, 0xf01dfeddfcfbeefbU, 0x9f5e208efc30a1cU,
  0xefdbfa06f4ffeddcU, 0x317ed2415fff80cU, 0xbadf1e0316f91cf6U, 0x15f3071324fb110cU,
  0xf5410f301d1de02cU, 0xa170c0ef614ff0bU, 0x130ee2fe0bf00cfcU, 0xdf0902efe40533fbU,
  0xf2fa0e00fddcd120U, 0x420ff14fa090528U, 0x101f7f0fc04f706U, 0xf40ee4f3031020f3U,
  0xfcfbe9db09020f22U, 0x5307ce0c00effa06U, 0xfdf2e7e90812e6c1U, 0x1bfe02f80427eff8U,
  0x121bd7ebf2e8eaf5U, 0xf109f5c8e902fedeU, 0xf1dce1faf4c3f6d2U, 0xfdfe2004040ff203U,
  0x150338211edd1ff6U, 0x2225e21528eeff04U, 0x14e9082c1de6150cU, 0x7f6ea0bff182ec8U,
  0x330beaf2ed19080cU, 0x100fb490427fbf4U, 0xeaf22b3e01041111U, 0xdbff23f01ee12113U,
  0x626f20edd2201U, 0xdef809f3faf2e907U, 0x6ef0a1d00dc13d8U, 0xcf81936fcd9090dU,
  0xf3e4ee290304fc10U, 0xdc093b0c02030ee6U, 0xe3201a0bd116ddf5U, 0xe6df02fa0e36fc02U,
  0xea1a043121fcd813U, 0xf2ec1fcc16ebf517U, 0x2812dd1b07f404f7U, 0x91f31deeafafc14U,
  0xed07090efa130209U, 0xf9edfb1410f9fb10U, 0xfe4010d1ad7e703U, 0x708db0d1dc5e706U,
  0xd1f30506f5e90df0U, 0xf70e0ae6f3e6dafbU, 0x3f60d090f0e04faU, 0xf3f023fa0605f1f7U,
  0x1bfc1fde0b00f1f0U, 0xee1fc7fe0806e306U, 0xf30dd201fe0b0f02U, 0xf6fbc3fcef06ab07U,
  0x208e7f0e4f4d1deU, 0x1b11f9271c1527f1U, 0x15270019ef251012U, 0xb02e4f40314f6f4U,
  0xc0af5f62e241af5U, 0xd6f7f327dbfff417U, 0x1ae3ebf9fedd0aeeU, 0xdf071efee4c11d11U,
  0xe03e0efe822edf3U, 0xe5cec4ff1b1b1112U, 0xee5f1fd100feaeeU, 0x3ee2f3d3fd161127U,
  0x4d1f8e9f91310fbU, 0xfefcfdeee010f108U, 0x5e1d71d1215ebecU, 0xfbf407f8ff0501f7U,
  0xf9d72b0b05fbf6ebU, 0x2de9e6110f0d0a0dU, 0xa0907260700e0e2U, 0xefe8110918e8d7fdU,
  0x1b17d6c3e715140fU, 0x5da051603ece8f7U, 0xeb0a00be10e7e7fdU, 0x3008022c2a00e20aU,
  0xcef20019fc21fd10U, 0x11ed02f1fff415ecU, 0x1429f1f303180811U, 0xfbd6ed10041a06eeU,
  0xf9f3f5cbff14f4f2U, 0x3bff11cdf50af6f5U, 0x50a02fb10d6f3d3U, 0xa04fe341307ef22U,
  0x4efc27f00cfe0106U, 0xfbf2f52ceffb06edU, 0xf70018faf7f7e414U, 0x1f90d030a0b31e6U,
  0xf0c210e2215c904U, 0x8e1e62f1d31d7fbU, 0x627fe01ec0ce4d1U, 0x7150cfe06ea0f02U,
  0x30f724fe21d5f707U, 0xe837ebe5130f06dfU, 0x1705f3010505ee00U, 0xfeed1ff7eff5f807U,
  0x17ebf517ffe6030bU, 0x41a03ef1af11ff2U, 0xf6002907ecff2308U, 0xdfcd0523ea0f0414U,
  0xf72de0f4f6020bf0U, 0xeedae607ff1af810U, 0xf2df2e08f9f321ffU, 0xdd111cee1404231aU,
  0xef0b2926fdf0ed13U, 0xb011014001ef105U, 0xc040a0c1406c6e2U, 0x91aebfffcf4f506U,
  0x1114f805f3d3dfe5U, 0xf8d5f0f7f2180007U, 0xe50319e309fbf8faU, 0xd3fff92bf0011714U,
  0x2126e604d6defd1aU, 0xf9251d0601f52ce7U, 0xf71adce710070010U, 0xb1deff6d8230edeU,
  0x22de100e11f4f4e5U, 0xfb0f0ff716de1ce8U, 0x50a0808020811deU, 0x10fae00203eef8f5U,
  0x231cafbc90ae643U, 0xffb03fffef7f91aU, 0xdceff5cc1a3616d2U, 0xe1e7061302f117f8U,
  0xf601000d0322e601U, 0xf3d3ebf0fecf0ffeU, 0xc182eff1e0607efU, 0xf939fc12ebf4ec26U,
  0x420c1fdd07fd0702U, 0xeef516f93ce1fe14U, 0xf019efe8f00401f8U, 0xc08ee04f2e4f131U,
  0x1c19f7fd0113ff0fU, 0x10e7ddfec8210cf5U, 0x2cf4fa15e520d5faU, 0xef031703f4172a19U,
  0xf10df8f00eeff80bU, 0x15f40cf6000f10feU, 0xe5eff6dae4f30be4U, 0x1003022ee4efcf24U,
  0x15ecf713fbf5d5e9U, 0xf11bf306ff07261aU, 0xeddcfff714fb1c00U, 0xf3efe8f910130900U,
  0xdcd71ffc1ff9f40fU, 0xe28150f1a14d600U, 0xfff6fe1a0cf70706U, 0xd002402c1208f1f4U,
  0x13f1ede8e0fcf5e7U, 0xfc0af3250a34d5eaU, 0x1808e00913f40101U, 0x7091106f81bf9U,
  0xb1e10faf34ce312U, 0x1e1625fad30debf6U, 0x17020e170ae2c91bU, 0x12904e825d40613U,
  0x28e7ee0b0cffee16U, 0xf51cf0e70f06f10aU, 0x15f3fb01e2f90fe0U, 0x1d133b110dc3f5ecU,
  0xe81400021af9e3fdU, 0xf61f0a1312feeb18U, 0xfdf0d2dd14121707U, 0x19ec28d8e2010af8U,
  0xefe2fced0a01f222U, 0xe5e9ccfae50e01edU, 0x131702eff914bce4U, 0x24eb2702fbea1aefU,
  0x1b2f062301f7dec7U, 0xe2fa0ce8ed1fff01U, 0xe0eff1e7f9ef1d24U, 0xdf23fadbfae5e9edU,
  0x1008fb09f1f5dcfcU, 0x8fd20ee112228f9U, 0xe19fc09dae70f22U, 0x11260df7110d251cU,
  0xf700fffb0de1fe00U, 0x1204301c0806ec15U, 0xb05e402e106f413U, 0x602f0e906eb0a17U,
  0xe9f020c4f60f1211U, 0x1ee2192308fdf2feU, 0xf4f01201e0210e23U, 0x16f80010ff0907dcU,
  0x141300f51103fd28U, 0x5f201fbeafee615U, 0x1ed5de0d22f5f01cU, 0xff0ae121ea0bf707U,
  0x17fefb05faf4f5e4U, 0x90a072e02e6f9fbU, 0xfef203f8e111e817U, 0xf31d0b05f90b22faU,
  0xfbf52acec8e706eaU, 0x3109000bd610fffbU, 0xeb0ddff1d4e3eb28U, 0xe1f224e402fff9f6U,
  0x1d0de0f8011904fdU, 0xa01f3fae201fd14U, 0xfcf7fd09f70d01f6U, 0xe9fbf80d2d02f6ecU,
  0xffa110f09f9d612U, 0x1a330257fef8ea10U, 0x2b03f816271f18fdU, 0xed0cf30ad7fc2002U,
  0xffea18fe0ef2e8f4U, 0xf8dec9fff00a200eU, 0xd619fefd1deed6f4U, 0xf91b2305f5002500U,
  0xdd61aef030302d7U, 0xfbf609f9ec09a8d1U, 0x20e8fafaf30cf6f1U, 0x1bff13fde50aecffU,
  0x2101f716e9edf6f3U, 0x523c910e3e00811U, 0x1e019dc06f710ceU, 0x33f6f411f80726f3U,
  0xda071d020dfe0406U, 0x1ae8f9fef61bf307U, 0xef0af4ec17ef080dU, 0xe7040e20f1c8e11fU,
  0x29ede2f2e4f11decU, 0x181104f7fbe9ed47U, 0xdb2e22ed17ef191eU, 0x8ebf2eae414e4f1U,
  0xf900d8df04edf9edU, 0xf9d5c711ef04d616U, 0xd9fcf0f1f0f4d00fU, 0x160ceef3f00bfbe1U,
  0xe8f6e6f80febe920U, 0x52cf3f81021fde1U, 0x182dfbedfdf0e8fdU, 0xf71c1915eef6faf0U,
  0xef0ef08deed0f12U, 0xea1fee0216ffecedU, 0x21fecfd0210b100aU, 0x10140a1ae00dfdf9U,
  0xd7fc27080af9fdf6U, 0xe9f6f4fde80313f2U, 0x340df80ffffc0716U, 0xd0fe3030c17f5a5U,
  0xfe10805032cfddeU, 0xdeccf8fafa18e405U, 0x100c051debf229fdU, 0xe3e5ecef031e27f1U,
  0xe9edcaf82ef61808U, 0xf004111110efe104U, 0x1e413f8e9fe0c09U, 0xb220f0930effc14U,
  0x6d3c703d9ecf00aU, 0xe71a351609f40829U, 0x26dc050ff9030f19U, 0xf0fd201e03f1fb0cU,
  0x1307fd2618fe0cedU, 0xaececfffb02e920U, 0x2639e5ee121c090eU, 0xfd07f4f8ff11f3f8U,
  0xec22100404f81af1U, 0x3fcf5f1e2fe062fU, 0xe2dff6f419eeeee7U, 0x121a041025e90313U,
  0xe415dde1fe1d0617U, 0x1403fffbdfeb00f0U, 0xea15e9f4e1ff1401U, 0xafef40aea30ea0bU,
  0xef040c04f4fbb908U, 0xe8fb0a040ee3ceU, 0x11fd22e80afd11e8U, 0xe1f4e81a02fffeeeU,
  0xfbeaff1b08ff0706U, 0xfddedf28ee18c01cU, 0xde0b25091d1135f5U, 0x1e130304ebf310e8U,
  0xc72105fbd610f20dU, 0x4ecfe13efd51b1cU, 0xf0e7120d1ceef50eU, 0x207fef023fedb12U,
  0x18ff08f010fb0d03U, 0xe2340a1e12fbf8ebU, 0xf51cf70b16f814f7U, 0x32eee90ff717c200U,
  0x40c34e611eef1dbU, 0xcafffbf9db0702f8U, 0xcd5efe90ad5fa11U, 0xff13fc0afa24f502U,
  0xbfcea14ee04d812U, 0xfeefcf3f3f105eaU, 0xd4e53d12000708feU, 0xf808eaefecfb2009U,
  0xf9f2df042dd902U, 0xfad5ed0b2ef9f6f4U, 0xeb0df6fcd32c0206U, 0xd7070ee7f60b0deaU,
  0x6eb1cf3290d16eeU, 0xee1f700f0e70222U, 0x231313ef0b132313U, 0x1ad106e3e701f5faU,
  0xaec0631110bd7e9U, 0xde13e1f9efd306feU, 0xf9fe1ced0ff610fbU, 0x9fcdff1fdedf202U,
  0x1a1812e7e4000200U, 0xfde20af0f2e002e9U, 0xf3e90fdbf72705dfU, 0x10110fdf8fbd4f8U,
  0xe8d9e4050df3f4e6U, 0x1f12f4f7e9e018U, 0xf4f2d8fcdd0813eaU, 0xff1ceceed415e4e9U,
  0x19f708ea07fd06ffU, 0x193c172bdd0cecfcU, 0xdaf20c043f17e6f1U, 0x40000f2fdea15e9U,
  0xf060bf1032df406U, 0xf6f0f7fdf30b2509U, 0x60c02fdfae125f4U, 0xf7dbcf1e12e9deedU,
  0xf91ce5f9f001ec11U, 0x13f105060d051011U, 0x8191308c50825d7U, 0xe91105fef00b200bU,
  0xe327c1ef33e6140eU, 0xde341c1df802deffU, 0x1001eb25dded0416U, 0xd030ededdf413fdU,
  0x3f0d70c05fae9f6U, 0x71f0d0204f700f8U, 0xf808fa10e51402feU, 0x1100ca3a000a2111U,
  0xf1171ff914e513ecU, 0xde0c0702e9fcd9dcU, 0x42f051ff7091cfbU, 0x4ff02cdd805010dU,
  0xb280102fc12ffe2U, 0x24f719dcede303f7U, 0x12f70fd2fa1129ffU, 0x1905f70adf00d5feU,
  0x2c011af80c0ca227U, 0x24f9f8d60be1e4f2U, 0x304f1ec12ebf7fdU, 0x6ddf60e02fe0109U,
  0xe0db2904fce3f313U, 0xdd070601e6f6e42eU, 0xec1de7eb09e0ebeeU, 0x19e907e00dddef2aU,
  0x1b0e05011be4fc02U, 0x714dde6f80dc502U, 0xfed8eb1d0809fa28U, 0x503edff083901c1U,
  0xf8d80111fcf1f312U, 0xddf12c0714e6e307U, 0x220ef10cfc07fc07U, 0xf9fecaf2fc2eed16U,
  0x1dcccd0003061af2U, 0xfaff2cf91c2109f2U, 0x6101e1b1f07040dU, 0xf7f4f8ffe402e22bU,
  0xd01fc12fe310a03U, 0xfaedea0ae2f909faU, 0x253405fc15250921U, 0xee2ee180a062a0dU,
  0xffd306fd0d0c27fcU, 0xece6f53ceffd1b1cU, 0xfe07fdef1ae60307U, 0x23e318eef0daf101U,
  0xece4140b0904ff36U, 0xee1c14c60d010616U, 0xecfebd12f229f611U, 0xe9ec2517152d18f8U,
  0xfbe5f9def116f302U, 0xef0ae3150c0a0003U, 0xf513dff412d4fb05U, 0xf7cbfefffbfe09fdU,
  0x7d4f41c05120a1aU, 0xf40c18f90ae0fa29U, 0x1d070fdaf5fc25f8U, 0x1bdf16130df6f735U,
  0xf6121af9f2020002U, 0x35f6e715ecf5ecf1U, 0xf9f3e303102efdf9U, 0x1fbf1f2efde1afdU,
  0xdb09fc161706d2f6U, 0x6fb1b151efaf215U, 0xfdfff2edefeae625U, 0x4010a2104d90223U,
  0xd6eed1f30e19eb07U, 0x1d100904ec0008d6U, 0xf0ef1edf000a191fU, 0x911dfe1f1e50cfaU,
  0x6f9ff02f8fa0c11U, 0x1121f608f8c708fdU, 0xef00e2ed0022eafbU, 0x1213f8ee23e50b25U,
  0xd0702f411072feaU, 0xfe002bda0ff7ebfdU, 0x14c8f007ee0f0211U, 0xf40f4300deed2dU,
  0xf70a0ef41411fa0bU, 0xf703e8fe02092c02U, 0x19f5160f05f80aeeU, 0x19f100edfff5f5e6U,
  0x2fff18f2e2030f0eU, 0xf3090306e00101c3U, 0xff18dbf507d9f2f8U, 0xe7fd101805e535f7U,
  0x5fd2cf6fcf61afcU, 0xec0a111d07e5e9d5U, 0xe613eb1e0bf4f8f3U, 0x2f0e501fc13dce7U,
  0xf8130017f5f214ffU, 0xddd1b03ec39f80cU, 0xf6eb21e5eef3cbebU, 0xf6370705d91fe30aU,
  0xd3ff12130fdf0a25U, 0xf11d0b02ece026efU, 0xf9e3ebe527f9e230U, 0xdfc0926dcf801ffU,
  0x3f40cece0ff1f01U, 0xef02e10607ddf2f5U, 0x4611f92cea1bf5f4U, 0xbff00b2f7f907efU,
  0xf800d3ed0a0513f7U, 0xe301ebfaf2f1f414U, 0xfff3130b0113eff7U, 0x427fdf002fdfa09U,
  0xe400dfe334331e0fU, 0xf1e8de00dadcf407U, 0x32250908c4fff10aU, 0xeaeb230c2ae71205U,
  0xf9f9f506f011e5f6U, 0x23eafaecf8de06e8U, 0x8eb2a0506e5f813U, 0x12142cf1d902febcU,
  0xfe0505f6eadf1f04U, 0x2f6180b1005feefU, 0xf00e102f528ebe7U, 0xef29ecff0709f4f9U,
  0xfc2211e7d80b00e4U, 0x6fbf6e4eabcfc03U, 0xde0624f1e913e7dcU, 0xeb1ef5eefa1bfa08U,
  0xf21aebf712fbf800U, 0x100309ed051ae93dU, 0xf121fee7f2fb0bfaU, 0xee040b0903300a12U,
  0xe9ee08ff360b3aefU, 0x2e0f19f9e9f3f23dU, 0xceef9feff1fd8f8U, 0xe906fcf115040b06U,
  0xc301ee0af5e1280bU, 0xfb20f616f91c0bf7U, 0x3f1210ff4eb081cU, 0xf003f8e6e8f2fcdeU,
  0xe7f3cefcfc06f8f3U, 0xf81c38f8240d12f6U, 0xe5111c0312120efcU, 0x12f9eb1809f30907U,
  0xd192ce5e6f0e1f2U, 0x1419fafd2b241ad0U, 0xf8022d290eU, 0x1ae0e3c817fb051aU,
  0xd605fee7f4ee0905U, 0x341af8fb0c15e7f7U, 0x161805dc09091138U, 0x7f4fc0ff502ec0bU,
  0xdb20e0e10f0004e7U, 0x725f210f5e8cf18U, 0x20ff010ee0e0150fU, 0xfe0ffe1e2407f7c7U,
  0x18ba12dd05fce803U, 0x9f4f7030802f800U, 0xedf6fc16071248f3U, 0x12f324c7f5ec090dU,
  0xb1c120af3e7fb02U, 0x15ea09fb0e20ee07U, 0xe1efd30ce808040eU, 0x182d080010f509fcU,
  0x11335f0f8f40209U, 0xe5093f1501e906eaU, 0x131bfce8dd100cf6U, 0x8f11c0c08fffd14U,
  0xeee4e5f4eb31faf3U, 0xfc232616e2e6fee4U, 0xdf9fee1d6f3fc22U, 0x91423fb1c0c1abfU,
  0xf6e9da110d00d21fU, 0xecf9ccf6f4e4f702U, 0xfe04f70e0ad7faf1U, 0xe8fc23fdf91ad422U,
  0xf100f4eb0323cf05U, 0x371bdefcea120a2aU, 0xd40901fbf6e806c6U, 0xc00f20414d2f105U,
  0xef1215f7010deb1dU, 0xde41adcedf224f9U, 0xeb01fe06defcfe0bU, 0x6ed0f0ffd120807U,
  0xf9f7d3f8080ff9U, 0xe71608f1f40b0ff4U, 0x2102f9072b0312f0U, 0x2108e3c7e21ef914U,
  0xde0a07f2dfd6fcd7U, 0x80e17f1f920010eU, 0x181b0fe5f1f7f405U, 0xcf23dfcf1000220U,
  0x6faecfb071bf22eU, 0xe0110802e5ea09e0U, 0xe613f91723f51e04U, 0xf40ce7edf0f331fbU,
  0xfbf305fae9f5eff5U, 0x35fd0f1812f7caf4U, 0xf0fb11ec0dfedfdfU, 0xefe6ebf9fc0a0823U,
  0x26f71bf5b7fada05U, 0xfd081bdacf13f5e4U, 0x15162ef60e0112f5U, 0x19f8f007ecfbff14U,
  0xfdea204b1a1cebf1U, 0x13fe2e381318ed00U, 0xe0f611dff7fce1U, 0x10e715f1fb0a1becU,
  0xf919f5e7f5e0f224U, 0xb0e19dce3efec03U, 0x1215f60ffdf3efe3U, 0xefef1e070d0debd8U,
  0xee15d6f626180b08U, 0xe7021a29d0fd1816U, 0x2533fa0017ebf9fcU, 0xdcfd1f031a1ef21dU,
  0x114316feff0121ffU, 0xf504e5eafff01e01U, 0x21fee4030c1f1e0eU, 0xf104eed218f804fbU,
  0x11ebf8dd01fe1e12U, 0x7f2caf40b13f7e4U, 0xe8d5f3e83301f91bU, 0xfbf4eefd170ddb05U,
  0xb0b010c00c8f60aU, 0x4dafee00609e9eeU, 0xdf11fcff19f7eb08U, 0x1211fe1aef040913U,
  0x4fe43bcfd01f0f2U, 0xf406cd01fef80b07U, 0xe1f9f7fa1d0e12f8U, 0xea0e04f1eefd08d6U,
  0xeef211e6cf1bfbedU, 0xec03fd301100f412U, 0xe9f3f4f4fbfff1f5U, 0xf7e303cc03060610U,
  0x11ebe2f6f3e6edf4U, 0xf5dcffef07fc28e0U, 0xea0deaf202f9fdf8U, 0x2f1ff280006d5f4U,
  0x20e51e021c0cfb02U, 0xf31a020844221209U, 0xece3ffff16de0b1fU, 0xdedd41b180fec4fU,
  0xa01f00b1e05e6e1U, 0xfc004bf198fa13f6U, 0xf4f5eeffdbfbc816U, 0xa20030bfdeff20fU,
  0xff0dd810d227e2e4U, 0x20e813f6110ff215U, 0xfaf4f6fc2ec5ecf9U, 0xd3231d1cf1f009e7U,
  0xfe040e00db06fa05U, 0xd50dece5e8150907U, 0xf50b230ce00915fcU, 0xee04d8eaf70503e9U,
  0xf3f6f1fefff21e08U, 0x1f19182dde24fe0cU, 0x11606f20a161612U, 0xf6f9f6342de20837U,
  0xcfa08101d0ac2e2U, 0xfa0112f822e7f7c4U, 0x12ccee330f0ff4e6U, 0xf3f5031d0a01e4fcU,
  0xfe07042f050ce319U, 0xe7f72c0b09ecef0bU, 0x12010cf807fb15e9U, 0xa26e81ae8f5f825U,
  0xf305f61229fe010eU, 0x2cede6e808041f09U, 0x17f1f7ecedfcf902U, 0xf90e3e1607e50be4U,
  0xf7fafe1c04db1804U, 0xe0dd03f61302e2e1U, 0xf1f9ef01f5fad90fU, 0xcf01eee2f11c5ef7U,
  0xf8d51becdbe10000U, 0x1c21f50b01f4fa0eU, 0xf706eef5020df0f4U, 0x2d17ed09f6ebf0ecU,
  0xd5dae12011f72cf8U, 0xf0da161d1cfd1f0aU, 0xfd220503ebf3fc0aU, 0x100dd0e811ef012dU,
  0xf5e219ead4faec08U, 0xfeee608fcfc1007U, 0xf1fde422f83ae532U, 0xd8ea162b0fecfd14U,
  0xeafefd0703f404e1U, 0xf5f10d1009f82323U, 0xb0612f405f7eb07U, 0xf40e32202d20daf4U,
  0x1be7f1dcfd03c8eeU, 0xafbe80e19f320fdU, 0x816010f3d0d1dfdU, 0x919050a03efcfU,
  0x91310110400012bU, 0x1addcb060df403d3U, 0x12eefd130e041709U, 0x120e0d131907250dU,
  0xf8c312fd25ff02f4U, 0x180ee01c0c0cf6e4U, 0x1904fc150505cc0dU, 0x4b401f834f8f812U,
  0x13f4dcf9f9022013U, 0x15fc07d7090ae11bU, 0xdff5120004fae20bU, 0xf4023e112e80fefU,
  0xf7e019e9fd4edc14U, 0x4dddb06f00b37f1U, 0xf105eee0fffdf4f6U, 0xe7eccd02170548d6U,
  0xb0f02e30f23cfe6U, 0xfb0d26e10404ff17U, 0xf214f7f20e1a09d8U, 0xf11acff1e30c06feU,
  0xf5fa0a18f4cd07eeU, 0xf91709d8e8fc0b1aU, 0xf7fbfbf6e414b702U, 0xf61f07ff050bf70cU,
  0xd2e80a06cf002504U, 0xe9270de4f1c0100aU, 0x11f52317f91704ecU, 0xe7051a0edd2df6faU,
  0xe021fbf805d80b0cU, 0xfc0009f80d08f4e0U, 0xf0d090a1ee709ffU, 0xefeba7d905ee06e7U,
  0xfcdd0fc0525eaf8U, 0xd9fee9fa211316f2U, 0xe80cf03128e00312U, 0xd1617ce150cd613U,
  0xfc11fb0a160f071cU, 0x10b9060b04fae30eU, 0x16f0030c2212f6d5U, 0xfe1615e9ddeb04f0U,
  0xc60ff70a1a0409f2U, 0xf6e4feebfd26e2eaU, 0xfffcde0bf721ee22U, 0xdcdf18ebfe02f0e9U,
  0x105d222fc00142bU, 0xeef40ef7ff342e3dU, 0x1312051a18f9ec14U, 0x510f6f50bda26e1U,
  0x8e0e707f8e13f2cU, 0xcf8e4dbfff70bU, 0xf9df000bf2e7f2f4U, 0xe7f414210a0b01fcU,
  0xec0017190b051cebU, 0x26fd23071300e106U, 0xd5f6dbd32af8ec14U, 0xfe1efe00e204f8c7U,
  0x306ea361a0eefe4U, 0x3c0beb1cd9052622U, 0xe10c080dfd0a07f9U, 0xfe0107051cc41af4U,
  0x414d00732f50cecU, 0xc19f9f605f9dc12U, 0x2bedf3ecfe0f2c34U, 0xf6f2010003dff7eaU,
  0xd3091a09ee0d0721U, 0x16f1de17fd0f00f3U, 0xfee4ff020708f9dbU, 0xe9241c0805e8f6e9U,
  0x607e4fa08e6f407U, 0x2f70b0cf4f8f909U, 0x1bf7ff0cdbe904deU, 0xfdfc10f9f8f00d10U,
  0xfb0e0913f9cafed8U, 0xffafbfc0e120c1dU, 0x27b9220940faed06U, 0xf7ff1506f6110ddfU,
  0xeaef08071118fdedU, 0x4ecf2e1eff5fef4U, 0xb1000f1033bf1dbU, 0xf209fd02e40dfbf3U,
  0xee21edd1d092b0fU, 0xf402e4faf111e829U, 0xf814ef0ae8ec26f0U, 0x1204fe091e03fc14U,
  0xea0b090b120a0fd8U, 0xf5121e0c19fe220bU, 0x600e41200f706e6U, 0x8010a2623f20d0bU,
  0x2c1111f2d9f0f1fdU, 0xc8e4040ef0ecfdf0U, 0xf7ebdffe07e4e8c4U, 0x1df215df0a080212U,
  0xff29bd180622f9f0U, 0xfef004fd150c03feU, 0xbd5fff51004fcf1U, 0xf6d1231cef0ddbceU,
  0xf8e702e127ff25ffU, 0xfef5eb291801021aU, 0x1309f30f25f50800U, 0x2d4012e1adcec00U,
  0xf604ffeb0833cff3U, 0xece9d5fb19200cU, 0xc05ff03f3e91d1aU, 0xf6dcf7e608f7fffcU,
  0xfce7070ef517c50dU, 0xf5eaffe8e5c714feU, 0x24011b12f4eb01f9U, 0xf02500fa171ff3f3U,
  0x3e5fc1c1a2ef7dfU, 0x31fccfefee200d1aU, 0x2903fbff0aecfffdU, 0x2308fff7e4d310d8U,
  0x1ef8ee1cfa021200U, 0xff08f2f70d01e911U, 0xecf60ff31506c6fdU, 0x6f90511ed0be41dU,
  0xfb0812f3dd1e09cbU, 0x1be4b207261bf70eU, 0xfeccdbf8f7330103U, 0x270e0706f203f608U,
  0x1c13e3f1f6ffe00bU, 0xd50317dff10d0c0bU, 0xf9fcfcc101fc0d08U, 0x1cff05f8f10612feU,
  0x60913f7c8c0dd26U, 0x812e213e908eff6U, 0x1210e0fef50ddb17U, 0x1b0b09f9ece81de8U,
  0x5c5ed1a1f0d0d0cU, 0xebfc0600e9e7e222U, 0xe9d712fbf10712fbU, 0xe5e4fb13f5080607U,
  0xc08e9164aeaf003U, 0x19d0f80bf6df0017U, 0xffeefbf2e80fede2U, 0xf22ff8f2042309ecU,
  0xf40afd06f9fce5e1U, 0x18f5b9eb19f2e0faU, 0x20d02de1efeed07U, 0xf60ff02c1919f40aU,
  0x17ff2a0a05fe0211U, 0xcc0a2b35f4f20b06U, 0xd8fece202011e61fU, 0x32b030c16ddfaf8U,
  0xffa1eec2c0b1600U, 0xfe0d070dfef5e212U, 0xf0f9f7fe11cbe30cU, 0xa092e28f204e90bU,
  0x50b172619e2f6eeU, 0x12ec1af907ff07dcU, 0xe803edef12cf0604U, 0xe2adfe20413fc07U,
  0xf11a0fe5f1ea14edU, 0xdff40df1c3f9faf3U, 0xdd1a0efd01ebe70aU, 0xf609d5e5df38d4f5U,
  0x3015ec0d0dfbfafdU, 0x414010ff5e4cb0aU, 0xfa1402f70400f506U, 0xda15ee0afe0e3bf8U,
  0xcf040dfa1602f5f0U, 0xf1e6f3f51d15ff08U, 0xfb0cf602fef4fe0dU, 0x10e5f713fe0d13f1U,
  0x2a03f6041d100cfeU, 0x8e7101bf8eec2f3U, 0xfbef1afb0e2905fdU, 0x1403ece7140de302U,
  0x160ae1fd0d03e400U, 0x120e1c05f9d1001bU, 0xc8f809f6fae00f07U, 0x3002ed213d8cafeU,
  0xf903f0040bdbf81bU, 0xf40aed051cec14f9U, 0x513fd0eeff70ed3U, 0xdec25f927e3c405U,
  0x20fdef04f40511f5U, 0x1162800d1f51901U, 0x1ff315d5e0dcf8fbU, 0x301ac811fcf5e232U,
  0xdae40d070a19de0dU, 0xfc0fff0e0405dfeaU, 0xfda2215f523f11aU, 0x1fbf8e32703d327U,
  0x1bbffc191c28e9ecU, 0x160be2061302080cU, 0xc1f0ef00ed8180bU, 0x1b1b150ddbf007e4U,
  0xe35fa08121a22eaU, 0x2051efd30da1915U, 0xddf904eef70f07ecU, 0xf8f5f4071c0d0420U,
  0x1fff7fff10e11efU, 0xf116f2f71a09fb10U, 0xea070a33b220fc0dU, 0x1611fcf9091d0808U,
  0x1523201ffec30afbU, 0x21ec0eeb030cfd00U, 0x1508f4fffafbf01cU, 0x3ece1010929e8e4U,
  0x390a1b0c0a1222f9U, 0xf20603ddf5250d00U, 0x1bd2ff2913fbfff0U, 0xc1b0c0c0ff9040bU,
  0x6eb02f5f1e9ebfdU, 0xd24271e10fa060bU, 0x28db09000d04e323U, 0x1bfa170c271c1a02U,
  0xe11c6eceaf2e9dbU, 0x35fedf2bde0b05eaU, 0xf6e01eece7f81fe5U, 0x19f608f51e07ed1fU,
  0xed0ef215fd0906f4U, 0x1a00dd07162917faU, 0xa031c14b6e40af4U, 0xfe06dcfbe4f9e807U,
  0xf51df1f1fc02fef6U, 0x320c090704f9efcdU, 0x13f20e0bf103f8fcU, 0xf10f050e11f3490eU,
  0xfabd1c11ebe91611U, 0x32a00f3f200fceaU, 0xdc090901030fe4e3U, 0xff1e300d8f70c11U,
  0xe3cef2100ae50c12U, 0xed16ece3f00918feU, 0xf31305f3f8f6e1f3U, 0xfd1b1306eed6faf8U,
  0x18f1ef081fe60bf6U, 0x20f140317ece218U, 0xf20a1ce6ee222edaU, 0xd5fb1a05060df200U,
  0xfdf8ebef03331b17U, 0xf5f8f1dc30eedb1fU, 0xfe04f50a0df9fd29U, 0x1ae70613ff0be909U,
  0xe3f7f91b0afd04e5U, 0x1acbff09061c2df1U, 0x308081608d6f404U, 0x131ece14deec0208U,
  0xdf030e24f2e9dd03U, 0xe5fdfc16ede9eae6U, 0xe2fcda0cf8143715U, 0xf3050e01f2f7ddU,
  0xef3c3e308101af5U, 0xf029f207f4310407U, 0xdc03fd03141eed14U, 0x806f5ede01cecf2U,
  0xfb2002fa1d06f608U, 0xe0fc0a1123001500U, 0x1023db16022a01edU, 0x2af8252bfd08ddfcU,
  0x901ddf3d8042019U, 0xe203d908f901e900U, 0x28ec2f19dfdcf5ffU, 0xf50e2010f930f9f8U,
  0xfef9f725140f0decU, 0xff0a02edfa0ec3fbU, 0xf2cdee00ea07030eU, 0xfb1eed15122609e6U,
  0x92f2035f40900f3U, 0x213140912240420U, 0xde0afaf706010ed1U, 0x14f7e319ef1515ebU,
  0x7eee4f1dff2deU, 0x12efee07e301de14U, 0xfc01f904f810fe15U, 0xeb1611ffd7170605U,
  0x19da120722d6d033U, 0xa1af1dff8f20de1U, 0x2fa0b0f0a080a17U, 0x2d10dd1907e1f7fbU,
  0x3deb05141dfe2aebU, 0x160dec07fa060d08U, 0xf32bb00ffe05f2ffU, 0xf120bfe0512fd1bU,
  0xffffb0f6ffffa6d6U, 0xffffb218ffffc10dU, 0xffffb1ccffffc7b5U, 0xffff94f7ffffba90U,
  0xffffb7d1ffffb561U, 0xffffba9dffffbbe0U, 0xffffaf1affffae61U, 0xffff960effffb38fU,
  0xffffa729ffffc5f7U, 0xffff9ec4ffffc456U, 0xffffc1f8ffffc52bU, 0xffffbf90ffffc100U,
  0xffffbdf3ffffa4caU, 0xffffb71fffffca3eU, 0xffffc1e1ffffb826U, 0xffffd59fffffb5b1U,
  0xffff9b67ffffa222U, 0xffffd972ffffad52U, 0xffffb363ffffa283U, 0xffffc311ffffaaf3U,
  0xffffa96bffffb129U, 0xffff9df4ffffa525U, 0xffffaec0ffffc165U, 0xffffd00affffb7abU,
  0xffffc7a8ffffb3b5U, 0xffffa5d4ffffa766U, 0xffffa49effffa40bU, 0xffffad5effffb40cU,
  0xffffccd3ffffcf00U, 0xffffb021ffffaf1aU, 0xffffdd02ffffa68dU, 0xffffb8e3ffffc2f1U,
  0xffffa6e6ffffe380U, 0xffffa345ffffcdaaU, 0xffffb3b0ffff9433U, 0xffffb402ffffaea5U,
  0xffffb1e0ffffe04dU, 0xffffaa29ffffac09U, 0xffffc52affffd0acU, 0xffffb9d9ffffbf07U,
  0xffffb5f0ffffba04U, 0xffffb5f6ffffbd8fU, 0xffffdd5affffbc63U, 0xffffc1ebffffc6bfU,
  0xffffcbafffffafbcU, 0xffffa474ffffcadfU, 0xffffc2f7ffffb6f1U, 0xffffa9d7ffffb40eU,
  0xffffb096ffffa383U, 0xffff9320ffffb254U, 0xffff910cffffc162U, 0xffffb9c9ffffc30dU,
  0xffffce7effffb846U, 0xffffc069ffffbf04U, 0xffff7fdcffffc747U, 0xffffbe01ffffb4d7U,
  0xffffae2effffa261U, 0xffffa938ffffb903U, 0xffffc4c2ffffc930U, 0xffffad8dffffd057U,
  0xffffbca5ffff9ddfU, 0xffffc4f2ffffae01U, 0xffffbb2cffffce45U, 0xffffd2f2ffffb2deU,
  0xffffc8caffffa525U, 0xffff9599ffffa5c5U, 0xffffe163ffffb8cdU, 0xffffaa16ffffccb3U,
  0xffffcfdbffff9c46U, 0xffffc0c7ffffa9f0U, 0xffffad21ffffadeeU, 0xffffa615ffffa59dU,
  0xffff9e99ffffa7f9U, 0xffffcba6ffffb871U, 0xffffb687ffffa977U, 0xffffb14fffffa3f2U,
  0xffffaff9ffffb9fbU, 0xffffcc17ffffa618U, 0xffffbc5fffff9e6eU, 0xffffc3b0ffffdd34U,
  0xffffc347ffffbb5eU, 0xffff9fe6ffffbb36U, 0xffffa0b7ffffa6fbU, 0xffffd130ffffd353U,
  0xffff95e7ffffaedaU, 0xffffa412ffffba45U, 0xffffb5ddffffc09cU, 0xffffc381ffffc2abU,
  0xffffa2e0ffffc25eU, 0xffffb5caffffb455U, 0xffff9faaffffc7a1U, 0xffffc18cffffbe6dU,
  0xffffb659ffffc984U, 0xffffb6ccffffb3edU, 0xffff9f3effffce3aU, 0xffffd0efffffae97U,
  0xffffb916ffffbcecU, 0xffffd4e6ffffc9ecU, 0xffffc98cffffbe2bU, 0xffff9dbbffffb341U,
  0xffffc166ffffc6e8U, 0xffffc3bbffffbec9U, 0xffffb5b2ffffbb33U, 0xffffbf42ffffa198U,
  0xffffc896ffffaeacU, 0xffffb64bffff9789U, 0xffffb490ffffadfbU, 0xffffb13affffa94cU,
  0xffffb0f3ffffa523U, 0xffffac50ffffafe4U, 0xffffa655ffffc5a5U, 0xffffa101ffffc5a6U,
  0xffffac7affffe18fU, 0xffffd431ffffc3acU, 0xffffc985ffffa835U, 0xffffb727ffffb6f1U,
  0xffffb50effffa278U, 0xffffc536ffffd661U, 0xffffbf50ffffc311U, 0xffff9db5ffffb7e2U,
  0xffffbb9bffffba76U, 0xffffc9cdffffc475U, 0xffffdc3bffffbdf0U, 0xffffc8deffffcd2fU,
  0xffffb6ccffffb337U, 0xffffb500ffffacceU, 0xffffc1f4ffffb1b8U, 0xffffced2ffffb24fU,
  0xffffb80effffa76cU, 0xffffccc4ffffccf5U, 0xffffbfa4ffffb6ceU, 0xffffbb65ffff91f9U,
  0xffffb546ffff9b6fU, 0xffffb5dbffffa8c6U, 0xffffc112ffffb677U, 0xfffff07effffb2c1U,
  0xffffaf22ffffc002U, 0xffffbe72ffffc5bcU, 0xffffb804ffffb34bU, 0xffffbfd7ffff9da5U,
  0xffffc09effffae6aU, 0xffffb62bffffe2b1U, 0xffffb7c6ffffc1d1U, 0xffffb7bdffffa711U,
  0xffffa5eaffffc196U, 0xffffa5fbffffb78bU, 0xffffbdbbffffbd9eU, 0xffffb571ffffc44cU,
  0xffffde23ffffaebaU, 0xffffb06bffffbf2dU, 0xffffadf9ffffb2e5U, 0xffffcde8ffffaf33U,
  0xffffac61ffffbc9dU, 0xffffbf16ffffbd14U, 0xffffa765ffffa2d8U, 0xffffa7dcffffaa30U,
  0xffff9fdcffffd5fcU, 0xffff95a7ffffafb0U, 0xffffb86cffffa2bdU, 0xffffac26ffffdd85U,
  0xffff9f12ffff83d7U, 0xffffa5bcffffc44bU, 0xffffac0fffffcb38U, 0xffffa3a9ffffbbb2U,
  0xffffcf80ffffbd4dU, 0xffffc73dffffa469U, 0xffffb78dffffc2feU, 0xffffbdd1ffffc089U,
  0xffffaf36ffffb4e6U, 0xffffaf0cffff9211U, 0xffffc856ffff99a6U, 0xffffbd5effffbff3U,
  0xffffc952ffffc851U, 0xffffa823ffff9cd9U, 0xffff9c41ffffa12bU, 0xffffb079ffffb984U,
  0xffffa611ffffae80U, 0xffffb458ffffa782U, 0xffffb882ffffb8eeU, 0xffffbe74ffffa35eU,
  0xffff9a57ffffaa0fU, 0xffff991bffffdb98U, 0xffffb2e3ffffa6c0U, 0xffffb935ffffa88eU,
  0xffffa149ffffcccfU, 0xffffbf0effffc2ffU, 0xffffd81cffffbc32U, 0xffff8cc1ffffa576U,
  0xffffbe17ffff9d6dU, 0xffffa418ffffbe8fU, 0xffff99ffffffaa45U, 0xffffc821fffff2a1U,
  0xffffcb4dffffa31fU, 0xffffa6f4ffffb337U, 0xffff9366ffffdac9U, 0xffffb279ffffab9aU,
  0xffffe15dffffc376U, 0xffffa539ffff9b26U, 0xffffb53effffb117U, 0xffff9a56ffff8c29U,
  0xffffe837ffffb543U, 0xffffc4ccffff9fdcU, 0xffffae1bffffb070U, 0xffffc506ffffb096U,
  0xffffae76ffffc851U, 0xffff946bffffba37U, 0xffffbe04ffffbb3fU, 0xffffc912ffffe24aU,
  0xffffb825ffffc2feU, 0xffffb617ffffb390U, 0xffffa93fffff9fadU, 0xffffa7b0ffffa12dU,
  0xffffaac6ffffc395U, 0xffffe638ffffa773U, 0xffffb8faffffb887U, 0xffffb69affffc42cU,
  0xffffb3bfffffdeccU, 0x2bfffffb9ceU, 0xffff8d8affff949eU, 0xffffc075ffff9cf8U,
  0xffffc0d9ffffa570U, 0xffffb678ffffdf24U, 0xffffc864ffffdb74U, 0xffffb55cffffdcd8U,
  0xffffb45effff9cafU, 0xffffde1dffffa772U, 0xffffa5ecffffbc47U, 0xffffa91fffffb04aU,
  0xffffa0cbffff9ec9U, 0xffffb47affffa138U, 0xffffadd8ffffbac7U, 0xffffa460ffffa826U,
  0xffffbfc4ffffc12cU, 0xffffa58cffffe6b9U, 0xffffb60bffff9553U, 0xffff9e05ffffb903U,
  0xffffb315ffffbe7aU, 0xffffb33cffffac33U, 0xffffb340ffffbb81U, 0xffffae9bffffbef6U,
  0xffffae2cffffb62dU, 0xffffb98cffffaa7fU, 0xffffb993ffffc187U, 0xffffc125ffffd0a8U,
  0xffffbc93ffffe58fU, 0xffffbf37ffffbe1fU, 0xffffbf65ffff98c2U, 0xffffbe6effffc576U,
  0xffffa6aeffffb8c1U, 0xffffb907ffffcd09U, 0xffffb736ffffb27dU, 0xffffbb58ffffc0ecU,
  0xffffcef7ffffb7b4U, 0xffffd32cffffbd14U, 0xffffec6bffffabeeU, 0xffffb9dcffffa905U,
  0x1adeb232f6cd1ffaU, 0xfded12d0ed04e31fU, 0xd9e2d639db0e2605U, 0xd6e3c61bea10f10cU,
  0xf0b7f3e1f3f41eU, 0xf15189e1e28f6e5U, 0xfa05ed2106d4e7e5U, 0x2ff614e820011809U,
  0xc6ca2ddff90f060aU, 0xf30afec3ec1f3120U, 0xffdb0a0ce207de0cU, 0x22e5eadc191ec8d9U,
  0x24082c461127131cU, 0xf722c8dfbfcea32bU, 0xd4060c22f53d151eU, 0xf2dd22e80c03f0e1U,
  0x13f1e9e6edf2f204U, 0xe8dde9cce80fead8U, 0xfffa12df1b13cce4U, 0x203e523cae71a1cU,
  0x32109cd1df7f800U, 0xc16d6fbf9f5d7deU, 0x226f9dad5072616U, 0xda10eccc1cfa0a01U,
  0xe8e9bce00800f11cU, 0xf21fe5e806fd41ebU, 0xf2f12918c4fdf1e5U, 0xfff6cbfcf6f8edf2U,
  0xde51ec249fd07a9U, 0x330611c8fbf8f4c9U, 0xeedfd12d309be14U, 0xfadf0b22f62b06edU,
  0xdb03e305eba0f4caU, 0xec0af011eb16f31dU, 0x1bcf0107ebedeadfU, 0x2d0af8cdf20ff8d9U,
  0xfe1fee1a00e10b03U, 0xebfcfff8ecef01f3U, 0xf5fc0e0104f0e311U, 0x181bef19c903ea15U,
  0x2c1be9ee023604e7U, 0xecd80506c9eb071cU, 0xf0bcfe3102e9e002U, 0xfc17e936e8ee2cd6U,
  0xdbc4fbecfad6e95dU, 0x24d0ee0efef8dec8U, 0x36fc08d6f32bf32bU, 0x39f6d1101528fbe4U,
  0x20eb1fe9ef49b3e9U, 0x14d4f1240d0eff02U, 0x72b17e20d09f01bU, 0x10e5e40de9de2519U,
  0xd5f9e5e00915e728U, 0xd12dfd0902d0ebeaU, 0x130cf61219b7d3ddU, 0x11d07fdd6ba0002U,
  0x9e6fe33e9edfa05U, 0x1b05ef1ae92dddc6U, 0xf6f3f812ef32e9e2U, 0xd801e033f91dede5U,
  0x1b0d41beef3eb00U, 0xfad4fdedece0f73bU, 0xb1f109280f0508e7U, 0xc313eae1f800ea05U,
  0xae6e0fbc6ed08dcU, 0x10caf1e40313dfe1U, 0x2af60410e9c00ad5U, 0xfa13f3e11cea0105U,
  0xd9ea1423c615c7edU, 0xf2f60fe9f205e7dbU, 0x9f2fb0add050b03U, 0xf90a320f05d815efU,
  0x3e4e30905fc0e0cU, 0xbfede7efef22dae4U, 0x17fbef06d81119eeU, 0xe3ece601f6ff0bf9U,
  0xf00e0a16dbfbd5dbU, 0xedea12de11d5f412U, 0x19d912f9fb2322d1U, 0xfc09f51c1a051800U,
  0xc110b0ff4ede6b7U, 0xfdfe00dbf2eff0c3U, 0x503dbddfc010addU, 0xd905f8ee0d13fceeU,
  0xfef2ecfa10ee030eU, 0x1cc5f42605260be1U, 0xdc0b13e4f521ede1U, 0x21eb05f117e4d7b5U,
  0xe8ecf0efd7142a10U, 0x243b061018d7f019U, 0x30ae90a0def250dU, 0xfdcb08dd0729e3f7U,
  0xe4e81ffa06ea1013U, 0xecf5f000101129d9U, 0x25ebdf00160f0bf5U, 0x290607f0e0f0db0bU,
  0xf1bffe22614e3ecU, 0x1229eae207f7e8d8U, 0xfcf323241df313f4U, 0xea151fe909cc05e2U,
  0xd7292acde3f505d0U, 0xfc1702f60be11026U, 0x1315fde704032109U, 0xb2a0d10f433cff5U,
  0xf1efecd02301cecdU, 0x10f405f6f81efff7U, 0x2b1151900062107U, 0x120203fd14f41d0bU,
  0x200202e6cef6fff8U, 0xf3dbae2fc0adefbU, 0x4e5ebdbe6ebdaf8U, 0xefae11f9f001dffeU,
  0x5f2f1ef26e31613U, 0xd1dd0c02bef3e0e1U, 0x9030df7ece81fU, 0xf2fcef0b0e04dac0U,
  0xd9eee845fee43d25U, 0xdb34e60a0d18f11bU, 0x2fac1e7be03dbf5U, 0xf20eed7f3e8e1e3U,
  0xe115cf2504f912f7U, 0xf60516f6fdeaedebU, 0xfdeb0510e2e7181cU, 0xe60ee60938f5fef7U,
  0xd20efc1dce01e24U, 0xe901e1e40df708c5U, 0xd30c061a09030dfbU, 0xfa15280e08f90e09U,
  0x2ddd8d4dfd31e2cU, 0xfcdfdefb100ce3f2U, 0x1c13cf33ec1afe2eU, 0x4eff707110c0fdfU,
  0xf9d0951c1cfdffb3U, 0x52909a6ebefe6efU, 0x704e7ddeaddfb1eU, 0x32745f623fb120eU,
  0xb6e212c7fa0515e6U, 0xfc34fbf8e70c2dd1U, 0x903060bf206e509U, 0x18ed02e13c130409U,
  0xecc351fe0aedfee1U, 0xe21ff7d7d9d9f1fcU, 0xf60122242d10d400U, 0x40bfef3f22810c0U,
  0xead916dee8f2fa16U, 0xfdcfecd507a20d09U, 0xfe3dbe72005e9dcU, 0x4201f2cecdd2928U,
  0x40ceff812d91cd2U, 0x50310dc15f2e704U, 0x6f6f3dbdefbf4f9U, 0x12d4013d0ce10602U,
  0xdde00dee01031128U, 0x11c6c5e609150fe7U, 0xd50e0feb05def1b5U, 0xf3f5ea0b040a1efbU,
  0xe4e824b4f40223adU, 0x13ea0bf310ebddeeU, 0xdf0f629df00e700U, 0xa0013fffa2ee709U,
  0x1f14d127fcf4f8d1U, 0xf4210f2b3501f214U, 0xefcd09ca1100caU, 0xbfc14dc08c0f9e0U,
  0xff20e2222dbd01dU, 0xfb231efb04100ed2U, 0xeabfed1bf6d7f700U, 0x24fe07f40c1c1f4fU,
  0x1409f7f7fa18ebe4U, 0x3f80e11c9131eefU, 0xe3feda10f7f3dab7U, 0xf41bfcced7f3fdceU,
  0x1cdb1be3e8e5f50dU, 0xd50bdc0e111623e2U, 0xdcffebe9d1140a03U, 0xf9fe05e23bf117c4U,
  0xf4e5ebdfe7ebeeffU, 0x2ad9e5200dec1ddfU, 0x183013dbdad603e3U, 0x1504c5f3cef52bdeU,
  0xd5fcfcfbfafef1f0U, 0xebfde40efafb03e9U, 0xe6fc07f00be5e9f0U, 0xfaf00dbcf0ea2609U,
  0x1b512df16e3e501U, 0xfb23f80729f92e17U, 0xe90fc328ca1e05d2U, 0xc1eeddedf1e33624U,
  0x15e5d11307eef603U, 0xe4cb3ed000e1e4dcU, 0x6c7f9f100031326U, 0xbbeafc25e0da17e8U,
  0xe017f1ef15ebec2bU, 0xd806cef7f4d31dd7U, 0xfb13041814f712ccU, 0xd7ecfa06eee2e3e9U,
  0xecf7071dfa12e600U, 0xbdf31111fbe015ffU, 0xe63eeee0bdd9160aU, 0xfcd3decfee0c03e5U,
  0xc2ebc209d4e51434U, 0xfb12fcf62ae9f0d6U, 0xf3cedf02db0bdb1cU, 0x101c15e0c3f215eaU,
  0xe00fcdf5fcd422f5U, 0xf106e50bdff52531U, 0xd0e6dce3e0f50c01U, 0xebea1af3d3eaffe2U,
  0xf2e5022207f3df06U, 0xddfbf010e0dbcdffU, 0xeb00e9f0fe1fe3eaU, 0xffead2f7eeda1b10U,
  0x170b0a1f111aef24U, 0x15fbea10be24c0fdU, 0xe126e6f9081119f7U, 0xaebe85cf0e2f3cbU,
  0xaccdf10f5e40308U, 0xee0719fa1931e01dU, 0xf60eca1201dc021aU, 0xea20f5d7cffa1831U,
  0x29ec20f5f90bf3fcU, 0x16d41b9f07180e0dU, 0x2cccacd0f002cf3U, 0xe8d211ec03e42ad9U,
  0xfd1b2407f406f5d8U, 0x4f1fd0404f2e3d2U, 0x81826d9ecdf1413U, 0x1c0bc83417fef8eaU,
  0x2135efe50415e7f1U, 0x1be206e23bd407e2U, 0x25ee1afedc0feee2U, 0xe2d8020716f9ed10U,
  0xeaf7e821f120edecU, 0x4314b910e1d1cff9U, 0x4aff7c3fad6d3f2U, 0xfd19cfdffdebdc1cU,
  0x1b0bf1e010e9fd0dU, 0xe6300fdec72a09ecU, 0xe91d13f30406f4e4U, 0x80ef7ebc5f0f8f8U,
  0xf0f9cdded8c71becU, 0x5f3ea1617ded6c1U, 0xf0f0f1d50405f8e7U, 0x219e704dc1dd311U,
  0xeb00ce05d7021bf8U, 0x1e2409f158f2fd01U, 0xedcdbaeffdefcb0bU, 0xf70a03eaeff6ffcaU,
  0x1cdff0d914e91d08U, 0xe72bf0faf709e5f0U, 0xe6f21f00f5fb0e22U, 0xe319bce2dcfbf9fbU,
  0x16e8feda3504f8U, 0xed4212d80919190aU, 0x2530060521fbd205U, 0xed140418c3f8fcU,
  0x2fff9fd03050500U, 0xfbfcfc02fe02fffcU, 0xfdff00020205fdU, 0xfffdfd03ff01fcU,
  0xfd05fffe0302fc01U, 0x2fafbfc04fe0101U, 0xfdfc04fbfdf90106U, 0x6070002ff0004fbU,
  0xfbfcfbfc06fdfcffU, 0xfffefefd000103feU, 0x1fffe000302f8feU, 0xf80000fcfffe0103U,
  0x102fafa0105fdffU, 0x5fc01fe03fa0003U, 0xfdfdfb0301030005U, 0xfefafc040100f8ffU,
  0x1fd01fcfb04f9U, 0x203020000fffff9U, 0xfa02fcfa03fd03f9U, 0x600030001fdf903U,
  0xfefffcfbff03fcfeU, 0x1fcff0401ff0302U, 0xfa01fd03ff00f8U, 0xf9fdfffff7fffffdU,
  0xfcfdfc0102fafbf7U, 0x4010103fbf9fbU, 0xfdf9ff00f9fefb01U, 0xfb03fbfefbfd01feU,
  0x2ff04fbfcfefdfdU, 0xfcfffffd0100ff00U, 0xfafff8fd06fbf9U, 0xfd01fefd040501f9U,
  0xf80506fcfefcf8fcU, 0x203fcfcfffffefeU, 0xfd02fe0004fefdfeU, 0x4faff04f8ff03f9U,
  0xfcfffffb00fdfc01U, 0xfbfcfafc0000f9fdU, 0xf902050102fa0400U, 0xfc050001f70302feU,
  0xfdfbf904fbf7fafdU, 0x20100fefb04fe01U, 0xfffefefb04fef903U, 0xfffe0200fefdfc03U,
  0xf8fffefffe03fffaU, 0xfdfff704fbfe0301U, 0xfc0100fffafbfcffU, 0xfefdff000005fdU,
  0xfe05fffefe010004U, 0xf9f703f70501fa04U, 0x5fefefc030003U, 0x103fa02fa040101U,
  0xfb02fafc06fcfcfcU, 0xf8fafefdf9fefb08U, 0xfefffcfb00fffefaU, 0xff03ff0500f8f5fcU,
  0x1fd00000601ff04U, 0xfc000100ff04fe03U, 0xfdfd0104f8fbfff8U, 0x5fe000301fdf8fbU,
  0x202fffcfffdfafdU, 0xfef805fffafe00fcU, 0xfdfe00f801fefb05U, 0xfefdfbfbfcfffdffU,
  0x70d02f700f2eaf7U, 0xf4feeff9f90bfef9U, 0xc0003f8f0f906f4U, 0xfff7090515f71b10U,
  0xff0412f0f2fedff4U, 0xffffed03f0fff2fcU, 0xf8f00907f7ef09f5U, 0xe705f6f6fb011903U,
  0xfef7fef201fa05f8U, 0xfbe703fbfbfcea10U, 0xf800f7faf3fd03f8U, 0xfffff316fef8f1fcU,
  0xf203f9f3f6faf8feU, 0xf400f90506f4f8f7U, 0xcf5feea1bf9eff0U, 0x9f4fbfa041017f8U,
  0x601040508fb05f1U, 0xef01020405ebf7fbU, 0xfe03f8f5f1ff02f5U, 0xfdf702f2e6ecf5f2U,
  0xfff105f6fb01f20aU, 0xfe01f1f6f311f501U, 0xfa03f8f6fe18fdf1U, 0xf8fafcfafef8f5f1U,
  0xefe8dffffe05ff1bU, 0xf6fdfe08f3000d0fU, 0xe904010108e9fcf9U, 0xfdfb03f6fe06fefaU,
  0xf4feeef1f4091aU, 0xf509fc04fffffcU, 0x11f305f70c03fdfaU, 0xf7fe0ef6f0ff0503U,
  0xef00fcf8e9f1fff1U, 0x6f012f2feedf8f7U, 0xfa16fa06faf7f2U, 0xf8fff5faf4f201f9U,
  0xf4f607f6f20506f6U, 0xf5fff412fbf6f606U, 0xf3f8ee020b0506ebU, 0xf10f00f303fbf7eaU,
  0xfef7f9fbf8fef5f0U, 0xfcf4fdf7f206f905U, 0xfae0ff04f8fdf7efU, 0xf1fe07fe09000a08U,
  0xdeffbfef8f5fdU, 0xd0903f5f10b04fcU, 0x1f6eff9f3faf41bU, 0x5f30cf60ffce906U,
  0xbfaf7f80efd03fcU, 0xed0306fc01f801f4U, 0xd110300f3fdf5f9U, 0xc15090001f8040dU,
  0xeefbf807eef9fd01U, 0xf4eaf8fbff05ef05U, 0x302e6f6f5fef8eeU, 0xf3f5f8fd09fe08f6U,
  0xf8edebfbf3f4fefcU, 0xeffdf9ee10fb0307U, 0xbfef5f900e904f1U, 0xecfde902fffbfa09U,
  0xbfdedf701f6f807U, 0xfff007020aedfd00U, 0xf20e000202eb02f7U, 0xf20003eafd080806U,
  0xa02c0e0ea19cb14U, 0x1daecf6f10fffe2U, 0x262b061f01f0020bU, 0x4e90204e5e7f3f4U,
  0xf20af31603071efcU, 0x131ad1e208f9e315U, 0xf31013d6f211eefbU, 0x7ebd106f2d2220cU,
  0xed080517e3e71efcU, 0xda11ff12f213090bU, 0x321ddf0f400ba2dU, 0x12f7f4f7d4dcee03U,
  0x60cdc11e9010408U, 0x7050b11fdbdc9f4U, 0x50b1cdd111ff5edU, 0x40c06eb1c070ee5U,
  0xe5081004f0fc13dcU, 0xcdfb20fffcfac5e3U, 0x1805e620df03d921U, 0xf050cef0300f4d5U,
  0xe91ee4f2050f001eU, 0x513fde9fce70907U, 0xaeb0613e4f8fa25U, 0xf9f916fc05f9e3fdU,
  0xf5ee24efeefa06f8U, 0x8f7e8f420fd0714U, 0xb05f814f01302d6U, 0xd3000bf3ec0102ecU,
  0xec14f5d3ca08c5f6U, 0x140dfcf8e9f010f3U, 0xd0dbf60bf9f8db11U, 0xeaf0fcf2fbd3101eU,
  0xe6f41d22e412f502U, 0x13ed07d705dd1d0bU, 0xe7d80424f019f5f1U, 0xece90df2ff030ef4U,
  0x507eaf8dff80f16U, 0x9fb08100f0afef2U, 0xfa0f17ef1c0317fbU, 0xd50bdfe60407fbf7U,
  0xd5cc0805040dec0eU, 0xbec091bfbd4e205U, 0xf4fe0023d7f01c02U, 0xede22bd80d10fcb7U,
  0x21a03f11522fefbU, 0xd90316f3d209f7ccU, 0x37ebfd0724fce71aU, 0xf10b14ff1517150dU,
  0xecf2ec10f7f40b33U, 0x180cddfcecfbfed4U, 0xeff07f7f7f7bfaaU, 0xfde60809fa08f509U,
  0x9f9ed02effbe80bU, 0xfcf81a0b00d8de00U, 0xfcfbe00a07f6fb00U, 0xec02e3121c000f14U,
  0x18fccefdf1d001c7U, 0x4043bd8e00fdbfcU, 0xef26e7def8f9f805U, 0xd0af3fd05edf8e4U,
  0xd30402ef0bfdff0eU, 0xef030706f91914d7U, 0xeefcf009da161bedU, 0xd3f11cf1f60cf2e8U,
  0xdf12ee0f6ebf9ebU, 0xdfed3e1c80be9f2U, 0xe4dae2cfdc0f1d07U, 0x2203ebe50713f5f7U,
  0x4e8140ce906020dU, 0x1015f9fff5f6eee3U, 0xe7d90d1e19f7effdU, 0xce91bf4fd07ebffU,
  0x206dce4fb2ae60dU, 0xf7cd12efeb02e3eeU, 0xe10be4daeae7ff22U, 0x110fdf50b04f3f7U,
  0xfd0e1600f5fc09f9U, 0xfc00e7f2f6de2c01U, 0xe732fcea2416eafbU, 0x22f32406e8f9f411U,
  0xef14fdf1e7c4fa04U, 0xe4f70707ffdd04d3U, 0xc0c02d6f4c625cbU, 0x2bdc01fb0305de1aU,
  0xf3f907d9d90c0102U, 0xe08dcd11f0915f6U, 0x50605eff4120505U, 0xdd2214072df60ef2U,
  0xe3effc00fdfaf5f8U, 0x5ecfe1322ebce0eU, 0xd00e6ecfcdf0aefU, 0xddfff2f5dfe2d413U,
  0x1829efd402ed0303U, 0x17ff0bdb2221deedU, 0xf1f50118dfffe606U, 0xe4e5e51fffe0e718U,
  0xe7f203faf2f70efeU, 0xd4fdfff0febecffcU, 0xea1b0512fe03000aU, 0xcefe20d313f8da0aU,
  0xe0e0351825e7fce9U, 0x12ed1c07fe1714feU, 0x121435f5e1f43210U, 0xe9f4e1eef7c70cf4U,
  0x12ecf5d4b901fff9U, 0xefd9e105f2ef09eeU, 0x20dd0beafad7edf9U, 0xe9f2eb150b3ed5c4U,
  0xede4d51a38fffe16U, 0x906fcf60218fb13U, 0xf22401f205f4e1f3U, 0x10ef12c5f20cd10cU,
  0x9fc062f0ef9061eU, 0xeaefd5260a20de07U, 0x33ec04e6eee3080cU, 0x7e0dc1001ece8daU,
  0xfe0017eacb04d314U, 0xdc213c12e4ded6fdU, 0xfbdc0907f7dd2301U, 0xbd9f3dee2dcd7f0U,
  0xcc07f9fd0814ecd9U, 0xe3e4c813f22408f1U, 0xe2fae90108ff17efU, 0xffe3daeffff81c01U,
  0x9edd30ae41ff2ecU, 0xea27efec2923fd04U, 0x1e0ce415e503e13bU, 0xe4e0d51023feb90dU,
  0x300fb01040004fdU, 0xfcfaff06fefdfffdU, 0x202fe010404feU, 0x2faff02fe0105fdU,
  0xfe01f7fdfbfffbfcU, 0x601fcf905fcfefcU, 0xfafe00fdfd030501U, 0xfffd02f7fdfdfdffU,
  0xfffd04fc030300fbU, 0xff0602ff0005feffU, 0x6fefbfafdf7fef6U, 0xfaff04ff03fef9fcU,
  0xfffefc03fcfff803U, 0x30103f9f7fbfdfbU, 0xfcffff010004fffbU, 0x5060305000205U,
  0xfcfafbfffffcff01U, 0x1fdfffe00fe0301U, 0xfdfd0004ff01fdf9U, 0x3fffbfffffefdfeU,
  0xfdfe0001f8fffd05U, 0xf901fbfafc030202U, 0xfffcfd00030004U, 0xfafefcfc000104faU,
  0xf8f6fdfef7fefa00U, 0xfefd00ff030000faU, 0x1fdfe03fd03fb02U, 0xfe0005fa06fbf8f8U,
  0x2fdfd01fbfe0000U, 0xff00fafafcfbfe01U, 0xfc05fe03f9fffa01U, 0xff0204fafdfc03fbU,
  0x6fffc0100fb01fbU, 0x2fdf80200fdfa02U, 0x3f90505f802fe03U, 0xfcf803fa01fcfb01U,
  0xfdfe05fe010500f7U, 0xff00fefefff8faffU, 0xfdfffc0003fcfaf8U, 0x1fc0005fc05fffeU,
  0x3fb0200fd0200fbU, 0xfc00fcfdfc000301U, 0xf7fcfffd04fcU, 0xfcf8010306fe06feU,
  0xfbf7fdfff6fcU, 0xf8fe00fffffa0300U, 0xfff703fffffdfef7U, 0xf804fefd02fc00fdU,
  0xfcfdfdfbfefc02U, 0xfb01ffff05fa04feU, 0xfff9fb0500fffff9U, 0xff05fefefe00fcffU,
  0x1fdfc010005ffU, 0xfafbfefffefdf702U, 0xf70401fd0402fd00U, 0x1fb01f903020303U,
  0xfffe03f70200fdfdU, 0xfefefafefdfaf9feU, 0x10201fdfdf9feU, 0xf7fd0000f802fcfaU,
  0xfffc03f902fe02fdU, 0x30603fafbfffaU, 0xfe0601fff9f802fcU, 0xfffcfefefbfe00U,
  0xf3c3e806e019cceeU, 0x4ebfb0019f3f806U, 0xf9d5e300d2def8f3U, 0x31307f51713fb02U,
  0x9dbfa04f3fefce1U, 0xf4f4d6eff40a22eeU, 0xf7f7eee100022ae8U, 0x8eedc000509f105U,
  0xdd0425ece210f9fbU, 0x4f2de13e10f00f3U, 0xf6f4f7d1deede501U, 0xf5df1504def6f9f1U,
  0x20ce7d4e823101dU, 0x417ee2cea1806e4U, 0xfff7fa00f9f301f5U, 0xfa19edd8d62b11eaU,
  0x13ffe20618d30ef8U, 0xd4f8ebeff7fbe9edU, 0xc6091f0101da1606U, 0xe3f30dddf6e902e4U,
  0xfafb08f3e81209dbU, 0x30bd1db09f71d21U, 0xdbede319fcf61127U, 0xcbedf3ecf8ebe3f4U,
  0xf3f2b9e1e2d92afdU, 0x23d7ece70129060aU, 0xf7f9f1fdeddb1f24U, 0xf4ecfd0203fb11ebU,
  0xfae60afbf4f9f4eaU, 0xe811f5fef3e10bf7U, 0xeed91611ddeae3f5U, 0x1ee7f6fe0319030dU,
  0xeff0011110e5e3e1U, 0xe0ec81114f10919U, 0xc4f517be1f06ece4U, 0xef04e5ee0ee824edU,
  0xe30901e7ed09fad9U, 0xf11a0805e5f30a14U, 0x1803d912ea06fc16U, 0x19fbf516fa180eeeU,
  0x1c08dbe40e170d00U, 0xeff60fdcd1d8dbe2U, 0x7d509e21130f1deU, 0xfef902e3f30debU,
  0xf6ecf601db270de3U, 0x3fcf311edcd020cU, 0xe5fdeafcdfeaf905U, 0x90800f007e1d5ebU,
  0x1f0eff0ae8f3e514U, 0x1111d0ef3f2fd19U, 0x14f0ed07fae8dcfdU, 0xdb1cfaf713030bd2U,
  0xdce4130113d7f508U, 0xf9efe335faf712e5U, 0xdcd1d818ebe01b0aU, 0xdfcf8ebe0060304U,
  0xcaeb2cf6f2cae406U, 0xef142514f0decffdU, 0xf000e818f3101af1U, 0xe0d9e4f808f9e0dcU,
  0xdb03fdf707fafdf6U, 0x1cf9e9d5eaff14efU, 0x5f60ed9fdf306f0U, 0xee0feb2128eafe05U,
  0xcc39d80e020fbc03U, 0xce04f6f204cdefb3U, 0x24051614eff12201U, 0x20d27c607bdf1f8U,
  0xace522eeeef50bfcU, 0x341160f33cdfd21U, 0xd2fda60fbb212229U, 0xe2b7e10de10cf70bU,
  0xc19d121e50525f7U, 0x15fef2e1f9b8050cU, 0xe30fd0d9f6e4f510U, 0x1ee32a14d41af2f7U,
  0x17de28e3cfdbd2f4U, 0xaf24c90ce0db18fcU, 0xc0c052118f517f9U, 0x15271ed0cbe234f1U,
  0xe6f7f81002fdf523U, 0xfa0bdbe1e9d2b9d8U, 0xfa0ce61625e62c14U, 0xd4ed25f9ea050ce4U,
  0x97e8e5db072d0cd4U, 0xe1cf1315031f16ceU, 0x1ff1cd08ff20ea00U, 0xd3091df7ce162515U,
  0x3dc3081be40af3efU, 0x9c9a5d31700ed15U, 0xd21ae518f3eacef9U, 0xf31b27040b1cff07U,
  0x1e0aefdc10e012baU, 0x56230007f91624e3U, 0x4e3e7dc1df20e0fU, 0x2417dbaadcddf9fbU,
  0xe62ce3f70aecf2ecU, 0x2507141ed41a21cbU, 0xfcfbe8e611c5dd0dU, 0xe2fb030de1f3dfdbU,
  0xed1615012ae0befdU, 0xbf502ce1a0ddde9U, 0xfbfa14f0d312bfd5U, 0x1ceedf90616d2cdU,
  0xd800f3ff01e22befU, 0xffd7caded3db27deU, 0xcd1cdea07f50b29U, 0xe20bb0e1f1e6f4ffU,
  0xe415f3e6e52122U, 0xb8270a24e5eef4b9U, 0xfb10110d2fedead8U, 0xdb3004e8cee2e30aU,
  0xe7f004fed8ef1d13U, 0x2ed4d0f5fdce0706U, 0xcffac8fa0ed2cfebU, 0xe5eafe0923e0d615U,
  0xf230fae60f0d051eU, 0xe2cdebf5211b14d9U, 0xe1f4fbd1e6b21e32U, 0x3f603e3f9d1f5f4U,
  0x2d70ed9bee52d0fU, 0xdfe123f650bccdb5U, 0xf2f625e5f1cf0a3cU, 0xec1acc1620d2eafdU,
  0xf7cadb0b1b3a2108U, 0xe80e3e1824442e14U, 0xb0dfddfeffcd6fbU, 0x2116ce1f180af9cdU,
  0xe5010efc0d0001f5U, 0xf3f8fbfbfb1509f1U, 0x13eeeafafafa10edU, 0xfe0400e906fcf0edU,
  0xfc05f9ef0bfcf7fdU, 0xec08f1faff04fd0dU, 0x204f8f3fe131206U, 0x150006f804fdf801U,
  0xf6ebfef6fc07f9f9U, 0x7fef707fcfff910U, 0xf8fbea09031515fdU, 0xf9fa0301faf2f9ebU,
  0xfffef4fcecfdfff9U, 0xfdf8f9ff12edee01U, 0x8edf7ecfbf1fafcU, 0xf509fe2607f501fcU,
  0xfc0ef1fd0ff30904U, 0xfaf2f1ff1afde9edU, 0x7f7fde7f4f3ef09U, 0xe8ec02e7fdfa0208U,
  0xec03ebfbfef70de8U, 0xfaf9f3ee05e70bfaU, 0x4f5f6f50807eef6U, 0xfa05f8f8041706f5U,
  0xe3f4ef08f9fdf6f6U, 0xfe0207f7eef5f6ffU, 0xf5fe010b0102f3deU, 0xf90ffbfc070df9fdU,
  0xfd12edf8fdf4e70bU, 0xfd0f04f5f604fcfbU, 0xb0504fa0ceb00f2U, 0x2eafa0507f90ef1U,
  0x12fb07fdfbe9f2f1U, 0xf5f0fc00ede90a01U, 0xd00fbf407f7feU, 0xf0e2db02f6f7f911U,
  0xedf6090402f6f605U, 0xee02eafcf116ed08U, 0xf8f707f6eff303eeU, 0xf702f3ff01fef808U,
  0x3f400ed2202fffeU, 0xf5fa00fdf0e80a17U, 0xf202d501f6f4fffdU, 0xf80beafa0df806eeU,
  0xedf1ff06fa1107U, 0xff0ae5fa05f0010eU, 0xb0a21f0f3ec02f3U, 0xf615fbf4f2fafcfaU,
  0x8f2f9020cffef08U, 0xfdedf9f5f200f2e5U, 0x4f4f1e902eb0af8U, 0xf4f5f5e701080404U,
  0xf2f802f5efe8fff3U, 0xeefa08fc00fde904U, 0x16f4f50118f4f706U, 0xf4fcf616fce313e4U,
  0xaeced05f8f506f9U, 0x18e707f10302f2efU, 0xf20afcf404f701fcU, 0xff11f800f31100f8U,
  0xf5ea01ffef170d00U, 0xfc02f8fdf8f3f4f7U, 0x1fcf203f90001ffU, 0xf6010d07f8fee609U,
  0xc19dae90e26e3U, 0x32e1eae613feeceeU, 0xfa1af105e809e9daU, 0x17ecfe1e03d3f3d0U,
  0xb1dfadff5dcca12U, 0xf6102de4eaf503f7U, 0x24edc4f5d5161330U, 0x1fdb17d3eaf6f520U,
  0x15f801dcf71804e8U, 0x9c212010fec100cU, 0xc618e3ce0e1bdeedU, 0xf406051c051a01e6U,
  0xf61cb7e805220c15U, 0x18182534f4eee2ddU, 0x26e40ef813192502U, 0xd7fdf1fdf60b15dcU,
  0xebe4ddd90111dd02U, 0xe109e62612c2d4e3U, 0xf4f0f213d624f4faU, 0x8eff725fadac3deU,
  0xe50ffcb5e629cf20U, 0xed16ec08f6b3e404U, 0xc3fb040621faff27U, 0xddfbfbe324e3fff9U,
  0xf511faf9ed01caebU, 0xe7e6edd3dffbfa0bU, 0x132cff111c39e80eU, 0xd2dee20ffbee270fU,
  0xf9feef11f5c213eeU, 0xdfcb1b0f27db05e2U, 0xc4c5e0df111be50fU, 0xec15d8fc1b11fc04U,
  0xed00fff91620f90aU, 0xfcfff50304dffbfdU, 0xbeb2f8e7fe04ef1dU, 0x130ce7dc04ed1425U,
  0xf0f6dbcdcadc02ffU, 0x16e1e6391828051bU, 0xdd0bfa0b09bbc1dbU, 0xf9fa0b31fad6bcfaU,
  0xf3021003fdf31e18U, 0xef2117df0502bb1bU, 0xfdf2dee612c401f9U, 0xf4210f08f9e911f8U,
  0x1412030503f3feefU, 0xe2fc11f029eb1ad4U, 0xd20c041eeac41dd9U, 0xcedbd80adcd91ff5U,
  0xf1082be446f11839U, 0xc8fd04081109c7c3U, 0x706fef8e3eded31U, 0xdcf0f62301f8c8e4U,
  0xd3f49bf5c3c30fedU, 0xf8ee09150b1dfc0dU, 0x11f6ed0df20a09e5U, 0xdbe6f311ddff13e6U,
  0x1c0712fce71026e3U, 0x1ed0726142900f6U, 0x501e21df9d5e911U, 0x2101cd0123dbfde1U,
  0xf41f103dcf60616U, 0xf52de2f3eaf9c9f6U, 0xec011ebf17f31afcU, 0xebe20efc0ffeede5U,
  0xfef6e801fbcee706U, 0x313edf3fcfdecf5U, 0x1af2fe01f9f81607U, 0xfcf607ea00e800d9U,
  0xef222fdf20402c3U, 0xeee1f6fce91ee013U, 0x212fd03fee9f4e3U, 0xfa0be400fa1415ebU,
  0xdeea052be91dcf02U, 0xf302d9ed0213e900U, 0xeafce9e2082a1af3U, 0xe9f7ddf41ceb06f3U,
  0x1f40102f5fff9f5U, 0xfffdff08e9fd0de6U, 0x8e7f2f6fcdfd70cU, 0xfe20eae514e0000eU,
  0xfc04fb0d0fffef12U, 0xec12f6f5e60005f3U, 0xd180b16d8f91606U, 0xf81127eaf7f4c505U,
  0xeff402fc111bfa09U, 0xe8e31eece0f9e90aU, 0xb4cfd8f9e8f8bdf9U, 0xedf308f4f937eabdU,
  0xf8f51113d005f1f9U, 0xe90ae1e7f213e904U, 0x6ecebf0f9e2e819U, 0x27f6ee04fe21f6f9U,
  0xf904e0ecfbf800e2U, 0x1e3ff0bfefbf4f8U, 0xfe5e1f5fff50722U, 0xa11e0ecf8e7d60eU,
  0x214d3e8dbe5e0f0U, 0xe802fc0b1a180afdU, 0xdb10eff1edf610edU, 0xdee521e4e820fadbU,
  0x2f5f70519190ae6U, 0xfaf803f2db18eb02U, 0xeb1f0deaeb1ef601U, 0xe6dedad5e3e4dbe4U,
  0xfce2facbedfb10feU, 0x406fd03e0ceecf6U, 0xf7f402e2e9141d0eU, 0xcd11e41205e012U,
  0xdf9ede5ebe4f5f5U, 0xf2e92cf112faf437U, 0xcfff16f6eef6fef5U, 0x5e7f30712fdef01U,
  0xede8fd04ebfdfc3cU, 0xeef5fafdebebe7e6U, 0xfaeaf532e804e502U, 0xdb07ff12f5e4edf0U,
  0xfff01df60ae812f3U, 0xe9f703dcd520e5f0U, 0xfeecf3f0ede3f5e0U, 0xf3d60a1623fbf0f1U,
  0xf8dc15ecf919e6f9U, 0xf601002909edf1f1U, 0xee5ff0207e0ebcaU, 0x716efe3f318f4dbU,
  0xc7f20a03fb280c0aU, 0x17f5f9f5cf0216ccU, 0xf516c7f701240ff8U, 0xeaf0edfd01fdc3ffU,
  0x30200fffcfef8feU, 0x605f9f3eff80502U, 0xff0500fcfa06f9feU, 0x2eefffbeef9f3f7U,
  0x3fef50001fb0ef8U, 0xfefdf3f8fbf1fff9U, 0xf302f3f9fefafefcU, 0xcff03f50ffaf502U,
  0xf5f107fdfffbf100U, 0xfcfc00fff4f8fcf6U, 0xf5fbfefcf7071301U, 0xf8fdf6fdf90deefeU,
  0x1fefcfdf2080305U, 0xfefefcfdedfcfdfcU, 0xf9fd01fdf604f7faU, 0x3f806fd010302f8U,
  0xfbff0000f4f9fc11U, 0xfbfb02f500fff9fdU, 0xf6f8fbfcfd05f9f3U, 0xff00fd16f1f7fc01U,
  0x5fa0205fbf7fcU, 0xf9fdfefdfb010000U, 0xf003fafcf9f9f8faU, 0xf700f7ff04f9f8f0U,
  0xfdff020b03f307U, 0xfafe00fa0506fffaU, 0xfc000103f80afa09U, 0xcfe02f6fdfafbfeU,
  0xf6fefef9feeff4f2U, 0xf70602fe0d03f8f8U, 0xfcf605fffa070006U, 0xfdfef6faf5fbf4fcU,
  0xfff5f9fd02f9f6fbU, 0x102f30bf9fef8f5U, 0x30105feeff9fe18U, 0xfdf2f6fe01f5fff7U,
  0xf6f30efdfdfc00f8U, 0x1f9f7090b04f8fcU, 0xf100fbfc0400f807U, 0x6f9f6f802f706fbU,
  0xfbfcfe03fcfbf9faU, 0xf0fef4010101eff6U, 0xf0fb0afdf805fdffU, 0xf704f1fbf9fbf9f4U,
  0xfc05fe0000f9f90aU, 0xfdfaf706fb05f802U, 0xf8fdf80703030cU, 0xd0903fffcfc08f9U,
  0xf102050e0a0c0406U, 0xfdfffdfef8f9faf2U, 0x402fbfc01fef6U, 0xf7fcf9f8fd06f201U,
  0xf401fcf705f2fb02U, 0xb010601fdfafeffU, 0xf9fb02fbfbf2fbfaU, 0xa0afcfefcfaf9fdU,
  0xf407f4fef7f9fffcU, 0xfafafdfeffff0af9U, 0xfd06fdf4ff12f4edU, 0xfbf8faf9f60c02f7U,
  0xf409f2f702f7ff04U, 0xfff702fafef9f910U, 0xfb08f80002f8fbfaU, 0xfd00f9f200fc0002U,
  0xf009e8d9ff0927dbU, 0xcf1a0317cce904f1U, 0x111f1907e9ddf104U, 0xd2e7f7fd33d20618U,
  0x2110c0ff2daeb10U, 0x2dfee8c7daf3f41aU, 0x9153302ccf5deefU, 0xe8dccefaf210c5e0U,
  0xf813edf0dbff0aeaU, 0xe11003e5c7ecdae7U, 0xfee0f5ec0c1b00f0U, 0xf136fdd3070c17eeU,
  0xdf0c0b1c18d4f0c5U, 0xe41f0801e71a0004U, 0xf8e2ccf0e201f3edU, 0xf4d621f003f9fc2eU,
  0xd090513ea0cda08U, 0x18de0be5002a06f9U, 0xe71327d9c81be4f7U, 0xccc2040fc8fdfa0aU,
  0x16dedd0607f80310U, 0xfd1a090bf6ee02e5U, 0xf311de3f1414e7f6U, 0x1e6f8d413f0f3fbU,
  0xedc613faf9e91d01U, 0xd3e8e80a23fbdbeaU, 0x19c60f03eee8f8e1U, 0x812040df20ff607U,
  0xb60e062610d7e608U, 0x2fd8060af1031800U, 0xfe2bf2f4e4d8fbdaU, 0xe11ae5d5efd1e4ddU,
  0x15f714e609320c03U, 0xb2e609ecd81b07fdU, 0x1210dae809eb08e2U, 0xea120803d7e617dfU,
  0xcdcea2ff3171709U, 0x9f932290e0ce8edU, 0x14eeea060af9ff12U, 0xfd1b12ed04eff80fU,
  0xed110105cf1edbe5U, 0xc92abd0c0e000200U, 0xaecf12a03e7f104U, 0xeb0fcc16f90d231dU,
  0x1defe2fbf1f51fffU, 0xe3021ce6f0ff07fcU, 0x6ec0ded03f91011U, 0xc24ecea0b0f0ddcU,
  0xf22b23fe1433fa1eU, 0xe3d700f7e7140cdfU, 0x1710e0e3ee21f914U, 0x4ea0803eb10e500U,
  0xe7f9d8d2f8f1ff0bU, 0x80ffddce428f007U, 0x7e316e91e03f7fbU, 0xe8eafdfe0a3b0509U,
  0xf2ce1c0506fb18faU, 0x191b1d110b08f0d6U, 0xbfadc1ae2f325edU, 0xf0eb1ef6fd20ede7U,
  0xe8efecff001a1e07U, 0xe50110fe100f0b17U, 0xede70908c6f60d14U, 0xf6152907e623e628U,
  0xfefefe0402fb0405U, 0xfafbf6fc08f6fe01U, 0xf7f9fdf7070107fcU, 0x1f2f90200faf8f6U,
  0xf9fef60dfaf2e8feU, 0xf4f706fefafff7fcU, 0xfbfff8f502fbf5feU, 0xfc0006fdfd00f706U,
  0xf4ebf7fbf7fc0afeU, 0x2f9fdf9fd071301U, 0xfff4f8fcfe13f4f4U, 0xf3fbf6fefdf7f7fbU,
  0xf9fb0ffbfef603faU, 0xf4f708f31406edfbU, 0xf8faf8fd08fe00feU, 0xfbfdfffcfcfe01ffU,
  0xf7fee7fbfa06e906U, 0xfb07fcf9fffaef03U, 0xfd0bfcf3f604faf9U, 0x91bfdf6f8000002U,
  0x5f503faf6f9f7f7U, 0x6f7fffc0af9f209U, 0x14fa0afffb10ecfdU, 0xfdfc02fa05f4fbffU,
  0xf1fa00fb02f8fd07U, 0x60105eef8f6f6faU, 0x3f8fffbfef8faebU, 0xfef8f7ea03f509feU,
  0xef705f9f7f6f5f5U, 0xfbf3070afcf5f6f8U, 0xfef8ff0601fc0000U, 0xfff90204fb000403U,
  0xfe07f9fd01faf90dU, 0x7fefdfc07f4fefaU, 0xf7f6f90cfef305fcU, 0xfff8f7f1fa0a03f6U,
  0x500f7fbfc06f208U, 0xcf9fb0cfafcf8ffU, 0xf7fafd010be9f4f9U, 0xf4f3fdf8f7000eU,
  0xfeff010efcfc0200U, 0x20903fff5f6f6f8U, 0xf5fdf701f000fffaU, 0xfdfaf9f2fefcf611U,
  0xf7fc0dfb02f8f8ffU, 0xf7f0ff05fc060bfbU, 0xfcf906fcf9f9fbf5U, 0xfbf7fdf6f8f901f5U,
  0xf9fa02f8f9f2f7fbU, 0x5f706f9f701f7fdU, 0x1fbfcf9f1010c03U, 0xfbea06f909f703f5U,
  0xfaf1fcf9f9090702U, 0xf7fcf203fff6f103U, 0xfef1fe0df3fff7ffU, 0xf402fcf8f8fe05feU,
  0xf4fcf1f1030ef9fbU, 0xf1fef5fdf502f7fbU, 0xfdfeeef7090df0f8U, 0xf7f7fff3f7f8f3f9U,
  0xf303080001fcf2edU, 0x20030504fd010508U, 0x3fafafc07f80300U, 0xf4f7fd0308fb0500U,
  0xfd04f7faff0205ffU, 0xfb01fb0204fe0404U, 0x3fdfef9f901fcfaU, 0x20503fcfcff0200U,
  0xf900fdfcf903fcfcU, 0x2fe0301fcfff8f9U, 0xfefe0505fffefffaU, 0xfffffbf9ff01fd03U,
  0xf8fdf8fefefe00feU, 0xfc04fa03fcfdf8feU, 0x4fb0106fafb0403U, 0x1fef9f9f904feU,
  0xfdfb04fcfffdff03U, 0x2ff0203fcfef8fcU, 0x2fc01f8fdfefb00U, 0x204ff01fe01fcU,
  0x1f804fbfefb0406U, 0xf7fdfaf9fcfaf8fbU, 0xfffefa01fffb0004U, 0x2fb04fe04fdf9feU,
  0x10604ff04f80203U, 0xfefc060204fefb01U, 0x1fb02fb03fdfd05U, 0x3fb01fc02fefdfbU,
  0xfafffffefefbf7f8U, 0xfe0103fefe0500U, 0x2ff01f903fdfffaU, 0x1fd0500ff05ff03U,
  0xfb02ff000506f8fdU, 0x3fcff0200fe0200U, 0xfefefb00f80000feU, 0xf80101fdfbff0200U,
  0xf902fafe0201fb01U, 0xfe03fcfdfeff0004U, 0xfefcfa03fbfc00faU, 0x2fafef8fd04fe00U,
  0xf702fb0600feff00U, 0x104fefe04fe0102U, 0x305fbfaf7fffdfbU, 0x10105fefdf9f800U,
  0xfc03fdfeff00fa01U, 0x3fe03fffb0202feU, 0xfc0200fff7fb01U, 0xfdfbfafe03fefafbU,
  0xfffe0600fefaf802U, 0x3fefefdfa02faU, 0x3f9fbfbfffe0000U, 0x301fd0100fcfafbU,
  0xf9fe05fefcfef8fcU, 0xfb04fefdfeff01f9U, 0xfe05020201fb0302U, 0xfe030101f90002f7U,
  0x3f9fbfffe0203U, 0xfffb03f8fe05ffU, 0xff0003ff01fdffffU, 0xfcf802feffff00fcU,
  0xfb03faff01fb02fcU, 0xfcff0201fa020106U, 0xfef802fb02f7fbffU, 0xfffff90402fbfeU,
  0xf8ff00fafe0302f9U, 0xfef7f9fa0201fefdU, 0xfbff0200fdfffd06U, 0xfd030101ff02f8fdU,
  0x16f00bfbe4ee1b0aU, 0x1316e6e804fff8e9U, 0xe40fe1f8e5d807eaU, 0xf5ed1afdfcdff100U,
  0x5f3e4f6f7fbf3f6U, 0xe5ec020add15defeU, 0xcbffea06ebdfef13U, 0xf0f5ddfaefe725f7U,
  0xe6ede10b04e308f6U, 0x11f8e8e8040100ffU, 0x1bce051be70903f7U, 0xfe12160416ea1aedU,
  0xbeee804f0dbe7eaU, 0xe9ef060c0af42eeeU, 0xfee8eb38f412e7f6U, 0xf0b1df105f7f412U,
  0xddf208e4f5032405U, 0xf5d7f1f211ecfcedU, 0xfafbfd2c0902042eU, 0xaf5f8f3eefbe60aU,
  0xf00220fa17fff408U, 0xffd5f5eaf8eaf0ebU, 0x1061a00fbf0dff9U, 0xece4ddd609e5ebefU,
  0xd1403e7f3e9f605U, 0x12ffe616ea0eff18U, 0x1717ebead305dcdcU, 0x32526f6fbede6e9U,
  0xef16f805f1e1e7edU, 0xc5f3e2ee09e8e7f8U, 0xc7e9e1e309e81004U, 0xe7f9e8dff302fe04U,
  0xfae5fb0606f12415U, 0xcfec10eef1cc00fcU, 0xbffdaf026e7f518U, 0x4251cf5e8ebf002U,
  0xe6cbf9f906faf4e6U, 0xf601d5fc08f3f311U, 0x16c8fe14f9ddf5efU, 0xfbd2ed120efdedf8U,
  0xf6fefd0bf8e501deU, 0xfe13eef2f400f8f8U, 0x110ed08fafc1a07U, 0xf11ad4ede1e81117U,
  0x2806feebf9f60cdeU, 0xf9fed4dff80bf0fcU, 0x29e301fe0efd11e1U, 0xde1de1f900f308fcU,
  0xf225eb09fde7d6d4U, 0x140b13000205ceefU, 0xf6edd3d807f4f306U, 0xebf3ec0de7e7e0f1U,
  0x140a0904f00efe08U, 0x12fd0ff7e1df1b00U, 0xdc23fdfb06f4fde8U, 0x1904d9caf50cf919U,
  0xf5fe0cdb03ec14f6U, 0xd20400dd0902e6f0U, 0xeddd18e2f8defdf7U, 0x409f0f51efcef03U,
  0xaf504f1e7ff19fcU, 0xf9ed1feaf5ed0cf8U, 0x30bfce518fee6e9U, 0x120b2de00ad2ebU,
  0xfe11bfafaf917d0U, 0xff9e8e9f6eb1108U, 0xefdf00e8f00afff1U, 0x52219f5ff02030fU,
  0xf8eee8eafefaf7f5U, 0xf7120d00050ffd18U, 0xecd5000b0900f5e8U, 0xaf9070d0f1df612U,
  0xf8f0fb2612f8fff5U, 0xe8151212f2ef070cU, 0xfffeda071e00fefcU, 0x2fede01ebfaf212U,
  0xf4100c0718dbeef8U, 0xfbfb0ff1eaf70b04U, 0xfcf607f907fa1508U, 0xfb16e8e0f3dfef16U,
  0xf7e10bfe0014ee05U, 0x16e30ffeef081a00U, 0xcd03f3e209f5dae3U, 0xeffff81002ff1ff9U,
  0xfbf7fb07fe16eb14U, 0xf10c070ce30e0bfaU, 0xfbfc03deecfeeb02U, 0x9f9faf90ef70006U,
  0xec06efe805d1d111U, 0xecead921ece81fffU, 0xd60a12e01ae21708U, 0xec13ff0be8d6ddedU,
  0x8fe03020c1c060eU, 0xe9ec1009dc02f403U, 0xf619f80d08e70213U, 0xeafdf101051411f9U,
  0xe7fd05db100a15e5U, 0x30a1604103316f2U, 0xe60df3130a1be20bU, 0xfc0007050ff3091dU,
  0xf1f40305312701edU, 0x100103f6ea08040cU, 0xf41c1cf7ed0df901U, 0xdff6e4f5f11901f9U,
  0xcd4dd0dff07231aU, 0x21ddf216f6120ffdU, 0xf209e7130302fbf7U, 0xfaffed11ecfa0ad4U,
  0xf3f203fb00ee0e0cU, 0x909faec0cee190eU, 0x11ff07e7070201f7U, 0xadb20db1a041203U,
  0x190dd72202f9f506U, 0x1cf7f10314020a0cU, 0xefaddd1ed00ea12U, 0xcf9fce1eafa0225U,
  0x1213e40a0d1500f5U, 0xf1f4f8ee2001f819U, 0xece916d6f2130ef3U, 0x9f7fbfd12f6eee4U,
  0x5ecd90af9e8f212U, 0xfff6e504f6f8f217U, 0xebdbd9230ac719feU, 0x1e110f0dfef9fe03U,
  0xf50b16f40206e9e6U, 0xffe8f5dbecf7fe09U, 0x1d050c1311021712U, 0x90816eae209070aU,
  0xfc0af0f8020401f3U, 0x1f3e7fce3f2f1f4U, 0xe903fdf5f2eefe05U, 0xfcfa0ef0130c01fbU,
  0xdf1e9ecfd1ef6f7U, 0xeef1f5161419ebe9U, 0x40b05f507f4fcf1U, 0x21ff04ee09e816f4U,
  0xeff414fbedf6e722U, 0xf2f80000f6ffe5f7U, 0xfff0fffbf411f2deU, 0x20414ee08f81cf6U,
  0xebe305eef501f7f7U, 0x1cebfef4f0e501U, 0xfb0cedea05fb060bU, 0xf9e9f8f902090cf2U,
  0xeef6f20f00ed04fcU, 0xeaeffbeb0df30af5U, 0xeffaf0120c0501fcU, 0xf4e8f5e90bf21cffU,
  0xf509ed00ed0cf50bU, 0xef0cebfb1ef8f406U, 0xf5f308e102f7e8ffU, 0xf404fd0808f8ec04U,
  0xe400effaf90af101U, 0xea0101f1eafeffe6U, 0xe510e5f1ffee1117U, 0xf2f110f012ffe2faU,
  0x302f3e90f07f5fdU, 0xfaf6e2fc19f205f4U, 0x4f8fd00e3fd00efU, 0xf9fff302de0bfdf0U,
  0x19f8eee110080400U, 0x9f4f707e80af4faU, 0xf4020bfedefae8f5U, 0xfaf7eae8e7e9ef06U,
  0xfa050b0ef70f1010U, 0xe10f16f512fd09fbU, 0xf5f4ecf8071408d6U, 0x3fb020ffbee04f5U,
  0x4f9040205fe0adeU, 0xe004ed10fe07eff5U, 0xfbf7f7f5f321f2eaU, 0xf9e1f4e60d000904U,
  0x407d4fe1701fb01U, 0xfa09ee050cfdf6e8U, 0xf2f9efe924fefde5U, 0xf6f7ff01eae300f1U,
  0xf9fdfef012eceffbU, 0x70bebe9da0a1803U, 0x5ed10e6faee03f8U, 0x3f80303f9fb05f6U,
  0xeb01efe70902e012U, 0xfde2fff5f30afd12U, 0xf8ee0312f6fb03fcU, 0x5fd0c02f60702feU,
  0xe5ecfe0bfeefff0fU, 0xdf901fbfa17fb04U, 0xfefad9eef2e8f004U, 0xf004f4140401ec01U,
  0xed0b04e000eff307U, 0x2fef8ed01f411e5U, 0xfafdf6fdefe5f9f8U, 0xc1ce3e1031c0af6U,
  0xfbfe09f1fe11f808U, 0xeb02fff5ebf6e5f1U, 0x7f30802eeebfefaU, 0xe3ff021115ffe9ecU,
  0x2fcf3f8130cfef3U, 0xf205e917ef0cf6e9U, 0x304fdf9f20b0716U, 0xf604f1f5fefd08f8U,
  0xf8fa0118fef60ff6U, 0xf7fc02fef8fe02f0U, 0x9f40308fbf4f4f4U, 0xfffaf7eaf7eaf5fcU,
  0xfffcf8f1f9f302f2U, 0xedf3f8f2feea0c00U, 0x10ef0b08fd03f802U, 0x1f401fe120e0602U,
  0xf0f9f20ef3f802f4U, 0xfbf1f7f911fe041dU, 0xf8f9f5f709f6e803U, 0xf712f1f6f2f9e909U,
  0x408fff0f91502faU, 0xeafb1609e9f51909U, 0x300f3fef71efcfdU, 0x11f4f02b11d4e4f8U,
  0xff0a00e9f809f0e9U, 0xf3f2fbf9f82af9fdU, 0xfff40506ff07fe00U, 0xfd01090111f702feU,
  0xc00f90aeaf4f607U, 0xe80a06ffe4eafd05U, 0x1da0d03011500eeU, 0x1affff02eee70304U,
  0xfcf518f504eaf6f1U, 0xfe0407ebf9f10b00U, 0xeef8170502eff219U, 0x1ebf6faf8eb0919U,
  0xf6fbf3f3ee01f4f3U, 0xfef2fffa03e7f6f3U, 0xec0cfff70802f9fbU, 0x17f5f7e7f705f6ebU,
  0xaf80cf4ec061fe7U, 0xf9f6f113fdf8e3fbU, 0x404ef03d9fe02f5U, 0xfef80b08ff0504f9U,
  0xecf705fce512f1feU, 0xf7f600f90bf2edfdU, 0xf5fa09efed17fbddU, 0xee0df011fcf1eff2U,
  0x13f8fbf314e6f5f7U, 0x805fd02eff706fbU, 0xb10ee06f8f90ef3U, 0x40100fc0f01faf3U,
  0xf0fc01fbf4f5fae7U, 0xecf5fde6fdf705feU, 0xfa0ffa0407dff7f7U, 0x9f0e1ffecf80904U,
  0xf2faebf3f1ffea06U, 0x1201f4000dfafef7U, 0xf4e30306fbfffe08U, 0xfaf5f508ed00f513U,
  0xed12f6020d07f1f4U, 0xf8f7f6f9faf7fa10U, 0x80bdef709fe07faU, 0xf7f6e5ffe4f3f1f8U,
  0xe3eaf5f0f1f2f00dU, 0xfdd5f702e20a19fbU, 0x1007fb00f1d2f5feU, 0x1809ff04e10cc9ffU,
  0xf904f4070511e40eU, 0xebf206e21724f6e0U, 0x2ec12f90504fbfeU, 0xfe5220811f0f5f8U,
  0x6e1fed600da0ef6U, 0xdcdff4e1f3e9f2d3U, 0x32e90209f4f01a04U, 0xf10b04f4f000e2e7U,
  0xcecfb0ffdf7f2feU, 0xfbfee2f5fffbf5e2U, 0x2ece7fe050a0705U, 0xbf7f519f010e8f7U,
  0xefe707f4d9f9f40aU, 0xebf1fbf9cf01dd04U, 0xef08f9f5fbef0903U, 0xea01030de4eed4ebU,
  0x23e604d3e6052611U, 0xfbe6fbdfe10feef8U, 0x407e4f6f5f706f9U, 0xe2f0f8f8f81cf200U,
  0xffedeeecff0214f8U, 0x3012e112ef0307eaU, 0xe90afb00f50517f2U, 0x6f9fce9fcfcfc11U,
  0xf1f306fad90c0202U, 0x9f5e8ecdc0a2c01U, 0xf6e7f0ff14e6e70bU, 0xf8ff0809fcfd1307U,
  0xf705f9f5f6effbf5U, 0x90cd4e414f8f7f0U, 0x1d15f1dfed16ee0aU, 0xf80cf204e3f917fcU,
  0xee04ecfb0b03e909U, 0xe8fcdeef0501f9f5U, 0xebfb03e7f4daefe7U, 0xe13030a0403ed15U,
  0xe80bfb0eed080d03U, 0xf1f30104041505e6U, 0xf1eb12f5f8f6fb07U, 0xfd00ec1ffb111c0aU,
  0xf308f9ed02fffb27U, 0xee0a00e702fbecf6U, 0xc1b11f40df9e700U, 0xffe05090cd3eafcU,
  0xc03f5effbe513U, 0x1ff910e7f4ee2200U, 0xe8de01ff0de907U, 0xebccdd1cfaf9f104U,
  0xf7e8f70ce920f507U, 0xf8ec0ef4f9f115faU, 0xf400f40407f4daffU, 0x5220be7e8ed04eaU,
  0xfded04e4fb1010f3U, 0xf4e5ed0efbf303f2U, 0xf6fc0dfd05f5f303U, 0xf6ee13f607f60df0U,
  0x150ff3eeeef3ee0fU, 0xfdf21df3160d08cfU, 0xe9e0e5e101f70d0aU, 0xfce9f3e5fe24fdf4U,
  0xcf7e9001c1513fbU, 0xfcf920f5f3cb07eeU, 0xee0f2fae6e1e517U, 0x110ee50909edfa04U,
  0xfc250efcf4f20004U, 0xf2f5fbf8e9faf8dfU, 0xf1c7f3dbd50101edU, 0xf618ecfbcfd9e017U,
  0xf7eef919f10aeaf5U, 0x1f3fd0400f7fa00U, 0xd60a0ee4230200f4U, 0xe919e90714f70ee7U,
  0xec12cd1200080411U, 0x1608f1e70317f9fdU, 0xf4070cfcf419f2fdU, 0xe01eef9f0fbfd1cU,
  0xe6000c01e106f607U, 0xe9f415eff50319f8U, 0x2f30edd00eeea2cU, 0xf4e1f70df813fce3U,
  0x9efe7db0814edfeU, 0x1f11717ea03eaecU, 0xfceef1ebee0b02e3U, 0xef08e3fae2eef2d6U,
  0x50cebeb0bf51e03U, 0xce408d8ff07eee7U, 0x2f4ebd522fef2f4U, 0xd1201e906000affU,
  0x15d90a1000eef0f2U, 0xee03eff7fe24e6f1U, 0xfef01ae7ef0004feU, 0xf5fef5f70c21ccffU,
  0xdeb0e0900eae0ddU, 0xc6edf912f5f4f6ffU, 0x130bf2ecedf414e3U, 0xff70cfdebdbe31bU,
  0xafdfaf2f3142effU, 0x19f9e3d0ec04030dU, 0xf9fcfef104fdf107U, 0xfff70be7f6e6f9f3U,
  0xfd2df721fc01f1f1U, 0xdf7fdf9ca0324f7U, 0x1e4fa0e06f607e7U, 0xe4f7f425f5ff1afbU,
  0xf4faf010dde4cd03U, 0x1ef4f9e1ee08f903U, 0x3fd02fbf306061eU, 0xcf8f1d9ffedf102U,
  0xfaebf0e1e4f3efeeU, 0xfa0801fddfd410fdU, 0xe7f80200e11d0c0aU, 0xd08eff3ddf108f7U,
  0xf2ee03e106f5f81aU, 0xe7f0ec040017e6f1U, 0x12e90dec28dd13f0U, 0x16ec1406f8e422e2U,
  0xe0ef00f81aebfd02U, 0xfd0817f8f005f6dfU, 0x80cf0d7f821f3f5U, 0xadaf708eef70aeaU,
  0x24eed90ce3edebebU, 0x2ee07d613f4f000U, 0x13fcec17f51bfd02U, 0xfdf6f3ebe729e3faU,
  0xdd08fe0b11f21d03U, 0xfffded13ea1027fbU, 0x19faf0f206ece9eeU, 0xe513d8e3fef9f903U,
  0xeb0a04dddf06f4edU, 0xd4e7f5f6f2ebfef5U, 0xe062bf0f10200f2U, 0xd60e400af3f7e8eaU,
  0xec11f4dc1bff1ee5U, 0x40c0add0af1fb28U, 0xdef2effaee06fcf9U, 0x3ede504f1f615edU,
  0x7f9002efbf312e8U, 0x7f5f6f2eef602e5U, 0xd6daf00bddd4e3eaU, 0x2e91600f3f1dafaU,
  0xcbfc05efdce71513U, 0x7daf000ef0ed0f0U, 0xdc0df40af213191aU, 0xf301030710f6f3f6U,
  0xd6de22f2f00cf1f1U, 0x1eae6fbe70c00f7U, 0xfef9f9e2fa101602U, 0xefe0adbdcf207dbU,
  0x16fce0fecce707faU, 0xff1d000dfce807e8U, 0xe7f801d707f7e7d0U, 0xdffd1207f1f400fdU,
  0xeae8fa1219e90704U, 0xd80409e0ee09f106U, 0x6e7f5fb09c7fe01U, 0xf7ff1bf615ee11U,
  0x7ec10f0100af70aU, 0xdf405f4e4e517eeU, 0xa07ec22ee06ccU, 0xfeebfae30fd5f8fbU,
  0xe404d7edf7fcece7U, 0x16ef0e13021afde2U, 0x14e3eafd0e0714f6U, 0xf9fb1e19130efeedU,
  0x6eaeefcfc0e01e9U, 0xf6f101fdd60009f1U, 0xe0f9fdf5eb09efebU, 0xfafeeaf1eaf611d4U,
  0xc06f40d0306f9f8U, 0xf8e506e406e707e5U, 0xdde7ee00e204ffe2U, 0xe806fbf0edeee62dU,
  0xef05fbfcf5091f1aU, 0x3edf8f7fafed70dU, 0xbea090bf804fdd6U, 0xecfc2e04effc1004U,
  0xf50702f2cbf72406U, 0xee2400fefc211010U, 0xd62c10fee608dd0eU, 0xeafcd2eef400e913U,
  0xfb22ef03f5e30a2cU, 0x1917eedc16fddbf8U, 0xe3f610ebf910e0ebU, 0xeff108f108070517U,
  0x3ff16f6f602f5fbU, 0xea100ef2fa1d03dcU, 0x16f7e0f8f310e8eaU, 0xced13f806e401f6U,
  0x100f4f806f2e6f2U, 0xfafcfcfee502020aU, 0x5f9ff08edfefbf7U, 0xf3fe00f0000513fcU,
  0xf9fdf5fb00f5fe0eU, 0xfe01fa01fb021707U, 0xfd06f700fa08f3U, 0x2fdf40af1fcf700U,
  0xfdfaf6fff30f06ffU, 0xfaf60bfb02fc00faU, 0x20401000703fc0aU, 0xfcf7fa10fd00f9fcU,
  0xf3f4f4fdff04f7f7U, 0xf1f2fbf3f30f04f3U, 0xfc09f7f8f8040908U, 0x405fefff8fd08f0U,
  0xe1f80dfafc06f0faU, 0x1fd0305f4ec05fdU, 0xf04f3f10e03f904U, 0x4ecfd04fffb0a02U,
  0xf5fc00ff02fbf604U, 0xaf309fe02edf902U, 0xfa08eafaef0306f1U, 0xf301f1f309f500f7U,
  0x5fbf9fc06fa1202U, 0xa0406fb030c0c06U, 0x60a0400f4f6ebf5U, 0x50506fcf2f40cf9U,
  0xfaf701edfbfaf9f8U, 0xfffafaf9ea03ff00U, 0xfdfdfc05f4fdfcffU, 0xf0faf7f5060bfc03U,
  0xfd03f101fcf6fe03U, 0xf61019fffcf51407U, 0xfafbf2f8f4f7f701U, 0x304ff01fa02eafdU,
  0xf5fcf30501f80707U, 0xff10f0f9f302f4f7U, 0x3f0fb07fa0403fdU, 0xfe0105f409f3fc03U,
  0x104f8f904f80301U, 0xaf3f700f50afb0fU, 0x13fbf6ebfef6fb05U, 0xcf8fdf60a00f1efU,
  0xf3fc050910f6ff07U, 0x305fcf9ed08f9eeU, 0xfc0106f713fbf6efU, 0x209edfbfa01fbU,
  0xfff0fb02ecf2fd01U, 0x310fcf504f9f2efU, 0xeafae802ff00faf9U, 0xfcfbfbfdfcf20202U,
  0xfffff7fafffcfaf0U, 0xf6fe02f3fc01fff0U, 0xfffaf6fdff030901U, 0xf4f604f7f703f0fcU,
  0xf8f314f7e9faff06U, 0xfcf7f3fbfef2fef5U, 0xf50cfcfbf41dfdf6U, 0xfb01fe07fcfbf404U,
  0xf2fef516def8f4f4U, 0xeef007f80cfcf7fdU, 0x803fbf7ed0400f7U, 0xf7f7f5fdfffdfff8U,
  0xd00f4f707f7f6fbU, 0xfc080d0ef003f205U, 0xfdf7f8fbf8f7f5U, 0xf408fd0001f0fffbU,
  0x2f9fdf8fdfafbebU, 0x3f1f4f9fffff7f8U, 0xf4fbfd0af6fa0bf7U, 0xf1f9f5fdfdf9fcf7U,
  0xf3f7ec05f4fb06f6U, 0xf2f8fbfcfdfefdf3U, 0xfaf5f9f3fcfafef8U, 0x6fcf10af504fdU,
  0xf7f2f5fdf200f8feU, 0x40cf7ff00ff03feU, 0xf700fc14fe0301f3U, 0xf7f8f5fbf7fffdf8U,
  0xfdfafe0407020cfdU, 0xfb08f8fef7faf4fcU, 0x1f9f6fefef9f7feU, 0xf603fbfaf5fe0afcU,
  0xfdf608ff060301f0U, 0xfef804090407fc00U, 0xfef7ff11fc13faf1U, 0xfefaf3faf6f7f5f6U,
  0xfafafffcfff8f5fcU, 0x7060001f602fffcU, 0xd02f8fa04fd0d0fU, 0x30206f8fefc13f4U,
  0x301fcf7f2f6fcebU, 0x4f3f3ff02f802f6U, 0xeffdfaf803fef6f7U, 0xfa00f9f7f604f6fdU,
  0xf6f5fafcf9fcfef4U, 0xf9fc000201fd02f7U, 0xf8f906fcff03fcU, 0xdf5fcfc05fc06f5U,
  0x9faf5fefffdf7f6U, 0xf70deefb01fbfbfbU, 0xfbf9fd180101fdU, 0x502f2fbfef7fbf6U,
  0x20803fbf4faeffdU, 0x3f4fdeffffff7fbU, 0xfb01fdfeff04f5U, 0xfeecf9fdf7f80209U,
  0xf700f6f805f5f3f7U, 0xf6f8f4ffee02fef7U, 0xfefb0301fcf9fe0bU, 0xf8010106fb02f4f9U,
  0x4fd01f2effd01ffU, 0xfffd0306f9fdf6f5U, 0xfdf8040606f9fa07U, 0xfdfffe0202fbfcf9U,
  0xf9fe0e0001f60af4U, 0xfff802faf711fb03U, 0xfdfef2eefb01f1f7U, 0xfb08fef7f7f702f9U,
  0xfb020205f50007fcU, 0x6f9f7010b0aecfaU, 0xf704fdf0f4f20dfaU, 0xf0f6fff600fafcffU,
  0x20a02f8f2fe07U, 0x9fefff9fa0408fdU, 0xff0008040800f807U, 0xf7ff0cfcfa0af3f7U,
  0x50002fc01fd01f6U, 0xfef7f90002fc01ffU, 0x5fefdfa0006fef9U, 0xfeffff0004fcfdfaU,
  0xfbfffbf701fdfffcU, 0xfef9010001fffe00U, 0xfbfb00f9fef9fafbU, 0xfdf602fcf804fdffU,
  0xf7fa00fffdfdf800U, 0xf9fefefcfefb04fcU, 0xfe0300ff010203f7U, 0x1fd01fefe020300U,
  0xf700fd0205fffdfbU, 0xfffbfbfdfb0200fbU, 0x200fe0500faf606U, 0x3f9ff0203fb0703U,
  0xfffcfafdfd02fcf9U, 0x1fcfdf8fdfefffbU, 0xfe0304fefd05f803U, 0x1f7fafd0203fcfdU,
  0xfbff040000fe03feU, 0x3fffe0000fc02fdU, 0xfc04f7fdfffdf8fcU, 0x1fefefbfe000400U,
  0x200ff03ff000603U, 0xfcfbfcfdfbfdf702U, 0xf804fef9f80300U, 0xf6fa02fefcfaf6f8U,
  0xff05faff0207fd00U, 0xfd04fa06fc04fd01U, 0xf9fff700fcfaff02U, 0x2010303fe000001U,
  0xfb07f606f9fafffbU, 0xfdfc0003f901faffU, 0x1fef8fd05fffd03U, 0x2f7ff010301U,
  0xfefef8fbff05fcfdU, 0xfcfc00fd00feff01U, 0xfb05fbfffcfafcfcU, 0xf905fafcfc03fcfeU,
  0xfefc00fd02f8ffU, 0xfef9fcff04f8fffeU, 0xfff8fe0001fdf8fbU, 0x502fcfdf8ff0104U,
  0xfbfc06fefcfbf9ffU, 0xfefffffffaffff00U, 0xfffd02ff00fdffU, 0x3fdfe00fef9fbfbU,
  0xfdf9f9fffdfa0303U, 0x101040304fd0200U, 0xfffc0400ff03fbfcU, 0xfd05fff705fff802U,
  0x3030000fcfdfcffU, 0xf8fefd05fdfefffdU, 0x501fcfefffe03ffU, 0x501ffff010300feU,
  0xfdff05080500fffbU, 0xf900ff03fdff00feU, 0xff01fffdfeff02faU, 0xfefefd0002fc02f9U,
  0xf7fb00010304fffdU, 0xf901fbfc01fbfbfeU, 0xf8f6f9fb03fff903U, 0xfff901fffefbf9ffU,
  0xf1f511feff13f0f3U, 0xf50a02f7faed1b01U, 0xfbf4fbfff30803faU, 0x4f0f80cf8e9f8f6U,
  0xfef4fa0101f6f9ebU, 0xf810ec0406faf7f3U, 0xf2f6fdfe09ed02eaU, 0x2f4f6faf6fdf5fbU,
  0x3f8f9fbfaf1fcedU, 0xf606fefb07f6f5f4U, 0xf9ee0a06f8f2effbU, 0xfdfbf6effc06fdfaU,
  0xfefa0c0cfaf80ff1U, 0xf8f3ff0bfe06eeU, 0xfbf6030b05fef5feU, 0xfff0feeefaeff8fbU,
  0xff0bf1fdf503e811U, 0xfff6effaf8fbfa04U, 0xfd05f800fafe01f4U, 0xf5ed0cf2f6f7e7f7U,
  0x7f80dfbfbf9f503U, 0xfffaf8f6f400f606U, 0xf102f1f4fdfb0400U, 0xececf8f407f60315U,
  0xfb0006f8f5fa20fdU, 0xf3f4fa00fbf6fefaU, 0xfefefcfafefefffaU, 0xeff4ebf2fef50af3U,
  0xfdfef4f0f8f400fcU, 0xfd0c06fbf9fe16fcU, 0x7fefe1cf3f9fc04U, 0xedeaf80c0df4f4f6U,
  0x400fff5fdf2fdfcU, 0xeaf7f8f7f8f304f4U, 0x3fdf6f4f9fef0f7U, 0x13f0fe0b12fd02feU,
  0xf70904f5fef2fbf8U, 0xecec001af9e501faU, 0xee03f7edeff5fef5U, 0xf0090aec03ed0000U,
  0xfbf10bfaf0f7fdfcU, 0xf704fffa000d09f6U, 0xef02fb00f3fafcU, 0xf9f1f7f8fff3fef2U,
  0xfdfcf5f5fffafc04U, 0x1f9f0fd1b010207U, 0xf2fef6ea07f4ef0dU, 0xf5ff16f2f901f2fdU,
  0xff001910f7fcf904U, 0xfbfbfb020006f7f6U, 0xfef3f90eea0d03feU, 0xf507fefcfaf4fff1U,
  0xf7f1f302fdf8fbfeU, 0x1fefef4f604f103U, 0xf403f60206fdffffU, 0xeeeee700faf3eef8U,
  0xf2f3edf9f8f4fb07U, 0xfe04f9fd0308faf4U, 0x2edfefffd02f502U, 0xf7fc00f3f3fdf7ffU,
  0xfff0306f6ed0503U, 0xf705ea03f3fd05f7U, 0xfb02fefefdf5f7f5U, 0xf8f504031dfcf103U,
  0xe4f8fddb05f8033eU, 0x2feecd1deaf30605U, 0xcdf431f50109e5d4U, 0xdcfe03e13d0eed09U,
  0x1febe606f80cfbf1U, 0xf4f14bf507fdf5e3U, 0x1109e7d800c1d4e3U, 0x15fa01ea07ff1019U,
  0x11fe1017dafcd504U, 0x1fdf0cbf6faf622U, 0xb503ceec08e80cf4U, 0xae00c1c0e21fef2U,
  0xcef1111d606f6eeU, 0xe1fa2528de11c4f3U, 0xd5d6fc19070ae714U, 0x1c0fef1305ec03cfU,
  0xefaf4191cfdc2f6U, 0x1bfedfe30d08fc02U, 0xcfe301db0dfb11f8U, 0x39fc0bea0f12dff3U,
  0x10efffec161920e7U, 0x22f1f0311a15f8f3U, 0x70d09f512fd08fcU, 0xfde5fbf427fe0ad6U,
  0xe9edf61ae72110e2U, 0xd8e90e091b1ef5d5U, 0xef19f51f25f6f3e4U, 0xd5f506e7dee2d50bU,
  0xfae604f202f9010bU, 0xeedbfbed140de011U, 0x13fbf2fdff0a07f7U, 0x8101addfdfcf5d7U,
  0xd615eef110180a0fU, 0xf0407ed1701eae1U, 0xecec0c1902030513U, 0xdceef40df4e617f7U,
  0x601e7e810dee7ceU, 0xf6db1bd0f205f80aU, 0xa14f6fc15cf01d7U, 0xffdd3504fd05ed0dU,
  0x13e400f9eae6f0f1U, 0xefdc04f6e513d3feU, 0x2305f5ffdbe3dd16U, 0xd8e91403080efd08U,
  0x11eb1cf802f6f4f1U, 0xfef900fc18e7f40cU, 0xf0fc0ee632f111dfU, 0x4e4f0b7f811f9d9U,
  0x1eeecae29022cf4U, 0xbf3131cedd4e6bdU, 0x520f3e23b071ff9U, 0x7ebf1d90101bfU,
  0xdbfe0fd628f31c02U, 0xefc20efe13eceb05U, 0x4bfd3f4f9ea0207U, 0xe9e0e6020213f9e7U,
  0xd7c7fe20180419e2U, 0x4e2162220fbfbf6U, 0xfe04f8d2e2f5e6e7U, 0xe5e5051b05ec0000U,
  0xfe1fc2f1d6cf06f1U, 0xfbf3ff0ee1eff202U, 0x19edea1109fff528U, 0xf6262cfc120d0f04U,
  0x1fbfdfe02fafdffU, 0x4fffffffbfb04faU, 0x5fbfdfdfcf9fbfdU, 0xfdffff0201fcfcfeU,
  0xfafe0101fb0404f7U, 0xfc0002fa02ffff03U, 0xfdfe00040002fafbU, 0xffff02fdfd01fffeU,
  0xfe01f80100fc02fdU, 0xfdf903fffe020300U, 0xfcf7fb030300ffffU, 0x5ff03fefff9fbfeU,
  0xfd01fa0300fd0101U, 0xfffefe00fefefd00U, 0x105fe02fffa04ffU, 0xfbfcf9f801fe0001U,
  0xfef9fb01fb0001faU, 0xfefd03feff01fffaU, 0x20206fbff010404U, 0xfd000104fef80302U,
  0xfdff04fefef8feU, 0x102fd02f8fffdf8U, 0xfd01fd02fc0202fbU, 0xfa00fffb07f9feffU,
  0x20402fcfd02fcffU, 0x100fafdff01ff03U, 0xfd01fdfefd0402fdU, 0xfbfffe0302fb0201U,
  0xfcfcfdfffc020406U, 0x2ff010402fffffaU, 0xfb02fbfdf9fefefaU, 0x3ff0400fc010000U,
  0xfdfb00fdfd0101fdU, 0xfe0103fcf8000003U, 0xfe01fefafcff04fdU, 0xff03020100fd03fcU,
  0xfc0302fafdfc01ffU, 0xfcfdff00fb03fe05U, 0x3fefefffbfc0402U, 0xfefd00fc04fd02fdU,
  0xfb0104fffdf90002U, 0x3feff0300010401U, 0x2fbfffcfd00fdf7U, 0xfbf6000500000001U,
  0xfefefff9fafcfb00U, 0xf902fffcfaf8f9fbU, 0xfbf8fbfb04fffffdU, 0xfe02fb01fa0302ffU,
  0x2ff05fe02fdfcfcU, 0xfcfaf9fe000203fdU, 0xfdf6fdfefe02fefdU, 0x403fc01fb020000U,
  0xfd0203fc02f90303U, 0xfefefdfa04f902U, 0xfdfcfafe01fe0500U, 0x5fbfd0204faf803U,
  0x3fe01fbfdf901U, 0xfdfb010004f9fefdU, 0x1fe01fd06fbfdfaU, 0xfe01fefe0300fd01U,
  0xfefbfdfb000100fdU, 0xfa050302fefefdfeU, 0xf9fffefbf902fffdU, 0xfe0004f901fe00ffU,
  0xfcfdfb07fffffafdU, 0x2f9fdfff8ff02fdU, 0x4fafd0103fcf7fbU, 0x702fa04f9fcfa03U,
  0xfd05f703fef9fc05U, 0x203fbfe02fbfdfdU, 0xf8ff07010106fc03U, 0xfbfefd02fcfcfcfeU,
  0x100fc0105030303U, 0xfdff0001fa03fcU, 0x101ffff0106fafeU, 0xfffcfd0203060202U,
  0xfffa040102fdfe02U, 0xfef904fef9f800faU, 0xfefd02f9fefef801U, 0x4fdf8fcfcfafcfaU,
  0xfafffbfd0303fcfaU, 0xff03040000f8ffffU, 0xfefd000002000200U, 0x2fffbfffbfaf602U,
  0x102fefef9000505U, 0x4fdfcfeffffff02U, 0xf60705030002fcU, 0xfafdfef706fcfafbU,
  0xfcfd0205f9fd01f7U, 0xfc01fd050104f8f8U, 0xfeffff0103fd0101U, 0x306fffcff03f8feU,
  0x3fff80301fe02feU, 0xfcfe05feff03fefdU, 0x2fafa04fefff9fcU, 0xfffcfbf8fdfefbfaU,
  0x401fdff0201fa01U, 0xfcfb000200fe0101U, 0xfbfb000002fd01fbU, 0xfffd01fc0002fa00U,
  0x4fdfb00f702fcU, 0xfc030300fd0004ffU, 0xfbfefefdfefd04fbU, 0xfefcfdfe00fe01ffU,
  0xfffdfbfcfbff0003U, 0xfa0105fafcfe03feU, 0x1fe03fffdfc05feU, 0xfc060000fffeff02U,
  0xfdfefe0305f6fffbU, 0xf8fcfbff03fb02fcU, 0x2fcff00fef8fefbU, 0xf804fbfcfb02ffffU,
  0x1040500fcfdfdU, 0x3fa0100ff0100f8U, 0xfcff01fffc01fcfdU, 0xfc00fafefbfbf805U,
  0xfefe01fa00fb03f9U, 0xf801fbf900fe06fcU, 0x1fe06fe00fefbfbU, 0xfffdfcfcf900fbfeU,
  0xfe05f700fefc0401U, 0x2fcfa02fc06fdfeU, 0x2f9fd00fcfaff03U, 0xfc05fefdf80201feU,
  0xfbfcfbfdfeff05U, 0x1fe01fd00000802U, 0x204000102fffa04U, 0xfb04f803fcf9ff02U,
  0xfffcfb0200ff00ffU, 0x303f9fafbfef6feU, 0x1fcfafd07fcfa04U, 0x3fffbf7fcff00f7U,
  0xfc02fff702f5fb03U, 0xfeff03fcfc04fd06U, 0xfdf9fffd01fa00fdU, 0xfef800fdfcfef8fcU,
  0xf9fafffa0307feU, 0x2fdfdfc0005fdU, 0xfbfcfcfefcfdf7ffU, 0xfd000308ff00fdf8U,
  0xfc030004050002U, 0xf90607fdfdfa0402U, 0xfd00fafffffbfa00U, 0x2fbfffefe010302U,
  0xfe01fefffafc01fdU, 0xf9fc00f9fbfcfdffU, 0x404fafb0301ffU, 0xfeff06fdf9fd0400U,
  0x5fbfcfd0401f9U, 0x30102f900ff0305U, 0xfff9fefefd0205ffU, 0xfefd06fafcfd01feU,
  0x2fef8fefbffU, 0xfefc0001fffafbfbU, 0xff02fcfffd02fdU, 0xfcfd000402f904fbU,
  0xf900fcfbfc0001fdU, 0x3fef904fcfc00U, 0xf9fbfb0102010004U, 0xfb040200fefafe03U,
  0x3000004f900ff00U, 0xfffffffbfcfc0200U, 0x2fd0100fffe00fbU, 0x40101fdfe0006f9U,
  0xfd010000030500feU, 0xf9fbf8fe0502fd06U, 0xfefa00f900fef903U, 0xfe01f7f7fefcfdfeU,
  0x5fd0203fc01fdffU, 0x101020506feU, 0xfdfc03fe01fe04fcU, 0xfe0100f800fdfff8U,
  0xfe0afefef704fe00U, 0xfdff00fef700fdf6U, 0xfc0600fbfd000101U, 0xfafffd0701050207U,
  0x20401ff01f8fd02U, 0xfcfcfdfb05fffdfdU, 0xfe03fdfe04fcfdffU, 0xf80007f5fbfdfb02U,
  0x303f903fb02fbfdU, 0xfafefffafcfdfe00U, 0xffff04fdff03fff7U, 0xf80102f9fe03f700U,
