/**
  ******************************************************************************
  * @file    threeline_data_params.c
  * @author  AST Embedded Analytics Research Platform
  * @date    Fri Nov 17 00:05:15 2023
  * @brief   AI Tool Automatic Code Generator for Embedded NN computing
  ******************************************************************************
  * Copyright (c) 2023 STMicroelectronics.
  * All rights reserved.
  *
  * This software is licensed under terms that can be found in the LICENSE file
  * in the root directory of this software component.
  * If no LICENSE file comes with this software, it is provided AS-IS.
  ******************************************************************************
  */

#include "threeline_data_params.h"


/**  Activations Section  ****************************************************/
ai_handle g_threeline_activations_table[1 + 2] = {
  AI_HANDLE_PTR(AI_MAGIC_MARKER),
  AI_HANDLE_PTR(NULL),
  AI_HANDLE_PTR(AI_MAGIC_MARKER),
};




/**  Weights Section  ********************************************************/
AI_ALIGNED(32)
const ai_u64 s_threeline_weights_array_u64[44518] = {
  0x3f2ede403ece8a4bU, 0xbe100df1be9beed4U, 0xbf369ead3d26737bU, 0x3eabfd693f794cc0U,
  0x3e8b4b8b3e919c16U, 0x3e6e493fbd592024U, 0xbef3ff0f3f1e9d8bU, 0x3f026c7f3eadef22U,
  0xbdd849883f95a1adU, 0x3c894427be9576c0U, 0x3e7bd037bf4c41e3U, 0x3ebe5086bdef9f64U,
  0x3d9f4582bd0d1c16U, 0x3e053afa3e858ef8U, 0xbf5f3088bf207a10U, 0xbe5be0003e308261U,
  0xbfd08594bee36ff2U, 0xbf508da6beb94afaU, 0x3eb589203d7962caU, 0x3ea1302b3d80d003U,
  0x3cc2a325befcb383U, 0x3f45c0173ee8f588U, 0x3e5369eebc81b001U, 0xbed97cf93ec37d20U,
  0x3d356410bf82f254U, 0xbffd16863e583bccU, 0xbf5269103bb027b2U, 0x3c3d1ab13f75c816U,
  0x3e91487b3f908ec2U, 0xbf9ad8e43e9f88ffU, 0x3f163734be234d57U, 0xbfc733923f3933ebU,
  0x3efc4e97bf51aec9U, 0x3d19b8743e0c49f8U, 0x3fb8dbfcbf023765U, 0xbf809f3abe49fb7cU,
  0x3f5bd1dabe4498b8U, 0x3ea5d0ef3fb95562U, 0xbe8e6931bc86a7aaU, 0xbf126bfb3e6b2dcaU,
  0x3e820a1cbeb29666U, 0x3cb49013becf5bc2U, 0x3f353cbbbf1f89fdU, 0xbe75d0c6be9c13d8U,
  0xbe4df006bf248965U, 0xbfc409d6be0011abU, 0xbc5ac587bf1ed1edU, 0x3fa635e2bf34d4b4U,
  0xbd5ab321be676f9eU, 0xbe494cd7bd93c6a4U, 0xbd9e596f3a8ad91dU, 0x3e917418bf4e9f68U,
  0x3e252834bebc53e9U, 0xbf7d25fabe3c2e86U, 0x3cc6ef823e47cfa8U, 0xbd8cebdfbf08423eU,
  0x3f60dd31bd9c4b02U, 0x3fd059323f1ac97cU, 0x3f938d553ee43c75U, 0x3f25fb453f0829cbU,
  0xbf1dfc8bbe80b167U, 0x3fd8fada3f8f6136U, 0xbe237fa33e9fb227U, 0xbf774adbbf526ac2U,
  0xbe177360bf227c8dU, 0xbd70ae453ea00fc0U, 0xbecf11ac3e14ccf9U, 0xbf51286f3d9606efU,
  0xbd307ca33e307154U, 0x3e3474e93fa001d4U, 0xbe14661c3e80c437U, 0xbed5419e3f4cd153U,
  0x3dbb15a73f145dbdU, 0xbf83979e3f305b11U, 0x3ef5d1dfbc741c94U, 0x3d3a45b5bed1354cU,
  0x3d73d2febe8b127aU, 0xbdaf27e43f140921U, 0x3ec02bcfbf3f81ceU, 0x3d355514be439a39U,
  0xbfcfb787bf04d30cU, 0xbf3e0dd9bf22758bU, 0xbf8abdc23eb0e5c7U, 0x3f375278bf87a538U,
  0x3f1e286ebd5af69eU, 0xbc82b6393f007b73U, 0x3f554ba83d16142fU, 0xbe5fef663fddd04cU,
  0x3f792a35bf97aeeeU, 0x3f004b37be304593U, 0x3e4bb0c43eb3de4fU, 0x3f0dd297bead16b0U,
  0xbf1fecb4be1ab8dbU, 0xbfaa9e80bf8f8c0bU, 0x3eb287f1bfc4a7ddU, 0x3e889cb4bda2d08fU,
  0xbe99f8dbbdd2cfaeU, 0x3f43e136bf325ad3U, 0xbef04aaa3f551a9aU, 0x3f4af1a94010e33cU,
  0x3d3c7091bf8583bbU, 0x3f1816d9beecfe74U, 0xbf5947f1be0da8f6U, 0xbe38bb923fa392bfU,
  0xbedb1f003ed9e109U, 0x3ee58cd6be03aed6U, 0xbf00c4b83f3118e8U, 0xbe06e6ab3e94db46U,
  0x3e98cce03d704e79U, 0xbe51e5b53f28f390U, 0xbe2e6e443f403d08U, 0xbee98defbf5c2cf6U,
  0x3e6dee7f3e038a2cU, 0x3f917b65beb1f5a9U, 0x3ed2d7ea3e34ba53U, 0xbe99049fbecf161dU,
  0xbeaac062bf12fbf9U, 0xbfa633cfbf8d5a91U, 0xbee7739fbe51fdceU, 0x3fa4d3bb400c5291U,
  0x3f1ba836bf46ec13U, 0xbc8d8a473ee41b00U, 0x3e6116c73e0ebe13U, 0xbf5f38a5bfda6b5fU,
  0xbdd8b79b3ed2e31fU, 0xbe7131fe3f160229U, 0xbf89ea04bec428f6U, 0x3edf4dbebe15372dU,
  0x3f5e0243c03ee0afU, 0xbf6dd1f73eaa5e1bU, 0x3d74bdc63eb71d0cU, 0x3e5614a53f48af83U,
  0xbee8c5ff3fe429b9U, 0x3f75da2abf8e2977U, 0xbf15147cbd3d2bc0U, 0x3e470c243f9549f7U,
  0x3fae76cabf075155U, 0x3fe964e6bf61b0f5U, 0xbe1bff5dbec1322eU, 0x3ef1efc73f08f1d4U,
  0xbce1897fbf301499U, 0x3f0a5a25bef6d3c5U, 0xbc7c99a13f665c50U, 0xbf66d1553ee19013U,
  0xbe43636f3eb7ce6cU, 0x3f86d3eebed165a6U, 0xbe9af4ef3d6057d8U, 0x3ee20af0bf822068U,
  0xbe93f3b23d8beebfU, 0x3edd0bfbbec49cdfU, 0xbf8c5b83be67b36eU, 0x3f101d88bf9c8854U,
  0x3ea80716befe7f5bU, 0xbfec1c9c3f98b80fU, 0x3e1209f4bf9221a1U, 0xbf1d48343f94a6ceU,
  0xbf4491c9bfca5395U, 0x3f094b323d123e34U, 0x3f4e9271be8468ddU, 0x3f50e710be46d938U,
  0xbd40aadabf039b8eU, 0x3f09d86a3ca382b7U, 0x3f0b9d3b3f092736U, 0xbef86ef83deecd99U,
  0x3f0dea543ed61648U, 0xbf711170bf4562c2U, 0xbf7c3ddf3efd9f14U, 0x39f7f9623ecd6e87U,
  0xbeae980f3b0e6707U, 0x3fd00a913f1e8ba5U, 0x3f2fc70dbf89e3fbU, 0x3f85e383bf16d54eU,
  0xbfa32ec0be45c8e0U, 0x3f3149533f393dd0U, 0x3ee3285abeae9f4bU, 0xbf88ee93bf20406eU,
  0x3e7fdfe5be9d5a1eU, 0x3eb0814cbf1164b0U, 0x3e2939adbb49207aU, 0x3fbc594ebf24587fU,
  0x3f879b82bf212c25U, 0xbed29757bd7e0758U, 0xbe8e78debf1717aaU, 0x3f9fe1e2be53f7f6U,
  0xbf0ac610bd08be1aU, 0x3dbfccec3e6baa97U, 0xbe8c50dc3f8a5c14U, 0xbf3484103f8900baU,
  0xbecaf635be814968U, 0xbef5db1e3eda4390U, 0xbe88147ebea443b9U, 0xc002b6ebbf0c0749U,
  0x3f3f59d13ebb6551U, 0x3f6c6e163f6a1183U, 0x3e8ec885bf7f5422U, 0xbcff49b73f12bcc3U,
  0xbd94be123ede75a8U, 0xbf714223be30cbe2U, 0x3e5f58a9bf15e98cU, 0x3df99c79be1442bcU,
  0x3e891719beee00c1U, 0x3f134d683eb8e2cfU, 0x3ee818f73ec5d850U, 0xbf89be6b3ead6d9aU,
  0xbd759ee4be6c9716U, 0x3f96bac93f770d7bU, 0xc00132343ff0d036U, 0x3d8e63e9bf4f5b3cU,
  0xbdf5ade73f04b4cfU, 0xbf904b783bb6d70cU, 0x3f65aea23ed9b033U, 0x3f1e5b86becbea23U,
  0xbda65ccfbf405de6U, 0x3ea214a03c23086cU, 0x3f173813be9d4f53U, 0x3f0e0162bf5db5f5U,
  0x3e8294993f76540eU, 0x3e2934bfbf05d9b2U, 0x3e130a073f93f5a2U, 0xbf43a70f3d0ec2c3U,
  0xbe62e8ca3f3b2ab6U, 0xbe95943abe2ae34bU, 0x3ecdb15e3eda2d6fU, 0x3f4c8f1abeb165dbU,
  0x3e383b2e3d2aad1fU, 0xbf21d4b93dd2d7efU, 0x3fbae9733e3a012eU, 0xbf9c3f29bd94e4baU,
  0x3df03d8f3f1cb23cU, 0xbf8b5213bf92b167U, 0x3d0f72d3bf4b2e33U, 0xbf090c3e3f53ae5bU,
  0x3f578f4a3fa291bbU, 0xbf442897bf5c4792U, 0x3f325ef8be0b01c1U, 0xbff6c9033f817ca2U,
  0x3e0cc8103f8aae5cU, 0xbdc0d86cbfdfd8c8U, 0xbe8662a2bf47621aU, 0x3f640aad3e82d925U,
  0x3e84c94cbf573c1cU, 0xbc3c9d34be9989c9U, 0xbf4ae8aebe9893a0U, 0x3f92d185bf0b8526U,
  0xbeb161f3bebdea3cU, 0xbebf7bbb3f1dc278U, 0xbe9cf75b3f1429b6U, 0x3f04ace33dc344dfU,
  0x3eae95fbbec68ac0U, 0x3e9bf9463efc8097U, 0x3f83db243ed9a096U, 0xbf93ba1d3d66f074U,
  0x3e9b6af33f85f44aU, 0xbe9368bebeeed503U, 0x3eadc3d43ec9b8b9U, 0xbdcaedc03ec5d023U,
  0x3de8d54d3e1af45dU, 0x3f5eea8dbeb157e6U, 0x3e98276c3e208731U, 0xbfc75a1240256195U,
  0x3ca61700bd5f552eU, 0xbefe41b1bea62e1bU, 0x3e94c9d3be2bd10aU, 0x3eadd4673e695c92U,
  0x3d875030bf4726c3U, 0xbee36f9cbced3cb2U, 0xbf3344303ea16919U, 0x3f38d4e03e8893c3U,
  0xbf88ea5cbecb79efU, 0x3f31bc423e87789dU, 0x3e12348ebe88e4efU, 0xbbbf46cf3f99e428U,
  0x3ff43c30bf491aedU, 0x3ba345dcbeb4c905U, 0xbf560e623d4b7281U, 0x3edb28533be3f65eU,
  0x3f915cad3e1219c0U, 0x3ea112ddbfb1b27aU, 0x4011d3ac3f021b34U, 0x3f996d233f423b47U,
  0xbebbfdbe3f895eb3U, 0xbf46070e3e62e8afU, 0x3e4ca8a0beba7899U, 0x3e884d8c3f2dc8fdU,
  0x3f0095113e075c08U, 0xbd1485dbbe37bcecU, 0x3e960709becf146cU, 0xbe2e0c62be6d17fbU,
  0x3f208dc4bf093e0fU, 0x3f0c24c3bf6f127eU, 0x3d9a300dbe8fcec9U, 0x3f10f32a3cf5c853U,
  0xbe0223853e1d4c16U, 0xbf40b5813f1f95b7U, 0x3f200bcdbf1d2d74U, 0xbe10ba77bf3efc3bU,
  0xbeb86ce0bf624d4aU, 0x3cba466fbeecf8ddU, 0x3d7879df3f2a258aU, 0xbf48b6a0bee0fb95U,
  0xbd3076243fdb9d97U, 0xbe943fa9bf9cb520U, 0x3eee4708bec024baU, 0x3fd0b62cbe072032U,
  0x3f37ee013ef7a45aU, 0x3f5d421b3d968a89U, 0x3f6ba309bee01e75U, 0x3e2b0b9fbebffe9dU,
  0x3fb282babee56570U, 0x3f064fb43d8b436bU, 0x3f4ea6d53da66277U, 0xbbfbdf6d3ed3628cU,
  0xbf372ffc3f226511U, 0xbdefc9b4bee56a61U, 0xbf9e3cb0beb8c042U, 0x3e47fd513ec38386U,
  0x3eb410e5bf167733U, 0xbe86b72a3f8bda2cU, 0x3d747220bde2489cU, 0x3ede8ce93f37a927U,
  0xbfa6965e3f543c43U, 0x3ef6917c3f0dca82U, 0x3f21879abeb52444U, 0x3e521066bf0f0122U,
  0x3e8aa320bf03e7a0U, 0x3dfb17783f312d7aU, 0xbee158db3cb3535fU, 0xc0357f853e6ae5c2U,
  0x3ed1b6013f7303b7U, 0xbf164acbbeb9a16fU, 0xbde1bacf3f19de70U, 0x3eb4bd84be86b983U,
  0xbef8a1eabf1413aeU, 0x400f26943f74c13cU, 0xbe8b803a3e5573bfU, 0x3e1a0b413e878adbU,
  0xbf20efb03ed6a281U, 0xbe4316f0beb5d25aU, 0xbf0ea530bf19fa9cU, 0xbe7492813f0f8147U,
  0x3f91ec943d35c4d9U, 0x3ef7031f3efeb1cbU, 0xbe1d86553f30ba95U, 0xbfbcac2c3f43659eU,
  0xbe857472c00dcf5eU, 0x3c72ae0abf312c19U, 0x3de5fc03bdee6f86U, 0xbec29ea9bf723801U,
  0xbede7c99bf0257e1U, 0x3d847c853df1a4a4U, 0xbef7ec3b3f26fa13U, 0x3fe90f16bf8f38b2U,
  0xbd80a9be3e9e73a2U, 0xbe3869cb3f478e5cU, 0x3eb46a2f3eee68c1U, 0xbe1f9f2c3b142cfbU,
  0x3eed32403f0e8dc5U, 0xbf275a64bf6fbc3eU, 0xbcb2f20b3f0ef63bU, 0x3f4ff902bebef7c0U,
  0x3eba5d18befeb49eU, 0x3f80fe5c3e8897bdU, 0x3f0f9b57bf8bec7aU, 0xbdf5d88a3ea693bbU,
  0x3e8dfa70be02dcaeU, 0x3e0b2ff8bf435937U, 0x3eb1916bbd028a92U, 0xbfffd833bf4092a3U,
  0x3f976ffcbe802691U, 0x3dc3e0733f4884baU, 0xbe712bb73fb71e15U, 0xbdbea1313de5fd20U,
  0x3f834bb3beb807b1U, 0xbf89d3e83ee897f5U, 0x3e9ac5bd3f517ca6U, 0x3a27b9993e861d76U,
  0xbed0633d3f72b2d1U, 0xbfcd76dc3f61a505U, 0x3def0c133a233ec8U, 0x3f2bd6343f1b2c70U,
  0xbdab9f093e7d6ac9U, 0x3f42b191beb4f2efU, 0xbc53f0f63f7df4b3U, 0xbf06ad1c3d85dfd8U,
  0xbfb4d12c3ec4e26dU, 0xbefe78cf3f092b17U, 0xbf414ee73f063959U, 0x3e2e5772bedbd01fU,
  0xbf04d4dcbf850378U, 0xbd5693913f8b7c09U, 0xbe3180cdbf4f5522U, 0x3e15cacf3deafaa9U,
  0x3f1a1d163e7a364dU, 0xbf6dd7e23fbb9c74U, 0xbf5bae08be69b8efU, 0x3e37da933e4591bdU,
  0x3dc2bf7cbe0d1a32U, 0xbe9a1d553f524ac9U, 0x3f36ed8fbf82b32bU, 0x3e1af8803e91e65dU,
  0xbfaab1fc3e151c3eU, 0xbf06547ebea9cd72U, 0xbeb30951bf23a349U, 0xbe978c593ec2c105U,
  0x3e25f8bfbecb2cb4U, 0x3d3afbd93e3e921eU, 0x3f9e5b553eade66bU, 0xbf77a1b43ee9ec9aU,
  0xbf2d091dbef2452dU, 0x3e7782b0be0da6beU, 0xbbd7191ebe88ec18U, 0x3ebe25753ebe918bU,
  0x3e98ec66bea23032U, 0x3f36b6c4bf63a340U, 0xbf12f8b1bf15243aU, 0xbdcaaf833e96de30U,
  0x3f7b81493e8f34f1U, 0x3daf8a27bcc3187bU, 0xbf9085e5bfd20569U, 0xbf1211f33f35e924U,
  0xbf358dcbbf0fda53U, 0x3e4750383b8eb677U, 0xbde91e0e3f25fdf6U, 0x3f0ce959bf99c041U,
  0xbf4f877abe6e010aU, 0x3e7adcff3ee5475bU, 0xbf85c364bf8b4a64U, 0xbc543cae3f3c6a5bU,
  0xbf26ca9f3fa7bc2eU, 0x3f25cb8b3d1a0c80U, 0x3f3718ecbdfa002bU, 0xbef7223f3f141ca8U,
  0x3f2c0c613f345f63U, 0x3f06ce323f5165a0U, 0x3f64004a3fb39cceU, 0xbe202f6a3fa59b1dU,
  0xbe7c16af3ec5511dU, 0x3c8fc793bef9446cU, 0xbf2ebbcdbead24c7U, 0xbefb66dc3e6680b1U,
  0xbe6651b33faf347aU, 0x3f43b4713f65ec26U, 0x3dd7bf4bbf0c49f5U, 0x3f95740b3eb2d730U,
  0xbef33c5a3ec22b75U, 0xbb1e8ce0bf0271f1U, 0x3beaa192bdbd7ee0U, 0x3f8a96b2bf8c1216U,
  0xbed453f73eb5012eU, 0xbe8af0a83f63fedfU, 0x3f1fdde6beadc5c5U, 0xbf089a66bf8019e2U,
  0xbc9c856ebfade036U, 0x3d81fddc3e5d87d8U, 0xbece226cbe22dab2U, 0xbec06d9e3bd92a2bU,
  0x3e5fd140bf1c221bU, 0x3f50daa3bf2e315fU, 0xbed83e193f1cbebcU, 0x3ebabdc7bf31f94fU,
  0xbf3b4de03eede7cdU, 0xbf9db9783ed99a95U, 0xbeb96fc43f562372U, 0xbe953c5dbf1744dcU,
  0x3dcd52f2bf1a50c9U, 0x3ecb25ef3f99e2b7U, 0x3f63508abf33cce5U, 0x3f4764523fce0fb4U,
  0xbdeb37873ecdf02cU, 0x3b3051703e5f3274U, 0xbf02cbeb3cd53c5eU, 0x3f3a6dfabc8e78faU,
  0xbce2831dbe61b204U, 0x3fa1ec9f3f23f2b6U, 0xbef21caabfd9485fU, 0x3ea1cdd43d81f8c7U,
  0xbf919ce53f325d11U, 0xbf0399b63f77f672U, 0x3f11e770bf860698U, 0xbea4ae9e3f01ef12U,
  0x3f3b9ca83e85e4bcU, 0xbcc8d14a3ed7b818U, 0x3e880e98bc80d5c0U, 0x3f09dc8abf8987c3U,
  0x3f2cefb03ebce38bU, 0xbc29e31c3ea417c9U, 0xbef3d1cb3ccbebc0U, 0x3f638b4e3ee60dfaU,
  0x3f0239723f47a16aU, 0xbdfd66233de637b9U, 0x3f033fcdbf223ed5U, 0xbefb8056bf1062f2U,
  0x3e9e19123f1e0d68U, 0xbf325e8c3f2fca81U, 0xbdb1129a3e8a9e04U, 0xbce1ea80beb3b4a1U,
  0xbf48bd0fbf944c22U, 0xbe6d88943f293d3cU, 0x3f6b8c953d805935U, 0xbf1cef27bed2f928U,
  0x3ea20a983f3edf6eU, 0x3e5a1f2f3f4cf49aU, 0x3f27635abea62c2dU, 0xbe2e080abec2a5fdU,
  0x3f5000813ff0c68cU, 0xbe4914be3f824690U, 0x3edaf62a3f3943daU, 0xbe4823d63f40c638U,
  0x3e6b98c1be00c8e6U, 0x3f27958cbf40ef9dU, 0x3f0c65b0be8f4d72U, 0xbe3e5bfc3d808460U,
  0xbf1665e4bf393995U, 0xbf27dcd23eb5cc2fU, 0xbf3addf13fc4b60dU, 0x3d9ce90cbd857311U,
  0x3b35db95be859f4eU, 0x3f4478b63e0477adU, 0xbf059e593f34bba9U, 0xbec853f63f15da30U,
  0x3e9908a53f19f6e6U, 0x3f5454f23e52c459U, 0xbe2c464c3ee13779U, 0x3c6ba8743ed9baeaU,
  0x3e27948d3f186cc0U, 0x3fff05d93d59ec5cU, 0xbed24d30bd05fc22U, 0xbc3d4fae3e5b82b4U,
  0xbec305edbedd7a3eU, 0xbd9cc728bf702498U, 0x3eb381303eccfbbeU, 0xbefc60c03e964edeU,
  0x3f57a017bf3a8665U, 0x3f90b3c9be3acdd7U, 0xbf8dcd08bf9d6e04U, 0xbdccdc17bfa74ac5U,
  0x3f8228873f9182ccU, 0xbdb2ddaebf84f755U, 0x3db90aca3ec43ffcU, 0x3ed62ebc3ec91119U,
  0x3e00c8b73eea9051U, 0xbf8a5c913e107b42U, 0x3d1252203ebb2142U, 0xbe984a5bbf0d9a1fU,
  0xbe59fc633e9ed77cU, 0xbbe1b4c63f1866afU, 0xbf0669363e2b7445U, 0x3e1323f83f031d4aU,
  0x3fb362c1bf22219bU, 0xbe5094bb3f92487aU, 0xbf1d7cc53dd8728fU, 0xc00ae8afbec8d1bcU,
  0x3d6ca6f2be907cc0U, 0xbf96bfc2bdf25386U, 0x3f1c5a323f518840U, 0xbf558c263e82e4c0U,
  0x3f935e323ee147e0U, 0xbeaed185bf70d4f0U, 0xbecaf947bf1bef7dU, 0x3e44ee9d3ea3f83aU,
  0xbd367b05bf0a53caU, 0x3e1f50b1bdaa289fU, 0x3f1e0cbf3e7344a4U, 0xbee64f9c3fb81b98U,
  0xbf1bdff33f60c475U, 0xbeb993a83e19e314U, 0x3fc407373f5c186eU, 0xbf4f491f3e9cfb03U,
  0xbf988a5f3e981ebfU, 0x3ed2edd53f5c6865U, 0x3f745a38bf0bd5e5U, 0x3f1ba5443f52718aU,
  0xbec9b3263ebe937bU, 0xbf22ddab3f25f4a6U, 0xbf52ba643d8024e3U, 0xbf38e1d0bf4bf69fU,
  0x3e959d92be005060U, 0x3f2d54a2bec22d4fU, 0xbf963d603f5d6c1dU, 0xbe4bc5edbef90bb0U,
  0xbe342e8f3ea5da7bU, 0xbf0aee753df5e60dU, 0xbf1177ddbf82963cU, 0xbef11cf63f883922U,
  0x3e04be0e3f17db8dU, 0x3ebbddea3d22bf89U, 0xbcacb9c3bf185a8fU, 0x3ff93d163f2e041cU,
  0x3f0336bebf8f3ee2U, 0x3e5cc4303e1231e4U, 0x3ef67d2ebd6e2d65U, 0x3fa56da6beca46c1U,
  0x3d5a10f6bd41cfc0U, 0x3f4cf4de3dd4ed1cU, 0x3cf7ef6fbd4d6edfU, 0x3e9beb5ebf2686aeU,
  0xbfac42f5bef086faU, 0xbec522f4bebcabbdU, 0x3f246e78bf16840aU, 0x3ee36841bf44bec1U,
  0x3e7750683f5d2074U, 0xbe5c81563f58112fU, 0xbdc175243ebf13f2U, 0x3f2fbb35bebd8ce5U,
  0x3fa66a403e31c1c6U, 0x3ed8765abedf3dbbU, 0x3ee7ff8cbd9fa2f0U, 0xbe4ac0dbbecb64beU,
  0xbee6349c3ed598cbU, 0xbfbc8545bfa50cc6U, 0x3e1ad5aa3cad4a26U, 0xbfb79ff4bf242d48U,
  0x3dfce08abe2c9e05U, 0xbf547b3fbf404e7bU, 0x3eadc47abf7703cfU, 0x3fa80816bed2c9a2U,
  0x3eeeec4b3f4fb21fU, 0xbebfd86ebf0fb174U, 0xbfe3b09a3cccfa19U, 0xbdda9e71bea19286U,
  0xbeec5b893f5ab2eeU, 0xbebd04553ed67f0aU, 0x3e89a22cbe9b54b8U, 0x3da7463a3ef02c92U,
  0x3e961574bff9543dU, 0xbee37c0abfa11766U, 0xbe18cccfbdfdc5f0U, 0x3f5063b73f8a92e8U,
  0xbf8754b9bf452f54U, 0x3e4e850b3f47bc25U, 0x3e0387ccbf058fa5U, 0xbd19a5fe3f33374bU,
  0x3cce1feebf94ab83U, 0x3ed205debf14ceb8U, 0xbf64d578bb32558dU, 0xbf52e3573eacf78eU,
  0xbf745a50bf91f059U, 0x3e889ee13e1e1a0fU, 0x3ed17086bf80d384U, 0x3f85d84cbe2c7ba3U,
  0xbd3c523f3fd662ebU, 0x3f9f4d3c3f62a743U, 0x3f2bd5493dab0e8eU, 0x3f3b05183d1ea6a6U,
  0xbeb414cabf474419U, 0xbee874f73f414326U, 0xbdac0c95be9c66cdU, 0x3e02960bbe17760dU,
  0xbd4ed693bf1946a7U, 0xbdbd61193ecf4d2cU, 0xbd53c8ccbaa1426aU, 0x3f404f6cbf2eccedU,
  0x3a059360bf1e8e15U, 0x3eb8b811bf1cf846U, 0xbf6be3613f421e44U, 0xbe147838bead59bdU,
  0x3fa8c5e53ebaa865U, 0xbf6eb1ba3f19eea4U, 0x3f3c0477bd5dfecbU, 0x3f814589bfb12e7bU,
  0x3e74db58befe4c05U, 0x3f7de0cebf64acfaU, 0x3ea5702b3f3b362cU, 0x3eb85d803e9bdaf8U,
  0xbe9ee91cbe8c9a51U, 0xbdea6d7a3e8be060U, 0xbf7e74643e14f587U, 0xbf31a59bbf44e12cU,
  0xbe95de033fe3bdf1U, 0xc00b8b95bd7829fdU, 0x3c8ddd82bf1af1b3U, 0x3f216ccbbe8bac28U,
  0x3f7f78163ecde350U, 0x3eaeda113e53daedU, 0xbed81e523f9cf0feU, 0x3f5715fcbebe13b2U,
  0xbea3bc6b3f1e2ff3U, 0xbf16410cbf6e2d86U, 0x3e39e8363ee54e61U, 0x3efcd956bec50d0bU,
  0x3ec894afbedfea09U, 0xbf0e5333be745c9bU, 0x3d8e363d3fe6cba3U, 0xbe35ac53bf7ff61cU,
  0x3e79ae1dbde55174U, 0xbec2fabcbe86851cU, 0x3cf9b410bf6b1f81U, 0xbf9737063fc56e68U,
  0xbf2ff528bf08ab9dU, 0xbeaa2d1cbe7c122cU, 0x3f93d0a0bf95cacaU, 0x3d4b2b723e750b26U,
  0x3f5bc5a9be03fc19U, 0x3db1d1463f781ac3U, 0x3fccf34fbd27ed0bU, 0xbf72ad21bedfe75aU,
  0x3e60ca2a3f2a9f91U, 0x3d6f5fa53d186856U, 0x3eac5e0d3ede2badU, 0xbf5c81aebe30a6e2U,
  0x3e6ffcdabfb6835cU, 0xbec12e263e5ff61fU, 0xbefbbde13ee150bfU, 0x3ec50d0fbd927f84U,
  0xbe4e5dfabf4f1907U, 0xbed42cfe3f6213c5U, 0xbed8b4babea4ac5fU, 0xbda62d543e33d644U,
  0x3fd5cd86beae4483U, 0xbf1ae549bf47c379U, 0xbf7867f0bf541be4U, 0x3fb00305bf2e1887U,
  0x3f11deabbf270e28U, 0x3f4b77d93ef1e071U, 0xbf49c2cabe281480U, 0xbe8f9fd4bd874359U,
  0xbf37b3753faf2b8aU, 0x3ebd2252be82f530U, 0x3d4937783c9f3425U, 0x3f3dcf083d8f1978U,
  0x3cf53cb33e691922U, 0xbf4c3a543e295721U, 0xbf83f964be16ff26U, 0xbf119697beb5e10bU,
  0xbf2e20d03f7ddbb9U, 0xbe3310a13ed7eed1U, 0xbe9fbb6b3f4027dfU, 0x3f2fe6d73f5d336cU,
  0xbeb8f8d33f0c691bU, 0xbe4362c3bfc25288U, 0xbf83c16d3ec74a73U, 0x3e9faca33fb40862U,
  0xbce8b05abf57ffd3U, 0xbe989b33bf1cc96dU, 0xbe51d17dbd1c35d8U, 0x3d8574883f14954cU,
  0x3e52a7df3f9cc311U, 0xbf12b2a7be8bdb4aU, 0x3ed4212bbe49ec0eU, 0xbedbde103e397464U,
  0xbea723b4bf0ca8a3U, 0x3f94261ebf1e5a27U, 0xbeb9f56d3e18169dU, 0xbf10aa8ebeadb5b3U,
  0x3e23e44a3e76b556U, 0x3e8f112cbed8c7bbU, 0x3eca94d33c778e59U, 0x3f612e82bdb19787U,
  0xbe5a25eb3d5cc8b9U, 0x3eac3611bed91f93U, 0xbf930817bfda0ae3U, 0xbe4908aa3d85cd7aU,
  0x3f460167bf07e3f0U, 0xbf09b56cbf5b1610U, 0xbe93a8fabd70e3fbU, 0x3e9db1d4bf01374dU,
  0x3f50f02d3f033bb3U, 0xbef8fe20bebe1d76U, 0x3f0c69af3f058235U, 0x3f2ca6683eeb4960U,
  0x3f817473bf910763U, 0xbe7bd2c23e116dc2U, 0x3f2826eabe4061ecU, 0xbe05553cbf1ca5ffU,
  0xbe3641773f01bf65U, 0x3f43b335bebe7cabU, 0xbf5b1e953fd2860eU, 0xbe4b195c3fe9dbc2U,
  0x3f7304d7be826712U, 0x3ec92fdb3e9eec5eU, 0xbfc65e76bd6a0d9cU, 0x3eea22ffbfa567e0U,
  0x3ea1f9aebf032732U, 0x3ed95289bf0dcda0U, 0x3ebf0bfec008e003U, 0xbeeb6d943f28e37aU,
  0x3f120d50beb5d578U, 0xbf4edcfb3e20c996U, 0x3e8c511bbeee468fU, 0xbef7c0e0bf1f5349U,
  0xbf5426a93f5286a7U, 0x3ec64a4abf2d1bebU, 0x3f0c384bbdfb3081U, 0x3e0e7753bdefb5e6U,
  0xbe8803a13f616344U, 0xbe9bc5f33e88981cU, 0xbf7d01b13eecb5f9U, 0x3e822ef83ec4d45bU,
  0x3da705e73ed286cbU, 0xbf973fba3f8b835eU, 0x3edcbbc9bf269774U, 0x3fc44d7abed5f48aU,
  0xbfa3c264bea7bcf2U, 0x3e677d8b3edf965eU, 0xbd74c4ea3e8457a8U, 0xbfcb16ebbe631012U,
  0x3f208630bd8f10b8U, 0x3e8dc19c3ecb47a1U, 0xbe9d5f753deca27aU, 0xbf07b34f3f6a22ecU,
  0xbebe9ba1be8d8fcfU, 0x3ec0b46d3f0a5ee4U, 0x3f93e2aa3f018ce8U, 0x3f71af7cbe70f935U,
  0xbe13dccdbf963264U, 0xbf0dd6fabf05c10cU, 0xbee8ae823eef9d55U, 0xbf384562bfacd47aU,
  0x3f4c8af53e3fb35cU, 0x3f9dd4a4beae8956U, 0xbe3e4dc6be7098e7U, 0xbebc45df3e9d1f77U,
  0xbea474efbf067925U, 0xbfd63caa3fb9b6d9U, 0xbf18c0db3e2486aaU, 0xbf2fd6703eb64fe6U,
  0xbff07ec9bbfc4757U, 0x3f0a14973eb8fba0U, 0x3fd5fc213e9a40e8U, 0x3f9798853f682135U,
  0x3fa0b1f54001439aU, 0x3ecf342b3e80e3a1U, 0x3ce486e1bef585aaU, 0xbe7a9dd93e98d37aU,
  0xbe9727d8befc55fcU, 0xbe9912f8be3f6682U, 0xbf816fc0bf6a1394U, 0xbefc9e7abf859b50U,
  0x3f37052abf8da54aU, 0xbd90d682bc1c5b85U, 0xbe84f3e1bea469efU, 0xbc81b5153e2c179aU,
  0x3d850adebdb43e06U, 0x3d8afb25bec50afaU, 0xbf9cb0934003d2d3U, 0x3d4274d93ecfad7eU,
  0xbf33fac93f8381f9U, 0x3e90cd16be206766U, 0xbd85cf243f7140a1U, 0x3e978e353eec5416U,
  0xbf4b4337bf693f2bU, 0x3dacc3453db6a041U, 0x3f4f3169bf605415U, 0x3ed8f01abf6d5c7eU,
  0xbfa12002bd9ef91eU, 0xbf86b5acbfce57f6U, 0xbddf05bebc003190U, 0x3ebc08663eb93142U,
  0x3d7cc8813f240c83U, 0xbef48c313f024727U, 0xbe8f7b593e4f2f2eU, 0x3fa5c5cabe2af0edU,
  0x3e88c2eebfbf6c47U, 0xbf749edb3e821136U, 0xbf19282b3ee2ca5eU, 0xbf814fd8bec828c1U,
  0x3d484d773c7ae522U, 0x3fb46d643e5003bcU, 0x3f239fd93f3b5f50U, 0xbea463c03f2a5017U,
  0xbfac527b3e4caa1fU, 0x3fa21a7dbe9c7e61U, 0x3f36cffe3f1afef5U, 0x3e1de989bec53392U,
  0xbddf198c3cf12109U, 0xbee0347ebe9f3cd1U, 0xbec6d4663ef754b4U, 0x3f48929bbd7fff33U,
  0x3ddd3dcd3f01a559U, 0xbf38259abfa56288U, 0x3ea3cbb83d8a8cf4U, 0x3ecd2cc73f851491U,
  0xbfbf102bbf0e99eeU, 0x3e767b54bf613c29U, 0xbe734024bf3534d8U, 0x3dbed96ebf5fececU,
  0x3f05c6c4bf2ef764U, 0xbf58d505be6a2250U, 0xbee2e2a63d4d9f25U, 0x3ed364b9bf2c81f9U,
  0x3f36a3ec3f276365U, 0xbfc99d42bf95d006U, 0xbed3bd323f641e23U, 0xbd5691bf3f31da05U,
  0x3e0a3cc03f9ace61U, 0x3e5b21753eb1debaU, 0xbf569834bdc97097U, 0xbd3d424cbfc1405fU,
  0x3ebebf51bf450c76U, 0xbeb7c1193f198cf3U, 0x3e07d4263eb5814cU, 0x3fbd8ac1bf31321eU,
  0xbe135910bf5584caU, 0xbf5ef538bf3e2291U, 0xbdb6947abdfe2385U, 0x3f6cfd7e3ee84643U,
  0x3e888cf13f2a5dc6U, 0xbe2f80bb3e8d0b9dU, 0x3f51d5ddbe946505U, 0x3f4e4e84bdb8fc34U,
  0xbf40ee8c3ee7e139U, 0xbf7e6b283db32ba0U, 0xbea0a434bf3b4592U, 0x3fe582f0beb81f9cU,
  0xbe857e10bdb1cc8bU, 0x3f599ea3bde34247U, 0xbf02ac92bd336248U, 0xbef1dfffbf9feb68U,
  0xbe36955e3df04e68U, 0xbee77c6dbdf0e2d0U, 0x3e987392bdd1e5e1U, 0x3ffc152bbf2f2cbaU,
  0xbf187ccd3f430972U, 0x3f6cd66ebe800f44U, 0xbe9f1abebe0f4195U, 0xbf3ba7893eefa366U,
  0x3e0fd6453e9a2ed6U, 0xbe57561ebf29c825U, 0x3f465d9a3dd239e0U, 0x3e111366bead957bU,
  0xbf4406223d8775b0U, 0xbf6056afbf06c3a7U, 0x3e19a7043f0dbe37U, 0xbf4bc5a93e69edaeU,
  0xbf1e461fbebc6e17U, 0x3e949abcbf68ae86U, 0xbf16fce34005bd0eU, 0x3f6da1643ecee75eU,
  0xbf38aedfbe5685cdU, 0xbf48e6823e94eb8aU, 0x3e5bc4bd3efbf59bU, 0xbdba4ce43eb64492U,
  0xbec485793ea6cbd1U, 0x3f40f4383f4fbb7aU, 0xbfd6b487be483b0dU, 0xbf13a66bbed8a215U,
  0xbf039b3d3e2597bbU, 0x3d598fdabf0ae681U, 0x3d8c7186bf4960a2U, 0xbdb5d7763e29c75bU,
  0xbe936ee4be84f544U, 0x3f110db03ef0b765U, 0x3cdf7ebc3ea66b7eU, 0x403d45563f1d750bU,
  0x3df2ef49bf4f8c3cU, 0xbea29642be90362aU, 0xbd8b9fd73fcb6532U, 0x3eb03b4c3f5e77c0U,
  0xbf979ceb3f3e76aaU, 0xbe9d40eabea09544U, 0xbf8202babe99bf8eU, 0xbe8e67643edb8457U,
  0xbf9e1668bd3e33daU, 0xbf50c6e4bf56c8deU, 0x3c95fa15bddd31e0U, 0x3e8c689d3e10f6c4U,
  0xbe6b367bbfab601bU, 0x3f751a2d3f8d7ea2U, 0x3e6bccc4bfab8102U, 0x3f88c34d3e2cd427U,
  0xbf7fa07e3f2f639fU, 0xbf9238edbe836d53U, 0x3ed10501be8bf707U, 0x3ed376f8bd702c57U,
  0xbe8531523f0a79cbU, 0xbee157a7bda8fe77U, 0xbf1e5ecf3f7a53d8U, 0x3f513f7ebf017480U,
  0x3e7ed5a53d18c5cfU, 0xbe429ecc3f1e80ebU, 0x3e6b22533f15bf92U, 0x3f1e7dad3f32a58aU,
  0x3f4b2560bf9611c1U, 0x3ebaaae03f255e7cU, 0xbe5c86f73ed86751U, 0x3e33678e3f341c96U,
  0xbe89c6343ee6bd20U, 0xbf49f4bc3efa3278U, 0xbf858da4be512b14U, 0x3ebda39b3eb0c2e1U,
  0x3f66ae49bf34d5e7U, 0xbf89e4403ec5db29U, 0x3f98a865beebbb5bU, 0xbe833c143fababbfU,
  0x3e5eb840be9d9085U, 0xbf2bb3b7bf6b8eb1U, 0x3f0acd73bef76ae4U, 0x3f97c50a3e449303U,
  0x3edcc3c1bf0923bcU, 0x3f87da93bf65a820U, 0xbee368d93f20194fU, 0xbe884d433efcb14eU,
  0xbe96e39fbe3cdf1bU, 0x3ef3bc603ebc0754U, 0x3f34ccf63f523f78U, 0xbe01fa43bdee601bU,
  0x3d50ff04bebbfa36U, 0xbfcdc02d3ef7331aU, 0xbec0f09dbdedb976U, 0xbebd7d32bf4c5253U,
  0x3ed48e15bf2bbb5bU, 0x3f1916afbf0e886dU, 0x3dc8abd93f1fd958U, 0xbfb255873e8c96d9U,
  0xbf116b6dbdb3f01aU, 0xbf7654da3f38e76cU, 0x3f9743dd3f5a8b88U, 0x3e641b00beb6cc7dU,
  0xbd2467633e813925U, 0x3eb580c1bd952e34U, 0xbe0335babfb87310U, 0xbe01bc4ebed2296fU,
  0x3e35eb9dbe594437U, 0x3f165d81be2f219dU, 0x3e9ef3243ead2433U, 0x3ef792ecbeacadc2U,
  0x3f679c0240322746U, 0xbe5379eebf49ee1aU, 0xbf94b7cabe182956U, 0xbd9d1f83bf62d504U,
  0x3f0b7b863ebd21d9U, 0x3dc13f46bcaa4663U, 0x3f045a11beac803bU, 0x3e17836bbf38060eU,
  0xbd114069be87b3e9U, 0x3f38dbd1bf06c8bcU, 0x3f3dd134be2645aeU, 0x3e49c3b8bf12ed78U,
  0x3f451175bf4332dbU, 0x3f39ffb7bed7815dU, 0xbeabf916be9720bfU, 0xbfc884c4be18072aU,
  0x3f814bb93a891287U, 0x3e189c873facbdf8U, 0xbf33d30bbeff1750U, 0xbe193c423e7a5122U,
  0x3ec4f0ae3f934a1dU, 0x3fcd81c1bfa2de5dU, 0xbfb62fbb3c1e5c94U, 0xbf9b56093f6f2894U,
  0x3deed3173dd6120aU, 0x3e966e633f1a094aU, 0xbf842c97bf29250fU, 0xbea8495e3ebfef62U,
  0xbea6c39fbee46f3bU, 0xba003efcbf9abe0dU, 0xbe988e9d3f1808b8U, 0xbfb8765d3f1230abU,
  0x3e0ad081bd91d9d9U, 0xbf8d45ffbf2b4626U, 0x3ece90673f28443aU, 0x3e6d73c43ea284d5U,
  0x3ecfbba23a8ef00dU, 0x3eaf14f8be893e96U, 0x3e649c00bfd52adfU, 0xbfa56baf3de96407U,
  0x3f6c67ad3e65b3aaU, 0xbec76d6c3f6cbabcU, 0xbfa0281ebd3256baU, 0xbd9416293ea45382U,
  0xbf72c2353f8a08d1U, 0x3f7fe85cbf69b19bU, 0x3d1ad2b8bef136d5U, 0xbdbbe84c3f2fa66bU,
  0x3ee24f383f1201baU, 0x3eca72d63e7cb209U, 0xbe4b3edc3e4695aaU, 0xbf2b08693f2efdb3U,
  0x3f91aa593f4786f0U, 0xbf00b9943e8fdb53U, 0xbf2616523e4511f7U, 0xbe49c745bf1ecff3U,
  0xbf8474a6bf0c416fU, 0x3f9312793bd1e362U, 0x3eb6fbbabec454caU, 0x3ef575c6bf2e478eU,
  0xbf790076bdda71eeU, 0x3f0dc5adbe351dc4U, 0xbf97d538bfa0ece1U, 0x3e83e96b3f894153U,
  0xbe5a348a3f0dc2e3U, 0x3e8e9a28be42cccaU, 0xbf95fcfebddd228aU, 0xbf62d9a8bf712d4eU,
  0xbf9a15033f244be4U, 0xbe8f3c4d3f14b2c5U, 0xbe7971243ddbdd9cU, 0x3de8e52ebe803445U,
  0x3ea105d1bef897b4U, 0x3f3d5eefbe0378baU, 0x3f034139bec442d8U, 0xbe84e3f63ee5684cU,
  0xbf1d5f7cbfd1fc73U, 0xbf5f3cca3f767cdcU, 0xbdccfddd3d2c19d5U, 0xbf94ef5abf19ce70U,
  0x3f544d2abf0b2412U, 0xbe9e71c93f4f7087U, 0x3e555a883f58329aU, 0x3eb977173d220b9eU,
  0x3eddc0ca3f985d0fU, 0xbec7c4a4becfbd69U, 0xbf0d57213ed06cdeU, 0x3f44a6b13ebf85c8U,
  0xbf37609a3dfa61daU, 0xbeabfcbabf32227aU, 0xbe6072b2bdd82a01U, 0x3c8b54b33f245fc2U,
  0xbeabef9ebfe9c672U, 0x3f8c9a68be8576b2U, 0xbe9c923ebfdc4fb8U, 0xbecbe90e3e51da4cU,
  0x3e81d1cb3dc95426U, 0x3e21f06abf1e3485U, 0x3efe899d3f57a7c5U, 0x3f9bbb453ee320e4U,
  0x3e8dec363f3bb3c1U, 0xbf0638723f5d19f5U, 0x3e7bf9693e922f0cU, 0xbf83874a3f34fcc8U,
  0x3ee86f903dfdea45U, 0xbe0b826bbee66903U, 0xbf3ddd7cbe14e4c4U, 0x3f3220d0bf9e39c1U,
  0xbe234c933e835bf6U, 0x3fe047323e5fdf5cU, 0x3eb449423f153012U, 0xbee0daf0bfaf1ffaU,
  0xbf2f378e3e169085U, 0x3f1dba1d3ed2eaceU, 0x3eba21c2bee923e9U, 0xbe0e751cbf4392a2U,
  0xbe32fe0bbec83201U, 0x3f20b2ee3e8a1338U, 0xbe9b226f3f4393b9U, 0x3ecedfc6bf3ef271U,
  0xbf33b4713f2d77b6U, 0xbdec9e893f0c0426U, 0xbf176e2f3e36fce9U, 0x3efe44d4bf04a922U,
  0xbf01e0da3d583894U, 0x3f1cc6493e4b98a7U, 0x3d8f6bda3d26d8ccU, 0x3f1e984a3ea693cbU,
  0x3c35781abde7cc30U, 0xbf7e74febe83aa9bU, 0x3eb8e4b83f7d4bd5U, 0x3f5d35b0bea5322cU,
  0xbec16d0ebf49935eU, 0xbf574733bf474eb7U, 0x3fe73479bf8f9fcbU, 0xbeebc3dd3f8101a5U,
  0xbeefdce9bda0366fU, 0x3eb6a93c3ccdc933U, 0xbf3494773ea5c318U, 0xbfb5e9f23e8c5d45U,
  0xbc1a0ace3f6c68ecU, 0xbf29ce6d3e501737U, 0xbe4fa851be078063U, 0xbf743de5be4b2779U,
  0xbf47f9413ed5f97eU, 0xbf2a71e3be89e4f6U, 0x3ff8efd23f3267e0U, 0x3f940b27be51fb68U,
  0xbe10338abfba1487U, 0x3e5cbf713ee5c4fcU, 0x3ee76023bdf1f928U, 0xbf1af3143f85b6e7U,
  0xbf59e5edbed99801U, 0x3f18cf6c3eb203d8U, 0xbf130014be5a9dabU, 0x3f3b90883f1839e4U,
  0xbe320c38beae8cdbU, 0xbf3a5a1d3e7e9ca7U, 0xbeb6c112bf186737U, 0x3f7e3891bf9c773bU,
  0x3e6c581a3fb012a2U, 0x3eb482913e68462bU, 0x3e8808c7bf2e6152U, 0x3e38e9a8bdf9346cU,
  0x3fa68395be5807b6U, 0x3eae517e3f86b4daU, 0xbf0d8eca3c06bd60U, 0xbeaa79663efffe8eU,
  0x3d4e009fbbe8a8fdU, 0xbf03b6923dafb29aU, 0xbe51bba8bed31673U, 0xbddd8928bea31a47U,
  0xbf0c2f77bfd35ef9U, 0xbeba11c2bf316199U, 0x3ef94dfa3f62c250U, 0xbea4a18cbf35e745U,
  0xbf325aefbed952d9U, 0xbefd3f9abbc42b1cU, 0xbf03e2243d723fbeU, 0xc0008bd73ef841abU,
  0xbe99c496bece46b7U, 0x3fe378c73f51d787U, 0xbec3e5173ec19219U, 0x3eb632423f0562bbU,
  0x3f14aea63dc47b72U, 0x3f0ed4b13f42d85aU, 0x3e84a1213f4e7428U, 0xbe9fd6c7bdde6ae4U,
  0xbea2c2a5bf1b1b3aU, 0xbdfe34debede8609U, 0x3e31248d3f6e01e6U, 0x3f3fb9c13f9923a7U,
  0x3f1599123ec9ef86U, 0xbe9bdd353cccb5fdU, 0x3e566fc53ed98387U, 0x3f1ac119bfa2c482U,
  0x3f21369b3f7225b6U, 0x3f828fd6bf75f55fU, 0x3f1835ef3f02f2b6U, 0xbd86ef5d3f153c30U,
  0xbea4072abf3cd2c3U, 0xbf782d5c3fc2d852U, 0x3e9ab3acbecc31a2U, 0x3f6cc8d83ca2dc50U,
  0xbf0c3e68be2b899aU, 0x3e754be7bec4eebfU, 0xbfa6f4a13f94ea25U, 0xbd96310abf8316c1U,
  0xbef32152bf0f94b8U, 0xbe471b133ebc905bU, 0xbd420dd03ee4f8c6U, 0xbd687868be34996bU,
  0xbc6b86c6bebcfaecU, 0x3eac6d2d3e5625b6U, 0x3f2eccbd3d66a8b4U, 0xbf4d116fbef2e490U,
  0xbe540667bf593277U, 0xc00f132a3fe2a39bU, 0xbf78f51cbe180387U, 0x3f6678f33f874eafU,
  0x3f0e40943f53a042U, 0xbf95b3b6bf32bd12U, 0xbee301d6be947bb6U, 0xbf8a7a9a3f5c7681U,
  0x3ef4127c3e9326d9U, 0xbf7e465b3fbc1b90U, 0x3f3681a8bd86770fU, 0xbf9d3d09beda3e6fU,
  0xbf3512733f5d2c0cU, 0xbd63e791bd5c2db2U, 0x3eae371fbe60552bU, 0xbe81a8d8bf2399edU,
  0x3d8907d7bdd47152U, 0x3f123bad3e16a94aU, 0x3ed41438bf84d754U, 0xbe966112bf7899beU,
  0x3fbce186bf58b56cU, 0x3e61a10cbfabdc89U, 0x3f10004d3f84499fU, 0x3e324040bea6acd1U,
  0x3d9b78843d3d8e6cU, 0x3e96713dbf37cdcfU, 0xbe8defaa3f46beedU, 0x3e5a88eebee997f7U,
  0xbf286e6e3d78b02fU, 0x3f2bd5463f66e946U, 0x3f00e9e93f853b6bU, 0xbecbb5393dccb737U,
  0x3dde859ebe8479e2U, 0xbfe33f263ee0504eU, 0x3eea20963ebb9e79U, 0x3e25919abf6c2abeU,
  0x3d8b8b7bbf1cc78cU, 0x3d1ae1e5be663d5dU, 0x3fc529963ee38699U, 0x3fa6f4b5bf14585dU,
  0xbe81aba53f89fb15U, 0xbe8ea046bc0313edU, 0xbef5d6983ef2a5d8U, 0x3f134f07be923d6bU,
  0xbe3dfc3cbded26e3U, 0xbe07a6b0bf8a882fU, 0x3f3a4a713ee84f5aU, 0xbe5391823f54ccd4U,
  0x3e6a4904bef236d3U, 0xbfb8eaf5bf3a62d2U, 0x3d59a0c43f86b885U, 0x3e4400523efb906aU,
  0xbf8671aa3f0a3905U, 0xbe7424343e752616U, 0x3f5784d13f9e03d6U, 0xbe865c203eba1fd0U,
  0x3f2546b73fb43c3aU, 0x3ecf83d53f814178U, 0x3f3f93b83e2b1a03U, 0xbf436206bf63ddc2U,
  0xbe00da903f3e498aU, 0xbefbe0e13eb3d997U, 0x3ec73adfbeceb608U, 0xbeb2443a3db9cd80U,
  0xbf0372da3e3c2b63U, 0x3d8c247f3d907c58U, 0xbd669309bd893ff3U, 0x3e11bac73f8b62edU,
  0xbf2042513e76284dU, 0xbedcc192bdf8172fU, 0x3fb4dc2bbea8ee08U, 0xbeec31ffbf5c2fdfU,
  0xbf78af0c3f7f744bU, 0x3ee52b393f87609fU, 0xbfa592f73e28d3a2U, 0xbf0be7203fbb7c03U,
  0xbf6946ea3ec87c75U, 0xbecf92ed3eabd131U, 0x3cc83736bed66173U, 0xbf790db5be2347bfU,
  0x3f855b45be6d1566U, 0xbe83f12cbc8665e8U, 0x3efb372c3f76487aU, 0xbeda63b2bfcc8932U,
  0x3f704fc03e011a13U, 0x3f5d06da3ce67fadU, 0x3f944cdbbe10dbdfU, 0x3f935cb5bf13bc20U,
  0x3ed867f2bfba9773U, 0xbf570635be4651e2U, 0xbedb28e93e27a35bU, 0x3f1ce985bdf5e1c7U,
  0xbf0afb9e3e1b8c5cU, 0x3dccc803bef916f8U, 0xbeaa660fbe085aaeU, 0x3ec59f21bf810955U,
  0xbed1283fbe0021b8U, 0x3f3702403e6f372bU, 0x3f4b8a803bd618b5U, 0xbf17e5283f299a48U,
  0x3d87517f3e196178U, 0x3efa57fcbec174f8U, 0xbf103a6ebf4e69d3U, 0x3cbc181c3f048bd5U,
  0xbe77cd5bbeca0eb1U, 0xbf15b0503f01ac05U, 0x3e964b44bf951948U, 0x3de8030dbe6d5238U,
  0xbe93199d3dbc84e4U, 0xbf13aeafbe3ab24aU, 0x3fca629a3dcc909cU, 0x3f259d0fbed77869U,
  0x3f9bf18d3ef66cefU, 0x3f17a63d3ed890a2U, 0xbe8ec9223c05a69aU, 0x3eae6010be19d9daU,
  0xbfcd8aef3f9aabc5U, 0x3f8399b0bf82030cU, 0x3f54bb283e928c73U, 0x3e9950843f57561cU,
  0xbac63a043f0ad09cU, 0x3f633cde3e2475daU, 0x3f567aa1bef1a9ddU, 0x3fa1d7503fe33b95U,
  0x3f1a89f93fb5e3daU, 0xbf9e3032bf92f5c6U, 0x3ee264e03e8b2dbdU, 0xbf5de8df3fd00705U,
  0xbe64e3cabeed1a0cU, 0x3e2f15c8be3bc617U, 0x3f40f602bf449b06U, 0x3f2f59063e9c998aU,
  0xbe7e36fbbded26acU, 0xbc288056bf2ed7e3U, 0x3f0b7dad3c335131U, 0xbf1369a9bee193f2U,
  0x3ebc46ad3ed83d58U, 0x3e20b6103e786782U, 0x3e9a06babf5b2165U, 0x3ef1a2083ecd4617U,
  0xbe68e30ebe1db66bU, 0xbe2126f83e8f011fU, 0x3dc3b3d7bec4e774U, 0xbf059d39bebcf06dU,
  0xbfb2feb73f4adaa1U, 0xbf13af03bfb483c8U, 0x3f812ba23fcba385U, 0xbf18b15f3f46c20fU,
  0xbc5e69e33dde5adfU, 0x3e8ba207be0a0f6cU, 0xbd24a4663fb95457U, 0x3ec6ea66bfc0f156U,
  0xbdeb0ef8bec5275dU, 0x3f93eceb3e534322U, 0xbe079cf43eaa4550U, 0xbe2fd64cbc138f4bU,
  0xbf14a3343fd69494U, 0xbd6d64743ebad75dU, 0xbf0d93cebe87b14cU, 0x3db0d806bea440a3U,
  0x3f93e6fd3e11336aU, 0x3dd9d943bf290166U, 0x3f07c493bf90d02aU, 0x3f138870bf242cbbU,
  0x3f7436ad3f0fe70fU, 0xbed36f5dbeefe989U, 0x3e65fa72be2d09ddU, 0xbf16c2c2be33ca41U,
  0x3ee34aa1be48af7fU, 0xbe8dcbe33feda30fU, 0xbf6571d33dd67280U, 0xbf237dc4bd0d58beU,
  0xbf3416c7be89789bU, 0xbe5618683ea1bb33U, 0x3edd18c3bf8eced3U, 0xbf9157043e50e374U,
  0xbe24c8423e2fc213U, 0x3e10aa343e93fcbeU, 0x3e4467c43ef0ae76U, 0xbf1723fcbeab78a7U,
  0x3f882809bee43f56U, 0x3f549de9bf5880caU, 0x3ee3ccdfbf0243a4U, 0xbeb19ec940023a42U,
  0x3e0afbc1be1aa2f4U, 0xbf3086733d9a859aU, 0x3f366b3c3e4e2478U, 0x3f1e43163f4fd2fdU,
  0xbf027a39be7baadcU, 0x3e66719ebf08d93dU, 0xbf1452dd3ed872c8U, 0xbd80271c3e24ab76U,
  0x3f1f597f3f76a889U, 0x3f38995abf8f54c9U, 0xbe88b0a83d3143eeU, 0x3eef36283f05bb29U,
  0xbf4f89ba3f8d2054U, 0x3f32d7473e23f9acU, 0xbf0168193e469260U, 0x3cec2f463fd0ad04U,
  0x3e3a0d3dbf54195eU, 0x3f8de6583e3993a6U, 0xbe32bc52bfc0bbe3U, 0x3eb7b56ebec20a5eU,
  0x3aad205a3d7d7f92U, 0x3e6890443f082457U, 0xbe1ac94cbf5d056dU, 0xbe98d19c3f30f7bfU,
  0x3ccd74853f936321U, 0x3fa6b043bde022f1U, 0x3f57aacdbedd1d49U, 0x3f3020bc3ebaa900U,
  0xbe878619be7fc828U, 0xbfae2b0a3e1d3663U, 0xbd613970bf8c22c0U, 0xbe68c0f43fdbafaaU,
  0xbef8feba3dc0f1d5U, 0xbf0042c43ebe07e2U, 0x3e9cea3dbf83e6b1U, 0x3f6f6b17beeee0d3U,
  0x3efc7cf1bd01a340U, 0x3e68cd123dfa0296U, 0xbf2e0d86bfd8bbbcU, 0x3e8777d73fd41228U,
  0x3f6f0f473db635dcU, 0x3d9ad7503e5adae1U, 0xbdb4064c3dbbbeafU, 0xbf1032403dce90e4U,
  0xbe61a3333f8f0882U, 0x3f9cd87a3e5ec688U, 0xbd853019bee5c254U, 0xbebefab2bf088953U,
  0xbfc731afbf8a6c1fU, 0x3e3419ff3dd89e6bU, 0xbfdc8f703e08a886U, 0xbf4d8a3f3e10203eU,
  0xbef51340bec25aa7U, 0x3ef301fdbf209df0U, 0xbe2116bd3ee0560dU, 0x3ee22c9abeefabd1U,
  0x3c32d03c3dcc05d0U, 0x3f40b3f03ee86b05U, 0xbc0b5b1c3ee43d11U, 0xbf9b15273eadbefdU,
  0x3f642047bd9c47eaU, 0x3ec41c483f98871fU, 0xbf263fbb3ec2cb7dU, 0xbf643c4bbfc96d45U,
  0x3e05a50cbf4a876dU, 0xbef319fb3e9cac0aU, 0x3fc522d3bf8732faU, 0x3eb43ec1bf2c59e1U,
  0xbf25aab83f1c76e3U, 0xbd3dd9a53d866d76U, 0xbe887a5cbeb4fc12U, 0x3eb2acd33f8bbdd1U,
  0xbf0b08a8beb2f959U, 0x3e32a269be000564U, 0xbe35e1453fc71af4U, 0x3c51e0763ee8b0dbU,
  0x3efc49d6bf194f2cU, 0x3e85c1cfbd45fbb8U, 0xbf3d12daba05b3a0U, 0x3f61d1c83ea974e0U,
  0x3f2571383d3de393U, 0x3e87e5a03f65de95U, 0xbd7917993e5a5024U, 0x3f440857befc7ec9U,
  0x3deee5f1bf97c190U, 0x3e7b9bcebe1ddbf8U, 0x3dff9b853ffdad1dU, 0x3f016f16bf13adb7U,
  0xbf6d89e33f5e5a25U, 0x3e59fb893f029363U, 0x3e8e8101bf3e35c1U, 0x3e14b6633f4a5259U,
  0xb908e6f0bdf6c262U, 0x3ea205fabebaa2ceU, 0x3efb2c633df44224U, 0x3f0f62483d32de24U,
  0xbed8d89ebc8e6434U, 0xbb7312763e880695U, 0x3f8b16903f7d2363U, 0x3f9114f03f5c2bc7U,
  0xbe8ee0c7beb8a00aU, 0xbe8e9b6b3d3c87dcU, 0x3df420c6bf631665U, 0xbec997c63f5f4a7aU,
  0x3e2ca3eebf077237U, 0x3eed2b5c3f45a349U, 0x3e4547ca3f10f096U, 0x3ca88636bf490dfcU,
  0x3db6e7f83f05737dU, 0xbf6af0233f299253U, 0xbef0353fbf8c0c5eU, 0xbf2e94b03e20dbf5U,
  0xbf14c3f63f1d5349U, 0x3e8f0e6a3e976110U, 0x3e96df0abe8a6880U, 0x3e952c543e09d6c1U,
  0xbcc0eb9a3f291d29U, 0xbf0a68503eb1e6c5U, 0xbf7eaab23eb3a6a4U, 0x3d894b3ebf5f2e23U,
  0xbf1e89aa3e870ee4U, 0x3ed8a6333f304bd6U, 0xbf116e9dbf292e67U, 0x40037a19bf707b89U,
  0x3f76dee0be873aa4U, 0xbf5656b53dda0a26U, 0x3e4acb9abf5337aaU, 0x3e934599bea0db84U,
  0x3f299f923d9c0b41U, 0x3f502fd0bf389130U, 0x3ecb0f583ec1b2cfU, 0xbce586663e343e0cU,
  0x3f0a3018bfa05c29U, 0xbe6e953cbee1f94eU, 0xbde328da3e0c0e4fU, 0xbe95d9afbf61d097U,
  0xbf415ced3e943affU, 0xbe93828e3fabc9a3U, 0xbec468183f11ad5cU, 0x3fcae072bf6a47caU,
  0xbecf6591bf42592eU, 0x3dfa373b3d75e328U, 0x3ea04605bf806f97U, 0x3ee0fa6dbe895efcU,
  0xbdebf9383f3b76e5U, 0xbf0a481ebe2d7889U, 0xbe581a323e6df53cU, 0x3f6817c8be5a65fcU,
  0x3e16c3dfbf1527adU, 0x3ed99539bc710c78U, 0xbfa93d533efdf13aU, 0x3e9c87f13ec8e0b3U,
  0x3f0a603c3f2cfd04U, 0xbf910c963dbd98efU, 0x3f2d37d73e9c6851U, 0xbd429dcabf91e5e1U,
  0x3f69a036c0016761U, 0xbee5fa993f097baaU, 0xbe37970bbe3fbc01U, 0xbf3a88c1bc9f791aU,
  0x3e938377bdd450d8U, 0x3e021ea23e4ffa9aU, 0x3ddf81963f2cb6c1U, 0xbe4d49433f6f006eU,
  0x3f3895c4bdfd3a6fU, 0xbf8fe62abf0afb81U, 0x3fa1b2e3be67b13cU, 0x3f789397be47661aU,
  0xbf68e03e3efc5957U, 0x3f08822f3ea7ae68U, 0xbdc94acc3ee5bff4U, 0xbf13075cbfbc5413U,
  0xbf3b2f5abe48cff3U, 0x3ebc2bb2bf52bfa6U, 0xbf05cdd6bf42f08eU, 0xbc5a5ec0bf209986U,
  0x3d5d7deebd2a8ed4U, 0x3f3807453ef85691U, 0xbd5f77163f190c5aU, 0xbf1042c5bec08c9fU,
  0x3e871b51bda60b64U, 0xbeac10d43e5778f3U, 0x3f649c9fbf12e4d5U, 0x3f0119f53f6e8cbfU,
  0x3e93560abeba76e2U, 0x3f2cccbc3f1e4582U, 0xbf06dbc73e916159U, 0x3ea9cd30bec4a199U,
  0xbead89d6bde3213fU, 0x3f77912f3d97614eU, 0xbf2fe83f3f3ab67fU, 0x3f38a4233e869eafU,
  0x3e4552e1bdab76b1U, 0x3ea283793e9c6c2aU, 0x3e664819bf027f77U, 0x3e8fceeebef700f0U,
  0x3e10ad4c3e895ba9U, 0x3ee3885cc01ee83bU, 0x3f13c63bbf12fec2U, 0xbe784e663cae195fU,
  0x3e8755d0bf05b132U, 0x3f2cb2bdbf78f6f5U, 0x3ef1f3593f5abd70U, 0x3f0546f03e86cd70U,
  0x3f6de1773e819193U, 0x3e601dd8bf51670aU, 0xbe265dae3f529ee5U, 0x3fcdd7a23f43602aU,
  0xbf1a97e1bef8487bU, 0xbded3176be5a3714U, 0x3eeefdf33ea9db9bU, 0xbea81064bf1dbfccU,
  0xbda202e83edb7b23U, 0xbec840f4beb2c3ffU, 0xbf0cd70abee078ceU, 0x3f8a4d023e8102faU,
  0xbd8185dd3f4eb115U, 0xbd7126b43f1390e0U, 0xbf0703e33f758dabU, 0xbf14f967bebcb378U,
  0xbd4f1e77bf09ac7aU, 0xbf898164bfb10157U, 0xbf15e3553e55a621U, 0x3e38adb23ec42315U,
  0x3f183ecc3d04b44fU, 0x3f6f9cc93e990558U, 0x3f0ea1e13ef83d15U, 0x3e6c02053f249536U,
  0x3fc2fe5cbe22993aU, 0xbf407fe6be03331aU, 0xbf02ea4c3f2ec832U, 0xbec9b0503e85391dU,
  0xbf86e310be87eddeU, 0x3e98c6363fb7f9afU, 0x3f89ad72be9314f2U, 0xc008b78abe51a230U,
  0xbf76e296bf770651U, 0xbee181893ef6a3baU, 0xbe862180bec9bec6U, 0x3dd0160abf67c4baU,
  0xbfa51fe73f1d1a07U, 0x3f012e103d9e709cU, 0x3f25ce3b3f7a8a40U, 0x3f7f3e9d3f245ab6U,
  0xbd18d129bfa83307U, 0xbf56f12ebf6eefbbU, 0xbe5f7d02beb36a3aU, 0xbd7bb2a23ee5af73U,
  0x3f24a677bf0b7dfcU, 0xbf8b9815be93e739U, 0xbf3210143f125e7fU, 0xbd53566b3fa13cb9U,
  0x3f483c44bf4b5bb8U, 0x3ec810b4bec0288dU, 0x3eea4388bea4fd33U, 0x3e8e97e7be0ab11aU,
  0xbf53fdd63e82a0ddU, 0xbe41abdcbedf6719U, 0x3f011c153e89bd02U, 0xbf5df6d83e944535U,
  0x3ec240423e86314fU, 0x3f6c315abcd92319U, 0xbd8036f1bc92c62eU, 0xbf8151d83f97b2b1U,
  0x3fb34d8cbfe38384U, 0xbe9aa2f43fc0a5e7U, 0xbe98b248bf0db935U, 0xbf62abc53f08a8eaU,
  0xbf076411bf672938U, 0xbebcbfc4bf2ca712U, 0x3d8adc483f0d2d0dU, 0xbf7c68abbf43e5a2U,
  0xbe87e926bee46896U, 0xbe075c293fce78fbU, 0x3f1966e73e6a2eefU, 0xbf21249e3f2fd0faU,
  0xbeb6e503bf2a4313U, 0x3eaf9a28be970c89U, 0x3ed7f5883fbbfad2U, 0xbeee5b1c3e84e49fU,
  0xbec5e404be857fadU, 0x3df26b3fbd899dfdU, 0xbe9d7642bf6cc538U, 0xbf055d7bbf16763bU,
  0x3e9a55ce3e2fda2fU, 0xbf5b6f43beb97ca0U, 0xbf07bbea3e841ba7U, 0xbe879f42bd70e72dU,
  0x3ee335eb3e971b2bU, 0x3ea5b4f53dbaae54U, 0xbf8e50b1bc487552U, 0x3f037a7dbebad993U,
  0xbf4d2a33bf5aeaacU, 0x3f64aee6be456a3dU, 0x3d8d637ebfcb1812U, 0xbef40fa83f197da0U,
  0x3f11b5f33e206fb6U, 0x3cdd891a3ec1bab0U, 0xbe543507bee8b039U, 0x3ef0bbb43f142149U,
  0xbf6f9e56bdb72b8cU, 0xbeceb5633e8b0245U, 0xbecbf2483fb3f5aaU, 0xbea7bb0bbf2d61ceU,
  0x3ef53a123f39bdc6U, 0xbf0dd1f4be4799cbU, 0x3e6ea0b23ee4507cU, 0x3e12c39d3e311accU,
  0xbd0d788c3eb6189cU, 0x3f250fd63f804c26U, 0x3eb1ed753f07794bU, 0xbe50f4cd3eb6371fU,
  0xbe2351e1bcfe2320U, 0x3e289c393f01832eU, 0xbeca49463eae4428U, 0xbe9efa4a3d88fc1dU,
  0xbec8861b3e14b5fbU, 0x3f19d2c0bf501d0bU, 0x3dd692a6bf112357U, 0x3c7bcfc1bef90a8bU,
  0xbf6abbc5bcda66e4U, 0x3f1bb4f03f78a823U, 0x3d68cce3be9dbf93U, 0xbe040955be189b9cU,
  0x3f1ef72e3f8e5ac5U, 0x3e456df63e566596U, 0x3f0ca3e0be46592dU, 0xbe863e1e3efb2955U,
  0x3d20941ebf87a465U, 0xbfe1ab8cbf47a451U, 0xbe2d9d82bf309f60U, 0x3ead4d0ebb942a2cU,
  0xbfb2126ebef011e3U, 0x3e3e46403d999b9bU, 0x3ed665413f7e32b0U, 0x3f10fe96bf08cd83U,
  0xbf48c586bec7ba47U, 0x3f5889afbea98b0eU, 0x3ff34b563e959799U, 0x3e2a1e1b3f8a7149U,
  0xbe8a53f03f078d67U, 0xbfefc14cbed0474fU, 0xbc45a4b63eb2a345U, 0x3d47927c3f44fe29U,
  0x3e6ac931bd09385eU, 0xbedc47fcbf9d2853U, 0x3f0c536c3e770a38U, 0xbec86bdabed7c245U,
  0xbfd001debf11b108U, 0xbd0b3c023f1bf052U, 0x3e8fa1e73f18e489U, 0x3f13a637bf2097aaU,
  0x3d894c003e4df5acU, 0x3ed162183e694448U, 0x3fb68d30be16f978U, 0xbeabd089bf374d4fU,
  0xbf0d28353fb4ced6U, 0xbff1a53d3ed22dd4U, 0x3d65c6e9bf404f4eU, 0x3efc79cc3f669bfeU,
  0xbeb920c7bfbb0e68U, 0xbeee34f83eb42a24U, 0x3df15f333ebec7a9U, 0xbda77b92be439e9fU,
  0x3f4a19f13f353366U, 0xbf7120ee3f20ecbcU, 0x3eaaff99bd7809b7U, 0xbe1b42c23f3d38a4U,
  0xbb77b3e4bf1de386U, 0xbdc6fa223e5e79e6U, 0xbd8616aebbbb7c0aU, 0x3eb0057a3f587b7dU,
  0x3d043fd33ed4a276U, 0xbe2f1811bc936281U, 0xbed0cdeb3ee09285U, 0x3e99af113f0830eaU,
  0x3e136e08bd0156efU, 0x3f78d7d7be87e7b6U, 0x3ea618c1bef37d3aU, 0x3ffda19a3ef40560U,
  0xbf12e98b3f752df7U, 0x3f0aa965bf46edfbU, 0xbf969dedbf3273daU, 0xbf23a3803f6204b9U,
  0xbef70f333ca43992U, 0xbbffb831be10f22cU, 0xbeb8e2933f1fb049U, 0xbe76105f3f999cefU,
  0xbee56e733dfc102dU, 0xbef5d7f63e984b98U, 0xbf1a7b323f10b902U, 0x3f901efc3eb36b83U,
  0x3f143fac3e68645eU, 0xbed26a9dbf96dec9U, 0x3ec20f3bbf925a4bU, 0x3eefd579beec7a27U,
  0x3faa15283f8b69eaU, 0xbeb82271bf582b76U, 0x3eb3a5703edde878U, 0xbf3944fcbf3df521U,
  0x3fcc60a0bd06107eU, 0x3f483619bee9f9fcU, 0x3f9f5dd43cf6cdc0U, 0xbf9399363f782e36U,
  0x3cbc3d0abeb3b6bcU, 0xbeccc8b2bd71f2e9U, 0xbea0b144bc2a56caU, 0x3ee958e0bf298fdcU,
  0x3d1f23be3fa81514U, 0xbed81c6f3ed8fcbcU, 0x3f8dd95c3f969431U, 0x3f32616abf64acd1U,
  0xbf26de5b3d3ce04fU, 0xbf1c27c93f7b1553U, 0x3f2c2bf6bf5be7ebU, 0xbf0878a13c26ccc1U,
  0xbe8bb0633f6cb8ddU, 0xbf973d1bbf2a2902U, 0x3ef4f3423eadc6aeU, 0xbf48b3b33f975975U,
  0xbd64f099be2a105aU, 0xbe1a7729bf1841fcU, 0xbd5babc2bf9288eaU, 0x3fb49794bf752617U,
  0xbdcad1e43dcc5cd7U, 0x3f8725d2bf7068a0U, 0xbe560fad3eb94cabU, 0xbeff924dbf5fa859U,
  0xbf828198be637ae0U, 0x3fcf7eec3e1817f8U, 0x3eae0b97bfa8080bU, 0xbec49a113e8a4996U,
  0x3f173e87bec59e1aU, 0xbf06e928bdbaff88U, 0x3fbc25803dc45dffU, 0x3e318b623cd108c0U,
  0xbf7955953f2f37ddU, 0x3ee9b6f53e868fdcU, 0xbf01a2c1be297591U, 0x3f4051ed3f466802U,
  0x3f337657bfaba73bU, 0xbed27621bed88778U, 0x3ec7995fbe96faabU, 0xbf2a511dbe02d263U,
  0x3d2376953fc7f7abU, 0xbf1affd2be893e5cU, 0xbf09199f3e61ae15U, 0x3f9811a8bf07950bU,
  0xbf2e6c9e3f639390U, 0x3f4ef7e2bf8c1e64U, 0xbe0061afbe404584U, 0x3f36cddabe4a66f1U,
  0x3f1a5d473dabcb2fU, 0xbec95764bf47f5cbU, 0x3f8a8d423f18ed1bU, 0xbf8da269be08ceb0U,
  0x3d182e54bf34bbeaU, 0xbe6841f43e16ea5dU, 0x3e8373d3bd856ef4U, 0xbfac9bb93eaad607U,
  0x3ee5b5b0bef9be61U, 0x3f8d169e3da0b566U, 0xbee1800cbeaa06b0U, 0x3d8f8b3bbca07a69U,
  0xbfd16a743d080d56U, 0x3ebc08a3bf09d17cU, 0x3ebe3bd1bd1bddc3U, 0x3dbec17c3f849287U,
  0x3e3f3afdbf38043bU, 0xbfa02a593f2a9345U, 0x3fd8ca383f32c96cU, 0x3eba9267bf13d13aU,
  0x3cd83322be8b5901U, 0x3f577c893ef125a9U, 0xbf1ac37dbeacbbeaU, 0xbe92e65c3ec8cc9aU,
  0xbf07da533f159043U, 0x3eb0adcabf0fdfc2U, 0xbde600fc3e828065U, 0x3e8bf3ad3f1afff4U,
  0x3e4375833f01d26aU, 0x3f9d6143bf0bc8bcU, 0xbd36e0aa3f3ba19eU, 0x3f0469babeca36d0U,
  0x3f2f0d17bfa2fe33U, 0xbf7de94ebec228bdU, 0x3f42e17f3f610f44U, 0xc00bc429bd15ebdaU,
  0x3e5b75ea3f6e13f2U, 0x3e4775fabf96e13bU, 0xbe1dc523be0c0fb5U, 0x3d8331fb3d6da50cU,
  0x3ef47a2d3ccfa828U, 0xbe6c77de3f0e40ecU, 0x3e7569b23ee8db5bU, 0xbfe2eaffbf634de0U,
  0xbf3919c93edd65ecU, 0xbe075303beba9874U, 0x3f4a9628bf8680f5U, 0x3f8a608fbf0c423dU,
  0xbeb50e533ec8138cU, 0x3f14f848bf44d3d1U, 0x3fa2575a3f98d417U, 0x3f9ec1b33f8e54a6U,
  0x3ec4b67ebe520037U, 0x3f5059d53f42fbf1U, 0x3e22510abf188a6aU, 0xbe3faf7dbfa5d702U,
  0x3f2d2502be0dad04U, 0xbf8d55d7bf608512U, 0xbeba6e71bd0bd3c9U, 0x3e1ba54e3e2803b9U,
  0xbea15e773e29bca2U, 0x3dab607d3ee92471U, 0xbed6cca53eae42adU, 0xbdb05e433e44d064U,
  0x3ebea8dbbe3d2f80U, 0xbdf33e423eb232baU, 0xbfac97943e8e0528U, 0x3e781bd13e51a6a6U,
  0xbf739b213ea672cbU, 0xbf379c2abfa5922fU, 0xbf982e6bbc48e8acU, 0x3e403550bf4f67adU,
  0x3eb7845c3e6f4023U, 0xbd33c59fbf0d392bU, 0xbf241103bf7de77fU, 0xbc0da78bbf3b73e6U,
  0x3f48d82b3ebebe0eU, 0x3e8532d43ef47649U, 0xbeb2dfa73f4addb3U, 0x3f66047e3f068ee4U,
  0x3e8bd2a2be1e51b7U, 0xbfb9e85fbe4331ebU, 0xbf0fde173f9aeb26U, 0xbee8c3f0bf4cee27U,
  0xbd95e7863e9904fcU, 0x3ea0f8483e120a8aU, 0xbe2a701abf3b5797U, 0xbf679cb73f2f26f0U,
  0x3eefeb3ebfc7f680U, 0xbf17cb6e3f2520d1U, 0x3f013c6ebcac647fU, 0x3d0becc93f23a984U,
  0x3e1b91363f59d98eU, 0x3f69dd333f4c487fU, 0xbf3284f53a955f57U, 0x3ea938963ed10f98U,
  0xbd70c693bd2a9a4aU, 0x3f239627bec5c81eU, 0xbe9cbf07bf8eb689U, 0x3ee72bc4bf0ddf85U,
  0x3e4f19a0bf0e1715U, 0xbe4d16303df140d5U, 0xbeb07f1c3ec22d2dU, 0xbe61d7b23d4f9a57U,
  0x3faa154b3f67cf88U, 0xbec4ea84bf2f69c8U, 0x3db3a13c3e9678c1U, 0x3f091ce53ea5a287U,
  0x3e780498beb55abaU, 0x3f93148cbe1d4584U, 0xc040e956befc9ea9U, 0x3f46e2acbef26d70U,
  0x3d5f75d8bf8908c8U, 0x3f252e5d3fa9ba2bU, 0xbf54ccfa3ec3cb96U, 0x3ef27a9bbf7d2f7dU,
  0xbdf94e0dbf7c9339U, 0x3e6c3a7d3e9dfb0cU, 0x3f00e49b3f93d373U, 0x3fa6823a3f8789e8U,
  0xbf1adc32bf5e18dcU, 0x3df4c70fbf839a34U, 0xbea2d054bdaf53e6U, 0xbf15238e3e5c424aU,
  0x3dc886b8bec0e65bU, 0x3e8c4ea73d81a737U, 0xbef0ccffbf38fb28U, 0xbe233c183d1bbfe1U,
  0x3e83208dbeb012b7U, 0xbe702873bef6de90U, 0x3e567513bfa5ad0fU, 0x3e2152d33eac4febU,
  0xbf2fcef33d063beeU, 0xbf1fabe6bf3fbdffU, 0xbed98176bf0465d2U, 0xbf9654babf8dc22eU,
  0xbfa1ce5abd7d391fU, 0xbef3fe013ebad7b8U, 0xbe003b363dbee7a4U, 0x3f4175423eae60faU,
  0xbe2ec776bdad01b7U, 0x3f05dc7abf7c522dU, 0x3ed06ae7bf37df6dU, 0xbd0d74483ee04b7aU,
  0xbf11c88bbcb3f506U, 0x3f38d16d3e33cf14U, 0x3f91a5d33f3ea41aU, 0x3e28fb73bd310e9bU,
  0x3e05a5b43ec49919U, 0x3e819bf43ee1f267U, 0xbee63331bd13abb1U, 0xbf007b1a3e25d16cU,
  0x3efe050bbee774b4U, 0x3f315fb63f058c0fU, 0xbdbe7b53bf22dd54U, 0xbe0ce547bec89d04U,
  0xbf15b63bbf2767b5U, 0x3e62969ebf211f05U, 0x3ecffb633f6f534eU, 0xbf7106dfbf496a25U,
  0xbe2c61b93efe0537U, 0xbf1ab82f3f484724U, 0xbe9d1befbc2745e9U, 0x3db394973fb33062U,
  0x3f82c7603f5d0b53U, 0x3de29eb9c015e9f7U, 0x3f5a93693f371c3bU, 0x3f5015e43daad0c0U,
  0xbe9a9d783f513068U, 0x3e906ba3bfa31be5U, 0xbdea09ddbf3ac90bU, 0x3ee1cff73e96101cU,
  0x3f6a1df7bb9263deU, 0x3db372943f0ef7eeU, 0xbf8bb2733d8f2950U, 0xbd86e9dfbec47f7eU,
  0x3e90485e3f08b673U, 0x3fe6ad903f6068e4U, 0x3f0970d03e051bc9U, 0xbf29d458bec2debaU,
  0xbf44f81fbd2b4c40U, 0x3ed085cf3d3f5049U, 0xbf000c0bbed705f2U, 0xbedb3bfa3f7555eaU,
  0x3e21beca3cc8afd8U, 0x3d497cae3e83035dU, 0x3f3d63a4bfb195eeU, 0x3e61dc3abecb8bd2U,
  0x392b3e02bfb7b935U, 0x3ebaa2943e9b8c20U, 0x3ecaf4563fab2329U, 0x3f027e3cbf532b30U,
  0xbef73866bece7794U, 0xbeb2283b3ec725faU, 0xbe68fc62bf5ca67eU, 0x3e5ef90a3f4bb3fdU,
  0x3f40e3f33ea2cbd9U, 0x3de0fb38bdecd6aaU, 0x3d9b63603cbfc9bcU, 0x3f841ffc3edc8576U,
  0x3e4bbe633e6c09a4U, 0xbe6a04023f035404U, 0xbe92b9b53fa44f63U, 0x3dfc3f753f7c4763U,
  0xbeb428b9bd619ab8U, 0x3f5d731cbf1d0f4bU, 0x3e8abd22bfbec649U, 0x3edc7e803e8c16bbU,
  0xbee36f94be4acefeU, 0x3ea51c7d3f3c6b3dU, 0x3e11d93fbf8eb707U, 0x3eb7a1173ff913d4U,
  0xbeb65763bfa49e16U, 0x3d1ff3683ed5dcebU, 0x3ebc4b42bf447ce0U, 0x3e762283bea116f0U,
  0xbf88c6a73f529c61U, 0xbeafa5aebf249709U, 0x3f060d5f3e010f52U, 0xbf508e703ee5bfdbU,
  0x3f6c09dc3eae9aaaU, 0x3d83bcd93f877894U, 0xbe9f15ffbe5e08ecU, 0x3f8be582bcd54b03U,
  0xbe0373823f52cc1dU, 0x3ef5f8843eb3eccdU, 0x3f5c2f873d84767fU, 0x3f24c3b0bf312360U,
  0xbe893cb7bfa48a77U, 0x3f6ffc723fdfb74dU, 0x3f2826babe833dcfU, 0xbcbf17d13f52bbaaU,
  0xbcd76857bf03b677U, 0x3e301316be371277U, 0xbd54aaa33e98b9aaU, 0xbdf50b3e3f64efe9U,
  0xbfc7e5c7c0016e99U, 0xbf0d33443c2b59e3U, 0xbeecfce33f4097bbU, 0x3f4b5109bdcfa8c8U,
  0x3f984f59bf20ec8eU, 0x3c7271f7baf6ccb4U, 0x3f5684a93f56506dU, 0xbe8ce858bd8c1dfbU,
  0xbf858bf5bee18c7eU, 0x3e5e5abbbe908666U, 0xbf5fdeaa3ea9ead4U, 0xbe3c5a153f229694U,
  0x3fca43793e9077efU, 0xbec0c4b63f8d9c8aU, 0xbf917ddc3e947101U, 0xbf1720c33f799004U,
  0x3f4dcd5ebec00198U, 0x3f8f89c3bf8720cdU, 0xbe7c5ad93e85f91cU, 0xbd86ca38bf1ea425U,
  0xbf397c073e98325cU, 0xbf067df73e9ecfcaU, 0xbf4389afbe82616cU, 0x3f9a857e3d04c605U,
  0xbefbca0d3e8fcaa0U, 0xbee948e63ebb0cf4U, 0x3f8c676bbeb2ded4U, 0xbece4b303d223994U,
  0x3e9b7ed4bf2ff89dU, 0xbf0f5919bed8482dU, 0xbe9b43e83fda3dafU, 0x3ea69360bf971a78U,
  0xbea387693f23094eU, 0xbd99c5953e87ac90U, 0xbdbafe83bd83a31fU, 0x3e2da630c007ab42U,
  0xbfa59bf7be84f356U, 0xbf116a8e3f43d29aU, 0x3e403264bd2f5209U, 0x3e71ddb8be879eacU,
  0xbf6377103fa36dddU, 0x3f5b8d9abfbd14e0U, 0x3e6f09e63f6a66b8U, 0x3f7ae963beaa13e5U,
  0xbf1f56613dfea887U, 0xbee7db1b3d6e5eccU, 0xbd3d6096be9707ceU, 0xbe42fb6d3eabcb72U,
  0xbf0a715abf5de490U, 0xbef6a0f23ed8b48bU, 0x3e7dcb103e7f2c54U, 0x3e9e12e6bf87b23bU,
  0xbf4ad6403e46a03eU, 0x3f893ada3f872ee0U, 0xbf000b1c3f9fc9baU, 0xbebb6d44bf6f77b6U,
  0xbe8ca2d93ef0d584U, 0x3e4fd9543e06af59U, 0x3ec4abfabeb5a1e8U, 0xbf0d18da3e32db9cU,
  0x3dae490c3f1fb6abU, 0xbdfe44193df77b4dU, 0x40009c953f6abe51U, 0xbf9abdb1be2d70afU,
  0xbdec635e3efc3487U, 0x3f0e8a343d995ae5U, 0x3ecabca23ec0d9a2U, 0x3e63f66bbe72c401U,
  0xbfa845dd3f2e3bd0U, 0x3e9a4e9bbf83773cU, 0x3b07e24a3f8efc58U, 0xbec757a1be0b6479U,
  0x3e98caaebf1b067dU, 0x3e4c9f403f6350c4U, 0xbe7d3966bd793521U, 0xbf4380d23ea835b4U,
  0x3ea8db54bf8ee0ebU, 0xbf303ebdbf84456cU, 0xbef21950bd0a9513U, 0xbf249375bf4ea433U,
  0xbf82c723bf577d5eU, 0xbe970b44befc8774U, 0x3fbac6b0bee58383U, 0x3fb206153e229684U,
  0x3e632e023e4c4cd2U, 0xbf02abb7bebd435bU, 0x3ef48e313f57e5d6U, 0xbf9f6ad53e06a99eU,
  0x3eeb71763fadc6aeU, 0xbecc51513fa98887U, 0x3f7f8ec13f459f6eU, 0xbeb92af3bf3084bdU,
  0x3e47bc813efeb52aU, 0x3f5f11aa3e547c69U, 0xbf472a743f094e7fU, 0xbe94eb643efa21adU,
  0x3ea536463f11879eU, 0xbd5051abbe7b0a75U, 0x3ee48e223dd9a218U, 0xbf00400dbfe043d5U,
  0xbe7c3f66bef2e586U, 0x3e93048d3bbdc2a8U, 0x3e877963bed02ae5U, 0x3f8f0b723e0de7e4U,
  0xbed2969abfba3414U, 0xbddca420be8d7416U, 0xbe9ff792bed89123U, 0xbf16cc193ec3e8ceU,
  0xbee24adebdf81b76U, 0x3f2620c9be96a723U, 0xbea9370d3a63cd9aU, 0x3f31fee03f1abc73U,
  0x3f709c18bfa9f167U, 0xbee682fe3fa9d874U, 0xbea4ff81bedf8e30U, 0xbe98d2053e6ef023U,
  0xbeef64a13f3dd88fU, 0x3ed76b423e327183U, 0xbeb74a72bef09782U, 0x3e991a5c3f9d1468U,
  0xbf0327ff3f49e400U, 0x3f271ab83e52ef4aU, 0xbdbc39d7bf2fad19U, 0xbe732787be73580fU,
  0xbe97e36bbd89f7abU, 0x3e98a930bfdbc158U, 0x3fc22ffcbebdaa25U, 0x3f29f8453eff46f3U,
  0x3f718c6ebdad0cc6U, 0x3f4387a83e964cdbU, 0xbf2fc5793f2d152cU, 0xbe87431dbf7e0c71U,
  0x3f0d98953f4660c4U, 0x3ddac22f3ea1eeb4U, 0xbfa22ef1beffb8aaU, 0x3e753e8d3f222612U,
  0x3fb75f6abeb45b96U, 0x3ed8448abe6557e2U, 0x3dafb6163d205691U, 0x3f55ad76bf8f86f9U,
  0x3bef6269bfab4024U, 0xbf7ecb233efb1e0bU, 0x3f869ac0be00fb79U, 0x3ee175efbf869a71U,
  0x3f17efc33f67d42cU, 0xbec870e43ed5921fU, 0x3f9857113f349d2bU, 0xbeadcbca3f7100bbU,
  0xbc61827fbf05cc32U, 0x3f4226223f1edacdU, 0xbf2c697d3da5d8e2U, 0xbf2a89293f5003a4U,
  0x3f754dbc3ea44732U, 0xbf3695ac3e5c1ec4U, 0x3edca50a3f41c44cU, 0x3f27836a3e31e700U,
  0xbf882aa53e790fc6U, 0x3f4c88483f6b20e1U, 0x3dd173db3e68c81fU, 0xbdcf57f63f1675b4U,
  0x3f003ff1bf183eb2U, 0xbed42dbc3d51926cU, 0xbe0777c13f856181U, 0x3ed17216bf03100fU,
  0x3d6b42d6bd83a751U, 0xbe8062eebe98c31fU, 0x3f8cb31bbf563e36U, 0x3e1ace24bd2c322dU,
  0xbcaa5fe7bf466c61U, 0xbfc47fca3f949308U, 0x3bf520e03eb0c311U, 0xbed1c32a3f75eb61U,
  0xbda54b72bf04b946U, 0xbf2de85bbe9b568eU, 0xbf85ab3bbeb4db43U, 0x3e8dfe0cbeebd490U,
  0xbe91980abbf37687U, 0xbe12a15a3d17ba36U, 0xbe91629a3e27579dU, 0x3f0bf904bdb9506aU,
  0x3e3192b0bf0019abU, 0x3d7f5315beb7b3bbU, 0xbf8d73873e1c112bU, 0xbe5edcf9be210df4U,
  0x3cb91535beac1274U, 0xbf3279e6bfd53395U, 0x3e5c7486bed448bdU, 0x3e6f385cbd19465aU,
  0x3eb9f2bc3ff063d0U, 0xbe4d07f2bf55e65fU, 0xbf8daffb3fd578b7U, 0x3f15ceaabe2f5cb1U,
  0xbe2a46adbf6767e8U, 0x3eef91473f35dd89U, 0xbe58c031be56bca6U, 0x3ec497523ed1eaaeU,
  0xbf9e9fd83e682d2aU, 0x3e542661bf8c33d5U, 0xbf814fec3db6534cU, 0x3fb1e6d8be90815eU,
  0xbca3ec673f1cbe8aU, 0x3ef808693f5c0eb2U, 0xbe8f86a2bebfa07aU, 0x3f4683883ea27256U,
  0x3f969422bcc23f1bU, 0x3f1436953fb8a783U, 0xbf8a9d703e9df518U, 0x3f8c1a15beecacc2U,
  0xbf5026d7bf853675U, 0xbe63c6b0bea3e43aU, 0xbcc6b48a3f7476e0U, 0x3fa08d1d3f0e8e21U,
  0x3ee4db01bf94ef6bU, 0x3eda43063dc98292U, 0xbe86b1febe0b1c8aU, 0x3eefdcbb3da9cd8eU,
  0x3d5d7034bda21807U, 0xbf18293dbf1a2114U, 0x3fa6d30b3f267f62U, 0x3e20988fbe235b98U,
  0x3e85cc4ebebab7cdU, 0x3ee904d83f11fc04U, 0xbec5eafa3da88e3aU, 0xbe770d9e3f30c69eU,
  0x3ed9bb103e24147aU, 0x3f3641783fbd1bebU, 0xbcd1e8373f977217U, 0x3d8eb9f4bf8b5286U,
  0x3f3e8af13f368d2bU, 0xbe3fba7abebc5898U, 0xbf04fff7be90948fU, 0x3e2117abbf58ec0fU,
  0xbf9c45e93ea9cb61U, 0x3f82d5113ee2c5cdU, 0x3f06e146bef14a8dU, 0xbe717a6ebf2f6e3fU,
  0xbf0c87c43f19cb5eU, 0xbe419d4a3e273590U, 0x3f89d5a13f72a595U, 0x3f086893be50d59dU,
  0xbe13ba15bea9fc0bU, 0x3e69de24bfb7ac5aU, 0x3d46f7ddbed67ea4U, 0x3d002ea0bec9c3feU,
  0xbf3182443eee753bU, 0xbf3d7cd7bf83b54aU, 0x3f4edd9e3f06e0dbU, 0xbf78cc543f978a0fU,
  0xbe65dd67bd9f1a02U, 0x3f094d87beab91c9U, 0xbdd626a93da5ecfaU, 0x3e8712c5bf140cfdU,
  0x3f8679b9bd11c424U, 0x3f438451bf47e120U, 0xbee41e4fbdc89f04U, 0xbe3f6da93f36418cU,
  0xbf580b653f2a1beaU, 0x3da5dae53f934d5dU, 0xbea4bf98be1b2bb2U, 0xbe625dc93bf2e07dU,
  0x3f99e4293e5becf0U, 0x3e91d47dbf4f48bdU, 0x3eedb01e3f63d12cU, 0xbe592890bf3047ebU,
  0x3eee41bbbfd52b44U, 0xbf01d7bc3dd9b22dU, 0x3f424f7a3f0da5f1U, 0x3ed8378cbf922dcdU,
  0xbf0756ef3e8014b7U, 0x3f210af8beb71452U, 0xbec75f713ec2467fU, 0x3ef6d94a3f13b2ddU,
  0x3e12328cbfa3c5c1U, 0xbf5f5755bbafd9f9U, 0x3e4b42cf3f130c4fU, 0x3f224c9bbec7557dU,
  0xbea118073da18fcaU, 0x3e470fc43e8a685cU, 0x3f5d1c2cbe62be58U, 0x3f523b753f2edd0bU,
  0x3fd29296be801a3dU, 0x3e9f69e1be00e0f3U, 0x3fa9dbb93ce7039bU, 0xbeaad8f03bfec414U,
  0xbd93ec4bbfa0171eU, 0x3f2133ed3daedfaeU, 0x3f04c4cd3e971315U, 0xbe0d0ad93e1f7c7dU,
  0xbed18037bfb1775aU, 0x3f34ea1fbe768554U, 0x3f0924b03d070241U, 0xbf5eebda3da311a7U,
  0x3f29f494be722e64U, 0x3ea8b95d3f79a73cU, 0x3e831ec03f1b00acU, 0xbe21bc91bf720bfeU,
  0x3e64dc6cbfb9a3d1U, 0x3fc79c0b3fa1fe13U, 0x3f41ad8abf4b2728U, 0xbe9358833f727f5bU,
  0x3e4aa105bf2d43e8U, 0xbd950c34bf2b1643U, 0x3e137db9bf8cd8a8U, 0xbefff19b3f64bec8U,
  0x3e5eb66e3d535615U, 0x3eb49fd2bea93e61U, 0x3e9c5d1bbfaa64ecU, 0x3f726d55bf3c3f4bU,
  0x3eedfd513eb452adU, 0x3e45d91d3d46fff7U, 0xbf2297173f11612fU, 0x3f41aeea3e2ff24aU,
  0x3c83c3b3be2b9e3fU, 0x3cd3fde03e4f63d2U, 0xbd25a259be2d08feU, 0xbe41193bbf28f44eU,
  0x3f41c1c8be456b3fU, 0x3f5081803eaa6c57U, 0x3eff65adbec4e8eaU, 0xbed5f18c3e25beffU,
  0x3f168d3bbe750c68U, 0xbef80e84c00a9db5U, 0x3ef89cbfbf5fd479U, 0xbd89d3e13f1beab9U,
  0x3fb5f54fbf0cd8d0U, 0xbe70e4d73f89461aU, 0xbfa6395c3ed5d3d2U, 0x3f1d60493f0aa8c3U,
  0xbda041cfbe00c1beU, 0xbf1f67a53cbe0d9fU, 0x3d018fea3d4d16cfU, 0x3e15bb5abe683562U,
  0x3ddb71153f6780d2U, 0x3fac217abf702715U, 0xbf2c2ddb3e3e7cd0U, 0xbf7bb4dabfa65620U,
  0x3d46acaf3e89b034U, 0xbeee32b23d6c7410U, 0x3dea26af3f50278dU, 0x3e09f8a4bea5f7c0U,
  0x3eea5862bf813026U, 0xbf32d3683fd22e4bU, 0x3e3a1b41bfae3680U, 0x3f23f6543ec544afU,
  0x3e7efc4a3df69c08U, 0xbe711b293eb12b56U, 0x3e7ed45bbf3036b6U, 0xbfa3fa77be85c9eeU,
  0x3e2fe2bdbf3f58ebU, 0x3ee49070bff61e51U, 0xbf535b50be8e3a77U, 0xbe6f780a3e0750c2U,
  0xbd9b0f84bdf71628U, 0xbdee99f63ebd522bU, 0xbf4ac3403f500807U, 0xbf8ef8d63fdee7f0U,
  0xbda8c2c93d8d54d5U, 0x3e3e5fbd3e94fccbU, 0x3f9052d0bf050218U, 0xbe9b9216bdccfec5U,
  0x3fcb7bf0becb28ceU, 0xbdd3626ebfc2fa95U, 0x3ec2f135bcc65967U, 0xbf2943ab3d40fafcU,
  0xbe5c6c82be4a5867U, 0x3d83c533be22cf2fU, 0xbcfcf824bec5a745U, 0xbebe52dbbed6f196U,
  0x3ca6dda1bf6dd055U, 0xbe9f5a7cbea46f17U, 0x3f0bdb3e3d86e1c1U, 0xbc96c30cbf3582cfU,
  0x3fa37a29b912f7b4U, 0xbf47f72cbebe5110U, 0xc003cdfb3e3c2483U, 0xbe0f2e3d3ee01f1bU,
  0xbea31ad13e6911f0U, 0x3d8fb1073f1c0af5U, 0xbe45f3213d5ab4dfU, 0x3fdd0971be82ab37U,
  0x3ee23980bf350316U, 0x3f2edb9f3f29b758U, 0xbf3a71313fa61113U, 0xbfe842ea3f46533bU,
  0xbf01bcd23f1100d6U, 0xbee6d7443e99a554U, 0xbf8abd0d3eff2609U, 0x3e338edb3d141822U,
  0x3e176828bedd1beaU, 0x3e8df4a83ea313cfU, 0xbf57e5d83fbdae3dU, 0xbf8db0a93e40c3b4U,
  0xbe09a7af3f19cdb8U, 0xbf71ae3dbeae4027U, 0x3d9c954f3f549797U, 0xbd1358a23eadf474U,
  0xbfa7e6edbf0072b6U, 0x3ebd52ae3fb694acU, 0x3f133f03be52a8eaU, 0x3e55f8abbf83ea0cU,
  0x3faa639c3f56cd32U, 0x3e84447bbc818362U, 0x3f8489a1bede520cU, 0x3e9c408e3f1faf2dU,
  0xbef2decc3f0e2e54U, 0xbe196d873f0f7a0eU, 0x3fb875063f9ea96eU, 0xbf5313533f7fe322U,
  0x3ebdee67bc0b1111U, 0x3ef543563e1a482aU, 0x3b7957773ed632b6U, 0x3f7677fdbf58ac44U,
  0xbecde064bf36a735U, 0xbfa40748bc9f9f60U, 0x3e5da4163e371a52U, 0x3ec1277abeda5122U,
  0xbcb8a1ab3f530accU, 0xbe17b0933dd7ecf9U, 0x3e28f8313fb976cdU, 0xc007f655bf5b6d87U,
  0x3d7720bdbe4c7120U, 0xbf366dd53eecd246U, 0xbfb055843f5cd090U, 0xbe1447453ece38e8U,
  0x3efb018d3ecf397dU, 0xbcebee3c3e17c3d8U, 0x3e97b3233f7e4d26U, 0xbf373192be86d9edU,
  0x3f0ded343f582109U, 0x3f24a55fbcef0ed9U, 0x3f3a8c303ef1c169U, 0xbe88a9febf5efe14U,
  0x3eb71381bcee2d2bU, 0x3e7eb7ca3ef387c1U, 0x3f32c7d13f3a35d7U, 0x3dd073a7bf06462cU,
  0x3ef8c4b9bf5ea476U, 0x3f36cf7cbf0ae089U, 0x3e5b1bfbbe8172a6U, 0xbe6e1b48bf60c3e0U,
  0xbfbb399c3e6f82b6U, 0xbfe9e1a8bf052577U, 0xbed7ee243f3c012fU, 0xbde696373ec90aa5U,
  0xbf029d6b3e9b86f1U, 0x3e746bc13f7bf86eU, 0x3ed0b3323fdc867fU, 0xbf90cfa33f40d511U,
  0xbe96d99f3d2f21ecU, 0xbf5a16f4bedbb575U, 0x3e9702373e979a8dU, 0x3e13863b3f3f5b4cU,
  0x3f1953d0bdb6a726U, 0x3e9d8c5c3e040d2aU, 0x3bf7228ebef74562U, 0x3c1b601dbe7031ffU,
  0xbe8800d73e6eb530U, 0x3ea384393e7dbea7U, 0xbf798be2bf1b05e3U, 0x3f182db63a7c0130U,
  0xbe1d4700bf3029fcU, 0x3f27baee3faa61c8U, 0xbe97b9b1be7e4eaeU, 0x3ec954df403177f4U,
  0xbf811de23ea57479U, 0x3ed4f9523e6f61eeU, 0xbe4bc3d5be4176ddU, 0xbeb361633eea9e15U,
  0x3d8f53083edabccaU, 0xbe945498be874dbaU, 0x3eafd4923ef82ff8U, 0x3dc486ddbef8af71U,
  0xbe75bc523de6e4cdU, 0xbe81d3f93e0d85d5U, 0xbe7d4d683f59e8cdU, 0xbe02af443f65e839U,
  0xbd3bf969bec28e9cU, 0x3d1d5258be2ab187U, 0x4014fc17bfa11514U, 0xbe60bd97be75c61cU,
  0xbf8a82f43e7a5749U, 0x3ec0e0473e605e5dU, 0xbe1ce588bfbc938fU, 0x3e2466543e1545aeU,
  0xbb5c4cd03f27d9a8U, 0x3eadae5fbf6bcb0dU, 0x3f197dd13ee99fe7U, 0x3fbe55d83ee9f13dU,
  0x3f386a073d4e1af3U, 0x3f07eac1be34f5f4U, 0xbdc0dc473f13b4afU, 0x3d92477e3e49ce90U,
  0xbf7a8f3c3ea6f3d0U, 0xbece4bdb3eedcef0U, 0xbeba2eefbe5ea8bcU, 0xbe4805cbbef414aeU,
  0xbf998fdfbdad406dU, 0x3fc3429d3e4f0344U, 0x3e76b0c0bf245150U, 0x3eb7c2d43ef28707U,
  0xbf8e6ad93f2a5802U, 0xbddc1feabe9eb235U, 0xbebacc5abe8b07f0U, 0xbd2de9983f6262a4U,
  0x3f41713abe245a78U, 0x3debd8103f32d6c7U, 0x3f37c79c3e94d45dU, 0xbe16114dbd29349eU,
  0x3f063e923f579f15U, 0xbf863ce4bed1b928U, 0xbefde59e3dc02a62U, 0xbe4d3e113f0897ccU,
  0x3fedbac93faaacbdU, 0x3e37f946be72bb5eU, 0xbfb4e5f53f395e8eU, 0xbfa727f03ca18643U,
  0x3de7056f3e95659bU, 0x3ef5f9333f136073U, 0xbddfd4093fc6b406U, 0x3ea17a953e02bceaU,
  0xbe4d7276be842e40U, 0x3ed4839ebf161606U, 0x3f0387f3bf6f1b05U, 0xbeeea8323f125dbaU,
  0x3f1378a7be3d18fcU, 0x3db6d1273e837c27U, 0xbed31dd7be838e79U, 0xbfc03f35bf08843bU,
  0x3f209310bf3d01b0U, 0xbe1d9c7b3e973c5aU, 0xbf3deb073f8e9d73U, 0xbf129181bdb66b8eU,
  0x3f858eacbf725a98U, 0x3f482573bfe3aa77U, 0x3f8014acbf3eeb94U, 0x3e139a7ebea2a247U,
  0xbf2ec9743d7f20a9U, 0xbed272133f68a28dU, 0x3f067a79bd1b0b0bU, 0x3b99cfcf3d9d0e8bU,
  0x3e0a2d593f10baf0U, 0x3f460ba2be0a01a4U, 0xbe8978013f1b3a08U, 0xbf118ff73ebe93d0U,
  0xbe8b882cbe997c9fU, 0x3f7c331ebeb6a292U, 0xbdab511f3fb0680aU, 0xbf1feee8bd3bcbd6U,
  0xbf2b06b6be5aed63U, 0xbf00fa583f83fd3dU, 0xbe33b5b53e0f68ffU, 0xbcf808c83ea9968bU,
  0xbe5eacdd3ff5d058U, 0x3c32f68e3e450477U, 0xbf5220353ea33bf2U, 0x3f2eece1bc16bcb4U,
  0x3f0884c13eaba665U, 0x3f3e7be93ee07224U, 0xbdeeec903ec9bc14U, 0xbf08200e3ed6f3cfU,
  0x3f11ab5e3f54c9d2U, 0xbed1bfcbbf6e6f96U, 0xbe66a83a3e5933b2U, 0xbe1a03963f7dbc53U,
  0xbf440f73bef67554U, 0x3f1d79933e282442U, 0x3f008030bf12b83bU, 0x3e726ee1bfa5f6e2U,
  0x3e89115e3e63bd4eU, 0xbf07f82fbd798f57U, 0xbe36e51fbc33bbd2U, 0xbdbbca6b3f6f4b24U,
  0xbf10f332be334788U, 0xbda3458abf357a55U, 0x3c57cd073e8520edU, 0xba299f2cbf24afddU,
  0xbfd0df2f3f56e1d5U, 0x3d044636bf449837U, 0xbe409be5bf193eaaU, 0x3e86b7d93eae18acU,
  0xbffe58d6bec09699U, 0x3f7bf391bf572774U, 0x3f26065c3f4fddcbU, 0x3e6a6abebddc1dafU,
  0xbe0ecea6beaef99aU, 0x3f4ba9d03ee18b8dU, 0xbf8ef6073e8cd8dbU, 0xbe82309fbf85dd2fU,
  0x3f10d1933dd9b26cU, 0xbf17f5f03f4a15f2U, 0x3e71c34cbf9ce636U, 0x3ed7ed41bd4ce035U,
  0x3f052ef73bf56712U, 0x3c77cf253f99d6bcU, 0xbe020355bf73439cU, 0xbfadbd513e8e8cbfU,
  0xbe23d5703e32eefeU, 0xbf348b12bd20cc87U, 0x3eba6559bebecddeU, 0x3f9d870f3f338dbbU,
  0x3f02e1223c4ffaa5U, 0xbcc0882fbf875f34U, 0xbe33fb9abf280747U, 0x3f98328ebd45656aU,
  0x3eb3eab4bf319b04U, 0x3e78929cbf9da1cfU, 0xbfa31fe93f7d2fb6U, 0xbf8d1d9f3f299f36U,
  0xbdc1613fbf95e75cU, 0xbed6a946be44a760U, 0x3f2d3077bf4e945fU, 0xbead84f93dc12e69U,
  0x3f3755843e272f3cU, 0xbe7f0cfd3f6399efU, 0x3e75119f3e9d2659U, 0xbdf2eb69bf386116U,
  0xbf6b8b873ee952c1U, 0xbf19bd1bbcaefd42U, 0x3e7530d5be08e1efU, 0xbee5e072bf35d873U,
  0x3ef76043bf23ebabU, 0xbf9644e83da768ddU, 0xbe98c859bea4f44dU, 0x3da7d67cbf84f130U,
  0x3d0223803fde6e53U, 0x3f4a43c1be275168U, 0x3cc39a9b3b610950U, 0xbdbed401be0b5adeU,
  0xbe0f5a60be32e51aU, 0x3f3a49e7bd0ff98dU, 0x3edf0279becccbd0U, 0x3f00ae7a3eb1955fU,
  0x3d995f553f1c4a1dU, 0x3da08473bf25883fU, 0x3f4d97da3efddb1eU, 0x3d6a14163d63e656U,
  0x3ec0c12abbc5a1e2U, 0x3ef03fa03f0e86acU, 0xc044d2da3fa40045U, 0x3f7c7369bf082f6aU,
  0x3e84907abeb13787U, 0x3f751ebfbf1f67d4U, 0x3f215f8fbeb640e1U, 0x3ebeb27ebf8fbfdcU,
  0x3f0b39683f5a4897U, 0x3f0826a8bf240344U, 0x3efa0544be05b16fU, 0xbef3f0393e366656U,
  0x3e25bfa13e39f2d4U, 0x3cd422f5bddd3ab5U, 0xbf89c483bf5a146aU, 0x3efab2f03efdb2f8U,
  0x3e93981ec01dc798U, 0x3e52c2a13ee89b49U, 0x3dc802e0bf4274b0U, 0x3d1d56f73e8f3ef9U,
  0xbfe993713ec6158dU, 0x3e8aacadbf54c13bU, 0x3f25969f3f4bf1e2U, 0x3f4b9b35beb26bcfU,
  0x3eb629263e9aae4cU, 0x3f0a3d19be247e20U, 0x3cba15363f001e72U, 0xbf8b43153fc8146cU,
  0xbe9988ddbed37647U, 0x3c1009643f3aa4beU, 0xbece8cbd3ee2eff9U, 0x3e87f3633f4b93fbU,
  0x3f24a1a0be44cf3aU, 0x3db528c33e98364cU, 0xbe340b5a3f14a097U, 0xbf07d195be5cc990U,
  0x3d546a973e80c997U, 0x3ef7fa5dbf0f6ab5U, 0x3ee67fdbbf1742c2U, 0x3f8dd10dbeba3f41U,
  0x3e7abea23d85ad94U, 0xbf75e8d4bf2e8608U, 0x3f3e1de03f8b09baU, 0xbec3a04ebf17ffbcU,
  0x3f81b803bf8ca410U, 0x3f50075d3e92fe90U, 0x3f0e8756be1e64b4U, 0x3ee113cb3f6bfa85U,
  0x3e50534dbf23df68U, 0xbf8e1dc33f8faa2dU, 0x3f46844bbf80f9f1U, 0x3ec58fd4bddee26eU,
  0xbf22ea143d2e3fc7U, 0xbf090fddbe08bcb0U, 0x3f1b6642be0b8e82U, 0x3dbcadf23ece847cU,
  0xbf294316be714026U, 0xbf9d0219be308b83U, 0xbf41209ebe6f8184U, 0x3f0d8bf23f1378d5U,
  0x3fbc65633ec47e34U, 0x3ebe671bbe355439U, 0x3ef1011bbef51bd9U, 0xbd83f4acbd63f2cdU,
  0xbef1dab2bf335b29U, 0xbb0fe1d6bd996c7dU, 0xbf010b973f2d0679U, 0xbe8e4deb3fa977a2U,
  0x3f9396d6bdb9bd68U, 0x3f630ba63ecf9b16U, 0xbf82c9c93fd12a86U, 0x3f572015bf2ab712U,
  0xbd1433cc3e24c409U, 0x3f84bdff3ea7a1c9U, 0xbf2d54123e2e5d39U, 0xbf5fd329bf1c0ec0U,
  0x3f074b0e3d84988aU, 0x3d8dae2e3ec13021U, 0xbe9c7ef63e53d15cU, 0x3f4cde8cbf28e047U,
  0x3f09ec123f1d716bU, 0xbe615e8bbd7d162aU, 0xbd7211f0bee8861eU, 0x3f81ac4a3d4f481aU,
  0xbf867e1c3ef53086U, 0x3e035f38bebb329cU, 0xbe93120a3f6c2ea6U, 0x3ed4546f3e9d54beU,
  0x3f918aa93f504c9dU, 0x3f4ed304be500a03U, 0x3ee683dd3ef6f69dU, 0x3e91d6923ee0bb82U,
  0x3f22fcd3bb021cebU, 0x3f1dd2c9bdbe1ec9U, 0x3e8a9c143f056a9dU, 0x3f8140203ee6ac13U,
  0x3d46d83c3e67044bU, 0xbdf737dcbf8584e4U, 0x3eb6ed07bf374430U, 0xbd7b48203efd1f52U,
  0xbe0479ce3e8c0069U, 0xbd4d8d85c005642bU, 0x3ed6f0e13e4dc0a1U, 0xbee441d0bece4e4cU,
  0xbea190c1bd37a1d2U, 0x3e99e7fabd8dfb38U, 0x3e85aba9be9b2082U, 0xbfff7b90bd5fe6eaU,
  0x3f20ed13bc72358cU, 0xbf2822983eeebfbcU, 0xbf552100bf3f7557U, 0xbdd3b80fbf17a70eU,
  0x3fae3a633e4b50dfU, 0x3eea130abfc0f676U, 0x3eb81a04bf92173fU, 0xbf86b4653ff86bd5U,
  0xbd55505e3ea64f3dU, 0xbee5f3133de2ae97U, 0x3f2bf5673f08768bU, 0x3fe1a7ccbe68d362U,
  0x3e891d3f3f2b9b4bU, 0xbe0a35a03dfa49a7U, 0xbe5f7886be9bd32fU, 0x3e57a77b3f021a75U,
  0x3e864869bf0bade0U, 0x3e9c830abe33826fU, 0xbc89f1753f0694bbU, 0xbeaeae88bdac8d95U,
  0x3b4a71683f97d942U, 0x3e167dba3cf1281aU, 0xbf41daa7bdf63df5U, 0xbf7fe64bbedc8017U,
  0xbef7abff3d2a155bU, 0x405298243f093eebU, 0xbf179c1cbe951675U, 0x3e1251d53e9ede60U,
  0xbe8c2892bf195beaU, 0xbf57a356bfd0effeU, 0xbe3cd1f3be2c611dU, 0x3efb41d03ebefd8eU,
  0x3f5b9573be152b93U, 0x3f727589befe4ec2U, 0xbfa4264c3f8b0beaU, 0x3e6b5bd63ea9358dU,
  0xbf020c6e3f88babeU, 0x3f046e3b3e79e3c2U, 0xbe9d72d4bf58f180U, 0xbe8797173f3d7018U,
  0xbebaca213f089b42U, 0x3fab2fd93f376d7fU, 0xbe36e20d3e5f8edbU, 0x3f667119beee6581U,
  0xbe80e5d9bf006239U, 0xbd6e0ab03da3041dU, 0x3db56256bd8ab071U, 0xbf25ad9fbfb3fbdcU,
  0x3ee486cdbf361895U, 0x3e8349763d18a33eU, 0xbd9bfd55bf6a79c8U, 0x3e8ed396bd9bc1b2U,
  0x3e4cbd5bbf01c44cU, 0x3f38428abfc76c8aU, 0x3d5da973beb22309U, 0xbf95e996bfcbea29U,
  0x3e7bfcb7bf315884U, 0x3f10f2e83f6170bbU, 0xbe9a92b1bd004576U, 0xbea4c0cdbf3eddd4U,
  0x3e8ef22cbe7627afU, 0x3f43f44c3e8a1b7cU, 0xbdc70f533f56a4d8U, 0xbedd2d15bf625f8aU,
  0x3ede6e9e3e9f0384U, 0x3ede810f3f9039baU, 0x3c949a6abeda1f3eU, 0x3ec427fc3e26b446U,
  0xbe0fc4a53d3fda3dU, 0x3eb912cbbeda98edU, 0x3fac372e3e83f558U, 0x3f41961e3f0c5224U,
  0xbf36fcde3e6e2cc5U, 0xbdb5bb59bed9c6ccU, 0x3f3290f9bf0e8190U, 0x3ea7f096bf3b84bdU,
  0x3e32934b3e8abc71U, 0x3e8f05e93f9c4bbfU, 0x3f01a507be435b36U, 0xbf3d0f3f3e91357aU,
  0x3ed04467bf1d11c5U, 0x3dc959c2be996bc0U, 0x3f841fdfbfbe6c19U, 0x3e9828013f030f17U,
  0x3f071d11beca1532U, 0x3f208c60bfaaa37cU, 0xbe3e8d0abf772a7dU, 0x3f1c01a6be0d9c37U,
  0x3e87a037bde47268U, 0x3ecaf5cc3f33ab57U, 0xbe3f24943dade617U, 0x3bf382e3bd5c2c76U,
  0xbdfdcbe1bf552f7cU, 0x3ecf1b1a3f58988cU, 0xbe3ea64bbe40b771U, 0x3dd5aeccbca6f0ceU,
  0x3fcb60debeb025dfU, 0xbf99d6513e7827b4U, 0x3ea458a7bf4343a0U, 0xbe3e4e2ebf88cad1U,
  0x3fedca21bdaf9c18U, 0xbe0ac26abf36cc7aU, 0x3d1978bd3f09c1efU, 0xbf97ad373f35d9c4U,
  0xbe11ce3bbf701706U, 0x3eb99cac3e6bfbb2U, 0xbe3cf5b4beb2f57fU, 0xbf8504b8bf75c05bU,
  0xbdbfcd60bca3d6deU, 0xbe897e643f2efa10U, 0x3fb7c513bfb58334U, 0x3ec952443fa072bcU,
  0x3ea096ab3f6c8945U, 0xbe9d4b50bf979db8U, 0x3f53cc5fbbbf8f44U, 0x3f564a77400d64d5U,
  0xbf3810c3be927378U, 0x400fae15bf9f8a02U, 0xbf3ed9b03d7daff8U, 0x3e698021be42c691U,
  0x3f167d27bf1be809U, 0xbf348afc3f7e730fU, 0x3e092df3be1acd38U, 0xbe0188d5be3b46aaU,
  0xbf263f37c0241116U, 0xbe959462be8c2510U, 0xbe7440ce3f57156eU, 0x3f3e60453c79c738U,
  0xbeb3019ebf132951U, 0x3e4f469340564887U, 0x3d8b30413ebbf745U, 0x3f2b58cdbdcf9209U,
  0xbf060614be2c0e14U, 0x3ee53d47bf9ae9fdU, 0xbdffcb843e2e910eU, 0x3f51c993bebfd95dU,
  0xbf17c6f33dcd4d7dU, 0xbe19338b3f5559aeU, 0xbf9ce1543d9a277dU, 0x3ede6130bd70f957U,
  0xbf96df933f01052dU, 0x3f2f2fe83ebe598cU, 0xbf0d8954bf4e3d8eU, 0x3f998a543c3d263fU,
  0x3e0077433eed35fcU, 0x3f015876be09cc86U, 0xbe7126303e83dd36U, 0xbf6c0b06bd85ce12U,
  0x3f4d3e23bf5f5972U, 0xbe874f51bea3160eU, 0x3e1d42fb3da8110dU, 0xbf857ae83ded2b56U,
  0x3da6ab8ebf1baf17U, 0x3f8cf46dbd360df9U, 0x3ef42c83bee00f4aU, 0xbf68ff7e3e9ba6bbU,
  0x3f3781d5be3016d5U, 0x3f0430a6becb4ff3U, 0x3f99a525be7ed68cU, 0x3f313ffd3ccf89a3U,
  0x3e7d9f7b3f5b98b6U, 0x3fb1c0d93e191c90U, 0xbd5406babe2fad27U, 0x3c9d0d38bb7a8682U,
  0x3dafbaa2be9118cfU, 0x3e8fabcebf9c42e9U, 0x3ee40f91bde9f84dU, 0xbe33dbe5beebb0ffU,
  0xbf2497a83fc5d800U, 0x3dfb19e23f1f8d73U, 0xbeb2883b3eb5f415U, 0xbf946b0c3f82a1bbU,
  0x3e67754bbeef398aU, 0xbeb041753f3a255cU, 0xbfc4aa46bf4e8826U, 0x3f07fb1a3ec25d29U,
  0xbec7ff433f9c16e5U, 0xbe8616a23f0da93fU, 0xbe9ef0d93f5609c5U, 0xbcc0689abeb8d9caU,
  0x3f5407823f018afbU, 0xbf1e2ce23e12b3baU, 0x3e8160333ec1e49aU, 0xbea2f1babf4370c6U,
  0x3ea0849abe27dd56U, 0xbfa93df53f82a795U, 0xbed77e91bdb3d974U, 0x3fc0009cbe33ba8bU,
  0xbe9b43f63f42f803U, 0xbf05e8bf3e9f9441U, 0x3e9fcae23de27b07U, 0xbf60260fbf9ad75eU,
  0xbe38bd713eeaedb4U, 0x3f6e8b7d3cfebcd5U, 0x3f42b4b7bd54fae5U, 0x3e960fcdbedf7ad3U,
  0xbfedc5babe847020U, 0x3e4fb6b23f129286U, 0xbe4770093ebbb6b7U, 0xbf1561cbbdd8d36cU,
  0xbf15e02fbed73acdU, 0xbfba74333e92d3a7U, 0x3fab46b43fb5343eU, 0xbe18abb0bf0b847dU,
  0x3f8786ca3f627106U, 0x3f613d0b3eba1a66U, 0x3f63932e3ec5d3b4U, 0xbf8a98263f0fd1f6U,
  0xbf33f2463eb60bc0U, 0xbf5f325fbf1aebedU, 0xbd641186bd83c5abU, 0xbf310bf43f466d6aU,
  0x3fb58e9f3e008436U, 0x3ec7c9e3bf995c66U, 0xbf20c16fbe419fd4U, 0x3ddd88e13ddec2b2U,
  0x3ddc4da53cb276f6U, 0xbe000e7fbf34a68cU, 0x3fabdc323dd374ecU, 0x3f54d3e93daf5b19U,
  0x3e83fa44bdb927aaU, 0x3e8714e0be7f8d16U, 0x3edb30933ef6577bU, 0xbf2c1e73bf232ae3U,
  0x3e44a73e3faeeb59U, 0x3f28873b3e4f399bU, 0x3f2c95bb3cc8885aU, 0x3e2ea0c4bf2ce073U,
  0xbf49d2e43d511688U, 0xbeab6e07bfce516dU, 0x3f0fcc8fbe9cb7f4U, 0xbdddd1d7bf7be5c1U,
  0xbf1f16b9bf3100ceU, 0x3f689f983f218b2eU, 0x3e39b976bdfcef14U, 0xbe6bbae9bf2d7866U,
  0x3e8d1fa3bead57daU, 0xbe8bfe6e3ed1b916U, 0xbf12655cbfdc290cU, 0x3f485f5d3db6153cU,
  0xbdecc7b1beee1555U, 0xbecf4e003fafbd5dU, 0x3ee8228b3ed5dd17U, 0x3ee8c9953eb7b46fU,
  0x3d776decbf98bb10U, 0x3e32f2fe3e56fa42U, 0xbd62447b3f293619U, 0x3d205b333c0cca2cU,
  0xbe40b93d3eb99f73U, 0xbe2d3dfe3ddfa629U, 0xbea956f43dd9b9a4U, 0x3ee7e5d43eb08fe0U,
  0x3e03c61c3e5a81eaU, 0xbeb305eb3e6d7191U, 0x3e83b8533e0ecf27U, 0xbea65e02bf2976f6U,
  0x3e876098beacadaaU, 0x3f567dc5bf7c853dU, 0x3f95bf35bf085ca2U, 0xbf820e283fd64815U,
  0xbe8f88c6bec007afU, 0x3f6969a9beb60230U, 0x3c3bcebc3f58cd28U, 0xbf49da513efac2dfU,
  0x3f04e7893d972ea4U, 0xc028815cbf5fa5f1U, 0x3f6976b4beae0426U, 0xbf20da7a3d8df13bU,
  0xbe3125263e9e59d3U, 0xbf9ee320bf00beb0U, 0x3d1537013c291856U, 0xbf8b02f33f3a6fdfU,
  0x3fb49ac33f7f2d9dU, 0x3fcb3f6dbab35bbeU, 0x3d897f12bf8dbb82U, 0x3f62f8f53f779adbU,
  0xbf3c2119bed4c919U, 0xbec24eb0bde24f3cU, 0xbea788acbeae0970U, 0x3e6663cb3eda93cbU,
  0xbf0850c93ebaf784U, 0xbf91dc583f55b405U, 0xbf6fe9953e91e5c6U, 0x3e1f63fabf713191U,
  0xbf7dbdf93eccfbf1U, 0x3de0b147bf1898d9U, 0x3f31bd003ed3446aU, 0x3eedc3f0bed8f838U,
  0xbe3a25eb3e88056eU, 0x3e43d671bf4501cdU, 0xbf83275d3fcf313fU, 0xbeeb07d1bcc40e7cU,
  0xbeb31f393ea89d1fU, 0xbf1b676abd75fcf3U, 0xbff17e463f0b7146U, 0xbf9a427e3e38000dU,
  0x3f787c58be764da1U, 0xbf5b7fedbddf1fc6U, 0x3f71098abd705766U, 0x3f1bcc2b3f2d5f14U,
  0xbfc603b0bf782619U, 0x3f4f760d3ecea05fU, 0xbef852c13ebdfbf7U, 0x3f28f12fbde04ef2U,
  0x3f1f91de3ed29876U, 0x3f54382c3eb3450cU, 0xbec935fbbe1f2b34U, 0xbeafe9d43ddba2deU,
  0xbf43a912400c275bU, 0xbf9b4bcabf0fb2b3U, 0x3fd1108cbe436645U, 0x3eb80765be20a606U,
  0x3f09a3773ea2e481U, 0xbfbbf6ad3fab8eb5U, 0xbf83cd2bbf24b20dU, 0x3e8c6fbebe9bf9bbU,
  0x3df3578c3f17fe62U, 0x3f5823fbbf2e9b0cU, 0x3f161ca4be33024eU, 0x3f8290a63f2c6239U,
  0xbe261d943f941bdeU, 0xbe9f5a93bf14a14aU, 0xbea19c78bea2c5adU, 0x3e947b05beb1059fU,
  0x3d6fa6993ea596d5U, 0xbf40902cbfa10995U, 0x3e11b7783d8e6f15U, 0xbe736823bf2412a7U,
  0x3f1d32d2bfb3ec77U, 0x3e5c1f4cbfa3b6c3U, 0xbdc116e5bfa8ff04U, 0x3d289f7abe9e6f3bU,
  0xbf2d3fcbbf1c064cU, 0xbf083eb43fcee43aU, 0x3efcfbbfbed10ccfU, 0x3e7f09dc3ffc9f82U,
  0x3e12e9fc3db37de0U, 0x3efb4d8bbeb781e7U, 0xbf55eb0abf2e094cU, 0x3f270c073e23f574U,
  0x3f9ccd6d3fde0598U, 0xbfb72f3c3de797eaU, 0xbe7211b8bda7ba40U, 0xbf12733cbf76a691U,
  0xbd2c7a75bf8872b5U, 0x3f8803dfbf632348U, 0xbe89a2ad3f4cf420U, 0x3f2d2d153ebface8U,
  0x3ef43deabf068c6eU, 0xbda7ad05bead7bf1U, 0x3e7b9924bf97012fU, 0x3d9f38613d6493c7U,
  0x3ee001e23f48ef23U, 0x3eda3767bfb57f71U, 0xbdbb116b3f1a0519U, 0x3e9ba8c03e24180aU,
  0x3dd17de33d691d38U, 0x3d5d71fa3e27cd3aU, 0x3f38c28e3ec92d04U, 0xbbaed6703e6c25eaU,
  0xbe892b5bbea3ef57U, 0xbf472b80bdcfc25fU, 0x3f8903a2bebc0360U, 0xbd9627903f4187d1U,
  0xbf2e36df3e368359U, 0x3e9cd209bf728ae8U, 0x3f85c7593e9cfbfeU, 0x403b485fbfc8fd39U,
  0x3e47cb9abf0562b4U, 0x3e07fda4be8580e7U, 0xbfa08a6b3f0bbff9U, 0xbedd02e2bd6be914U,
  0x3f37456fbdda6c6bU, 0x3d093824bf211f2dU, 0xbf7d7044bf22c339U, 0xbeb5d1303f28a9ebU,
  0x3f82465cbfa4bcb1U, 0x3f99d8473e8c6d55U, 0xbf859b963f15a341U, 0x3f6ded2c3c7c0dd4U,
  0xbee68c833f4488beU, 0xbf19945ebf6f4e0bU, 0xbe18959cbf732857U, 0x3f66f1cd3e07ba90U,
  0x3f1fa485bdd8c1e1U, 0xbefb20263e8d7b66U, 0xbd98069f3f37fb6aU, 0xbe588a3f3e982c9eU,
  0xbf44bc0f3efa251fU, 0x3d2df4773e744d27U, 0x3f0379a9bf0e48ccU, 0x3e3051da3ee7da49U,
  0x3f21dc72be79cca1U, 0x3e83e2713e53a6d6U, 0xbef5061dbefd5621U, 0x3fe5061e3ca2d451U,
  0xbfb1f02abe9acf45U, 0xbf1213e63dec3725U, 0xbe1855a43f590047U, 0x3df26f3c3f8afe28U,
  0x3f3185f23f2e92a8U, 0xbf4cda623fa17e91U, 0xbe6abe06bf56aef8U, 0xbfa2314d3fb46a6bU,
  0xbcfe29fcbfdb0313U, 0x3f4a2d07beb77793U, 0x3eb8ff893f0ec559U, 0xbe8a9557be4528beU,
  0xbf1b378d3e06072eU, 0xbe43bc7cbf90d6d1U, 0x3e142e3bbea19f93U, 0xbe05bd003f5e1b1dU,
  0xbd715de43f66da8cU, 0x3f48369a3e82e9a1U, 0x3f29386c3f1a7680U, 0x3f92a0893d0e64eaU,
  0xbe8fd1513f2ad8daU, 0x3f8cbb88be3a7337U, 0xbeb6feb7be936c94U, 0x3e39dc4ebec14446U,
  0xbe8f2bee3ddf3eefU, 0x3f9f4a6dbf47e166U, 0x3d650146bfb85c45U, 0x3e8bc69f3f83c468U,
  0xbf9ad8993ec047f6U, 0x3e3956af3f94c6d5U, 0xbe1ebe663eea2f28U, 0x3f261ea0bf10837aU,
  0x3e27cd613e4d2b1fU, 0x3fc62e083e305ae5U, 0xbf86673ebc4aca35U, 0x3e7563a93f0869aaU,
  0xbca2ac10bf3563b1U, 0x3e1424aabf8102b5U, 0x3e1b527abf4034e2U, 0xbd906fc23f66e062U,
  0xbf17d34cbd6ed052U, 0xbee186d83ee6ea2cU, 0x3f19afc53ea58330U, 0xbee8f1323fa7e93fU,
  0xbc27a5f13ef4f40eU, 0xbf2383b63d6d1a41U, 0x3ee94f8abe87a2f2U, 0xbfe40989bebc36c2U,
  0xbed84f21bf887c2fU, 0x3f0060bdbe9bd90dU, 0xbee57a563ef13ff1U, 0xbf20f780bef466f3U,
  0x3f0a021cbef0aff8U, 0x3f3214e0bc1218dbU, 0xbdd861b53f4355cdU, 0x3ef7baeebecb85a3U,
  0x3fa52fcabf08a2feU, 0xbf3282a43f453f47U, 0xbe892582bf50d10fU, 0xbf8933a6bf248ac5U,
  0x3e809a9d3f92fa15U, 0xbf9d4ff340322fd4U, 0x3f199fe63f0a340dU, 0xbfb709833d502535U,
  0xbdf0c904bde85b00U, 0xbe6cd8afbe40daaeU, 0xbe91a3bdbd1e74c0U, 0x3f33dc443e9a680cU,
  0xbebf2b15bfb6f52bU, 0xbe42def93f64205eU, 0x3c9dd5e9be27b36cU, 0x3f3132923d1ed004U,
  0xbe7dfe8dbe4d3923U, 0x3f434052be299485U, 0xbf81ce83bf29dd15U, 0xbf5d82d33e763c16U,
  0x3ec57141bf8f2911U, 0xbed5f943be2dcb82U, 0xbe4be490be29190fU, 0x3bd0c6d43f451714U,
  0x3f38779b3eafb250U, 0x3bc6f26fbf46e514U, 0xbd4359c7bf2e5315U, 0xbf2433f93e6ca542U,
  0x3e2ced14bf14a407U, 0x3e64bbe4be83d5b3U, 0xbd722f9b3e53e2f3U, 0xbcadc1173e21c324U,
  0x3e3874203fad211aU, 0x3f795132bf09697eU, 0xbf2963dc3e9d57fbU, 0x3ebaa35c3ec526afU,
  0xbf996adebd3556b8U, 0xbdaa5f673f1297fdU, 0xbcb2fedabea19f79U, 0x3fc95b5dbea93048U,
  0x3f6a5eed3f9a939aU, 0x3f3fdda6bdd39528U, 0x3e5efd773f3f4772U, 0x3e85eb95bfa59969U,
  0xbf1c651a3f90f0ffU, 0xbcf9cb4cbf27de03U, 0x3d379052bf31f937U, 0x3ea919123e5d4fdaU,
  0xbf6219353d124dd7U, 0x3e5cd2473f303917U, 0xbe42304d3f566da9U, 0xbdbae9a13f718f12U,
  0x3e4bd44a3e7ef205U, 0xbf9e69533e379111U, 0xbe7d1bedbf52c693U, 0x3f1185f53e1115d0U,
  0x3e5e8e81bf79dd0dU, 0xbfb905efbfb739edU, 0xbe3ce53bbecad4bbU, 0x3f218e0a3f97921dU,
  0x3df2adfa3f45c8d5U, 0x3ee2379e3f6108d3U, 0x3d081c39bebfe1feU, 0x3d3fb084bf6ae9e3U,
  0x3d617ae13f51e7a8U, 0xbe5a3da2bfc6270bU, 0x3eb85da53f4eeba4U, 0x3e5844203f7eb113U,
  0x3ee1c79c3e1e5cbdU, 0x3e536d87be8b70dcU, 0x3ecfee1d3f4e7943U, 0x3d26baa4bf10aea5U,
  0x3efbd91240189e0bU, 0x3e711213beff0f6eU, 0xbe9dc2dcbf13c803U, 0x3f1671293d5d3529U,
  0x3f78e6e23ef96015U, 0xbfc635b6bf0ff100U, 0x3d3406adbf143e25U, 0x3ea96b703f1319b8U,
  0xbf224f293e877504U, 0x3ac8b910bf9f2b32U, 0xbf0fe8a73d909288U, 0x3e402e2bbf06e7a0U,
  0xbf7139233e4e8de4U, 0xbe8a7b3f3f6cce46U, 0x3ebd6b92bf427d2cU, 0x3e973c30bec91fcbU,
  0xbf4e52fb3e359df2U, 0xbec0ad18bd603b91U, 0xbe8482a0bf11349fU, 0xbf492b11bf0d8821U,
  0x3ed1239dbf0835abU, 0xbce87a283f3add50U, 0xbfbd06013dc149dbU, 0x3f01c1353fd09579U,
  0xbf1c854ebfb43e71U, 0xbf9ae3d83e426a3fU, 0x3f084a153eab7936U, 0x3d2423683ead8290U,
  0x3e58adf13f6230fdU, 0xbe87242bbd9ed328U, 0xbf5058203da8f6baU, 0x3f42d2533ecd2322U,
  0x3f672edb3f9ff568U, 0xbf118c683f08e163U, 0x3f14f26dbe98a71cU, 0x3f0915e93f5361e2U,
  0xbf560b6bbec80f72U, 0xbca00829bf85f96eU, 0x3f3bb55c3f938e5cU, 0x3f1e25a0bebb783bU,
  0xbf1bae14be482359U, 0xbe8f1d35bdfe74b8U, 0xbf185bc73f2ff131U, 0xbed537cbbef66590U,
  0xbf02ac583f0d5986U, 0x3f4769b9bdcdd818U, 0x3f5cb80f3ea4a1f6U, 0xbf8bff91bf8b7ed3U,
  0x3f301e20bfc19cd9U, 0x3f6ed37c3f0f68b7U, 0x3f2020c73f72b9cfU, 0x3f81a98c3f8857dcU,
  0x3e7353073e55a2faU, 0x3d977a09be8bf734U, 0x3dc2952cbf7bc41cU, 0xbf4a7f2f3cfcd383U,
  0x3f677f92be7791efU, 0xbf4bd761be9ddbb9U, 0xbf31f33a3f280989U, 0x3ea41606beda9ad5U,
  0xbd2cdba53ef563e1U, 0x3f0ec8e73f2c7855U, 0xbec41559bddc1092U, 0x3ed30d183f2ca3d3U,
  0x3f0ea2abbe5ba4a0U, 0x3e1ed6c23ebf6922U, 0xbe1d9110bcde0cdcU, 0x3e8ec5c83f5fabdcU,
  0x3db6412bbe8c8a9aU, 0x3f74dc14bf95b6ebU, 0xbe402e46bfb03fe1U, 0x3f0bb65f3f009223U,
  0x3f92c4363f2fa00dU, 0x3e8cc83cbe394536U, 0xbe59ca80bd40766fU, 0x3f2615a8bf774780U,
  0xbed959abbf4468dbU, 0xbebf23843f9babdcU, 0xbf35c8803f3be1d3U, 0xbecb8bbe3e489e83U,
  0xbf25b9743eae1220U, 0xbf0f8d263f9ae9b7U, 0x3ea46a793ef91c79U, 0xbdce2c99be762bc6U,
  0xbe6c1552bf0d2cfaU, 0x3e6be6f13f3d67bfU, 0xbe39b3dcc0023cd0U, 0x3f8c4c49bf6c2d9aU,
  0x3ddd67b0bec77371U, 0xbe9d7f75bf409cedU, 0x3fb11320bd97da39U, 0x3f1f9b52bede89bcU,
  0xbdc88ad13f44fc25U, 0xbf2c3ff9bfa0098cU, 0xbee444b4bc24c1b1U, 0x3e90f593bf55405cU,
  0xbf52e488bd8651eeU, 0x3e8f0040bd480204U, 0xbea0f16dbf42e95cU, 0x3eaa3bab3fb24792U,
  0x3ee2343b3f45422aU, 0x3e691d1bbdde7d99U, 0x3d9e8cf63c9b3eaeU, 0xbef3fe453eb2deacU,
  0x3eaf5feb3dea1b6bU, 0x3f05fee13f0ec0cfU, 0x3d3c1c61bccbf04dU, 0x3e953160beaec9ebU,
  0x3fa9303dbee3469cU, 0xbf8766dd3f51915fU, 0xbf7aa58e3fb72568U, 0xbee2cc483f668395U,
  0x3fe125a83fa0dc17U, 0x3c83c7d23e9232d8U, 0xbe0e89a53f106898U, 0xbe14d72bbf1e1bb6U,
  0xbc865112bee83efaU, 0xbe34aa0bbeceaefdU, 0xbe080c12bee5e83bU, 0x3f015969be44afa5U,
  0x3f74cc523f8284c3U, 0xbf0ca11bbf538059U, 0xbed78bf73e29a71aU, 0x3f566d76bf59e5e4U,
  0xbf6fc425be1aebf4U, 0xbf118a4a3e965a9cU, 0x3f8d70a7bf0a6090U, 0xbf02a87c3f28077cU,
  0x3f36b54d3e014966U, 0xbf46708fbee4dd41U, 0x3e13eac2bf8345e4U, 0x3ea81894bf1cb424U,
  0x3f043206bf8c0b50U, 0x3e0f1c94bb5dcfe6U, 0x3deffc393f4c168fU, 0xbe7d17f3bfc8627fU,
  0xbebf25e53e28c23fU, 0x3ed4e8443e91a502U, 0x3d3a3089bf803cd1U, 0xbebb5b37beea7d5aU,
  0x3e395e403ffe4edcU, 0x3f0f93643f1eb61fU, 0xbcc6eacabf9b1997U, 0xbf11d9923eb12dedU,
  0x3e84d90ebcdb3daeU, 0x3eb516a1bf0504a6U, 0xbec23bdb3f3029c3U, 0xbfb41f26bd6596acU,
  0xbf63e3c4be15ecb3U, 0xbf7bee09bcf9bf79U, 0x3f9a43f63f325652U, 0xbdadedcfbf1a9087U,
  0xbf3c57ccbdfafe2eU, 0xbfd47f63beb3f2e9U, 0x3efb33753e5edb55U, 0x3e1fdcfb3f10f50fU,
  0x3d879d9a3ed2843cU, 0x3e8f2e123ed439bfU, 0x3e94a7f83ec3ba72U, 0x3f8963cf3e0520ecU,
  0x3eac0ef93e50223eU, 0x3dc03aea3ed50146U, 0xbedc29143f8b5b47U, 0x3e9e0aa2bf42814eU,
  0x3f3e2a82bf90bdf8U, 0xbe67d4d1bfc6dc3aU, 0xbcd3d703be860f31U, 0x3f143cd2bf3784edU,
  0xbd8b44a93bd4b4c4U, 0x3e291dd2bf689e16U, 0x3e8f32d9bea8cbaaU, 0xbe49241b3f16a5efU,
  0xba68d5823f897f96U, 0x3f1e6001bda2d595U, 0x3ea6961b3f0c712aU, 0xbeff2fa0bf62adacU,
  0xbf233024bf733ba7U, 0xbf33f2e0bf4f3cbeU, 0xbf2b425fbf0bf046U, 0x3e34f822bf22c1a0U,
  0x3f0c9bf1bec3fc00U, 0xbe90f90e3e84c72cU, 0xbfdbbc97bd7ac134U, 0xbf2f9c64be26a38dU,
  0xbdc764c7bfb860f1U, 0x400a30823d9a478aU, 0xbe8abee7be938680U, 0x3daa27353edd0f6fU,
  0x3fe0a295be07e147U, 0xbf89e78d3ed78dddU, 0xbee37926bd0cbfd9U, 0x3f639914bf5be024U,
  0x3ec8c5e03eff2876U, 0x3f1bf3eebec871ebU, 0x3e0f96183f8687c9U, 0x3f37e8ee3e7f2ab5U,
  0xbe1cb2cfbf073db1U, 0x3c8b1e233e535820U, 0xbf3df30a3f160082U, 0xbfaed770beb8c532U,
  0x3f98c50c3d8708d6U, 0xbe9ebed03f59357dU, 0xbda9486bbf16f8c1U, 0x3e36d0ddbea4e84eU,
  0xbf5a0569be94d185U, 0x3fde4e41bfc04230U, 0x3e0aa861bd896e93U, 0xbe70461cbf117f46U,
  0x3fb655413f5933f8U, 0xbf3b4ab83f8f1107U, 0x3d0fd2cebf68efe5U, 0x3ef8db90bf287266U,
  0xbdeabec7be94f882U, 0x3e82e6923ee354f8U, 0xbd9dbddbbe23b30dU, 0xbf2af85bbf051464U,
  0x3fc172edbf6f65e0U, 0xbe21263b3e094a11U, 0x3eacdf8c3f2d8938U, 0x3fa60625bf0ed398U,
  0xbe9696253e68d196U, 0xbebb9b44bfa6510aU, 0xbe2958c340185a29U, 0xbe084c72bebfcc64U,
  0x3e9445293c6473a8U, 0x3ef7d7cebfda728bU, 0x3f0640f9befaf3d4U, 0xbd4490f9bf840860U,
  0xbea74b40be19b581U, 0xbe87e5a33f16ce60U, 0xbfabaa9b3d1b28dcU, 0x3f830e87bec3ae52U,
  0x3efe6c38bde75f20U, 0xbf5690163ee975a0U, 0xbe116e073e218ae7U, 0xbe224ee7bf4fbb0eU,
  0x3d966f8b3f042843U, 0xbde79918bed71442U, 0xbf3a587fbd90e979U, 0x3e8c65003c5d8760U,
  0xbd9635fdbf752210U, 0xc0158ab33f86f9a8U, 0x3e0a78dd3ea5772cU, 0xbef7a7e63f164bbbU,
  0x3dd43355bf01de76U, 0x3ea13d9bbf0fe56fU, 0xbf2f7955bed1136dU, 0xbf8c2310bc2c4a82U,
  0xbf4e90303f9013caU, 0x3da15a263e2019bdU, 0xbec682b83d99fcadU, 0x3eb10be53e857b6aU,
  0x39cbd8243f488009U, 0x3f2b9c0ebed49f9cU, 0xbfaa229b3f378937U, 0xbf006eaa3e8aac3bU,
  0xbe4b1b6f3f3a7b42U, 0xbf98a60abeb148fbU, 0xbf2c03f53e4da207U, 0xbf3f2854be314d9bU,
  0x3e80e82f3dda5e06U, 0x3e5a93b23e897250U, 0xbdb5b9cf3f0a488dU, 0x3ebdee59bf0554a1U,
  0xbdf932fabe75b498U, 0x3e6b15fcbe1b7084U, 0xbcc158643e484952U, 0x3f69675e3d9e2f4cU,
  0xbe390c433ef305daU, 0xbdcb3ca53f20648fU, 0xbeba5d233fae00c0U, 0xbd1cf8c2bf88dc51U,
  0xbb90a0e23f3eb6edU, 0x3f1bb1a43ee9013bU, 0xbd0c0bbb3fb1e87dU, 0x3f20bb7dbf0e0234U,
  0xbeca3b42bf02b4deU, 0x3ea82638be7c560dU, 0xbf7cebf4bf6edb1aU, 0xbf0f81223f577372U,
  0xbf0ec429bf44aef0U, 0x3eec69a33ec89165U, 0xbe82758f3e9bcf45U, 0x3d194fef3e7d278cU,
  0x3e4fc239bf8f0f78U, 0xbdc07cf1bd8699c2U, 0x3f2c72aebf759a5fU, 0x3ee51c803eb0970dU,
  0x3becb7be3ea9c4dbU, 0xbe62c43d3f123d98U, 0x3d436054bebb39b7U, 0x3f06772cbe9b5973U,
  0x3f76411e3ffcd644U, 0x3f7772a83d78573eU, 0x3f36d64c3e6a232bU, 0xbfab107bbf130a67U,
  0xbe86bf93bf9758feU, 0x3e7e2b703e18ffe3U, 0x3eeaa4c83e628cdfU, 0xbfbd9df3bf67f37cU,
  0xbd7398cbbf50b8a8U, 0x3f2783c1bd9c9e72U, 0x3f935c1abf34334dU, 0xbf384b553f909e41U,
  0x3ec2cc4cbdb7757bU, 0xbee03350beca6557U, 0xbf3deee3be8da5c8U, 0x3ee715d73e04101bU,
  0x3fb7374e3f81215fU, 0x3f16f192bef9cb37U, 0x3e73b2b43cd6efdeU, 0xbe6bf7a2be64c917U,
  0x3f945ac43e9cb54fU, 0x3d3bbcf33f99f1bcU, 0xbedeb68f3ea67f3bU, 0x3f79ff11bf8971d3U,
  0x3e5fc91d3d723dc0U, 0xbecb8cef3f74461eU, 0xbeb3216f3e809db1U, 0xbee380043f110d01U,
  0xbeefb052bf361aadU, 0x3f9b95373f0b79baU, 0x3e389a8d3f489dc1U, 0xbf3e21e6bf127ba2U,
  0x3f10de56bf3b5504U, 0x3fb5cc913fe5ee07U, 0x3f5ceaeb3da73b8eU, 0x3f3725b0bf2090a5U,
  0xbeedb606bf23ab9bU, 0xbf132ee9bf718483U, 0x3f007b61bea2f4b5U, 0x3d27f7693e021ef9U,
  0xbf8d204cbf3004a2U, 0xbd41e2e03d3c78e4U, 0x3e8459ab3ef14c70U, 0x3e590be9bf0128deU,
  0x3e6ea8943d26f373U, 0xbea249afbf036f55U, 0xbe99170cbe52e35fU, 0x3f0c943e3f2dda30U,
  0xbeffc6623e71c047U, 0x3f3d16013f62343aU, 0xbebb47c5bef2d5dfU, 0x3f6d7ea7bec24fd5U,
  0x3deb88863f6050d8U, 0xbe42ffc4bcba19d6U, 0xbec8d295bf45fbc4U, 0xbf878b1d3f4bfa3cU,
  0xbd4a2b5c3ec71328U, 0xbfdd46c9bf3d15ccU, 0xbf12a13ebf57fb30U, 0x3f1f32053fa66f49U,
  0xbf8372443eab8577U, 0x3f8277ffbf98269eU, 0xbeb8ec573ee13f4dU, 0x3f1b70a2bf66c740U,
  0xbe8b45953f88c275U, 0xbed0c3cfbed92e4fU, 0x3e095eb53ef3741fU, 0x3e446a42bf607fccU,
  0x3ff450d53eca9434U, 0xbef8df41bf4ba2ddU, 0xbe073258be082c98U, 0xbf97caf33f627768U,
  0xbf6f46f83f473ecdU, 0x3f7cfbefbd6e1809U, 0x3f0660243e1c35dfU, 0x3f2ba1b83fa35712U,
  0xbf4323293d090e57U, 0xbf52b6f0bfd228f2U, 0x3ec2db043f0e98d8U, 0xbeced0d13e53b33bU,
  0xbdc778903eb1a19eU, 0x3f00535fbf3f72a6U, 0xbfaa06013e50d293U, 0x3fd0c5113e317678U,
  0xbea91b6a3e55814fU, 0x3f1049a53e0e1b9aU, 0xbeaa1717bf63b443U, 0x3e8b87c0becb1c72U,
  0x3f81b29bbe2f954fU, 0x3e60264e3da1a853U, 0x3d25746cbed72a76U, 0xbf1617a63e53c812U,
  0xbea79b7cbe9738a9U, 0xbf2efd8a3eef91e0U, 0xbf9b59cdbef5410dU, 0x3d47758c3f7a03f5U,
  0xbf038af23e194cf7U, 0xbf9f36193dc32b03U, 0x3ed45c823ef0a05eU, 0xbf6bdbae3e6021b9U,
  0x3f4e0d3abdb08b39U, 0xbe16cde1bf27feedU, 0x3f043a883f1d7c4dU, 0x3f3bebcdbf3a75d4U,
  0x3f25db823e76f0e6U, 0x3e98d965bd59ffdfU, 0x3f01c211bf1fb1d1U, 0x3fa52890bee879adU,
  0xbf50d8d73e043470U, 0xbed517f4bd231a84U, 0x3ec63f78bbf44eb9U, 0xbee76f99be20e5eeU,
  0x3e441aa03f365fe5U, 0xbf3f629b3fce88a7U, 0x3f5fb44dbe89d99eU, 0x3e6dce4e3e85bc0cU,
  0x3f7247943e190a54U, 0xbdef05a03e033bf6U, 0xbed42c68bfc5d9a0U, 0xbcf8bd1abe1cd731U,
  0x3db113d93f265006U, 0xbedd10b4bf32a16cU, 0xbdc66b423f17081dU, 0x3f261f103d82f5baU,
  0x3e8630a9bf45e020U, 0xbf117b753fe6f42bU, 0xbf0a6fa9bce9e65cU, 0xbc7cba6cbe2a93b2U,
  0x3edb4aa03ebf6ebaU, 0x3f8bf4aebeb4ba6cU, 0x3e820d4f3fc3104eU, 0xbf12a3fb3dc06034U,
  0x3fb741c0bfb5e22cU, 0x3e155c0d3ea3b7f2U, 0x3e0f1177be840b6bU, 0xbe8481c2bef0b2a3U,
  0x3e99325fbf96bee7U, 0xbe4b4dd63f505fc3U, 0x3f0d83713eccd936U, 0x3e596a2ebd688fc1U,
  0xbf916112bf926731U, 0xbf4890bd3f76fe4fU, 0x3f0f18babe5f5d35U, 0xbf6ea7a2bdfe32feU,
  0x3e000bae3ee38cc8U, 0x3f4f0b19bea0e68cU, 0x3ecfb41c3f0ec9a0U, 0x3e82c6f23e3eee71U,
  0x3f0890053eeaaf0bU, 0x3d0f6be93fa99403U, 0x3cd59cbdbfc438a5U, 0x3f8581593f02891dU,
  0xbf147d4d3f6539beU, 0xbf1c09db3e8819cfU, 0x3e6b0f78be95ae16U, 0xbd4262d8bee3ae82U,
  0xbf7bbecf3f118ca2U, 0xbe146e313ff0f038U, 0x3f875cdd3e1fe7f7U, 0xbff2c6b3be0a4f62U,
  0xbf3d6901beb186afU, 0x3f519c133ec4a77cU, 0xbf7faa593d57f596U, 0x3d9bf9013d37dc87U,
  0x3e8de14bbf0d4a05U, 0x3f2e9d13bf825aacU, 0x3e8852c5bde98cffU, 0xbea1234f3f6e2744U,
  0xbe2da9ef3f6fc2b8U, 0xbd467b8ebf895123U, 0x3ebec57ebf118666U, 0xbf69c85fbf58d95aU,
  0xbfa9098bbe26fc32U, 0x3f59708bbd42076dU, 0xbcd1d8383ed73043U, 0xbe677e87be68393cU,
  0xbf34777a3ee94f71U, 0xbe1bad0cbf0635b2U, 0xbd6eaf2bbec20245U, 0xbf4cec0d3d0eef40U,
  0xbf2af0b0be5d45eaU, 0x3d53581d3c8c797eU, 0x3f1910b43efd1d76U, 0xbe87b0373ea4df76U,
  0xbe2669b13f8c3722U, 0x3ec816d53fbded15U, 0xbffd0794bde65b63U, 0x3db4b6fabf5334c6U,
  0x3ef45cff3ded45e3U, 0xbf6468c23e5520f2U, 0xbff73833bf58825dU, 0xbf00b10a3edd2689U,
  0xbf1b16fa3e8047ddU, 0x3e6bc982bea02eb5U, 0xbf8838df3e0b88daU, 0xbf1a39113f909853U,
  0xbf8f631d3f574c90U, 0xbe90f2fd3f060815U, 0xbeb796a2bdf52dbdU, 0xbf39d3a93ec243b4U,
  0x3f0a0a143f146690U, 0xbfc8c2923f028e27U, 0x3f60e7f23f862cfbU, 0x3f3606f33e2fe166U,
  0xbd4890e8be1c4bb7U, 0x3f761441be875b81U, 0x3eb4efc6bdaaaf52U, 0xbdc5a48ebedfdc30U,
  0xbf1948773f33ea3bU, 0x3dd5c23b3fb6ca41U, 0xbee404ae3f9e6400U, 0xbd3a2106bf37051cU,
  0x3fa9da5ebece5362U, 0xbf679813be80a811U, 0x3e38183f3f8d174eU, 0xbf72351fbf7e76baU,
  0xbf30f9903f8be954U, 0xbf2c30bebe4fd6ccU, 0xbeebfdd33e374badU, 0x3f23dee93e3e5a0eU,
  0x3e60bb44bebfd441U, 0xbccaaa13bec78a17U, 0xbe240133bee5eb5cU, 0x3e2eb5203d84de79U,
  0x3ec42a9d3f3c1a37U, 0x3f7b9851bec4c6ddU, 0x3ef4d557bef773d2U, 0xbef0c8723f5409e6U,
  0xbde907323f25a55dU, 0x3ea04f60bdea37e5U, 0xbf16fbd9bd5055caU, 0x3c9f94ccbf561fd8U,
  0x3f2d5872bf13b44bU, 0xbeea559abd84e4a7U, 0x3fa40fd53f948c79U, 0xbd238ea9bef6d3ffU,
  0x3f2836503f596a01U, 0xbf40b5c53f6a48f1U, 0x3f349fb83e92d408U, 0xbf8d438ebeb93835U,
  0xbf0cd0513f3d8f08U, 0xbfa204b5be67170dU, 0xbf878aa2bea03b48U, 0xbf066dc73df2e3bbU,
  0xbf83aa1bbe5b64cbU, 0x3eab6b41bbba5d27U, 0xbf66228f3e1b6b81U, 0xbf58f4aebec0a1f8U,
  0x3f85917f3ec466e3U, 0x3e05863a3e73ebbaU, 0xbfd47f44bd4a111aU, 0x3e8e90b63f734662U,
  0xbf56226bbe879e6cU, 0xbf4d03503e91df9fU, 0x3eebcf8d3f011623U, 0x3de7f2edbccf8892U,
  0xbe4f6787bec83bffU, 0x3f0063bc3f719de6U, 0xbe422364bf335b42U, 0x3eb72fd83d8d0db7U,
  0xbebb78f6bf72e8e5U, 0xbecb4f573f79226fU, 0x3f7cc86f3f49ce64U, 0x3f80136d3f1c874fU,
  0xbd7cd2b03f5e1ba5U, 0xbf14e2bc3ea8b70cU, 0xbb8b80dc3f1398eeU, 0xbfff760d3d5a138aU,
  0x3e931d83bf58bbbeU, 0xbf50e5b5bf86e58aU, 0xbef4391c3e7705a7U, 0x3e7bff2fbdba7dafU,
  0x3f0d3708bf050bc1U, 0x3e6f31e63caac081U, 0x3f5c89e73e867cc3U, 0x3e7756f93fcf9aecU,
  0xbf9771a73f56b56dU, 0x3e5f3f03bf8cb443U, 0xbddd57123e23003fU, 0xbf0b9e00bda4eec4U,
  0xbee83528bfb6d2f4U, 0xbd87e0b23e396374U, 0x3e379f6e3e93ccedU, 0x3f80ef9cbf251115U,
  0xbf3a37563f53f88fU, 0xbf1a8be1be8bcda9U, 0xbfa7f4113f7c0fa9U, 0xbed60ea33f87bfc8U,
  0x3e00495ebe638ab0U, 0x3ef7ff74be1b281dU, 0xbf40dba1b927e886U, 0x3fbc9a2dbf4e60c0U,
  0x3d612bab3f990d59U, 0xbe07f5903e8f981aU, 0xbcf670df3f6a304aU, 0xbd637a08be75a908U,
  0xbf5c75ba3e868fefU, 0x3dbe9444bc950c8fU, 0x3ec9209bbdad82d4U, 0xbf3b309e3ea2f54bU,
  0x3eb03d6bbd481c92U, 0xbf85835b3e25c07cU, 0x3f808af1bf62805fU, 0xbede0fe53f80ad2aU,
  0x3ed3e0fa3e6fda87U, 0x3ed7a7543f3fa35fU, 0xbf493db6bfb4f2f4U, 0x3fdcce63bdac54aaU,
  0xbf5a86543f2151b5U, 0x3db2f7e63f3df214U, 0xbe28ea63befcc282U, 0x3f3c985e3f89b063U,
  0xbf1d1fbcbe29822cU, 0x3dd931efbf8a653cU, 0xbe35a45c3d8c8236U, 0xbbc1b698be805628U,
  0xbc9e3fad3e08c273U, 0x3eaedfccbdd367b8U, 0xbea78430bdb85120U, 0x3e55ab58bfb092f1U,
  0x3f152b52bf8c3de5U, 0xbde61fa2bfae6e73U, 0x3f4783243e3a80e0U, 0x3f17c70d3ece9a9bU,
  0xbb39db1f3ea93766U, 0x3e5b15ec3ebe39a2U, 0xbf099facbf5f97d7U, 0x3e0dc1eebf13fa37U,
  0x3f4265e53e81d222U, 0x3f90ee353b952bb4U, 0x3f9e595a3f57f285U, 0xbe9ecef4beb6a83aU,
  0x3ed28ed5bf4c4904U, 0xbf60e7d73f1b8853U, 0xbec3e995bcb9e6d6U, 0x3faeb8253f21b999U,
  0x3c39a764be23b419U, 0x3e7fb4093eb7678bU, 0xbfad2cffbeabc668U, 0x3e28bcb5bd919725U,
  0xbe3e757b3cecfbb7U, 0x3f6db99f3e34e60fU, 0x3e83e503be8829a8U, 0x3f954b9b3e9e484dU,
  0xbe9b3ee7bdb9b7e5U, 0xbd64107fbf4eba67U, 0x3f55af6c3dda80edU, 0x3ea55d673f5298dcU,
  0xbf9974c2bf90fc86U, 0x3e886c723e312140U, 0x3eafe55b3d8cdcdeU, 0xbf586543bdded7c2U,
  0xbd8f00f6bf50ab12U, 0x3f85a14c3fa3b7b8U, 0xbf5022fc3f19319eU, 0xbebe4ac43e0019feU,
  0xbd0876e2be9a53e4U, 0xbf0a80da3f0c18c9U, 0xbda690fcbeedd044U, 0xbfa93e983f4f4a1dU,
  0x3f09a6cd3ee05021U, 0x4007b9ae3e278439U, 0x3ebd965a3ee480ffU, 0xbeff24bcbf18327bU,
  0xbf167eecbf10e494U, 0xbf81aa9abf9aef4bU, 0x3f2b4e6cbf806376U, 0x3eafc8cb3e72381eU,
  0x3da0e5e83c57db97U, 0x3e25f6603f2974acU, 0xbf2cc676bf29a864U, 0xbe2b1b173f86b4efU,
  0x3f6744033e1d7a6eU, 0x3f16c1433f15359fU, 0x3e86bcb03f86ec03U, 0x3f90a0b9bf3c2888U,
  0x3fbdab983e0f3291U, 0xbf86b91cbf2ad2b7U, 0x3f43f600be1594bdU, 0xbe510935be422103U,
  0xbd8985ea3e280702U, 0xbf2b86463f8c28f8U, 0x3e7795983f030132U, 0xbfa688a03e21f3e5U,
  0x3f02365b3f858108U, 0xbf99b03abb1657a8U, 0x3e8d0282bf512d7fU, 0x3d53568abdd12a18U,
  0xbf0303343fb2a402U, 0xbebfa04bbf8830adU, 0xbe8d37f8bf450792U, 0x3e4b4c033ef4cfffU,
  0xbf4490fa3dc98f02U, 0x3f621190bdcb1c7cU, 0x3f2141babf2df509U, 0xbf29420d3fc5f7a2U,
  0x3f736e913dd3d7dfU, 0x3e5077423de74e03U, 0xbe65a2b03f99f428U, 0x3f11fde4bf08a8e5U,
  0xbe9c98b2bd843b2cU, 0xbea75490beb70177U, 0xbf066f34bf76c8b3U, 0xbf32aea8bfaeb302U,
  0xbfbc461b3ddd056dU, 0x3ddad738bf8638f8U, 0xbf7138793f910a5bU, 0x3f0b6788bd26488eU,
  0x3f2a0910beb8015dU, 0x3e9ea8b53e7ddf31U, 0xbfcda6f5bead2231U, 0x3f36580dbf61fbaeU,
  0xbf2c03b2bf7016c8U, 0xbe87eaf83e5b9f7aU, 0x3f46927e3e801d3cU, 0xbfa7b2713ce9ecddU,
  0xbd8c72c4bf7ec441U, 0xbf52c0e33f419513U, 0x3be20091be30f43bU, 0xbe8d9e293ede8f68U,
  0xbf7763b7bec897ddU, 0x3f1a83d93d7f0420U, 0x3e22a631bed0d893U, 0x3e8ee52ebe98f6c3U,
  0x3e4a45de3ecc996fU, 0xbee65528be62feebU, 0x3e4de0b33ef4f2f0U, 0xbfb6a1e13f226511U,
  0x3e6f442a3eb5f240U, 0xbf5dc5133fbbf023U, 0x3f12f989bf172555U, 0x3fa4a4493fbd1079U,
  0x3daddab7bef45692U, 0x3ee301b33f3aa476U, 0xbf0f8be3bfd091e5U, 0x3d8e72c6bf42bc2eU,
  0xbdc560913dbeba76U, 0x3f27516dbe64e35bU, 0x3eefd7113deaa77fU, 0x3caa9c59bfbcf677U,
  0x3efc45c8bf3a2102U, 0x3b2856bebf898cc7U, 0xbf070d293f2394caU, 0xbf0e9f01bf060668U,
  0xbcc80bd33ed1ff49U, 0xbdf66b053f2c12a8U, 0xbf1193c93fa6680aU, 0xbec5f7fa3f892b43U,
  0x3f66545fbe84f33dU, 0xbf20c9143e7b90e2U, 0x3fb16e5ebf37b776U, 0xbfee5fb5bfe96728U,
  0x3f2e8772be0cc450U, 0x3e3428ca3d93ffe3U, 0x3f047780bee94d67U, 0x3d40b3743ed69bc6U,
  0x3f28cc8e3f7652f0U, 0x3e3a6da53f0d4431U, 0x3dc863dcbf74441aU, 0x3f21ebc63d13898bU,
  0x3f8d75643f389310U, 0x3ee6940cbf4ed658U, 0xbe0ed7d03f4c8ba9U, 0x3f272fc93f3ea065U,
  0x3f2913babee4bb42U, 0x3ec393673f542f46U, 0xbf40c03dbf66b778U, 0xbe9c85a2beaf5815U,
  0x3d6038d9bf0fdaafU, 0x3f937e793f999ec1U, 0x3f5e39513edd8ae5U, 0x3f7a92173f1c4122U,
  0x3f0b1500be20f355U, 0x3e83d346bf9ab4deU, 0x3e1ce100bf1da8c0U, 0x3f34804ebf0acfceU,
  0xbf3c6678bf919aadU, 0xbdd0deefbf302e4aU, 0xbf4085bdbfbc4012U, 0x3ef0b964be59c855U,
  0xbe264d2b3d0282e5U, 0x3f1beb9a3f16ab9cU, 0x3dc89c923fcb2639U, 0xbd84b3debc4bc54aU,
  0x3cbe88983e5d35c3U, 0xbe632dd7bf2dc399U, 0x3dd8d85e3f0692ddU, 0x3f8710113f4fa74eU,
  0x3f17db933ee82ed0U, 0x3ee85d84bfa4dae9U, 0xbd866da73ee58f7eU, 0xbfb012623f8ef0aaU,
  0x3e734dfbbecddd98U, 0xbedb73e83e9c302bU, 0xbdbc85f9bf1fe746U, 0x3e0ebfa4be95516cU,
  0xbe76cc513f3e05dfU, 0x3e7f23bdbf5d18e4U, 0x3ee2e88f3ea77d7cU, 0xbdcd7c9bbf5250a4U,
  0xbe6fb682bf3201ceU, 0x3daa25ebbf446b70U, 0xbfb10fdcbf1b4a85U, 0xbe3185ecbe99fe08U,
  0xbf0dafb03f36727cU, 0xbb875be03c908eaeU, 0x3ef82a773f393009U, 0x3d3d72cc3f42b479U,
  0xbf6380f93ddd0117U, 0x3de6b2153f8127a9U, 0x3fa62bf7bef7464eU, 0x3f3545cfbf02fe9fU,
  0x3e3198c33ea4789aU, 0xbf249299bf9dc73cU, 0xbf97fa863dbaf8deU, 0xbfc5d0ef3f19d75bU,
  0x3ec8a86abf24f7f8U, 0xbea5a85ebec5ccfeU, 0xbdad08fe3ee703d5U, 0xbe45cbd1bf610075U,
  0x3c3b3e353f7ed9aeU, 0x3f9bd1f33e69e4a2U, 0x3f1ae1db3e02ce5fU, 0x3d9c0b27be7b75b2U,
  0xbe2e0536bf57316cU, 0xbf248b52bc6d7b8aU, 0xbd1c9bff3e29e3bbU, 0xbf2e39dabcc4577dU,
  0xbe8553cabfd39f63U, 0x3f446d783f39dfc9U, 0x3e96fa303e9abfa7U, 0x3ef7754c3f1e0a2aU,
  0xbed6c18a3e8ff871U, 0xbfa68f8dbf2478cbU, 0x3e032b26bf40d3fbU, 0x3e7c57fc3ebfb57eU,
  0x3f50ee5abedd6928U, 0x3f857d45bca0fef7U, 0xbebd1436bece9eaeU, 0x3bbd318e3fccabc3U,
  0x3f6ca67fbef7d653U, 0xc015a8673e8fcd41U, 0xbdf5fcbbbf19843eU, 0x3f8399dcbe592483U,
  0xbe3649fabed4877eU, 0xbd88b6cf3f864acdU, 0x3f38e48e3eae983dU, 0xbe956b1b3e0ea821U,
  0x3eeee8f73b5eb0b8U, 0xbe56344bbe94b435U, 0xbf25954bbf24ed6dU, 0x3e18bc68bd31cfd4U,
  0x3e62fb663ecb25e7U, 0x3e95e2d13fd236ebU, 0x3fd642fdbefbdd88U, 0x3baa6696c01bfd7cU,
  0xbee260c6bdd88d36U, 0x3f0fe1ec3fb3725cU, 0x3e82310fbbc36f20U, 0xbf8e8dd2be86a603U,
  0x3d83365cbea1118fU, 0xbeb9a4873e0d9f44U, 0x3dfd69323ed536b7U, 0x3cc2eaae3f5ba3ceU,
  0xbf1ee93e3e81d953U, 0x3f0810353f011e03U, 0xbea243db3f22988fU, 0xbf29c751bcbff157U,
  0x3e36f694bf46e6b3U, 0x3f93a5bbbf1642b1U, 0x3f512329be5f6859U, 0xbecfb4a4bf0cad6fU,
  0xbf82363cbf4ed1bcU, 0x3f84c5ce3e86eddcU, 0x3d919d8bbf3593b6U, 0xbed259a73f69cd4aU,
  0xbe4880453f72b329U, 0xbdcbda7bbc929972U, 0xbef6d922bf6ab49bU, 0xbf87de5d3f3209d0U,
  0x3e46cfafbe04cc20U, 0xbfd13c6c3f05d71fU, 0xbbb5bd093e1c15e4U, 0x3e917cd0bfd19b44U,
  0xbea57993bf0c4144U, 0x3e95f6be3c8e86bdU, 0x3f189357bdf5fd20U, 0xbe5f01cfbef53a1dU,
  0xbe6a8a98bd15f309U, 0xbf737c233f2e23a7U, 0x3ee41f5f3f103deeU, 0xbf5317cfbfd5b861U,
  0x3f6513383d9bfea8U, 0xbf5e6823bfb06c27U, 0x3f2987933fc4f87eU, 0xbf61f4303fa1dba6U,
  0xbf318a1f3ec89774U, 0x3e7c2aed3e80fa64U, 0xbf0ef7a23d68ab19U, 0x3efd1094bf94f2d5U,
  0x3dca57b83ee137aaU, 0xbf673b2c3df20d1aU, 0x3e5a96443f0f5d21U, 0x3e32fec4be9079a5U,
  0x3ee1f16fbdd3cba1U, 0x3ebb902ebf6b280dU, 0xbe1d1429bd34a659U, 0xbf312ada3e90cbbcU,
  0xbeeb07a63f15e918U, 0xbfa2a157bf13d6e1U, 0xbfb70ddbbf2b3f96U, 0x3fa14ce73f6f90b1U,
  0xbd43e3873ef12759U, 0x3fa9e7d83ef8ecdeU, 0xbf3a5f573f1865f4U, 0x3edf1c14be118fd1U,
  0x3e96f0d23f3e0c77U, 0xbfe4d52e3c28733cU, 0x3ec4cb8e3db181f8U, 0xbed4fb9fbeb767e2U,
  0xbea4d8c83f0fa65eU, 0x3eb45976bf1a8dd7U, 0x3d497cb23e29ea49U, 0x3d9b8dd83dcc5d31U,
  0x3f8f61fbbe5cef82U, 0x3e06bf0b3df4850dU, 0x3e81e235bef501edU, 0xbf038370bf2b5e82U,
  0xbf0a8aa3bf8fead8U, 0xbfb93dc83fc3db6dU, 0xbd8fd2a73e0a8a94U, 0xbecd6123beb9762dU,
  0xbf08c7f63f1d78e2U, 0x3dfd20733f55511cU, 0xbea21c60bd1a5b77U, 0x3f82f19a3e619069U,
  0xbe5bcd69bf8125a2U, 0x3e3c8c293f2ce173U, 0x3dda42263eaaccbbU, 0xbe31167e3ee02cfcU,
  0xbeab91113eb92262U, 0x3fe33eb8bdcff0eeU, 0x3d9503ef3ebd9537U, 0x3e9b5c8d3ea78942U,
  0x3e360aba3b381f28U, 0xbd9cd1dbbf4c9872U, 0x3f1dcc753ea3da9fU, 0x3e119965be484697U,
  0x3f87ba643ea6a97dU, 0xbea8ff7d3f71b93aU, 0xbff60079bf6812caU, 0x3f214694bea4bb1dU,
  0xbd3ae2d63e05385bU, 0xbf05567fbf634bd5U, 0x3e74ed93be2526d1U, 0x3efbc9573eb98954U,
  0x3ec445bdbf21669bU, 0x3cfaf5dcbda73bd2U, 0xbecad6923fdad1bcU, 0xbf73a35b3efaa897U,
  0x3f2610eabddb4f81U, 0x3f58b6443de897a5U, 0x3e81b2653ee5e42dU, 0xbf8f1cb6beaf3c1aU,
  0x3e8290213f0e351fU, 0xbf22c2193f34352fU, 0xbc992be7bdb8f9a3U, 0x3ec19aef3dc470dfU,
  0x3f16dbb03f1b97fdU, 0x3efa0dbe3f2a432aU, 0x3c7e0dd13e8f8d23U, 0x3f4cdf473f674989U,
  0xbd139802bf11a795U, 0xbe48927b3fad2469U, 0xbe45ebfcbf6bb30dU, 0xbef703bd3e799c10U,
  0x3f0e5e68be4c4982U, 0xbe361e02bebc2e0aU, 0x3f4726983ebc5957U, 0x3f215ce93f96186cU,
  0xbea1a76ebf88cae0U, 0xbef1a804bea45b8aU, 0xbf32fa5bbec358b6U, 0xbf6e3ee1beddd2c5U,
  0xbf135d33bf54e7cdU, 0x40169a1c3fecef91U, 0x3c534158bf0cc4e6U, 0xbe7e9b8c3d3993c0U,
  0xbe2a4c0f3f4dbdf7U, 0xbf391b633e2f5914U, 0x3f558c9e3f219352U, 0xbf95b8ebbe7acef8U,
  0x3e0a7407bf838bffU, 0xbe1421db3f022e1dU, 0xbe154c80bfa3e985U, 0x3f024facbf4006baU,
  0x3e95bcf1beb364a3U, 0xbf1922ec3cc68022U, 0xbf2520323f8458bbU, 0xbe7a1481bf657968U,
  0x3f0c87f9bf452720U, 0xbf293103bfd3ea60U, 0xbd22d61a3e1479ecU, 0x3ea8f9063c59c2e1U,
  0xbdb4a97f3ddcbd6eU, 0x3e12bca1bf611258U, 0xbe4c4dbb3e889050U, 0xbe72e2cb3fcac500U,
  0xbee69db83eb50f07U, 0x3ea63bdf3e4159e5U, 0xbe2aba8b3e53b142U, 0xbe697092bf8194b6U,
  0xbe1cb1cf3e50c8f5U, 0xbf18f06b3eb0f0c3U, 0xbf7235313eb00118U, 0xbe8bcffa3ecdc17cU,
  0x3fee396b3f38b90aU, 0xbe2a246d3eba81d5U, 0xbf82411940031143U, 0x3d1af7873b81a937U,
  0x3f9505ecbf89e72aU, 0xbec20139bec730baU, 0xbdfee3fb3e93efaaU, 0x3ec5dbe93ea9fcabU,
  0xbf2cb08ebfa4062dU, 0x3e2c82ddbfd3b301U, 0x3f1d6bbb3dd13ab7U, 0x3f62035e3ee82d5dU,
  0xbf38eb1cbeb0035fU, 0xbe1c02263ebb665cU, 0x3f026e44bea2cf65U, 0x3e75e0dc3f480673U,
  0xbdc75edc3e8e5359U, 0x3e1dfc28be5db722U, 0x3ef1e2aabe4e5cadU, 0x3f6283bd3f2c2f67U,
  0xbf3c93303eb774ffU, 0xbea45b5cbf41d001U, 0x3f16f7833cf929eeU, 0xbf6f1923bd1b597eU,
  0xbe0bb93a3f07e442U, 0x3ec72bbdbe369867U, 0x3f06e493bdb6ecfdU, 0x3e9265623f4f703dU,
  0x3f292a1bbe227d26U, 0x3f1131623e594768U, 0xbf0e80993edb0294U, 0x3f85d65c3ec3e3a6U,
  0x3d2dccd1bf795343U, 0xbfd02ee1bd8a5e8fU, 0xbf240218bb05bf28U, 0xbe9a83573e878ae0U,
  0x3fc992653f4d22deU, 0x3d73adafbea5633fU, 0x3f5f5c6bbef0db5fU, 0xbeaa4a4dbf15c798U,
  0x3e41badcbf1a621fU, 0x3f944a4f3f42049dU, 0x3f6f6dfbbd71bfbbU, 0xbea95101bf6175e7U,
  0x3e6a93bcbe352ec7U, 0x3f0c4a20bf4a2e94U, 0x3ea3061e3f0a20daU, 0x3ec1e89bbf1afed3U,
  0x3e7f849abed0564bU, 0x3eb341303cd47bc4U, 0x3f5eb2423f54e53dU, 0x3f2be4eabf176036U,
  0xbf1227333ed7464aU, 0xbee5d872be33bb99U, 0x40152fcc3fc11ad7U, 0xbf67e247be11dfc3U,
  0xbf6dcfe7beb40649U, 0x3ed7b7183f738530U, 0xbfb3804a3f46b203U, 0x3e8685283e4da3f0U,
  0xbe6d4ecabe2ccf9cU, 0x3eb8c4d4bf17b317U, 0xbe459c65bcf70bb3U, 0x3f41931cbedaba23U,
  0x3f18dc6b3dcdf3cdU, 0xbfa4e4b2beddb835U, 0xbd532cd1bdd40c35U, 0x3f9dcd013fc19b7bU,
  0xbd9015673d2e443cU, 0x3f30ba203f832151U, 0xbe86e1c73e1c836aU, 0x3ca8871a3f0a35fbU,
  0xbf6ced6fbf3eb513U, 0x3f44612b3f25415fU, 0x3ee2241abf46b945U, 0x3edc6444bf99bdfdU,
  0x3f1c49c83e72e99eU, 0xbf045c843db560fcU, 0xbed0cf823f4db40cU, 0xbcbc76393f835ae6U,
  0xbda820b8bd29f26aU, 0xbfb88df7bf1fbcbfU, 0x3ec0a9bbbe3ee827U, 0x3dc91e283e2fb012U,
  0xbf27bbb83eeaf6b6U, 0x3f0bc9f5be6d580eU, 0x3eb9c6d2befc9623U, 0xbc651a503f415eb1U,
  0x3f07f7733ffc4893U, 0x3eaa1e70bebc3a17U, 0xbfadab2cbdc2dbfaU, 0xbf4c2e11bf80b33fU,
  0xbe62e39cbf8c4559U, 0x400d180cbe53e4fcU, 0xbed5b05cbf190a80U, 0xbf048ec53f6fde87U,
  0xbf8d045fbf8f00a8U, 0x3f48c88c3f2b2730U, 0x3edd3a873f06c780U, 0xbf128ed73f1b6c7aU,
  0xbd0651f1bf0ef22fU, 0xbf2a29693f47cc2aU, 0x3eba6e823f2df439U, 0x3e990ef5bef34150U,
  0x3de02cd9bf30defdU, 0x3e7fe35e3e4be7beU, 0xbd87abb13e64fd67U, 0xbe3e88813f3e3acfU,
  0xbf98d88f3fbb2c22U, 0xbf3dca5f3da2885cU, 0xbec3c0e13f3b8bf0U, 0x3ebee935bfabb049U,
  0x3f45401ebd5d69b7U, 0xbd96a0a63f4b7d19U, 0xbf1d37863f7c5b51U, 0x3deafc793f23d57eU,
  0xbfa4c6143f4bf9f7U, 0x3f8db28fbf285ff9U, 0xbf5ab3d5bf69ec16U, 0x3e8557c13f12b9c1U,
  0x3d15a1fdbe979ac8U, 0x3f1d347abe7c3e76U, 0xbe839ae0bffb0288U, 0x3c40e218bd3cd0a6U,
  0xbed3f1013ea389f9U, 0x3ed54a3bbe1d5a41U, 0x3e2c0a273e9e76daU, 0xbe86374d3f8a6f46U,
  0x3f7f1ab63f6dbb05U, 0x3ecae18cbea87cd0U, 0xbfdfb8633e4c74a4U, 0xbf11cd993f4d3debU,
  0x3f6c7c45bfec63c7U, 0x3f212d31bddb7e6cU, 0xbf06fec5be6ccf26U, 0xbc902a263f2c16deU,
  0x3ef980bb3fb37c4cU, 0x3f2a0565bf017838U, 0x3e5e8fbe3dca887cU, 0x3f28fd61bf526f05U,
  0x3f2c0fc8bef1927bU, 0xbd264518bce64ea1U, 0x3f8fcf25be9eb9ccU, 0xbedc07013e937314U,
  0x3f4152d4bf3fb94dU, 0xbdbf1d5bbea211ceU, 0xbdf55e363f71775eU, 0x3f1f849d3f268670U,
  0x3f07fb473ff0f2a4U, 0xbe5c3712be2d6591U, 0xbee4338abefb6f91U, 0xbf81473e3f0fde49U,
  0xbe133592bed750fbU, 0x3ec0da72bf066eceU, 0x3d8c5225bf3f90a2U, 0xbd0d9c6bbe70a3c9U,
  0xbedaa4463f772d45U, 0xbe9324673e9eb636U, 0xbf4a6281bf5459b0U, 0x3f5c7097bf949d65U,
  0x3f57118abe415e55U, 0xbfb50a46be9527baU, 0x3ef96a633ee3544fU, 0x3f1cb109bf4b62feU,
  0x3fa28e06bf23b178U, 0x3f4c80fd3f0fbcc8U, 0x3f166718bea67ecfU, 0x3efa2e92bf5bd6b6U,
  0xbfd259e13e36806dU, 0x3e5fe3efbf9d6c53U, 0xbf5d3809bea67a17U, 0x3e855fecbf6966a7U,
  0xbdaf1a953e2502c9U, 0x3f0cbc203e83c16eU, 0x3ef814ec3f927beaU, 0xbf13641e3f259f6fU,
  0xbf8bb2d5bd4ad848U, 0x3f5051afbf266220U, 0x3ed50521bce4319aU, 0xbe3866aa3e5bfee1U,
  0x3ca4952e3e7cf88dU, 0xbd8d2d83be7edc8aU, 0xbd282a1abea9199fU, 0xbff782d0bec05c42U,
  0x3e624950bd5bef6bU, 0x3ec3b06cbf003ce2U, 0xbd38d8fa3ebc5685U, 0xbea00859bf96becaU,
  0x3f11acb83e8cdfaeU, 0x3fa437cbbf908992U, 0x3e92c7093e062147U, 0xbe5079b7be046423U,
  0xbf039775bf5a53adU, 0x3eef9a733f1adb12U, 0xbf4037023e7b6041U, 0xbcda651c3ea26f31U,
  0xbe9cd3ea3f353c7cU, 0x3f5b97423f7955eaU, 0xbeb73a8e3f8b0ab7U, 0x3ed39f8abe336eddU,
  0xbecb195bbe385047U, 0xbf2b1ccb3ce2dfaeU, 0x3e821b853b57df5bU, 0x3f5d1ef3bed504b6U,
  0xbe38ad7ebee19007U, 0xbed405f8bf344591U, 0xbe4d8aed3eb8d1a8U, 0x3f0ca3d5bf88630dU,
  0xbc23d29fbdd51cd7U, 0x3dd09e843f187624U, 0xbf107f8ebf20fc5eU, 0xbe646fb83ed27b91U,
  0xbd7ad0f2bebe4feeU, 0xbe11fc83bed6f7d2U, 0xbf5439433f8d8af0U, 0x3f63fbe0be9657f4U,
