/**
  ******************************************************************************
  * @file    twoline_data_params.c
  * @author  AST Embedded Analytics Research Platform
  * @date    Wed Oct 25 17:11:50 2023
  * @brief   AI Tool Automatic Code Generator for Embedded NN computing
  ******************************************************************************
  * Copyright (c) 2023 STMicroelectronics.
  * All rights reserved.
  *
  * This software is licensed under terms that can be found in the LICENSE file
  * in the root directory of this software component.
  * If no LICENSE file comes with this software, it is provided AS-IS.
  ******************************************************************************
  */

#include "twoline_data_params.h"


/**  Activations Section  ****************************************************/
ai_handle g_twoline_activations_table[1 + 2] = {
  AI_HANDLE_PTR(AI_MAGIC_MARKER),
  AI_HANDLE_PTR(NULL),
  AI_HANDLE_PTR(AI_MAGIC_MARKER),
};




/**  Weights Section  ********************************************************/
AI_ALIGNED(32)
const ai_u64 s_twoline_weights_array_u64[10738] = {
  0x1a3c13f6f4150907U, 0xff0a0e0c0418e4d3U, 0x13ff2f3b0a11ececU, 0xfd0c2b06f11614daU,
  0xfae4fbebfbedf819U, 0x19013b3d0313fdd5U, 0x110e0c0512121921U, 0xecfaecfacde7f1f2U,
  0xc1f1af9f4edf703U, 0xec16ed0afe06f2e9U, 0x1001eb2d26ecd2f0U, 0xfc060e203bd90301U,
  0xfa1006fbec000e2eU, 0x13da25e715fd02e0U, 0x617fd0b171203U, 0x320518f7edf81ef4U,
  0xeaf80319edddf90aU, 0x20c1be63a111d20U, 0x21e07111549fef1U, 0x40bf5fbe8f017f1U,
  0xfefd1bdde7e61efbU, 0xe5e5ea0704000e1aU, 0x15080af2f9edf7e3U, 0x90cfe177ff2080fU,
  0x90bf70f0dfff0f5U, 0xfbfa0f0bfafd05ebU, 0xf0db0f004628eddeU, 0x800e4033b12f81bU,
  0x3215f001e9fdf504U, 0xc03f12ae8d7d1f3U, 0x1df0eb0926ef0afeU, 0xe008f208fc19f014U,
  0xfaf72206ebfd0211U, 0x150320180a0fedfbU, 0x11f51020f62affafU, 0x2030b170ddbff04U,
  0xf6e120f2fe0216efU, 0xf823f6f203060fe2U, 0xef6faf50fde1200U, 0xfa1817f7e3f61b20U,
  0xf2ece902fff402f5U, 0xd8fcfb0f1afdf90dU, 0xf2f3260af90ec2f8U, 0x8f3f3f326ffe914U,
  0xeff6071c1f04e0e5U, 0xf711150d16f1f7faU, 0xebd513080b0f1433U, 0xe03faf6ee18e806U,
  0x1ef2eae80102e0e3U, 0xbd50f0cd62a16deU, 0x924091ff2f51cf0U, 0x2cd5072116fae6ffU,
  0x7db1908f304fce3U, 0x14fbfdf00f273c24U, 0x905d9fdf502f9f2U, 0x706f613e92bbe13U,
  0x12efe924090ee8f8U, 0xfabbef1c2403f201U, 0xf6f314e5111c161eU, 0x903090123dd0ce1U,
  0x7d0121c13ec100aU, 0xf6f1f327ef18f7f4U, 0xfbe5dd09e2dff3edU, 0xef1f01181426ec26U,
  0xcbfc19110805f8f9U, 0xadd3c1708da0901U, 0x134208fb03f41b10U, 0x709edfe040116f2U,
  0xe00f04f107fcea0cU, 0x17f0feff1031fdfcU, 0x241cf011fce828fcU, 0xb60006e1010e080eU,
  0xecf927e4e1ffe60cU, 0xe8e210e3fdf9140dU, 0x161209d1092e0d07U, 0xe80af4c9e2d7f31cU,
  0x11051409fefde6efU, 0xdf030f10f3f2f100U, 0xebdedb0816ed060cU, 0x26e70f0a02ff1151U,
  0xfc0bf34a07eee6cdU, 0x2af80c0e0dcb0af7U, 0xae715fef8f513dcU, 0xd19160b07e30502U,
  0xf618d4f1d62b32eeU, 0xfe0e0dfaf0fb01deU, 0xee1014fce1fefd0fU, 0x911def3f7e9ed10U,
  0xf81fd61116fb0deeU, 0x2935e709f805f1f9U, 0x15022d15150dfe17U, 0x17f5130e28fce408U,
  0xf9f1ed0f390eff1eU, 0xe1b06edeeecf9ecU, 0xd71ce4f5210b000fU, 0xe220c0cef14f2eeU,
  0xe0ed19f33103fc0dU, 0xfffdf5f7f3110833U, 0x4d613fce60b12f7U, 0xcece0f26010b0529U,
  0xf5f4f413030f1416U, 0xf9ff15fe19d6d70fU, 0x4f8030b0df8f00bU, 0x10f5f1e004070aecU,
  0x26edee35140b0704U, 0xf6db30f303ffeff0U, 0xfbf6fbdefb12eee5U, 0xf7de011fed431204U,
  0x1e17280eee11f200U, 0xe016f726d0e9e820U, 0xf00304ff3c09d218U, 0x10f92109fafae8f2U,
  0x200c010afee41a02U, 0xd6f8f82034b70dfdU, 0xfc08e3f91202071dU, 0x2afd35f42d04f3e3U,
  0x5f70c16b81b1b36U, 0xf4d804002ced0907U, 0xe20b0611f7f2deefU, 0x3e9ef07effcf1f1U,
  0xf3dbdb1ce0ed20feU, 0x17f7100deef606e9U, 0xb8f00637284316fdU, 0xd2fd25e4f22d11eaU,
  0xe010f70519f3dc01U, 0x600062b10fbf704U, 0xe02323ff0cfdf202U, 0x21717f709f209f6U,
  0xf5e9fe0101f3dff6U, 0x2ffd031000180f15U, 0xfafdf20700e00de4U, 0xfdfaedd411170b10U,
  0x20e4f6e4d922ebf4U, 0xf1e603eb08f22b17U, 0xe0e3f20548fce706U, 0x1a00fcfaf2f7c8f4U,
  0xf1210e070812070bU, 0xfb2c11dee2f3ed04U, 0xb42c7fb071a1304U, 0xe7fc21eced07f407U,
  0x10f7ecfbe01bfbf0U, 0x1e9f8f902eb0f0dU, 0xd1f92807e608e816U, 0x15fb05fb0beb2b00U,
  0x1be8edf9eb0e2ae0U, 0x901fef53017dcfbU, 0xf30710ff33fa40e7U, 0xfcfb2017fff9f5ceU,
  0xfe14ff0ae7faeaf6U, 0xeb08270af6e7edfcU, 0xfcdbe9f8ed0b0cedU, 0x218d41af7fe12d1U,
  0x1900133a15e4f72eU, 0xfb11e71dde03f7f2U, 0xaed26f810c52506U, 0xf60e0aebeb0e03f2U,
  0x40fbe02e7f6e125U, 0x9070fdef9fa081fU, 0x1191622f32be5f9U, 0xc6ba2509210edfeaU,
  0x309f00f06340d24U, 0xee5fae81b061704U, 0xe61fe80515eef61fU, 0x19ee1c0601fc01d7U,
  0x210ce7efd112c200U, 0x16fa27f9fafc00e7U, 0x1d201100060f02dcU, 0xf7e2e557e8080cf2U,
  0xf9dcf124e4e20801U, 0x5d70a0d19e5000dU, 0xebef0704f1e1f212U, 0x82eeef91317eb34U,
  0xf105f3f3f21723feU, 0xfdf9d53319fcf5e8U, 0xe52f23e5f01b040bU, 0xb0ee4e7f514e41eU,
  0xf6fc0513dfe52b25U, 0x16a6e610f5eff314U, 0xed03de1506f4fc2fU, 0xe00a0f291010f501U,
  0xd3e1108270a1a30U, 0x610e409f7ef11e4U, 0x2f8052b0018f9e3U, 0x17f4eb0ff522cb09U,
  0x13ee07040ff40ff5U, 0x1cede62f14e12a15U, 0xcdeee0113d4e2fdU, 0x61422e4e9e4f4e2U,
  0xecfd00de331f2a09U, 0xf9cc0df814151bf6U, 0x104fd0debfc0612U, 0x2de10a0ccccfdf14U,
  0x111cfd0301f8f304U, 0xeeedf2050220f737U, 0xeaf0114211f1e608U, 0xedf8ef1c13f810e7U,
  0x203f7efef130707U, 0x9e327e241d8f5feU, 0x2517e71ef2381513U, 0xf11ffce30d23e60bU,
  0xdaf7fdfef1dbf2fbU, 0x7dd08e8200e0906U, 0xf3faf81d0e06f4dfU, 0x331aeee8ee191b08U,
  0x8f51304490eed18U, 0xee02fe21fe06f7feU, 0xef1415492ffc35f4U, 0xf10e17fcf7f42ffaU,
  0xf917fdf4f2fc23d5U, 0x5ff30df19ed080dU, 0x6fa1cfb13d7f5ecU, 0x3709f5da0bee3505U,
  0xe6ffef281eec07f9U, 0xeb0bd900fde9dc06U, 0x27190a00e9f3f41bU, 0xe3e7efed04e82106U,
  0xd09fd02fc0e15ceU, 0xa07f50c02e2fb21U, 0x52b3127d624d3efU, 0xd4ec2a01ff0c06f1U,
  0xf314d22822e1fc01U, 0x8e50e250c0df1ebU, 0x2eb160716f607deU, 0x3806f90420f5fddfU,
  0xf1ff0f0aea12ffe8U, 0x1822be2702e8f2f4U, 0x20a0d0d060c0bfcU, 0xce005ed11fe1311U,
  0xe9f2070719f0fd0eU, 0x39131809ff1d1205U, 0x1e1227f016040ae8U, 0xc9fa10000919f714U,
  0x27f4e1ff12fadaf7U, 0x2aef1720052d0e02U, 0xe5000af3fd0a100bU, 0x143be0120ae40804U,
  0xe6f90c0f43061c2bU, 0xddaf808e5f6060bU, 0xd90af7f53d033115U, 0xfcfaefc7f60908ebU,
  0xfef5eefa03d407f7U, 0xb1be2d3f609fe13U, 0xdceef7e9dbdef802U, 0xe07cd2b07f11410U,
  0x14fef10df9e7fedcU, 0xccf1f332f1e021aU, 0xf705152a04fef123U, 0x1e5f402dafdd6f7U,
  0x1d0105f2211cf0U, 0x2de12708f7e20c02U, 0xf416f2ef042917f8U, 0x11f407f8f532fedeU,
  0x1a16f1e1f3d6f602U, 0x50fda1106ea1adfU, 0x305f93b0a28fd04U, 0xd6d205f7f815fee3U,
  0x20715e8f612e700U, 0xea1be80716ce1d1cU, 0x1e21ededf0fe16f9U, 0x7f911fbf21dfb02U,
  0x4cc10e838d508eaU, 0xdce1e5ed260ed525U, 0xd070af8fcebeafeU, 0xeb240d0708f8f6fbU,
  0xe50411fdf1090a1aU, 0xf2fbf7f8ec241e01U, 0xccef2118f601f515U, 0xebe3f0f405f9beecU,
  0x16fffb0aeb051829U, 0x23d0df24ef040819U, 0x19ec2d19f0f7f4f0U, 0xfdffe4fde4ee091fU,
  0xf007eaeada18da0bU, 0xe1f3c5f618010811U, 0x30bdff8f90b120eU, 0xec08f6f4ba021efbU,
  0xf713ec00eafa0df6U, 0xf0f30028f92b18f7U, 0xc50108ddfd1715e1U, 0x122e807f9d72307U,
  0xf7d8f20ef30efec3U, 0x62302f2e61fde20U, 0x2009ee0d0801f5daU, 0x111ceceaf504df06U,
  0xfc06fd00f8d2fcfcU, 0xf011f90ceee817f3U, 0xdd0e07f724092313U, 0xeceaf819de2a151cU,
  0x20fdd3eed802fbd4U, 0x1ae511e7180ef9fcU, 0xb17ef0b05e9f2d6U, 0x1ee003f111e3e9fdU,
  0x130b37041f040e24U, 0x3e9fbf1d0fc3211U, 0x3f6d7ebcfe602e4U, 0xfbe2e2f6e8ebf711U,
  0x2ecc0f183a22edeeU, 0x10befaecf60a20e8U, 0x1dd3023a100918U, 0xf0f00406e9fddafcU,
  0xf709f900f0eae0feU, 0x292809e20a091bfcU, 0x9f50e0ef4f8f21cU, 0x1224fcf0fc0c1617U,
  0xe201c060a1bc5faU, 0xf7f2e8fa20ed1023U, 0xef3f2f4e0e8dbU, 0xfeee4e002f609d0U,
  0x3de00c06f7fefa32U, 0x5ede0f500dd0601U, 0xf6e0fff7fd1620f7U, 0xe9321e0ef4f3fa03U,
  0xf7ffe4f5e9dff2f4U, 0xfaed0a0d3006f6f1U, 0x1c10e9f0dcfef61cU, 0xeee4daf03c22def2U,
  0x607dc32f9fcfef9U, 0x10fe12ea0deb0a06U, 0x2213f9f9edf8141cU, 0x2413121909170931U,
  0x7fb06f9e906f901U, 0xf2080ce238f007f0U, 0x2602ec1c06e91007U, 0xc050305e71c0adaU,
  0xeb1614d904090e15U, 0x1cef707ec1e14f5U, 0xe70c10e837f4f915U, 0xfe0336f003fbc502U,
  0xef0115161be122eaU, 0x1d062101072b0b01U, 0xea000306ee0bf5f9U, 0x3c0b0eeef80a0427U,
  0x2c03e7f6e3e318feU, 0xe1161410f5d7eadfU, 0x2df0c071b08f908U, 0xec14fc0e280ffd35U,
  0xdcfa0a1aff1ef0edU, 0xf211ede120eef8f6U, 0x34fefbf114f1f413U, 0x4d20007e0ea2101U,
  0x2525080ede12e9e1U, 0x1af006fa031e02ebU, 0x14f11ce1fdf51f1fU, 0xe7f7f602392e0be5U,
  0xc815fbf6112cdb03U, 0x8ffe818e7fd0918U, 0x11d3f30df8250508U, 0xececfa1914083e09U,
  0xad801ff15ed12f8U, 0xea1421faf2190fedU, 0xe00c0031dbcbe3f5U, 0xfff410ecfdfef6dfU,
  0x2e0b2409f5fbe1e8U, 0xe9dd100dec0a08e8U, 0xf9161200f602eee7U, 0x1df5f9d11b0408f8U,
  0xd305ec03022e0807U, 0x39d4f31ede0bf1cfU, 0xe40eeffcf902112cU, 0x111af3042c31f6edU,
  0xbe041313edf314dbU, 0x7f8f5ed28fd0f18U, 0xa0c1cfe310715f2U, 0xf703efe3d1f9f7faU,
  0xbf30d14041330edU, 0x19f5dbecf42ad6eaU, 0xce21cf7da00c702U, 0xde7f8f5e92e2709U,
  0xe5d415fcf020eaf6U, 0xa2016f00de51d01U, 0xeede1aebfcf9fc1bU, 0xce7cf13f4dbd9f5U,
  0x918ff0e1dfc1c27U, 0xe603f1f9d70ce223U, 0xecfff2ff2100ff19U, 0x30205f3ff27ed19U,
  0xbfbead7f21af2e4U, 0x2502001cfaecfff0U, 0xc0aec0ee80c0015U, 0x291d0208e31727c5U,
  0x7fbfc17162c15ecU, 0x231a0bf90828d6fbU, 0xf10e2df7ee14ef17U, 0xed020d12fcec070cU,
  0x3fcfe717fbf61a1bU, 0x5fff1022df1161cU, 0x15d9fbc250ef0ffaU, 0xf6ef0ff7f801f1f5U,
  0xfb0f2b0711060842U, 0x482901181f260907U, 0xf8eee9f123fffdedU, 0x1cee1fecece304f5U,
  0xfe07f8040c13d4f6U, 0xf4e4f005e7dcfaf6U, 0x10e3f8f606def110U, 0xf31e37150fdd28e7U,
  0xe9ffedfcd6f5ef25U, 0x130b0c2ff9ef0511U, 0xed21ea1a00e8152aU, 0x2a1fe7fc01f8fbf0U,
  0x8f107e103f5e433U, 0x110ecebfc0e0c0bU, 0x1deffeeb121717e7U, 0x10ef12f50102f1fcU,
  0x1818ec03182027U, 0xfaf9fc0e26ded818U, 0xf7fe1105111c1de4U, 0xeffc2132eaf607e4U,
  0xf50bf21313100207U, 0x1131f4f9e5edf7ffU, 0x16f31bec4afdc4f3U, 0xd51416f6c2020000U,
  0x2ddbebed07e917ffU, 0xf2fbf509f6f3fc05U, 0x11defcf01405e4f6U, 0x2612090ae5f7ed02U,
  0xc91a11e2fc030d07U, 0xeafa06080d2915f1U, 0xe30f031e0532e00cU, 0x1106f24103e510efU,
  0x11e2f70c3addfb16U, 0x200ffdf4100107e6U, 0xf0003e1430c0c0aU, 0x1dc1615fa1be7d4U,
  0x10306e909c3c7edU, 0xe40b1fdd081ee5fcU, 0x90a140af9d60f31U, 0xf12021fdf615faecU,
  0xfe0e0200ddf8ffe1U, 0xfd33f41614f122daU, 0xd904faf90100f40cU, 0xef230cf5cee411e4U,
  0x1bde2dfe0b013135U, 0x80906f6230fe908U, 0xc0f290c03f1f818U, 0xfcf11c0cf3200b15U,
  0x1a03fec4111c060bU, 0xf05f0fc44fa0d2eU, 0xa073010f3de33ecU, 0x10e9fa1fd7fc0e1aU,
  0x90ae725140b0b00U, 0x2fe21a1d2c02feU, 0xe21dd8e4f5f5c813U, 0x1cf50607fc15ecf8U,
  0x7101825f500e811U, 0xfcf8180c24fff2f9U, 0x37b90b20f61a0402U, 0x81325fdeafbfae9U,
  0x4fff611f933fa48U, 0xe3f7f41a0b2306fbU, 0x13e0ebf712ec0805U, 0x500f810fc36084bU,
  0xf3e802c9f8fcff09U, 0x2800100f13e9200aU, 0xf4fa470bec052815U, 0xc1c0819141028e9U,
  0x172ef5eefa06f9eaU, 0xf9d9e81e1d13ea0aU, 0xf6030017ffd9f61dU, 0x52c1ffa0ff6ff07U,
  0x6f6eaea1fc9f5e7U, 0x2414cef514460403U, 0xd50f09e8faff0df3U, 0xe31206dd06f11147U,
  0xf251d3308f0e604U, 0x2de724ef070f0c00U, 0x91e0c1017370705U, 0x803f2e80f0d2d01U,
  0xc300dc190dfef92bU, 0xe80a0afce10ff5eeU, 0x2304f1ff0308f4ebU, 0x3f819f214fc1724U,
  0xfb19fe18ffef14fcU, 0xe51009e7fee3fee5U, 0xfad7100dec0a01f6U, 0xf2051e0805f80cf9U,
  0xe902f413f5cf0c10U, 0xbbd0ea0c0ef0e701U, 0x2609edf907fbf405U, 0xe900e4000c2d1a02U,
  0x1ee4e4e51a120005U, 0xe61e17fbec0a1023U, 0x11ecf80818c4e913U, 0x1e071d0bd0d913ffU,
  0x21c0f190b00fff8U, 0xffecf0f2e00f02U, 0xec1a0103182502U, 0x412d517fdf801e2U,
  0x11080508effeddf8U, 0x1a58260df501f70dU, 0xfaeeeb08eb22fdf0U, 0xc091af9f21a0d20U,
  0xb1f07052811e409U, 0xe8f1f4dfe4eaf7e8U, 0x180814e5290cf731U, 0x1c001504ded50115U,
  0xbd9f2feca25e812U, 0x13e903f923faf7faU, 0x1af6d911fc0ae7f5U, 0x7d0d1cc1318e334U,
  0x6fe1ffd100f01d9U, 0x12e8effcf7031921U, 0x12fd0ac6da17080cU, 0xfbf009e50cffdef0U,
  0x6151f091b0cee11U, 0xea130909f7df1511U, 0x2311dc45f2d8f012U, 0x1c2bf0f913e7f1f1U,
  0x6f511f328fe0a07U, 0x6212220f4ce240aU, 0x173ad7e0e6f70a16U, 0xfeef02f3040aee0eU,
  0xf1042bf9f62d0ecbU, 0xf2df0f06ec1dfeeaU, 0x5f3e3d3f5f9f92dU, 0x19e10aecf8fb17f1U,
  0xf10a0d1a17d9f0e7U, 0xf212c5f7e3051112U, 0xf105060bd4d602f3U, 0x2e2ec0411f00404U,
  0x2fe181fe7061f29U, 0xe3181706062ef2fcU, 0x1f81700f3f10510U, 0x3eeff0cd7f53815U,
  0x19fee9240804ec22U, 0x39f319f6e7fcf001U, 0xfd25f3110ef80d10U, 0xf00aeeee070e14d7U,
  0xf20816ff24030301U, 0x15e80e2cbd062130U, 0xfd11e5293a0c1826U, 0xe51fe6ee0c03faffU,
  0xe4133906e73606ecU, 0x24f21313071906edU, 0xefc6f7230af01005U, 0x6e8fafc11e7d9f3U,
  0x7031a2645ecdd05U, 0xf1dbd2f9fe0709f6U, 0xe7fc0938eaf82decU, 0xdefe3f73b20f3f7U,
  0xfcdc1202fcde11eeU, 0xe918fcfcd603cf38U, 0xe3ef011900200907U, 0x5172b07eade070bU,
  0x8ff2ae70f010c17U, 0xf938f318e4ea0504U, 0xc402130ce204e5fdU, 0xde070c03010e12d2U,
  0x1ddf5072cf7e9eaU, 0xdc01f12e2f0e08e0U, 0xf218f1fdf602ed1dU, 0xde1e16fafb1501dcU,
  0xef91c10fdf4eaf5U, 0xf7d3e0f804f9f30eU, 0xdd70bf4500e20f3U, 0xeaf50df0e9e60aeeU,
  0xf1fff7df110305c7U, 0xf72af62f0d170e02U, 0x1afb0700350b11efU, 0x2415fbee21ceeaf3U,
  0x8e314f30a1f121aU, 0x135e1f5ee06ea0fU, 0x3fa040816d501dcU, 0xe1f6fcd215e1f8f6U,
  0x35f5ecdb1df50a0aU, 0x141b2103f2fe1100U, 0xeddae62f520a02ecU, 0xf8e3e7f11b08ecf4U,
  0xe3e7f5feedfc0425U, 0x60b0cecfc38fcdbU, 0x1cc6f31ffff3e922U, 0x18ebeeecca10030cU,
  0x707f334141b0e03U, 0x7f2e81ccbf7f803U, 0xb1619e3f8d71cf8U, 0xf70ceafb1041090bU,
  0x232222e3ede6120dU, 0x8f2fec3090c0120U, 0xfde31b03d50ffdfcU, 0x37d91d05f61b02fcU,
  0xf4fde50c0d00dd07U, 0x19e818d8fc2f0503U, 0xf21ef531de1a160dU, 0x2a0e191a15110aebU,
  0xe023f2f0da03fdfaU, 0xfce8e9f9f91c08f9U, 0x1f6fc0529fdfd03U, 0x352ef5f50a100a08U,
  0xe91e1e2f06ec040dU, 0x202009d4f7030ee5U, 0x13fd0d130402e70dU, 0xd223e31f3f600dfU,
  0xfefa0d01db030411U, 0xdd423f90ede100cU, 0xf726160102fbf00cU, 0xf43900e30af523fdU,
  0x2ff21d81109132bU, 0xed33fe1a20f50807U, 0x102081eebf00621U, 0xeac901340f01ed27U,
  0xf01405f0020df207U, 0xf01dece602c7fafdU, 0xe20600e34dc7e2ccU, 0xf7e514e216f431ffU,
  0x2091d0204d5d610U, 0xee0e00060303f6f4U, 0xe2d6331713172aefU, 0xf5e814f3f5e2eaf7U,
  0x110c0905fe291efbU, 0xedf206dbf5fdef0dU, 0xf107fff716d6e9f5U, 0x20f2e809d8ea0230U,
  0x2df2f9f3fafdf207U, 0x19fdfff32c1cd90cU, 0xb02d40433f206faU, 0x2ef2ded90525ed1fU,
  0x27f3feee0aeeee02U, 0xe00ae81f23f90d20U, 0xf9eb0f08f5eff911U, 0xf407fff503fae60dU,
  0xf1d04623020f0c20U, 0x800f0fbfafc10f8U, 0xb22ea2c0c271cd5U, 0xfc0ad7e72204fbfeU,
  0xdf1bf00b07f12f06U, 0xcb0fe5fbf5f71514U, 0x220206ef3024f9e6U, 0xdcf1f3f708e42c17U,
  0x1209ce0aee10e7fcU, 0x13d001dc0d04ef1eU, 0x7f812ffde22140eU, 0xf6dd171ad5e90beeU,
  0x7ea2013f0fef406U, 0xe8e41f17ea0b0018U, 0xfc0514f1dbeff102U, 0xf1ffd6cfd71cf4fcU,
  0x1edf9cf8ef0cfbfbU, 0xe9e3f40205e9ff1aU, 0xe41afbfa04080bf7U, 0xfdda130b0c1cf20dU,
  0x1115c90200e51dfaU, 0xfe090f00cef10502U, 0x11e1fece2d1a2f09U, 0x9e605d40bffe8ffU,
  0xc1304f21fd3fef7U, 0x1bad01f80606e811U, 0xf7fff428f6f5f2e0U, 0x2526191ff4f7f4f2U,
  0x3dafffcf80e1325U, 0xfd02f0fe0608f5e3U, 0xaf02402ca02e900U, 0xe913b31f0de92ad9U,
  0xf5e722fd1cfdf1f8U, 0xfcf2ebf92efdf401U, 0x2ee6dceb03f916f6U, 0xd10618fe0ff3e5ecU,
  0xece0f9f406da0601U, 0xee4070be1fbea28U, 0xfdf644f81f18d9f0U, 0xde0de01d21190803U,
  0xe2ffe40725e6c80cU, 0xed17f1df101b1bf5U, 0xe70fefe0032df113U, 0xd6360c1d060303f3U,
  0xfbf51a12f004010dU, 0xeaf51002f4f80fffU, 0x2df20cfb1bdf05d6U, 0xfbf3ec14f9e7e001U,
  0xf0f0f95508d312ebU, 0x2904bff1f21500edU, 0x1f07f5ed04dc1fcbU, 0xde5e1fa08ed15f8U,
  0x28fafcedfbf5f20dU, 0xf908031de4f50303U, 0xfff9f0491e08ef32U, 0xcb1ee5e5fc1008feU,
  0xbffeff70e0e0c21U, 0x403f90cecfaf9f6U, 0x16222a000f21edefU, 0xb10141ff6ffe1f5U,
  0xe2e408032629fb0aU, 0xeb0fef240827db11U, 0x1ad8feea1ff8de05U, 0xdb06110afbe62722U,
  0x2b0b09dd03012bfaU, 0xf1fcf6e8e51c0a17U, 0x61105eff813ef24U, 0xf937bbfb00fd070bU,
  0xf11c27f30fd9fa24U, 0xe6101933e51603f5U, 0xd5f209c821ed15faU, 0xf00af11af31513fbU,
  0x815fb0ff9dc2006U, 0xfceef5001bed24d8U, 0xa0a0e1bfb1225ffU, 0xe2e614ee07101908U,
  0xcfffa1f04ee09e5U, 0xffe00debfee62f13U, 0xfe24e721d7111fdaU, 0x7072b08e818e90fU,
  0xdaf3e22df2eb1b0eU, 0x40311fdeae5f7d3U, 0x1d18170ef8ede819U, 0xfdf07fb260621f2U,
  0xf6ecf7e6f80a0bfcU, 0x21160d1ee2093002U, 0xe8ff0cfbf709f43aU, 0xaeafb0622192b17U,
  0xea0f1205fc092714U, 0x1800182107d60e08U, 0xe912cd0642fef5e4U, 0x27dce2edda1b1410U,
  0x619000e0e1a15f0U, 0x3af1182ec8f3f30bU, 0xf8271ee2e9f6f7f4U, 0xf9c01ef9ee130218U,
  0xed11ff07f0e51a11U, 0xe7eff7f40dfb07ebU, 0x2bef7000dcfdbf9U, 0xf2071239f8f01519U,
  0xf0e20f0ef4ef20ecU, 0x3fcf7fef415100bU, 0x2513e9f335d9f714U, 0xdaeaf52401f6e724U,
  0x90e321ae207f315U, 0x1e7e00a04eaf3f1U, 0xf51eeeed00fffa25U, 0xbf1fa2cfae107f8U,
  0xfff307db0609fffcU, 0xddeceff0011915e7U, 0xb280ef0eed92023U, 0x11d3eb1e1b0ef206U,
  0xee2be8fbf5fbf1f5U, 0x11e5ecf6ec00e70cU, 0x24041de707e8f621U, 0xef07defe03e9f202U,
  0x2fd1f18f00b060aU, 0x1c3110efe6fd2a0bU, 0xf4f520ed0b0d0acbU, 0x303d9eb0f091ae3U,
  0x304e3f21f08f0edU, 0x10f7d7e50f0d04d4U, 0x28e70deff1ec0512U, 0xaf9202fefb5ea06U,
  0x13e90522fe1d0204U, 0x1af7fcebfcd80ce0U, 0xeff8fa010cd2f707U, 0x252209090900ddf5U,
  0x4fe0113ffd80428U, 0x17f1301cd5fdfdf6U, 0xf123ef18031bfff7U, 0x23e9000ef5150e1eU,
  0x112510f5f1e70eecU, 0xfbe10bf907f4eee7U, 0x325032e020bf5e2U, 0x1107ec311404e9edU,
  0xfeeff6ddefede5e4U, 0xf716ec29192507e9U, 0xfcf8e54e0c3406fcU, 0x241007112211fc02U,
  0xf3f4032a2716d81aU, 0xfe040ffada0c110fU, 0x3ee2e726031807eeU, 0x18f60f001602c1ecU,
  0xf0060211f51e0e12U, 0x302df0014030309U, 0xe208f00bfdc5d20cU, 0xeae530f1defe06edU,
  0xea02e0eb053b17f8U, 0x18f90211f1ec172cU, 0x60df002e91c2cf4U, 0x18d84dfcf80627f2U,
  0xe4f80f0e0105111cU, 0x14e7130828eb142aU, 0x1505f007e8d9f3d6U, 0xfb1ad61408f70cdaU,
  0xdf8fcf8ed1d10f9U, 0x1122e0c29ff07ebU, 0xfc002403f5f9f3ecU, 0x132c5f11bf90ae9U,
  0xf91401e7141326d0U, 0xe0fdebed18eefd1bU, 0xc8ebffef2246d6f9U, 0x13d5dff6f51a25f9U,
  0xe907060d0a0117ddU, 0x845f435f50af8f3U, 0xfe0a0ef3e2fd041cU, 0x20faf30414f0e523U,
  0x1513d81af5110f12U, 0xf5ea05dd07f1f9f5U, 0xfb190b1af82224feU, 0xdff203e744e4042bU,
  0xe30c2cfed9f1f9e7U, 0x702fb19fed8f30dU, 0xfc040ae8f5f80501U, 0xefd7130bf507e001U,
  0x2fbe7020d04e811U, 0xf80bc9160bebeb31U, 0x260efa1306f20421U, 0xf616e6ef0bd5cdd6U,
  0xe3edea1ae4f311f3U, 0x2d16eb1b0e22011cU, 0x18fafad61cf91e05U, 0xf50f13ebd222f71bU,
  0x7ebf6f703ee0501U, 0x26030923151afcfdU, 0xe2d3cef8faf518ffU, 0xfe0ef90f2f0f1321U,
  0xfff2081110df12c1U, 0x110af910f2f516feU, 0x6fb1a10f6171415U, 0xf6f7e4010802041cU,
  0xcf1b0c12e22d2d14U, 0xcfbf4f107f3fb01U, 0xd7f90f17ebeefce5U, 0x141a16d02d14fdd9U,
  0x2000e217edf6ede2U, 0xeae8f60a060ee301U, 0x70ff844ea3108dbU, 0xf13012fe210217feU,
  0xe90d0d04131bedcdU, 0x11f6e3f5f7e1fc0cU, 0x1d17cc06fc0d24dfU, 0x908f42ae2171307U,
  0xbfeedf5dd32dd05U, 0xffff040e140f1f19U, 0xf3113a1be30f1005U, 0x38330efc2ce3ff0cU,
  0xe005010df51406e4U, 0xfee0fed3ce10603U, 0xf6f923e6def609f1U, 0xf90dc3da07150100U,
  0xede901ff14420406U, 0xeff0132cf0e9f907U, 0xe27f3fd00f515d3U, 0x1b2a03e4f909000bU,
  0xecd8ed1620ef0903U, 0x31ee9270f0b0aU, 0x1902f611032b1a06U, 0xfc0203f515040c11U,
  0x18fee8fdfa0efc0fU, 0x1cd020e40f04f511U, 0xee0ff820fcef1d04U, 0x6f049041c120df1U,
  0xf311dff0291305e7U, 0xe10c26bb19e3031dU, 0x11002502e611f3e6U, 0xce6f61aea2df730U,
  0xfcd901fe06fdedecU, 0x2aeafb1105eff902U, 0xe5ec11f5f9fac618U, 0xef33eb061bd8080dU,
  0xd703efd517061d11U, 0xf51afcf70812f7e8U, 0xd4f5ef31e50b0613U, 0xbddcf20fe0d0ce5U,
  0x1a050607e50726ffU, 0xf0fa181de8ea0d24U, 0xf5f33de415f103eeU, 0xf90806ede8ecf9dfU,
  0x15e80f0cf8120304U, 0xdcddf0ef0c05f006U, 0x3e7ea07fafd3deaU, 0x18e93bf0ebe602fbU,
  0xe9f2fffd38310302U, 0xc904ee16eafc02f2U, 0xfe519122008effcU, 0x7fadcdfece80a27U,
  0x1011140ccefcfe1eU, 0x93df1fe2bf7fa0eU, 0xc8d7ff01f507fde5U, 0x7f43304101413d4U,
  0xfeefef00cf9f8fdU, 0xe523cc060c2bff13U, 0x2707fd0916090939U, 0x519f5f533e80d0bU,
  0xea0907fcee180708U, 0xfcf9ebe80607f5efU, 0xb04e5fbe9e92119U, 0x922ddd701162aebU,
  0xae80a0cf0e310fcU, 0xe2f5f9d3f101feU, 0xe61b19d2fc21fcf5U, 0x31e70afb0c261307U,
  0x9ec1b1bfc05e3feU, 0xfee80114c30f0b0dU, 0x5fa0af5fcfee400U, 0xe1e6f602b213e818U,
  0x51fe2f30205e7f7U, 0x2cff1a1ae6eff1e1U, 0x22f2fad41304ed17U, 0x24e225f9fc03f4e7U,
  0xa3414f3ef0a2927U, 0x80112ef38fa07fcU, 0xd140a08ebf9eff9U, 0xeaee02def2fd0e24U,
  0xe90b0936e4d519d7U, 0xf9fd1c17150fe20eU, 0xecec1131ffd9161aU, 0xaf6feeafd160ff3U,
  0xd0250ef5f516eaf8U, 0xd6040d0af11009f0U, 0xef12e1e316130701U, 0x14fece120bdee9faU,
  0x4fae9f306fb0047U, 0xeb051df2f6fef6f8U, 0xfbfff804f5fe131cU, 0xefdd1de2070003daU,
  0xf3f00d0d22def426U, 0x31b270af9fa1bf2U, 0xd3e70b1623e0eb21U, 0x2e50c2f14ff0208U,
  0xddd0f20af2e42410U, 0xef11fbfbf8f108caU, 0x2d000341b1b07U, 0x1fe01d01faeeefeaU,
  0xfae7ef07efdef3ddU, 0xe414ef2b291debd2U, 0x1c14d8f619f9f2f5U, 0xef0d12fee81e08f9U,
  0xdfafc41e2e8fe05U, 0xfb1dff12d616fee7U, 0xe1fa17f8191702f5U, 0xfee8ff4113d22115U,
  0xea27e104bdf5e1f9U, 0xf708fef403ebd7e6U, 0x5ec071cbef60dU, 0x27ebc5eee6f5f506U,
  0x16fced0303070f0bU, 0xe8eb3be1f7f904f9U, 0x2d71adf01f70f01U, 0x13edfa371a0efc2eU,
  0x13ff1d37011ff913U, 0xfbdc001cfa1e19feU, 0xa212c1a0f05e609U, 0x29f2fefff7fffc17U,
  0xef32bf4e0f0f8e5U, 0xeb0fe6fef5010f37U, 0x220c0c1826d6120dU, 0x2fcfa2f0f2123fcU,
  0xe3f1f1f6f016f1f5U, 0x15e3daf5e4141300U, 0xd81aedddfcf219d9U, 0xed16feedfffeeddbU,
  0x10ff0909f9ddefd9U, 0xdd1aecec02f1f0d9U, 0x130bfdf0ebf1eaebU, 0xee050d3d2033151aU,
  0xe109faf61bfce20aU, 0xf020bf4f413fe22U, 0xfee5ead52b43e4eaU, 0xcf92a0a24050ef3U,
  0x4fc07fa210ef51aU, 0xe6ef1d133ceb0ff1U, 0xceffcc18ffe106fbU, 0x1013303f122f4e0U,
  0x1171413f1ebf53aU, 0xd3cd05f2eefe04faU, 0x1de4fc042316070dU, 0xe1f530e701fafc15U,
  0x82ceb23df14f9ffU, 0xe8fcdd290413ed27U, 0xf50207f803f011eeU, 0x9051717180710f1U,
  0x18cef2fb110b12f9U, 0x8f2d90c08fc10e5U, 0xfbb1014e218e8f0U, 0xff0a1ff302f10f0bU,
  0x38ede4f6040e0018U, 0x21df5afa2607f219U, 0x10ef10e62c0ff20dU, 0xd1700dfe0f110faU,
  0xf9eedb1d03322231U, 0xddffefe014161025U, 0xd1d000f070d0becU, 0xf917f0fb05d11af5U,
  0x150dfedd16f90f03U, 0xe1012dee09070105U, 0x1df8f90c21fffcddU, 0xf2f41ad7d71ef2ecU,
  0x5ffd5d4e3feeeU, 0x231d1b22e81919faU, 0x220be0e5ea060d06U, 0x9170531210de509U,
  0xd5381b0bfdc6f3f1U, 0x420f0f9e40f00f3U, 0xfdfbe2f5ef070df4U, 0xe3e4f4f8f4cd0508U,
  0xa1829f91cf7f125U, 0x2aef1424001b0213U, 0x1b0cc93300e7ef02U, 0xf41411e9fc1917eaU,
  0xfb030b31da0be6f1U, 0xf82612ef3eee2ed9U, 0xff70c0917080800U, 0xfbfef02112e210fdU,
  0x8fff601f0fb0f09U, 0xdb11350cf20c1c1cU, 0xef2125e5341205f9U, 0xf7170de7010df320U,
  0x3b0cf10d07040de5U, 0xf6ebebe510f5cedeU, 0xddb1209ee15f4fdU, 0x131c290301fb121aU,
  0xce16e6f5ec150211U, 0xfd1117e2f705ef05U, 0x14fffdfef120f8e2U, 0x2119db22fc2b0322U,
  0xf0251cf2050711efU, 0xe7dc0007fc04df01U, 0x13d1005e6f7dffcU, 0xe00a06f707120aU,
  0x14e3e2013d05fbU, 0xe91d14f2091411dbU, 0x28fd0ae8fadf0812U, 0xf719f8c50b230c1bU,
  0xfbec122340f12118U, 0xf20100020d20e1fcU, 0xf2f7ef1e14fafe07U, 0xfbfbdef845f7f8e8U,
  0x37050a0bed0f05f0U, 0x18f00ef7f60ef2e4U, 0x130111be04c20702U, 0xa0bf11610fcebf5U,
  0x17fefe0eedeb0be0U, 0x1c070a00b41d04e8U, 0x1018080221ea04f1U, 0xe6143a1ffb01e311U,
  0xede905e63106e7f3U, 0xe2ecd5f90b19f6f3U, 0xdeaf3eece031f25U, 0x30f403fa4410fa16U,
  0xfa1eef0420f62913U, 0x18021cee0cf0f01bU, 0xec19f934e413e92cU, 0xfa041ffdda1f0c06U,
  0x220f010cd8110addU, 0x152c07f7dc261c13U, 0x1d8f30f0c1b233bU, 0x6260ffb06fceaddU,
  0xf6f508eb2009e9e3U, 0xff1c3b0df91ef9eaU, 0x14ea10f12f1e0ff0U, 0x1107f6f6e106ed17U,
  0xea50ce30ce624f0U, 0xf0fcf2f419030605U, 0xfcf907ead207f61cU, 0xb064732070f12eaU,
  0x2616001ff70b0ce7U, 0xf21a10eae80c0edeU, 0x1aee3806081d0ee9U, 0xfcd7dfeff9030930U,
  0x120613ee0021de19U, 0xfbb0eeedeafaf6d9U, 0xfc101a0107eb0300U, 0xf00302120d04ee1bU,
  0x41325fadb180e26U, 0xe509eded15e9fe0bU, 0x12c4eceefc0405fdU, 0x5f9eade00f50004U,
  0xd310f5fe0af5f114U, 0x218d2f332e4fdf4U, 0x13e903d9d2e92505U, 0xf21bfaf7fafc0f37U,
  0xfa20de29d5ff0f12U, 0x1fdf517d1fd2533U, 0xffd1109fcf907ceU, 0x7eb08d915d90ff9U,
  0xe7fef21606132008U, 0x31fd1c0d030d14d2U, 0xf6ff13fcc61b02faU, 0xe9e9e2fbfde929efU,
  0xfeecffd41122f800U, 0x9000cf02803f016U, 0x70a1b2710fcf2f0U, 0xf4f8eedff8f216e8U,
  0xea1513270d1f1cd5U, 0x24e150c11eafdfeU, 0x22e9f5f4ebe0090fU, 0xeb040deb31ec01e0U,
  0xecf8eef4fa132806U, 0x2ee905400cfb0fecU, 0xe0f2052a0812e409U, 0x72a0afb0cf7e7fcU,
  0xf9eff3f0120c0ad7U, 0xeb022100c12009fcU, 0xf7eee9f213f4ffcdU, 0x10100b0e1af7f208U,
  0x10e0fcc62a2a0bdaU, 0xf707ed12ea13eddaU, 0xfd0fe9f0fb31fb20U, 0x1d022127f9f700f6U,
  0xf30601f80e16d1ebU, 0xf603e808eadf03f9U, 0xf5fcc21515ecfd0aU, 0xedb8fbf3cf10ef1aU,
  0x2f081be1f910fdffU, 0xf902f722f00317fcU, 0xae3050500eff010U, 0xf4dcf2f3f2ea3600U,
  0xfe0fe4170823faf0U, 0xcb1be0e40eef1016U, 0x1ddefffa010efd15U, 0xd5e312e0241a12f1U,
  0x150324091efee426U, 0xea2508251d08fde2U, 0xedf718fedff1dcf3U, 0x15fae00bf5e5d4f0U,
  0xafe3bd200f11a27U, 0x30718fd1dfb04efU, 0xfc17f500e002d7ffU, 0x15151d11f8feef03U,
  0x17ddf72826e82712U, 0xfffa1dee052b0634U, 0x21423e80ae70d0aU, 0x9f4110a06fd14f5U,
  0xcf433071d1d0bf4U, 0x6f401f90009d402U, 0x1621f6cfebe2cc2dU, 0xf5c0f30711ef1bf0U,
  0xecf9eb0e3506f1edU, 0xd61d0112e4c2e90eU, 0xae21bf81403e719U, 0x17faee14ddeeea03U,
  0xfef8f9f6f94ff523U, 0xd42bf0fafb08f52eU, 0x11fef6060b19fc11U, 0x19f5262e1f37daf9U,
  0xf624e0f8f923e81aU, 0xf424030af8c20d11U, 0xf518f00ce5f80c11U, 0x109d711f9101712U,
  0x15f8f406e6bf0ce9U, 0x11050703ee1214f9U, 0xedf9f6ddfbf61b2bU, 0x3102035f60be707U,
  0x12e51e01070ff407U, 0xeeede08e7f1ff1aU, 0xf326e3fde9e616c2U, 0x150d1eefe80dedf4U,
  0xd01103eceff2fd05U, 0x6f6070636e9dd2fU, 0xec19f6235017dae7U, 0xe02df63208fc19f3U,
  0x1d9fde701fe1b0bU, 0x210f012416010612U, 0xffe302260c082622U, 0xef011c0d0f1bf5fdU,
  0x18e1da08002b07ffU, 0x1edde80ef01b210bU, 0x4f712150ddf060eU, 0xf8f9d21126dfddedU,
  0xf5f8bd03310a03f6U, 0xeeedf518e6f42df6U, 0xf5f40eede3e6fcfbU, 0xef0ef200e60e01fdU,
  0x1313131cffea10d6U, 0x191e081403062b14U, 0xf614180401eff8feU, 0x50b06e6dfeb0bedU,
  0x9d4ed05f6310911U, 0x603ffc4f9072e0dU, 0x1c09f3ea0638f500U, 0xf7e90df6f4131afaU,
  0xeb10210eeee71618U, 0x15fbe91509edfb09U, 0x31111e11cafe08f8U, 0x1f1e0ded112ef51eU,
  0x1501fe0e13170101U, 0xedeafadce826ef06U, 0xeff7ebe808054eedU, 0x1f3517dc0f060bfaU,
  0x1a04f7030317df02U, 0xf322e8d1150d01f0U, 0x3eefb230912feU, 0xeefbf91415ee1b1aU,
  0xea2709e7ee11f9e0U, 0x815f9e7de22e30cU, 0xae9fbd5360e09fdU, 0x11032bdde8fae812U,
  0x70ee613fbe12400U, 0xad402e121100700U, 0x21e0fecb130403e4U, 0x10fd31fee23e0f7U,
  0xffef160bfb060a13U, 0xe70ac216e105040aU, 0xf705fd09182434dfU, 0x11f3070a1d02ee17U,
  0xa360be606fdecceU, 0xed12150bdded0debU, 0xe1fb2d0c03161308U, 0x3e21e19f105dc08U,
  0x150302fad80a1e18U, 0x7d32b09fdfc11e4U, 0xd8f128fb20211cf5U, 0xdd28f413e0e7ff0dU,
  0xf0f40d101f182d13U, 0xf81d0618fe01e9f9U, 0xe8fb11ffea2c1422U, 0x2ff9edf603faf7faU,
  0xfb1ff10a010df411U, 0x141107f2f90bf3f6U, 0xee3120de12f721faU, 0x4c1e0f30400ee2eU,
  0x7fd10e22b2aff1fU, 0x2bf1e9f5061d17efU, 0xfcd2f9fb1bd0e80aU, 0xeaf2070809050e0bU,
  0x2315e60e22ccf4e3U, 0x3c2fa04dd091addU, 0xf1e90c120f07f51aU, 0x1feed31d0916121bU,
  0x1a06efe5f4e9d80fU, 0xf05d6f5150ddd02U, 0x51928fa0619081aU, 0x41901da012de804U,
  0xfbf51cfeef19f627U, 0x508d3f637e300edU, 0xefdb32f50ac8fffdU, 0x211af8deefd2080fU,
  0x932eef6281a0111U, 0xcff61a2325f7290eU, 0x1efdf12203f4f4U, 0x80aea06e20bf2f5U,
  0xc907e80ef0e8cce0U, 0x18fdfde910080df9U, 0x22bf2050cd4f80bU, 0xeecee70afff60314U,
  0xefdce4c5160fd5fdU, 0xf5df0e30f6fe1feaU, 0xe0fbffdbe3ece60dU, 0x2ee2c02fdf419U,
  0xfb24f20709f61802U, 0xfbf5de0fb5fc0ffdU, 0xd02eeeeffa060becU, 0x2f0f7070fdae9f7U,
  0xb04eef60b0c01e9U, 0x1ffae9fef301fdfcU, 0xfb09ed14f026f4dfU, 0xec0a100324102522U,
  0xf817ec06f527f20fU, 0xff22f933ee0fefU, 0xeececc80ae71006U, 0xdd0513f4f61f0607U,
  0x5eb1a1c20fffe16U, 0xfbf706ff1fe20ed9U, 0xd3f5ee09110bed03U, 0x14d500fbf7f6f1f7U,
  0x1224f7f3fff0faf6U, 0xfdec330416132e16U, 0xf9f13b190adce5f7U, 0xf2f1e71c06e70de9U,
  0x4d15dff9ed01e8f7U, 0xf41908f725fbf125U, 0xd20408d0fdefe310U, 0xfd0ef8fafd290c16U,
  0xbfc2804cef202e9U, 0x3ec1df4f5de09edU, 0xe3e50efa1af51809U, 0xf8ff160021f72beeU,
  0x1200daf5dbf6e30fU, 0x2903f91103e7e5d0U, 0x7e229130bfbf4e4U, 0x7fd23ed1b1a0304U,
  0x160313f905f21cf2U, 0xfeeff2f1ec0c1210U, 0xf7110c07030d1103U, 0x5f5eef5ec07ff20U,
  0xa0f06d61e240537U, 0x1e1c2806ffebfce3U, 0xdd3beaffee130fffU, 0x51b210af6dcfe28U,
  0x81716f5112feeeeU, 0x171df8f8f71cda30U, 0xf802e607052a35e5U, 0xe14d3e9f9ebe41fU,
  0xfdeb07df01f61233U, 0xf1cd10001e01e814U, 0xfc0d2304250ffefbU, 0xd7dcfbff0afe26efU,
  0x4eee327fbe6eafaU, 0xebf0310efc1a0ae6U, 0xc0905fcf4fa1231U, 0x1bf9e721331fefd1U,
  0xdee5d4ff10d8f9caU, 0x3061204e1d9da2aU, 0xef04e000531de1feU, 0xf2060af51cf6e21bU,
  0xf6fd1206f9160afbU, 0xf4e301f9fb09f52dU, 0x1e3d0c000e0616f1U, 0xf00fe8e4f8020e18U,
  0x14fdf0ef01c523f3U, 0xa1209ee18e9f8edU, 0xe1fcfff0eef61fceU, 0xee2a0b1ff8170afcU,
  0x4ff0301ffe1ee2eU, 0xf6d115e9fde50406U, 0xbe9001524b9ecfeU, 0xdab02eafbf60fedU,
  0x1adce7080af0e818U, 0xe9ef06f81ff8e6f2U, 0xe9e3130622e20d31U, 0xf9f3def3fffe05f7U,
  0x3f408061ad604f3U, 0xfc0c12e80d1002feU, 0x1216f407e423021eU, 0xfb1818170ef60dffU,
  0xe91037fcfce40408U, 0x9e4f1f2f2fdfb0fU, 0xd212e82a48f3eefeU, 0xd3ce090d0cf2fb1fU,
  0xf818effdc3241bU, 0xcf3f1e7f1e91606U, 0x2006e30c04d515efU, 0x16ff460df9ddea12U,
  0x13eeff31090ceffaU, 0xfff234e722152213U, 0x1f1cfdf307fdeffcU, 0xf2f5f7e7df1106f4U,
  0x1e0fe3e3030fe401U, 0xe402e52b14dd1206U, 0xe4d8d5fc291b1ae8U, 0xef1ed505001c0207U,
  0x1b10eed1ff190cedU, 0x170c2a3300ee2f20U, 0xf6fbef0ddd05d700U, 0x7fd36e70701eaf7U,
  0x10210111cf0d07U, 0xe504e30507050b01U, 0xf9debe1b17fd0f0cU, 0xd06083fdaf90606U,
  0xd1e10f8eb04fcfcU, 0x14efea1b1c03381eU, 0x17100d102df61af5U, 0xf2e1dfe3f700150dU,
  0x12db21fc05e922eaU, 0x2219e2de08dd13efU, 0x5e42e0ff5effa06U, 0xfc07f2110fe1f813U,
  0x91e04d5f5f30f12U, 0xe8e50f0e0d0df604U, 0x1915f90d121dec14U, 0xf9c9e8ec12f1fbe6U,
  0x16f02cf1e9031111U, 0xfedaf51c26f818e1U, 0xf91ef1fd31d30d01U, 0xeffa083617ff1a04U,
  0xa12ed12ef19f90bU, 0xed04f93e1f1c05f8U, 0xfbc608e10b23fafdU, 0xca13f3f90fe8fcfdU,
  0x13f62e37e6f017e6U, 0xef1e0ce90dd42713U, 0xf2f0dbf8fc17eaeaU, 0xfb260f130f0fdde4U,
  0xe029d4da0a1aedceU, 0x2f6ff2ffd0c15daU, 0x1a0e0f131113ecf8U, 0xf333105110bfcebU,
  0x18fcfd33eaf808f8U, 0xea0af00c33f9e8ecU, 0xd0bf7ed0805f7d7U, 0xe522ff000df10503U,
  0x3ef09f2d6ec0a22U, 0x7024a09e70ed1f8U, 0xbedf50c13f30ed4U, 0x106fcfdcbea0e15U,
  0xf021500d80bfa1cU, 0xe8e8d0f2e8ef1ef1U, 0xf008dcf316f0f00dU, 0x1ae0ee01d6d1f5efU,
  0xc0d2b14020fed12U, 0x30e2303f6370ff7U, 0xbf24fcd712ec15f6U, 0x192020170ce704d8U,
  0xfce7d5102bf01effU, 0xeef411e5d24d0029U, 0xebef01f00f13181bU, 0x3ec2b130d1ce5f8U,
  0xeceef6f7dd2cf5fdU, 0xff9d804f60fe21eU, 0xf420fb030cfe0af1U, 0xd11e6ecfbf0fcf3U,
  0x1101fa000d1909ccU, 0xeeec2ac7fae900ffU, 0xfb07f8f5f2060ef3U, 0xf01e09140e3bfce5U,
  0xf21209ec2947f7f8U, 0xeedebff2f71bdaf1U, 0x1213ed230e091022U, 0x14fafefc1037020fU,
  0xeefbdf02f9faee06U, 0x2206fdf7edd22b15U, 0x3f123e6030b0afcU, 0xe4dc000b08070b21U,
  0xe42c11110d0913d2U, 0x2d27e8030511050eU, 0x26c512eb080a0815U, 0xb11f123e8f42ce4U,
  0xe502fd09e4f9e819U, 0xf920da0bedf8f6f5U, 0xf80d23d4fef7f8cdU, 0x19f034f41f1af9ecU,
  0xf6121ce51ceb0cfaU, 0xfcf0f7fcfe2b01fcU, 0xdf410502b2c1cfbU, 0xf2b11be9eff81a11U,
  0xfcf8ed18f503eccfU, 0xfefce4191ff4eaf7U, 0xe71309f9edf90e05U, 0x14f006140634c9ebU,
  0xf0eef408142712f8U, 0x33f915210bf3fbe6U, 0x1df71fdff6eff619U, 0xfd090509ff11e8fbU,
  0xfe07020ef108f104U, 0x100120c04f8f810U, 0x2206f232bcf9f8ddU, 0x12fde3efd718121aU,
  0xfbf30f1cdde7feecU, 0xe70411dd29cff902U, 0x34df15fe040b05fcU, 0xe90f05f915310effU,
  0xde0802df0aef09f6U, 0xe218f5041709daf9U, 0xfe2318172402d615U, 0xf10bfefd1a081d11U,
  0xe61218ef1c081122U, 0xfa0003f31fffe0ecU, 0x2af30df01922d908U, 0x4f514f80821fef5U,
  0x13f00f00f6e22e16U, 0xf0d709f700ecf218U, 0x2bdb1b18cefb1e0dU, 0x270809e30bd1ec0dU,
  0x21120cdb082f21e6U, 0x191b261608e7f8e3U, 0x23f70e15f222edf9U, 0x2ddcef41d351bfeU,
  0xbebf6f81ef138e9U, 0xf2d805f5f3eb040dU, 0xf40c0102e30a1500U, 0xf908d6ed07fb0dffU,
  0x18121f17d718fc0dU, 0x6f006d3cb1ade08U, 0xeb062404f2e223e9U, 0xfad300fd0cfbed07U,
  0x20dd0405d715e60aU, 0x26efcd0f0612f3dfU, 0x13ff0332321d110bU, 0x1a2c25ee09271afaU,
  0x13e70510e5f71af9U, 0xf708fb092f0ffc12U, 0x11140111f5060fd0U, 0x1e03c10410e6de0bU,
  0xfc1106f60fdded03U, 0xf6f0f20827f817f3U, 0x1821de1d010d0df6U, 0x150ef5fe10d003fcU,
  0x18feec0deff1f214U, 0x13f4ed09eb0efe09U, 0xfd0e0df326d6fe08U, 0x340a2de00cc702eaU,
  0xdf3e60a130c1cecU, 0xff1efff7020be10bU, 0xe61d2414e93c0b15U, 0xfef3c6ddd926ec25U,
  0xfbeef500f926ed0dU, 0xf041614fdf0062fU, 0x1b07fc0a12f91908U, 0x1ff10726fc330719U,
  0x1d14faf8e1e7eaf1U, 0x5edeaffeee14a12U, 0x51cf7f306f9dd03U, 0x3001013af40010f7U,
  0x4daf91923e83b0cU, 0x27120fd416f20bdfU, 0xdf24fcf30c3fe421U, 0x9f2211af4fffc16U,
  0xfa15e4fa182522ffU, 0xdbe7e912e2f5f8edU, 0xffe2edf112de0a13U, 0x4d113fdfdf317e8U,
  0x19f9e4f3262a04fbU, 0xeee7f4f8ea09f7fbU, 0x15ffd8edeef7fb01U, 0x30d29f617ccf2fdU,
  0x161f0cffdbe810d3U, 0x17fde9fef500fc07U, 0xd2f93c0c19000ae9U, 0xa041c0bf00bf319U,
  0xee00f4021712dffeU, 0xf3ec0efc1617e1aeU, 0x3b0106d4fb010510U, 0x4d3011a040907e9U,
  0xd6d0141f110c06dcU, 0xf9e8f00815fef0U, 0xe817f4fd1a4a240cU, 0xf702c90400f6f104U,
  0xc0f1706ea03ecfeU, 0xe05e417f8f60119U, 0xe6370ce5e3f1e7feU, 0xfdf0e31d13f50906U,
  0xf7fe09fa0cd6f613U, 0xef05fbc406da0113U, 0x20fff902251ce2f5U, 0x2107ff080d0cff09U,
  0x4ee1f050654ee04U, 0xe8efcbe8ea19dd14U, 0xfc0cf3f81d0deef8U, 0xf3023921bc2317fdU,
  0xee26d3090806edfcU, 0x14f80adced03080cU, 0xdd17ff3fe6f90b27U, 0x1cf61ae809dcf203U,
  0x261de51bf91701ddU, 0xf8fe1b23021e10U, 0xfd04370cdefef51cU, 0x1804f6f5ff08fefeU,
  0xf81303c5e1030be5U, 0x170ae41b1a110411U, 0xf1fcee908ea080dU, 0x32e2ff2160101b1fU,
  0xddfe0504fbcaf50fU, 0xb022103000bec11U, 0xfcf11af7f7d305baU, 0x28ed33d433f5ebffU,
  0x60bfa09e7fc0f16U, 0xf10a00ea2cd50ee9U, 0x2d0def6f1f6ed0eU, 0x180ade0e0d2204caU,
  0xe016e5f017f50ee7U, 0xfff71bf725fcf818U, 0xf5f3f8d7f0f7160bU, 0x712da10310de3e3U,
  0xffffaadeffffb8f1U, 0xffffc028ffffcd23U, 0xffffc6b5ffffce51U, 0xffffb5deffffc4d6U,
  0xffffbff0ffffd733U, 0xffffd630ffffe303U, 0xffffc45effffd1d5U, 0xffffc292ffffc880U,
  0xffffb694ffffd03fU, 0xffffca59ffffda96U, 0xffffd447ffffbe32U, 0xffffadf1ffffcaa5U,
  0xffffbd17ffffb7c3U, 0xffffc4ceffffc747U, 0xffffd511ffffc29cU, 0xffffd72fffffbe5aU,
  0xffffbf3dffffce12U, 0xffffd1afffffe5e4U, 0xffffc51affffae29U, 0xffffbb76ffffbc43U,
  0xffffab45ffffb7ccU, 0xffffca21ffffbedbU, 0xffffb6a5ffffa80dU, 0xffffc591ffffa783U,
  0xffffc012ffffc40fU, 0xffffc896ffffc639U, 0xffffb44affffc8c8U, 0xffffb7adffffb9b0U,
  0xffffb62bffffc73aU, 0xffffc136ffffbc4bU, 0xffffc0e9ffffb23bU, 0xffffb6e2ffffbd5dU,
  0xffffc43fffffd0a3U, 0xffffc6aaffffd311U, 0xffffbcf0ffffcd9eU, 0xffffbb3cffffa0d4U,
  0xffffc9c9ffffac77U, 0xffffdd55ffffc326U, 0xffffcf87ffffb138U, 0xffffcae5ffffd06dU,
  0xffffd500ffffb3dcU, 0xffffc6ffffffb41dU, 0xffffb01fffffbd72U, 0xffffc98affffc028U,
  0xffffcd34ffffcdd8U, 0xffffcedaffffb128U, 0xffffc0f8ffffc04aU, 0xffffc103ffffcb56U,
  0xffffc108ffffb895U, 0xffffb9f9ffffc707U, 0xffffab18ffffd556U, 0xffffc5c1ffffb43bU,
  0xffffbad0ffffc3f7U, 0xffffb574ffffdc23U, 0xffffb4d1ffffb38bU, 0xffffc87fffffc561U,
  0xffffb587ffffc6e3U, 0xffffced8ffffc3ddU, 0xffffc7b6ffffbf65U, 0xffffb91bffffd7f8U,
  0xffffbcecffffafafU, 0xffffc893ffffb8e4U, 0xffffd33fffffbdfeU, 0xffffd4e5ffffe507U,
  0xffffbfa8ffffc874U, 0xffff9e2fffffc99cU, 0xffffed14ffffc43dU, 0xffffd536ffffd459U,
  0xffffcd7affffc386U, 0xffffd320ffffc452U, 0xffffbe85ffffe27aU, 0xffffbdf0ffffb605U,
  0xffffc785ffffda33U, 0xffffae6affffc170U, 0xffffd3e5ffffbbc3U, 0xffffad60ffffaed9U,
  0xffffc2e2ffffb0a1U, 0xffffd4c8ffffad26U, 0xffffd99affffddfcU, 0xffffa803ffffe22cU,
  0xffffcef0ffffc750U, 0xffffbb6effffd007U, 0xffffc926ffffb43bU, 0xffffd0d1ffffab36U,
  0xffffb61effffb8c4U, 0xffffd0c7ffffb791U, 0xffffcbadffff9eeeU, 0xffffbc31ffffbab7U,
  0xffffc16affffc00bU, 0xffffc171ffffbe6aU, 0xffffc81dffffc297U, 0xffffaf92ffffc062U,
  0xffffb96effffc6f2U, 0xffffbab3ffffc16fU, 0xffffc1d0ffffb981U, 0xffffbd99ffffce5aU,
  0xffffd405ffffb28bU, 0xffffd1e7ffffb768U, 0xffffc258ffffd617U, 0xffffb02bffffa49eU,
  0xffffcd9bffffbda5U, 0xffffb2c1ffffb36eU, 0xffffb19effffbf74U, 0xffffc0edffffb827U,
  0xffffa93bffffb6ccU, 0xffffba9dffffd41bU, 0xffffd4d6ffffd15bU, 0xffffc7ffffffb759U,
  0xffffb8d8ffffc9dcU, 0xffffbc64ffffdbacU, 0xffffbfb0ffffb865U, 0xffffaf06ffffb576U,
  0xffffeb26ffffc114U, 0xffffb7f2ffffbd89U, 0xffffb537ffffb19bU, 0xffffc569ffffcfb1U,
  0xffffa41dffffb536U, 0xffffbb97ffffc072U, 0xffffb27affff9d37U, 0xffffb82bffffada7U,
  0xffffaffeffffbd14U, 0xffffbe4fffffe0d4U, 0xffffda4fffffd6d1U, 0xffffc1e9ffffcd44U,
  0xffffe754ffffd555U, 0xffffe687ffffca3aU, 0xffffaf8effff9bc3U, 0xffffbb40ffffb38cU,
  0xffffbb1dffffc5eaU, 0xffffad7effffe0dfU, 0xffffc24effffc395U, 0xffffc415ffffbc78U,
  0xffffd1a3ffffdf98U, 0xffffb253ffffcb34U, 0xffffb9aaffffba35U, 0xffffc62bffffd148U,
  0xffffa1c6ffffc67aU, 0xffffc030ffffa509U, 0xffffc270ffffc992U, 0xffffd6abffffbc5fU,
  0xffffbf64ffffe308U, 0xffffb067ffffce22U, 0xffffd399ffffbe4aU, 0xffffbf72ffffc401U,
  0xffffb446ffffcf8aU, 0xffffabd5ffffd2fdU, 0xffffbc95ffffe2f0U, 0xffffba7cffffc230U,
  0xffffc078ffffb096U, 0xffffb1e5ffffb9c2U, 0xffffcf57ffffda00U, 0xffffe148ffffe2b1U,
  0xffff9966ffffbf15U, 0xffffdb90ffffd332U, 0xffffcca5ffffc0beU, 0xffffd83cffffcce2U,
  0xffffbf2bffffaef0U, 0xffffbd95ffffcbd5U, 0xffffe3cbffffca2bU, 0xffffb898ffffbf3bU,
  0xffffc9ddffffb756U, 0xffffb62effffbbf6U, 0xffffb7d2ffffbe47U, 0xffffc952ffffaa56U,
  0xffffc004ffffb439U, 0xffffb9e4ffffd288U, 0xffffbbbeffffd7eeU, 0xffffc9ebffffbe78U,
  0xffffd65cffffb37cU, 0xffffe7e2ffffb8deU, 0xffffaa4cffffc643U, 0xffffdce9ffffb40bU,
  0xffffb5a4ffffb963U, 0xffffca1cffffd334U, 0xffffaba8ffffd0d4U, 0xffffd766ffffc0a4U,
  0xffffbfa5ffffcb73U, 0xffffc97bffffb133U, 0xffffdb5effffb5aaU, 0xffffb590ffffaae8U,
  0xffffc804ffffc112U, 0xffffddcaffffc8d9U, 0xffffc0d2ffffc868U, 0xffffbb24ffffcedcU,
  0xffffcfecffff9feaU, 0xffffe11fffffcae3U, 0xffffbb50ffffa7d5U, 0xffffd71bffffb5ebU,
  0xffffce75ffffae47U, 0xffffba6affffa702U, 0xffffb8b3ffffa939U, 0xffffd021ffffaf4eU,
  0xffffb720ffffb43bU, 0xffffd251ffffd988U, 0xffffc206ffffcb79U, 0xffffe9fdffffc0c6U,
  0xffffb5a5ffffc973U, 0xffffc7bfffffd26dU, 0xffffaf21ffffb4c5U, 0xffffe07affffb498U,
  0xffffd054ffffd5deU, 0xffffcfe5ffffa799U, 0xffffb416ffffbd97U, 0xffffb8f6ffffbd5eU,
  0xffffb22affffce59U, 0xffffae4cffffc9c2U, 0xffffc068ffffd987U, 0xffffb22cffffe646U,
  0xffffb98cffffc530U, 0xffffcb1effffc42eU, 0xffffdbccffffb686U, 0xffffb7f7ffffd749U,
  0xffffc029ffffc5d4U, 0xffffc06bffffab6cU, 0xffffdd2dffffb822U, 0xffffc4f6ffffc0a1U,
  0xffffd33bffffbdb0U, 0xffffd498ffffc7feU, 0xffffc8b7ffffdba6U, 0xffffc47dffffa9d3U,
  0xffff9ec2ffff9e97U, 0xffffc1ffffffc10dU, 0xffffb3e8ffffcc39U, 0xffffc8afffffde28U,
  0xffffe292ffffc560U, 0xffffa808ffffbf59U, 0xffffb6b9ffffc0f1U, 0xffffb483ffffcf30U,
  0xffffcdbcffffba29U, 0xffffbddeffffaea5U, 0xffffc6d6ffffc968U, 0xffffc87fffffb1d4U,
  0xffffc80affffcd4aU, 0xffffad56ffffb1dcU, 0xffffc874ffffdba6U, 0xffffc611ffffdcf5U,
  0xffffbdbfffffc998U, 0xffffd09affffd9b6U, 0xffffd12cffffc8e1U, 0xffffc49affffb915U,
  0xffffb1b9ffffc15cU, 0xffffb05dffffcdbbU, 0xffffc8bcffffcb44U, 0xffffac59ffffd7acU,
  0xffffc986ffffd3edU, 0xffffd7f6ffffdba1U, 0xffffd443ffffc562U, 0xffffc153ffffca1aU,
  0xffffbbfeffffb98aU, 0xffffb0aeffffbc17U, 0xffffcc21ffffb7f0U, 0xffffb0afffffda7bU,
  0xffffd802ffffc31cU, 0xffffb434ffffb806U, 0xffffc866ffffae47U, 0xffffc723ffffc4a3U,
  0x107d9000700f5faU, 0xf7fe04f906e11701U, 0xe5f4f821080e02e2U, 0x19ff1818f9e7f6f0U,
  0x3f3eafbfffe07ebU, 0xf4f2f30bffcdee15U, 0x20faeffaf6eaefefU, 0xe9f7fce8ddf0ebf1U,
  0x10ebf5f9ed08f704U, 0xf10416ff0f08ff23U, 0x2004f2fed72302ffU, 0xc11100b1cf210ecU,
  0xebf41104fcf2f3f1U, 0xddfdfbddfef60802U, 0xeded00f10700f6deU, 0xdee05e2f511f2e3U,
  0x9e6f311dbeefb09U, 0x1d09e10e09f2eaffU, 0x5d9f0f005fa0fefU, 0x4d6f0e0fd11e70dU,
  0xdfedec1d0e0201f4U, 0xf5e5faffeaed14ecU, 0xf60b06e5eed508f0U, 0xf70505e4fb00dc0dU,
  0x601ebe1f3e7fee8U, 0x1ffe61cf10ae5feU, 0xd0f5f515deec01edU, 0xf0fd06dce2f2fd14U,
  0xf8fff2f3f9f30607U, 0xe4e1f7fcf30603e1U, 0xcde3e71702fef7f0U, 0xfbed15f6fee8fcf8U,
  0xd231e010b2ff6efU, 0xf0ddf4010215e211U, 0xe72eeef2f9130f1fU, 0x1407ed0df6ef19e4U,
  0xfb0603faf8f8e4efU, 0xf515ecf0f9e9f705U, 0xe31b0bfdfaf7f6e0U, 0xfe5ffdcf1dc0bf3U,
  0xfb04f1fe34fcfdfeU, 0xdfe402e6fe050f14U, 0xeee82a2bf1f1ea10U, 0x14ea0e0102df041bU,
  0xfcfafd17e900f0fcU, 0xfae6edeff8020016U, 0xeef50adbf31ff9e1U, 0xe3edd90407e910fdU,
  0xef02e922ef07f7eeU, 0xdcfa1112f1e00df4U, 0xef07f8faeb0ae514U, 0xe4e1e7ecfa0e08daU,
  0xfad4f70f020010f0U, 0xefe405fcff00fe08U, 0x16e416e8fc24f22bU, 0xec00f0dd0d18e1fdU,
  0x1424d0eaffedf913U, 0xf8ed1301fef9f71eU, 0xf41901f2f6faf305U, 0xe8e4fde1fd08ff15U,
  0x20bfd06f0fd040dU, 0x14e5f0fbe80ef8f0U, 0xfcdb0800eb05daf6U, 0xefe220ef00f07e6U,
  0x151af51508e1e701U, 0x11bb1ce2e004ef0dU, 0xf90efbf42009000cU, 0xfd02ebe50e1b33f9U,
  0xf521ac03ece60bfeU, 0xdbf7dff0fb22dcfeU, 0xde10f605c1f03e11U, 0xea1be33c072748dfU,
  0x1ae5cae4e6f1e61eU, 0xebebc705f408bd1dU, 0x18daf2ecff2fc4f7U, 0xff23f94b1808dfeeU,
  0xf52b03e804fd0b13U, 0xfded05c2f402fa22U, 0xe5fbded4f012f812U, 0xebe6fb170ddacfe6U,
  0x2a1b04f9f6eff607U, 0x203de4faf6171a02U, 0xfc0feaebec3b3d41U, 0x1bac0a09e00e031cU,
  0x2df6e2021a06e809U, 0xca00e5161bde310bU, 0x308021c0dc91212U, 0xf6ee11fff93408c4U,
  0xb161b340ed8ca17U, 0xce2df5fef627eb1dU, 0xf3f900ea0ef917f6U, 0x253eff05e0001514U,
  0x35d4f5fb0ae91401U, 0x15fdfa2aeef2e013U, 0x33f11f05fe15eaeeU, 0xfd2907f5e203f9e4U,
  0xd8ff0c12c9c3e828U, 0xd70830eb050408edU, 0xef19e9f520d80103U, 0xe5e1c8f1fa060dfcU,
  0x13f10fedeeb7e1feU, 0xdee2d7fb06fae0efU, 0xa06d11cb013e1faU, 0x29d8c4e5cbfaeb29U,
  0x4d21f918e3d0d7cdU, 0xbce505d3ebd5090bU, 0x32d64902fb1b01edU, 0xe5200e2ff819d3fbU,
  0xf1b519ceefeee2eeU, 0xeef0d22fd1b1cf7U, 0x2014faf881b165U, 0x1e0bffead82c03fbU,
  0x18f500291025aefeU, 0xdfe2eb20dbd1eb3bU, 0x1df1d9e7e9eb072aU, 0xf201042eb8e6e50eU,
  0x3cfcf41a16f9f7f6U, 0xff070827cbe41ee3U, 0xfb2bf206e613ecfcU, 0xee30feddecb712caU,
  0xebf1c7d8ecc81420U, 0x9d9242c1dedd7f6U, 0x111fac4eccd10f6U, 0xe626ea0d09f5f500U,
  0xdd16ece401e6001dU, 0x1efacefc1505f6e5U, 0xd501ee040695d6c1U, 0xead3ea1828edbef8U,
  0x251bff0ffc16f4deU, 0x8f426f000e0f8e2U, 0x1103eee9000b2a19U, 0x90eeb0afcfff405U,
  0xe7f6e508dbe6edd5U, 0x60210f1220517feU, 0xf909f4d9d1fb00f6U, 0xdd04f311000dfeeaU,
  0xe9e1fee5141edf12U, 0xf0ede4f8ecee0003U, 0x304ede9e5faef08U, 0xeef9f4f00906dee8U,
  0x503f41affeef7e5U, 0x1ff6fcf0e4fff406U, 0xe8180c1fdff0da08U, 0xe70afa10e002edfbU,
  0xf0f7fd02f307eb0fU, 0xf8f9f210f2f5f4feU, 0x16f8020ae90d0ce8U, 0xcf0707070010f70cU,
  0x1df0f2e40afeeb17U, 0xede3fdf001fbd8ecU, 0xe4ecf703e90cf20cU, 0x3f7f5f10800d2f7U,
  0xe7e3e5e4010209f0U, 0xfaf6fe1cec09f30aU, 0xdbee06fffef6f905U, 0xe5fafad9ece9dee6U,
  0x12eee1f8f31c1febU, 0xe5def4fcede4eaf9U, 0x6fdfefff5ef00f6U, 0xe701e7f90feaee1eU,
  0xf516d306e2e9d909U, 0xfb041de6e9d72de7U, 0xdee0bd8e50ef5f5U, 0xd8ecfdf90f150cddU,
  0xf825fb1100e323eeU, 0xfa2218e100f2fb0eU, 0x13fadc15d5fee0fcU, 0xd60a06e0e62010f4U,
  0x5e303deee03e7U, 0xcf31dddeef6e5e4U, 0x19e1fa0a06e6e812U, 0x171aecfbf7ff12e9U,
  0x7f8fa14edf929e6U, 0xdee5eafd1301f50fU, 0xe107071bfdebf6fdU, 0xfafb0612e5f220f6U,
  0xf8e8fce1f9ffef01U, 0xeafc00f60512071bU, 0xf11df6fde707f6fcU, 0xe1e5ee07d3effc01U,
  0xe41f2ae4ef17e3ffU, 0xe8dbecfaf4e2f5fcU, 0xf1f70c08e41cfd00U, 0xe8f407f1e415dae9U,
  0xfb09311601fdf0e5U, 0x16f70609000aec0dU, 0xe6ecdde00618f401U, 0xf11808fe05ea00f5U,
  0xebefd5ed0eeff5e0U, 0xfd1ee80af7d7f0e6U, 0xf81afcf614e9e6f6U, 0xf6e3ebf802f00314U,
  0xfaffff01ff03fe03U, 0xfdfdfc010201fcU, 0x2fcfd02fffe01fcU, 0xfefdff00f902fdffU,
  0xfdfdfc000000fd01U, 0xfdfffcfe0200fbU, 0xf7000204fffcfeffU, 0xfefd0100fc0002U,
  0x5020303fa02fc01U, 0xfb00fd0000ff02U, 0xfdff0000fc0000feU, 0xfefd0001feff0100U,
  0xff00fb05fb00fdU, 0x4ff00fd04fb01fbU, 0xff00fbfb02fa0401U, 0xfffffefc01ff00fdU,
  0x4fb02fffbfffefbU, 0x1ff01fcff03fefdU, 0xfafefbfefe01fdU, 0xfc05fc0202fffcU,
  0x3fcff00fa00fe02U, 0xfefcfffd02feff00U, 0xfdfdffff01fbU, 0xfbfefc02fffa00fbU,
  0xfbfbfdfe01fcfe01U, 0xfe00fc00fd00fafeU, 0xff02fb02f90000fdU, 0x103fffdfb000303U,
  0x3fff903fd0001ffU, 0xfa03fcfdfc01fefcU, 0x4fefaff02fefefcU, 0x2fd00000004fdfdU,
  0xfffc02fc00fffffdU, 0xfffafefdfefaffU, 0xfcfdff02fdff0401U, 0x3fafa00fbffff02U,
  0x1fcff040102fafdU, 0xfafa02fdfa00fefaU, 0x3fe02fffefcfefdU, 0x2fef9fbfefbff00U,
  0xfdfd00fdfd02fd05U, 0xff01fe000000fdfeU, 0xfe02fffffcfdfefbU, 0x2fffdfcfbfffb04U,
  0xfe03fefd02U, 0x4fc00fc0502fffcU, 0xfffffc05fbfdfbU, 0x1fc04fffc00fa02U,
  0xfcfefdfe030003feU, 0x300fd05fefffffaU, 0xfdff00fafe01f9fcU, 0xfdfa0101020101U,
  0xfafd01fcfafdfcfdU, 0xfa03fafe01fc00feU, 0xf902fefafffc03fbU, 0x30004fdfffdf9f8U,
  0xfa02fdfcfafb01U, 0x10201fffdfefbU, 0x1fefe00fe040402U, 0xfffefbfb020500fdU,
  0x3ff01fe0100fbU, 0x2ff01fe02fef8feU, 0x4fdff04ff02fcfdU, 0xfffafcfffafbfffbU,
  0x19052305120113f1U, 0xda0b00dde411fcf4U, 0x1015e9fcfd28e2f7U, 0xf9fbdf08f3f404f2U,
  0xe213e7e1fef0f1e7U, 0xf6ddeaebd5eef2f5U, 0xe6e4fdf3ebe724f4U, 0xe7fff600f205ecffU,
  0xfef620f9190f21cdU, 0x1fbf210f610f109U, 0xf1412e82110e5eeU, 0x418f1f4f8e6f50aU,
  0xfdedfce9030af700U, 0xfa03ffebec131422U, 0xd9f8fef10c10fafaU, 0xe4f3fed5e00431ffU,
  0xe316171006f02408U, 0xedee18040705fd2bU, 0xec16feeff8f5eef8U, 0xfafff61603ea0e0cU,
  0x2ef1300fd8fd27faU, 0xedf9ed07e30d10f1U, 0x29ebf7e40308f0ecU, 0xdff1e3e8040eeffcU,
  0xe4fefa20fa09ee0cU, 0x3050404fb0306ebU, 0x9f5fcf1ce0bf130U, 0xe0e6f416f9f518e6U,
  0xa11ef0307f8d1f3U, 0xf8f2090e0b0701f0U, 0x1dcfcd4e5f8041bU, 0x131d16e40bf9dedcU,
  0xd6e7031ae5f9fdf0U, 0xffe6f90c01cee5ecU, 0xf8fdf2f31912f200U, 0xeafc1ef0f10d0af6U,
  0x1017f9f800ef06f6U, 0xf2e4f6e1f8e0e0feU, 0x111429d4d9e00208U, 0xf7d40fdffef5ede6U,
  0x3e90cd5fdecf0feU, 0xf2fc0312e70d0c0bU, 0xfec1f4e4ffe713ecU, 0x1e615f50efc09f4U,
  0xfe15f702fe13081eU, 0xfdf9f1f715050de8U, 0xf6e00c160b0ae2daU, 0xfa0feadcfdd9f6f3U,
  0xf9fcef040f040e0fU, 0xfcfb1d09081302efU, 0x506f40c12ec0a11U, 0xef1616f7e9f2dc12U,
  0xe4fddf2ae904e2f7U, 0x1a00e3da07fbedefU, 0x203ede1310af5edU, 0xf209f708e8ef0cf7U,
  0xf21509de0106fffdU, 0xede7ec070cdd11feU, 0xe7e6fada2be61717U, 0xeb1c04eef70a07f5U,
  0xddd2ee18fbfcdfe4U, 0xf4f70af3010af728U, 0x141df9fd12ff190bU, 0xfafadaf5dde8d4fcU,
  0xf606f8ea0acbf3eeU, 0x12e8e320e6ef0820U, 0xfb09dd0715e5060aU, 0x8ea2a2a1b00ded2U,
  0xfe09d9f2f90bfd05U, 0x2b27cedbea16f2efU, 0xfee616e5e0fef832U, 0xcbf10a18f2ccfff4U,
  0xd21016e4ede6010bU, 0xede215f9c30ff9ddU, 0xdd042310130af005U, 0x2111050f06e6da08U,
  0xf6fffae8ee19c9ffU, 0xf1d1ebd3251f16eaU, 0xf30c27feffbdf408U, 0x141bea00101cfd15U,
  0xe1dff3f6f73ad7faU, 0xede8f61313e2d60eU, 0xfb011306fafaece3U, 0xf9082308c7eef9f5U,
  0xdd1f0cfed0f405ebU, 0xf2ff1119061ad0dfU, 0x17e506f7fc22c3e0U, 0xec24e9e7d70b0526U,
  0xf3100ed407edf008U, 0x4ea171d060eeb01U, 0xca0ecc11dcf61411U, 0x1500ff0b3de3c5e2U,
  0x2017f9fd03d821f9U, 0xf3f5e60d09f5f9f4U, 0xea01e4e6fff70414U, 0xec21dfd0e3c8e4e9U,
  0xdf11dad9e51ef005U, 0xfb05fde6f4f0d8ddU, 0xe8f70afedee5d6cdU, 0xdc22070c2cf6060aU,
  0xfffe110607f4ecf7U, 0x24e319f8f90507f3U, 0xfc0321dc230bfff6U, 0xdf7ffda0e0f180fU,
  0xf70e0e1702e41501U, 0xf208ccf106ddf127U, 0xefdbe8abdf0118caU, 0xe919e8f90b0eddddU,
  0x19f0ec0b071d0922U, 0xfb1e1cf708fd06dbU, 0xe5efe8e70fe8d4f6U, 0xeed5e2f81a031700U,
  0xf0d5dbeafe03f31eU, 0xf5f7090cf4faf6caU, 0xe6ea340c2adefdd0U, 0x10e1f80225d704ddU,
  0x31f8fef920e413ecU, 0xbfceed6111fe3fcU, 0x15eed109ee1aec0cU, 0xca1313f90af7e2c8U,
  0xf07f8f6d6eaf1d9U, 0x6e013f9d00feb02U, 0xad3c3f4d4e6eb06U, 0xd3fa1717dbf7d1e7U,
  0xeee1f707c00cf116U, 0x30100d90af5ef08U, 0xfc1203df1438e3f1U, 0x24f801b92fe3082dU,
  0xdfe0302fb03ccecU, 0xfa0500e003dbe2e3U, 0x1fd1910f7fd13fbU, 0xdc15e0fb0c03f712U,
  0x7ef15e011f916f5U, 0xf502f6ea02f7fcecU, 0xedf1000feff4d9e3U, 0xb0607c9fdea1312U,
  0xf9fae91b1514e0f2U, 0xe714f9fef3d7e4eaU, 0x19f8ecf2010202f1U, 0xfdfb0608e5fde9cdU,
  0xdcf8daf8fe10f80fU, 0x21e708e1eaf41c1bU, 0xe6fbd9f0edddf005U, 0xf007e7ff3002edf5U,
  0xfdfef306ddf41012U, 0x26d9d0fe2618fd0bU, 0xebfaedeb09f5021cU, 0xfcf803fdfd2c0101U,
  0x18f4fd080f10e8f0U, 0xe3e5f5e9e9e3d4edU, 0x1a0b13f1e812f504U, 0xe2dbe503ffe1ebe5U,
  0xe2e3dc0bf52be2f6U, 0xfbe4e6d2ecfefdf8U, 0xf81ee7f8dbdafae4U, 0xf00717eb0007f8f2U,
  0xfa0204f9dfeb19e0U, 0x70eed15e6ffeee8U, 0x1bdfff0400e60707U, 0xe303fcf7deefdefcU,
  0xfce503fd1d1aeff3U, 0xf5f0fdfe060513f6U, 0xafbeff0f1e80040U, 0xf300f00507ff06fbU,
  0xef1a02010aecf6f3U, 0xea06cce9e708f0e2U, 0xe6fbd3330afff0f9U, 0xcbd0f7dd0be2f304U,
  0x1911ef130fede813U, 0xe7f115d5fc06fee2U, 0xfbfcfb2c00def235U, 0xe32defe51f21dafeU,
  0xf628edd814dafee2U, 0xd2c4f9f0dbdb0c03U, 0xe6ef0f1a18f20c1fU, 0x9d0f91b0ff206c6U,
  0xf7dfe5e0da0503f8U, 0xcf01e2ecf90ce7e6U, 0xe3f3f2d8fd0f0fecU, 0xe6e8f6dce4f319f1U,
  0xf8181c00dbd824ecU, 0x2cf0516dafbf0e0U, 0xcee9ec12f9ecfdf8U, 0xf125f1fee9f80ce3U,
  0x4e2dff110ee2c16U, 0xfaddf71822ecf3f0U, 0xf808f1f0f1faf5f5U, 0xe800f2161f1817ffU,
  0xf5e80de6f5f1f8fdU, 0x5080befe801f8faU, 0x9ce0a19eddf1608U, 0x8f71313040df11aU,
  0x3d10322ef1adfeeU, 0xfb2ce01e1dd8e926U, 0xf9d5e2030c10f435U, 0x38d3f2fe04f4fef1U,
  0xf31cee1fcef2e1ddU, 0x27110feae70906f2U, 0xf8eafad72af9eff6U, 0xf016e21bf8fdf50dU,
  0x2d040af8be05e5f6U, 0x1b162119130d46caU, 0xfd08c10aea1b06e3U, 0xefff6f7e6f502e9U,
  0xecd41b0d18f10cf8U, 0xe8e00fe2c4c9c5fcU, 0x90f0e12eef0ecf1U, 0xfef8e5d7222c05d9U,
  0xf6e50dfaeffa2ce2U, 0xad6e4e6d2fb0c0bU, 0x9c9ccda2adef905U, 0x11d13150dc9bfe6U,
  0x117eee0c8052a22U, 0xff46d0f4e7dd0419U, 0x22fcf3fc1410030aU, 0x10d50a1ef0dafed6U,
  0xec13eb09db0eec14U, 0xfde51eecede41003U, 0xe60616c4e8c727ebU, 0x1fdcf9e5f7fe17eaU,
  0xfeffccd5290bcf0dU, 0xdef510e50ddd3be2U, 0x10db112b13e81903U, 0xf0f7d0d92ed6b21fU,
  0x14ec1aeded1cfed2U, 0xe40bd628fa26cf14U, 0xe2e9e14b26e909d5U, 0xf0f01d15f92b1140U,
  0x126cbfbe412f513U, 0x1015c8232b1723ecU, 0x13ecc5240311c6fcU, 0xdbfaf92b13efdaccU,
  0xfedd1e0dffcfb0aU, 0xf0f81907ba011512U, 0xde05c02005eb0000U, 0x1604e60400f3ecdcU,
  0xf70bdd03fa12ee12U, 0xfa18f2e5e30b2503U, 0xae90f2a18150c10U, 0x270d0bd0dbfec430U,
  0xd719cfdc25f011b8U, 0x1719d304e0f2171cU, 0x3ff11f6e0e0df13U, 0x30ebdd423effbeeU,
  0x22daee2f19f122b3U, 0x1133f7fed741ece3U, 0xf143000a0eeefd1fU, 0x27f705bef22a1028U,
  0xeef4ede31227d1c1U, 0xfd1ab8bee706ea2cU, 0x81fe7cf0a05f0f3U, 0xffd9180d1303e9f4U,
  0xfb9d50d30f6dfe4U, 0xf4d81ce4e9cdd923U, 0xebcfea1fedfc0c19U, 0xdd1fdf6d30f000eU,
  0x1fe0100000200fdU, 0xfbfe01fd020100fbU, 0xff010001fafe0402U, 0xfafcfdff00fb01feU,
  0x40103fefffdff04U, 0xfa02fb03fb00fefcU, 0xf9fc00faff02fffcU, 0x1fd01fb01ff04fdU,
  0xfe04ff0102ff0100U, 0x2fbf9fcfdfafe03U, 0x1fdfb0500010100U, 0x1fcfefefffffc01U,
  0xfefefc04fd0103U, 0x40204fdfdfffe03U, 0xfc020104010001ffU, 0xfd000101fbff0103U,
  0x1fbfefefffefefdU, 0xfbfcfffcfc02fcfeU, 0xfffdfffdfb0001fdU, 0xf9020300fefdffffU,
  0xfb00fd00ffff04ffU, 0xfdfdfefdfdfcfcfdU, 0xfa01fe00fafdf9ffU, 0xfe01fd00fe0201fbU,
  0xfd02fd01ff00fe00U, 0x10301fe0305fb02U, 0x1feffffff02fbffU, 0xfbffff01ff0003U,
  0xfaff01fd01fa03fdU, 0x201fbfdff030301U, 0xfd01fc04fdfd02U, 0x4f903fffffc02ffU,
  0x3fc0001fc0103fdU, 0xfffc0003fc00fd02U, 0x501fd01ff030202U, 0xfa00fcfffffafe00U,
  0x104fa01fefcfffdU, 0xfffd05fc04fe0002U, 0xfafefd01fc01fe01U, 0xfdfffefffd0203U,
  0xfffdfefe0401fd01U, 0x2fbff010002fdfdU, 0xff03fc00fffdfd03U, 0xff02fffb00fbfcfaU,
  0xfefffc00fdfb0200U, 0x2fdfeff0200fffeU, 0x1ff0002fc03ffffU, 0x10502fe00fcfc03U,
  0xfefe0100fefe03fbU, 0x2030105fb00feU, 0x2fafffefcfdfe01U, 0x201fdfffe03fefcU,
  0xfefcfafbfc0300ffU, 0xfefff9fd00fefd00U, 0xfffc02fafefb01U, 0xfcfc04fefc0302fcU,
  0xfcfcfefdff0102ffU, 0xfefefefbfbfdff02U, 0x200010100fd01ffU, 0x1fafd000000fe04U,
  0xfff9fefcfcfefcffU, 0xfa02fe0102fc0404U, 0x103030100fd0002U, 0xfbfd00ff00fe0003U,
  0x1fe42026f5221eebU, 0xf1110ed8f9f7c7ffU, 0x39ec0aeddde61b10U, 0xde17f4d52fd0e5eeU,
  0x21e2e7f207220ee9U, 0xba904ceff1e1b02U, 0x3cb7f5f7ff070201U, 0xc0f0e4e5e81004e5U,
  0xd6eb180e0ff617d2U, 0xf6fa26180efd080eU, 0xf824cc15f512f9efU, 0xddecf4f40004fe3cU,
  0x31f90810f216d2d0U, 0xe1e6191e2cf602e0U, 0xddf7080212bdc1c8U, 0xf6ecd0fb0511e70bU,
  0xeaef000cf9e42a2dU, 0xe1fe80004fcfeU, 0x3fa01320df701ebU, 0xd4ea1dfdf11a1a17U,
  0xf9f3d20c00f0f5f9U, 0xf40f1b0427f72f0fU, 0x2d9cd15080dec26U, 0xf5cae500e6084200U,
  0xfe1802022805030bU, 0x4e0ae6fb0acc2f03U, 0x18f010f6d50ffa1aU, 0xf91211c53427f7f4U,
  0xede807d91714efdcU, 0xfed814270bdc0414U, 0xd310edf431060ef6U, 0xd0c18e6051df7feU,
  0x393a44f930ddcf19U, 0x120effeee9f3bcfbU, 0x2df30ae9f0df14f7U, 0xecfd050ae827fddfU,
  0xc0208e519bc26f7U, 0x15f4f4d60ff00e08U, 0xecf41adbeaebeae6U, 0xf71203d7edcff4efU,
  0xfc00d1ebfee6d3f6U, 0xf30bc431f50414ddU, 0xeafb04f9d7dd0312U, 0xe8b6f1d3d7e30112U,
  0xe4f706ef0ce9fd16U, 0xd615c41d0ff8fde8U, 0xfe3def4d00cedefU, 0xfb0206f903131f1eU,
  0xc5d707f4f8130df6U, 0xd9071030f40e111aU, 0xd54f0f180922c4ffU, 0x50c13dd07cf25e3U,
  0xfed1ed21d9fc2826U, 0xefd113e7290d21e2U, 0x1f2be0ef1c0710f9U, 0x11e6ce0f0df62803U,
  0x15c3e6cc100cf9d8U, 0xd8f9f2e321dee6e3U, 0x8ed0a06014bf136U, 0x17e626efe2e1e300U,
  0x3ffa0ce8ec032ad1U, 0xfa16ee88f308faeaU, 0xf0fc05330c0b000dU, 0x1a11def419caef12U,
  0xbef8f0e3e30dffeaU, 0xe312f8eef3f4db0fU, 0xe325010dd1d900e1U, 0x17cffef3bfd8e1c7U,
  0xf631c0dc2a070ef3U, 0x18112aeaed001b2eU, 0x1ae14503d8ef04f8U, 0x1eec112e13d5e2f7U,
  0x6f21af6f4f3ebcaU, 0xfcf017eb1fe3e614U, 0xfafa1cb7ece7c4e7U, 0xe80fd20afdfb0705U,
  0xf13ce1410de42aebU, 0x12fcd3f7c5dadf22U, 0x11decfc0e100c03U, 0x3e309c803050bf7U,
  0xf5030d27c90ff9f2U, 0xd6cd07fd1017d818U, 0xdda794300cdad40dU, 0xe51811d41514dce1U,
  0x140b26f7e2f1e1e5U, 0xce01e6de13bcf3f0U, 0x4ea0dba1cdccda7U, 0xde00140e1b0120deU,
  0xf6ffeff8f92f0ddcU, 0x3fa140cf9570d11U, 0xf7140aec0a28e3d5U, 0x1be40de8def3cd07U,
  0xf013d5131f232815U, 0xedef20ccce6d408U, 0xe4f6240ae802e8f9U, 0xf0de13f22dfdf1efU,
  0x24d7f9141c0a4219U, 0x729f522050218d6U, 0xd00303fbe3f91416U, 0xd900da18280ed30fU,
  0x1e0334ef14cbd90fU, 0xf20d17f60a0f0408U, 0x813b418d8e425f3U, 0xf234e7bc2af50df8U,
  0x6f0e5150bf400e7U, 0xe0fcf9f6e4050820U, 0xfe2902ec1dd1cd1bU, 0x1a122344eafdfae5U,
  0x4c0ae621f4ea15f4U, 0xe6f7f0fdf32406fdU, 0x17f3fa07f9ecf6f5U, 0x17c2032009fe1021U,
  0x9f6edd304e2fcfcU, 0xfc39ecf919e00b19U, 0xee061231eff2fbf1U, 0xf6fce70becee1121U,
  0xeed40020ffd6e6d2U, 0xde380adaeb000b30U, 0xf61a0603dcf9052cU, 0xe0e30628f90ff0c2U,
  0xe31625eaf24f0db9U, 0xdf0cffb0a0414f1U, 0x2cf12dd1f647e0edU, 0xdd304dd13ff1c03U,
  0xd716f6aef7091ff8U, 0x21d521ddd0d4d3f7U, 0x5dfe9fff6fefac8U, 0xfdfcffde2cc0e404U,
  0x1f1c06ced0fcfc2bU, 0x13cf18edca1b05f6U, 0xe115092812089c05U, 0x3d8ed18e0d608dbU,
  0x6e2c23305210022U, 0x1ef0f4d70815ccfaU, 0xf2dac8fbe5ce1213U, 0xf0811e8fb10f504U,
  0x2820fdfc0be815e4U, 0x24141ac5f5fcc410U, 0xe5180219061c040bU, 0x13fee9ef0405f409U,
  0xff06f811d0e5ebe9U, 0xeae421e20a14f307U, 0xe91e00f0e1fce32fU, 0xf1f32802fdb4ffe2U,
  0x11fa282f13e7f822U, 0x142f0607fdcefd3cU, 0xef0cf4fe1dfcf6f3U, 0xedc2100ecddfbf1U,
  0xbf16f71213081129U, 0xe00d30b28f9defdU, 0xe1a2ef1d0dfdf5fbU, 0x1cf8fae2f732df05U,
  0xe210f1ec1ddde91eU, 0x1f20ed0509e9150aU, 0x5bdc61c06dbcdf0U, 0xcb11e3c6e8f3c705U,
  0x1efbe8e7f609be14U, 0x1ff5fb04c0f3e806U, 0xf3d40d0ce0f03cf6U, 0xfbb7c7f2f7f709d4U,
  0xfbe7ee0edf16d8e1U, 0xfeb2ef0ae2f014fdU, 0xe9f6faf43412ec12U, 0x20a3ce1081a11feU,
  0xbd5ebdddf1de6ffU, 0xf3bee6d3fceceafbU, 0xe8f5f029cff6d4c9U, 0x25e8cdf512e0f2b7U,
  0x1ac6e2f9e21a1a18U, 0xc8cbecf30ce2031aU, 0xe5eb24e4e3de080cU, 0x3cd8ff17e215d508U,
  0xec09e402ee031a0dU, 0xc50af4fffeda03c8U, 0x5081bc007e7dcfcU, 0x2e417240f03d8e7U,
  0xe2cdde1bc9fcd0faU, 0x29c9e81f24154231U, 0xfb17e6eae51300d3U, 0x22133f00120126b0U,
  0xf407cbc4f51e1df2U, 0x1de27e3e71f1812U, 0xef30e35ed1ee80dU, 0xd9000dde19d80be9U,
  0x318121bda9323faU, 0xe7faf1d5dbd3fa0cU, 0xe1bcb426f7ea34edU, 0x9b4cf22cc12e1faU,
  0xd9d9061602321614U, 0xd9f4f8f83018f408U, 0xe0dc01ebe9fffd25U, 0x3f7191025f01c2dU,
  0xfa02fb07fb0e0603U, 0xf7fcfcf804fc04feU, 0xf800fb03fd01f8fbU, 0xff0103f903f70afdU,
  0x2fefcf602fd01faU, 0xfdf908fdfdf8f8fbU, 0xf918fc03fdf90003U, 0xfef7fdfc030005ffU,
  0xfb04fbfcfdfafdU, 0xfdfbfa06fefbf805U, 0xa000400040102fcU, 0xfafa0bfc01f301f7U,
  0xf8fff9fbfd0102f6U, 0xfbf8f905fbf8f7f8U, 0xfcfefbf4f902f902U, 0x60403fc01fdfffdU,
  0xfa01faf80401fef7U, 0x7fdf6f5fdfff9U, 0xfffcfd0300f8f3f5U, 0xfdfb0204000005fdU,
  0xf5fbfc03fffdf9f9U, 0xfcfbfdfcf905faffU, 0xf8fb0103f704f5fbU, 0xf2fffcf603f5faffU,
  0xfefd02fe02f4feU, 0xf7ff02fb03fa03fdU, 0xfe01f600fdfcfdfcU, 0xf9f6f90bf9fa04U,
  0xf3fc0009fcf703U, 0xff00f4f7fc07faf9U, 0xf7030401fd0ffffeU, 0xfb00fefe000802ffU,
  0xfffff8fc02fbfff5U, 0x7f60002f10801fdU, 0xf7fffcfc00040005U, 0xf9f9f5fcfffbf900U,
  0x801f800f6f7fdfcU, 0xfc01fbfcfb01fd07U, 0xfcf9fcfc0305f9U, 0xfc06fef3fff806fdU,
  0xfef7f705fcfefbU, 0xfffe0bfdf702fc01U, 0xfdf8fa01f7fcfb09U, 0xfefb02f90600fffbU,
  0x300f9fb05fe00fbU, 0xfbfcff03fffafe01U, 0xfff8fb02fc03f606U, 0xfb01fcfdff000602U,
  0xf9f20201f1fcf9faU, 0xf9ff02fef4f802faU, 0xf6f2fefcfaff0705U, 0xfcfef803fbfdfff7U,
  0xf9ef0101fa02f803U, 0xfdff01fcfffff9fcU, 0xfdfefef902fef608U, 0xfffb0101fa00fafaU,
  0x1fc080106fdfb00U, 0xf9fb01faf8f0f603U, 0xf7f9fd00fcf9f7f7U, 0x6fcfe03fc05f4fcU,
  0x1fefe0101ffU, 0xf7fafafafa01fef9U, 0xf8faf8040401f6fcU, 0x6fdf500fe0804fbU,
  0x40f3e70c1ef11732U, 0xb2e5f509e704eaU, 0xcf6f6ebef0ceae6U, 0xfa3709f0fe0f0afaU,
  0x2f6e9f2da08e906U, 0xe3e21601d50401daU, 0xee9dbd6f00dee0eU, 0xf1d0f621e41300e6U,
  0xf6fd201421dff918U, 0xe2f6f303ec06fbf3U, 0xfd090ae2f4e31500U, 0x2621e4e4f9ff19efU,
  0xe109f003dcf2fad3U, 0xeb1607f7f415faefU, 0x2d4d6c80df6f5e6U, 0xfbf3f7fd04f901f0U,
  0xeef202e90c072305U, 0xe8f6e3fc0bf3f7f5U, 0xd00a130609fbe7fcU, 0xd9f90dfb0c020c14U,
  0xec05251205ef32efU, 0x1af9f9e60afa1323U, 0xf604eec3e322ed1cU, 0xe909f306f3e5ff08U,
  0xf9fddbeefedff61cU, 0xf50c0bf2fd07e8U, 0x708e9ebfae50403U, 0xfef8dc0409f6e9ecU,
  0xc8f6fe07f6faff0dU, 0xea0b10f91ef8f2deU, 0x1addfdec29fd04eeU, 0xe2c05ed01dae1d1U,
  0xd010eee901eaf211U, 0xffd71708f7f4120cU, 0xf20afe0dd61310f6U, 0xfe14ded139df0908U,
  0xf7fcfaedf1f3d9f0U, 0xdcf0cd07ddddcbU, 0xf909f10714fe09ecU, 0xedfedf050ae2edfaU,
  0xfeeee70315fbf10dU, 0x7decc0628d80bffU, 0xdf1dfce1ea0c02f4U, 0xde12e8cf09e4e6e5U,
  0xf305e6eee91007faU, 0xadbeff20917fdedU, 0x140dea0ee712f4ecU, 0x31a05fc0cf40d1cU,
  0x10fc130ff6fd13feU, 0x17f209f6dd0b0ff6U, 0xfbe52f020ee6f7f2U, 0xf2d1f7fd0505e109U,
  0xe5dff71fdbf8fb10U, 0xb06cd0407d30cf7U, 0xea1f0ce10ad9fd04U, 0xe2fbf008f20418f5U,
  0xef2bf5f0e72e04deU, 0xd1bf4e8f805f8ddU, 0x5ebf70a19f2070eU, 0xffdf0ae6fc0ce011U,
  0xe9fde5f8160cf5f1U, 0x6e6ebe30df70d09U, 0xebf0200b330106edU, 0x60a19f312fff610U,
  0xf7f3f12214ee1018U, 0xeb02f803feedd1e5U, 0xdde932032ffbcc07U, 0xf9e5d013ecebfcf7U,
  0xf0ea0029fa03de1aU, 0x3e1f6fbf2fd170fU, 0xfef9f1ffcaf81a03U, 0xf5ece9f10c0206eaU,
  0xf703f706e8fcf2d7U, 0xf7e40f06da261100U, 0x1ad420eaf9eed806U, 0xf1fdee10fee50805U,
  0x1b18fafbddeef100U, 0xe2fbe7f513efffcaU, 0xe0101ff4fae5faffU, 0x1e1f508fce612f4U,
  0x29e9d9e1f914eae7U, 0x4fdfdf3f003e413U, 0x280af00b0adafcf3U, 0x1b19eae107f100f4U,
  0x19ed1a24e2efef09U, 0xfff11d083004ffecU, 0x105f4fbf20e08e9U, 0xd5e0f5dec60c0210U,
  0xeced092cd71ffdf7U, 0xfa08f50b1fefe5dfU, 0xa090af0e3fff7f8U, 0xf70b17fb05e9ec06U,
  0x28f9dff8e0f0db02U, 0xe1e9ffe6e0da1fefU, 0xe1f4e4d7e7f002dbU, 0xc06e31ff7f0dff7U,
  0xaf710ff000de7e4U, 0x19e6ff16f6180d0fU, 0xfcf0f11012f70cf9U, 0xef1a13f52d0701e7U,
  0x29e2f4e9e20ff7cfU, 0xfc1bf2dbedef2cd9U, 0xf8e4d30315e0d2e1U, 0xff0e11100a04dc13U,
  0x9f1e5e9fbecdf02U, 0x1cf1fb37090204f3U, 0x9e9ffbc0dedf4eaU, 0xb06fdea04edf1efU,
  0xb02f2f7f2edc90cU, 0x13d9ef2f000bef09U, 0xefdbf4e1ff120ff2U, 0xb0bfbdaede9f3e7U,
  0x1108032310032d0dU, 0xeac606c8f5e429c9U, 0xc001ded21fee72aU, 0x12f5eb0ae2f4e20eU,
  0x15de0001e500b40bU, 0xc908f611fcf7ebd8U, 0x26ec02f009132621U, 0xfccc01d4d6e1f7ffU,
  0x9e5e5fff9e9e50fU, 0xb05eb15f70de00fU, 0xe518fbf506e4d122U, 0xf409f5080d19f5fdU,
  0xdde11e7f41cf4ebU, 0xfceeff02eef0f7fcU, 0xe8eee90cfae0e4e8U, 0x4e92015e6d1e2f8U,
  0xf116f40806e7072bU, 0xbfcf7fd0fd2f5ffU, 0xe906eae4f1f0e7edU, 0xc060d17fcd9e6efU,
  0x322f4f9eadbd7f5U, 0xdae1e1fedd06f3efU, 0xffeeb0011fb02f4U, 0x2e2f925ecf718f9U,
  0xfa00ec0a15df07ffU, 0xfae4f30f05fa0eecU, 0x1ffaefff10e5d6ffU, 0x1e8f803fc2305f3U,
  0xe6eb130ad6eef9ddU, 0xf903f8d5071af2d3U, 0xe5ee03f4fce807f0U, 0xe7f3e5f9d7fc050dU,
  0xf917180efceef9f2U, 0xfe22eef6d4f80ce5U, 0x14ff1ff2efeefd07U, 0x10f1f6e8f9100e2aU,
  0xe00cf0df0b0526e5U, 0xf21bdd1af5ea1c24U, 0xe6110c0dfbdf0de4U, 0xeffd0d00e7f6e2f1U,
  0xafeb1a04ec0ee9cdU, 0xf2f8faef0cf4dcfbU, 0xe6df05e8de12f9e5U, 0xd7d6dae618ea0104U,
  0x140fe3e909e5e525U, 0xff61adff6130ff8U, 0xfaf0f40cf71502f2U, 0xca071ae3d1fd0af9U,
  0xe041ecec012001d9U, 0xe0ec15f9da241505U, 0xd902e201f90128f3U, 0xf3e907fcf410dcf0U,
  0xffc9efd90606f6f6U, 0x10e404fd0be9eb12U, 0x3f5eef8dc0eeef3U, 0xcebfdfbe9fdf8eaU,
  0x27f4fdd9f4f5c4d3U, 0xee04daedf113f906U, 0xdcfb220ff2f8cfe9U, 0xe30031f3effc0616U,
  0xfc12ff1ae0ea17d1U, 0x1416effef901f2b9U, 0xf807c70100f40309U, 0xd7f00711f203e303U,
  0x1f9f40104f6fafaU, 0x61401e50a1ee6f9U, 0x413e3fc0723ee18U, 0xcf2eccff0040a05U,
  0xff0beeea03e417f0U, 0xfeeee0f5f413f2fbU, 0xe9e0f416c9f20202U, 0x903e2e7e4f9ec03U,
  0xd2eeebeb08f7f5c9U, 0xf0f901ea02fc0becU, 0xfe1bfbd313f116dfU, 0xfcf3ddf1fbe2e8fdU,
  0xe72ce9f3f31c04f2U, 0x5ef07eae61aefdaU, 0xf4d2dd03060f0725U, 0x1b060df0d509fb16U,
  0x3e7f118f9ed0d0bU, 0xe9021feaf9e814d1U, 0xcde3e113f20d1e10U, 0x2ff3ee0ff514f607U,
  0xf303e0e21417fbe4U, 0x10b13e3f602eb06U, 0x28ebf2ebeeec2a0fU, 0xdbe6ef12e4ef200fU,
  0xec01f2f009f0dddfU, 0x9fbc904e8f51dffU, 0xee0be8e90211f0f9U, 0x9fdc7dc1119e7eeU,
  0x2e504fcfcfa01f3U, 0x7ded7063aff0f09U, 0xeee28031cf522eaU, 0xeff3f50800fce6d4U,
  0xed0be305180c08ebU, 0xf010f4f5f3222810U, 0xf316f0eafedaf1f1U, 0x101f07faf80c1301U,
  0xfcf8f2efe8e000e3U, 0x4e2ec27e2d5f9ffU, 0xfcec1e002ae8fef8U, 0xe00e03fbe1f506dfU,
  0xf3f8f23bf2f4e5ebU, 0x8f2f60a0518ede3U, 0xc0125112014f7c8U, 0xe7f6ec0e04f7f7fcU,
  0xfeedd3f60f14c6d6U, 0x102142304f71716U, 0xbf70bd11b100bf0U, 0x7fe12e0fbf1fae3U,
  0x4d316d10f15d512U, 0x511e93600f00211U, 0xf61dedfd10010407U, 0xe16eadaf5fc06f7U,
  0x1a0d27f104dcfbe7U, 0x2506dadd2b251af8U, 0xf7f2ebf0c8f90bfbU, 0x1bd7e1dee6f910f8U,
  0xe816edeafce9f5e5U, 0x4f1dd13f6f3f2feU, 0xeb030b0116f7f6e9U, 0x1ed810fbf4e010f3U,
  0xe01dd608fc0b0efdU, 0xe40915fcdf28fe13U, 0xe7f50911ecd9f8f3U, 0xf0f7fef2020814ffU,
  0xe6fce9cee703da12U, 0xf7f00bf9f1e8eee9U, 0x1009f9e4d504ebcbU, 0xf3edeb020cf603f0U,
  0xedeae7fe02eef302U, 0x808e7fcf615e1feU, 0xedf303f2e414e0e1U, 0xf11706ca00fbf401U,
  0xfbff01fad8220101U, 0x22f4ddebe7241eeeU, 0xfb04f7e303e605e0U, 0x111efff20f90246U,
  0xe3e3ebf60e201e02U, 0xe20f21fbf2f40607U, 0xecfcf1e8f718e5f3U, 0x110dfbe107f8f3ecU,
  0xcdf3fa220af8050eU, 0x2f0dff6010cffU, 0x8e805c7e6ef1b03U, 0xe8120b0df7fff211U,
  0xe3fae40f120edef1U, 0xedf4f9e92cecffffU, 0x4e8e6ebd52af402U, 0xf7f5f3eafcece1e4U,
  0x1230eff6fd22ee08U, 0xf80e010cf701f103U, 0x1a03fb09fae7d8e2U, 0xf2fad1f211eafbf0U,
  0x1f6fe02fbdf16e9U, 0xdd2250df5f51806U, 0xe9fb000be4f6def9U, 0xb06f61b0a20000fU,
  0xe40fd90600cfecdfU, 0x13eff606e303fed8U, 0x13fa14edf8f90b18U, 0x18f60901d8ee08e4U,
  0xffe1da080fe5faf4U, 0xeecf702fb0600f8U, 0xe5f1fbe4efd0f708U, 0xeffafebff8f9020bU,
  0x7081a1500d8e7ecU, 0xdee00be11aeeededU, 0xd6e4210d05c9fcf4U, 0xf602dffc1c090bfaU,
  0xfef8fde4151a0a19U, 0xe02e6f30d0bedebU, 0x1ee9e2f8ef02f602U, 0xed08ecfddfebe9e9U,
  0x11d71ee6fa0e24deU, 0xdc09f609d8ee20d7U, 0xe5d401f00ae8e90eU, 0x1fe10fe05eb0afbU,
  0xe713edfbd0db0e0dU, 0xfe01e81ad6df0217U, 0x32fbe00efbf608e1U, 0xf42c2004f7f4dffdU,
  0xfddbebd0091efde4U, 0x14ebff0bf5fc0ffdU, 0xd0be90ae7e2fef2U, 0xfa0d060c07f0effdU,
  0x30f02d5fd0af01bU, 0xff20304f2fb05feU, 0x21ef3fef401e6U, 0xf2f0f519fcf8fbf8U,
  0x25e5f500f9f40dffU, 0xf61bf0fdd8df0be1U, 0xe51fefde33f9ecf0U, 0xf7e4e20a1201ecfaU,
  0x1f0308f3fcebf0fbU, 0xe6e604dcfae4e6fdU, 0xe4e0ecf1f8e8df05U, 0xe2dc0fdc1cfff814U,
  0xc0ff40deeedf412U, 0xf2deebe8ffe01700U, 0xf71fdb14f8f7eaf1U, 0x90a00ebf72201e4U,
  0xd12fe05fff107ecU, 0xf9eaf7e8fdf82a1fU, 0x405f5fae40603efU, 0xf50ff3fdfb15eb11U,
  0x8ea26c9f5f6e6ffU, 0x719efe0e1f0fff9U, 0xe6e3e1db02f7dbU, 0xdee106d5e213dcfdU,
  0xdb1404dbe6160aU, 0xff04f61af90314f8U, 0xe624ff11e4ecf9f1U, 0xc141d320cc9d714U,
  0xbefced7f20bef03U, 0xdff202edf4f213ecU, 0xfaeb011600090815U, 0xfff80803ff31e8daU,
  0xf3f8daed05fcfb0cU, 0xfe02010706000af2U, 0xaed11f6f01918e5U, 0xf2dff40e0cf5dddeU,
  0xccfc02200402cdf3U, 0xeb1becd605feefe7U, 0x210f9131cf517U, 0xf512e8f1e9fef202U,
  0x191308fce7110708U, 0x82efed7d711de10U, 0x23d8f505e910d2c7U, 0xf102002eeba9fae8U,
  0x2ef8dd05e807f902U, 0xe90f00e3f5f30cddU, 0xf104ff0d130def1cU, 0x19fce1091314f503U,
  0x20e613e3f3f0d806U, 0x6d301c4fc11f5ddU, 0xe2c9ebf70b0506f4U, 0xfc1bfcf2f0effd14U,
  0x24f6e91b031f0cf0U, 0xeffbec13f523fc27U, 0xf517f117fd042004U, 0xeef4dbfe14f3cc04U,
  0x10f10208cff7f1f2U, 0x26fcfd141a05ede3U, 0x19231001d8daece4U, 0x18dce023eaf10a1bU,
  0xec14e7ebf023f5f9U, 0xe4f1da0eeff1ea18U, 0x211fd16f93ed610U, 0x19d9eee50efee30bU,
  0xf2e0ddf5dde7e9edU, 0xece608f3fc081202U, 0xefd4e9d6eff9f6e7U, 0x209f00fe4e9f2ecU,
  0x18e4190eeb0df408U, 0xfd27f7df09ec23f8U, 0x1de3eaf8fce80618U, 0xed00ef00f52918e1U,
  0xdddfeef7d8cc01ffU, 0xd9f30f0abb3411f6U, 0x7ce0804f0ed0e31U, 0x10f2f0221309050cU,
  0x6e9020d08ff18f8U, 0x800f2fce1d426daU, 0x1607f0fbf2df0bf4U, 0xa130c1a11f900e1U,
  0xd8d9dffe13f61afbU, 0xfffcedf823d2060eU, 0x25fbf8dbfa1413dfU, 0xe8f7f0ef091523d9U,
  0xfefefef300f3f9f8U, 0xf9f905ebf309f6U, 0xfff9f6f401f4fe01U, 0xf5f20bf0041803fbU,
  0x104031cf8f8f2f0U, 0x102f9fafefdf907U, 0xfe00f9fbfe0906feU, 0x9fcf8f805ff0802U,
  0xfef4fcfdfe080300U, 0xedecf5030c05f6f8U, 0x7f8f8ffe600f1f3U, 0xf4f8f9f3f9fbecffU,
  0xfa0afaf0fdf8fbefU, 0xfa0bf5f3fa00f801U, 0xf9fcf9e809f71ef7U, 0x5f1e8f902f8f3fbU,
  0xf207fefdfdf6ef09U, 0xf9fffaf7f8f8f101U, 0xedf2fdeff107fa0dU, 0xf407020703f7f706U,
  0xf406fdff0b010201U, 0xf709f5f50afdfd13U, 0xf6f6f609f3ecfff8U, 0xfe08ebf102f4fcfaU,
  0xfaf7090001f109f6U, 0xf800fef716f9fefcU, 0xdedff04170cf4f1U, 0xeefcf7fcfffef7fcU,
  0xf30904010303fa09U, 0xf8f808fb07f8fcf9U, 0xf80005fa0cff0c05U, 0xfdff06fc050bf608U,
  0xf4fae60000fc0af7U, 0x10f04f01cf9ef12U, 0x30902f609f6fe06U, 0x1f71702f2fe0015U,
  0x5fbf707fbf700f4U, 0xfdfeeef7fdf6f20aU, 0x70408f9f30310f6U, 0x5f4fefbfbfcf7f6U,
  0xceaf505f1060bf0U, 0xf2f5f3f4faf1f9f8U, 0xf708f50c03e6faf2U, 0xf408030ff9f4f20bU,
  0xfafefbfbfcf608f8U, 0xfdf50e00f7fd02f5U, 0xf0faffdf04f7f403U, 0xfcf5fdfcf7fa0903U,
  0xf801fcfffefbf908U, 0x9f901fbf803f7feU, 0xf3ee0106150ef9U, 0xfe03eefef708fffeU,
  0xfef803eaf8f3f4U, 0xfe02fef302fc030aU, 0xf3100ff7ed090909U, 0xfb0403f90ff7fc04U,
  0xee09020300f9fc05U, 0xf201fe02f302f9ffU, 0xfbfe04f7fd02fb01U, 0xfc0607fafc08fc08U,
  0xf30b03f310eefa00U, 0xfdf1f7ee010d03f2U, 0xfefdfc00f9f8f408U, 0xfeefe8fefc03e8f9U,
  0xf9fffffdf9fcf6U, 0x304f507fbf80403U, 0xf9f7fbfa00080200U, 0xfcfaf903fb090002U,
  0xfaf9f8fc0200f7fbU, 0xfafbf9f9fcfcfb12U, 0xfdff050901ffed03U, 0x206fdff02fbfffaU,
  0x805f8fbf9fdf708U, 0x2fcfdfef809fafbU, 0x7fc01010202070aU, 0xf508ff0206fcfefaU,
  0x1f7fe01fe090117U, 0xf707fffef9f9fd00U, 0xf90105fbfdfe03feU, 0xf5fcf6f9fefcffffU,
  0xf9fa09f70202f501U, 0xf7fdf8f7f6010100U, 0xfd04f9f601f7f7f6U, 0x7f9f7fff6fc02feU,
  0xf705fffafbf90401U, 0x6f7fef305fbf503U, 0xf5f903ff00fcfdf9U, 0x9f9fc0afbfc0b01U,
  0xfbf4f601f0fdfcf6U, 0xfa02ff0402fafffdU, 0xf9fffa0401fafcfcU, 0x905f8f7fdfb09fdU,
  0x1f8fbf100f702fdU, 0x6fdfafbfbfcfefeU, 0xafcfbfc03f8f9f9U, 0xfdfe0003f7f4f5fbU,
  0xf7fb02fef805fcf9U, 0xf5f7f905f107fffdU, 0xf304fe01fdf9fefbU, 0x1f9fb0b00fcfd0dU,
  0xfcfbfc07f900fcfaU, 0xfaf9fb01fdf2fcf6U, 0xf0f50100f6fcfafdU, 0x1fdf5ff0901fefaU,
  0x5f702fd01f60700U, 0x4fcfafb02f901fcU, 0xfcf2fefcfefcf900U, 0x5f7fe0705fdf7fdU,
  0xf8f5fcfdfaf4f8fcU, 0x3fc0ef800fdfbfaU, 0xfe0102fcf805fbU, 0xf1fffe06fdfdfffaU,
  0xfd09faf4faf8fefbU, 0xfdf9fcfdfef900U, 0xfcf807fffd0606fbU, 0x2fffe01fffc0c0cU,
  0xf7f4f40f02fb0400U, 0xfd06fbfff8030500U, 0xff02fb02fe0bfdU, 0x7fd0cfb01fa02f8U,
  0xfbf8f5faf8fefafaU, 0xfe01fefdf7f803f6U, 0xf9fefcf7fcf8faf6U, 0xfa07f4fcfdfefff7U,
  0xfc040308fdfef7faU, 0xfa03f7fe06f501fdU, 0x6fafefd010200fdU, 0xf804f702020e0309U,
  0x2ade210ef8f3f01fU, 0xe2f8ffdad80004e6U, 0xff1106070802f9deU, 0x14fcedf203f1fffcU,
  0xdb140ffe0003ede5U, 0xdf1afe19f00deef2U, 0xda0af52819050e2eU, 0xb01f30fffd8e9e2U,
  0xf500d202e6f905f2U, 0xdd141cfb400f1812U, 0xe70df11ad4f41e04U, 0x415f0f809c7fdecU,
  0x510f8eeeffa18edU, 0xd704f33a1504fdf8U, 0x38e4e7ec1a07fbeeU, 0xd81107e8e1021808U,
  0xdff8f2ec1ee5d808U, 0xff9c5f5ebeefa03U, 0x1815e1d118dbe4e5U, 0x2300e4e8d705010aU,
  0x4fa02ec09ffeef9U, 0x6ea051e150bfe07U, 0x1bd910eae01df5e7U, 0x8f3fef417faf8e5U,
  0x1dfe11ceda15e8e2U, 0x6cebf0cd8f3c926U, 0x4508f631dbd5e6e4U, 0xbee19feee0c0cefU,
  0x15e90bf51220f6f7U, 0xf0fe00e903eee90eU, 0xbe8fc0d01e603e1U, 0xbdb062cf3f9e8e5U,
  0xd0af81ff3eceaddU, 0xff06fc2100d3f800U, 0xb040de2f9081bf4U, 0xe4f0f8fddf081904U,
  0x226f3edf6ba0506U, 0xecfa0ed9e2d7e8fdU, 0x9010cfafdffe4faU, 0xe9fcf019ddde0325U,
  0x2210fefae107f3feU, 0x23cffaf221060bcaU, 0xfa250f021410e3ebU, 0xf5e52bff06d401faU,
  0xf2f7f11805f11cf5U, 0xf0ff031100def6f1U, 0x1130f3f5dbef04fdU, 0xda1a1e01f702f0ceU,
  0xe7f831da0a24f115U, 0xff07e61a10f7c20bU, 0x37ddedbd011c23f3U, 0xe9daeb0114f413d8U,
  0x3fdefe3f5fe040bU, 0xef901f4fff90b09U, 0xf918f0e7e42208edU, 0xe8dff9f7ebf9f5e8U,
  0xe9fc2201220711ddU, 0x71f1e0bfe011913U, 0xd4e2eb02f7e4d4fcU, 0xe527e20906180cf9U,
  0x51718fb03d60700U, 0x3332eb22f216efdcU, 0xb9f71016feebfbf4U, 0xef19efef061115f6U,
  0xe9f3d0fdf9f015fbU, 0x12bfeedda24feU, 0xcae31dd81ddcf1ddU, 0xf2de01142a3afa28U,
  0x10f1fe0afff7ea07U, 0x2b00d90ad7272b2aU, 0xd4e90503fb24dc1aU, 0xde1cc8eaf6f90ff5U,
  0x14260a04131d0be3U, 0x19f21dd0e5ed0a03U, 0xff030fd024e0e4d6U, 0xf2d809fd08e3f101U,
  0xfc290cb219c2e0feU, 0x281cf5e314a74031U, 0x1fe10e1df0daffc8U, 0xff13061027e3ee17U,
  0x905be1905f23cceU, 0xbedf80e12082d18U, 0x7cbe317ecf830ffU, 0xe615fb24eadce0dfU,
  0xf1440616e41edd02U, 0x1bf6e5e30706e0f7U, 0xe0001c1418ed0fd2U, 0x111f09d407c008e1U,
  0xd7f8e90116d20612U, 0xb412eef504e60aU, 0x4170052fc0615ffU, 0xc705efd7ea19f010U,
  0x2409f6e4200308daU, 0x21253019e0c9f3f6U, 0x291410102b1b2eceU, 0x161a04cc052cf5fcU,
  0xf3c5faf8fadb29feU, 0x4eab3d9e8cae717U, 0xe7ec282ae6b9e4d1U, 0x44df312eef8dffaU,
  0xe80bfdd9bc06dbdfU, 0xee6ce17f30eecefU, 0x8e1dfed1d05c9f8U, 0x1dee605bbf8ee13U,
  0x36bce6f034c6edf8U, 0xc9f00a1614c9cffaU, 0xfd1b3af024031cfcU, 0xc724e3ce2b40f3afU,
  0xc2bbc9fc053419dfU, 0xea181d1e2d25de13U, 0xfa1b00e4f5f71ad1U, 0xda0700041d37d0U,
  0xdaeaf20d1c1c2012U, 0xfaecf0d6e6f9230cU, 0xc9f2bff5eb0810e7U, 0x819e803f7faf3e9U,
  0xd0eddacc09dfccedU, 0xfcfdfd2716dbc903U, 0x6141b0305f7f7e1U, 0x1cd2e9ec2ed90cdeU,
  0xf0e1fd0ffe0bba13U, 0xc6190117f6e1f92dU, 0x1bda0cfcd307ff0aU, 0xfbeff101fe1106ffU,
  0xe7dbfbfae9f0d62eU, 0xf350cc42b12ebc8U, 0x180b1fef0dcbfbeeU, 0x24101338d723eb1aU,
  0xfbd09f92cf3cb15U, 0xe417f4cffe1d04ffU, 0xfcec1df2e6efd0edU, 0x1de2db00f8fa19eaU,
  0xe7eb0605cfdd04c7U, 0xeb052316e60e110fU, 0xda14ca13e5f52011U, 0xf2cae2191624e7e8U,
  0xc0e2ef26dc081df4U, 0xfa0fe9f60d29d81aU, 0xf3d708f7eed719U, 0x18ee070cfef9b20cU,
  0xf9ed03e009ee25faU, 0xf5bbfd050f19f616U, 0x1103c90b0fd10b0dU, 0xdaced5fd1a08e0e3U,
  0xf710f7cc09f9e41bU, 0xf426ae13df17e500U, 0x4fb1a041f00f0eaU, 0xe3fa1208d61822f8U,
  0x3e61203dc1c07e2U, 0xfa07fc05b6134729U, 0xeaeb43fe04eadce1U, 0xf124dc0fc4f9d435U,
  0xf50fe904e2f405ebU, 0x4180502e504f8c7U, 0x21ef1324060cf406U, 0x300bfa1af0d21b3bU,
  0x1d8fef40d09d1feU, 0xed032713fde905d3U, 0xc8f000c60b2af1f4U, 0xdf04fcd2e9dd1e04U,
  0x22fad43fc70af214U, 0x2261bff092a05fbU, 0xe61ef2ed09260f21U, 0x5fef6280bf2d0e3U,
  0x7d001f1eccb0607U, 0x15d80846c50eec01U, 0xf5f507cc04fe25d5U, 0xff9fe3617defef7U,
  0xc516ee05f5d7fbedU, 0xe71af3ced8050f2dU, 0x41f18e60f0ec426U, 0x4e8d409e7d9f514U,
  0xc1bbd110f103ef09U, 0xd9f9f2012329362dU, 0xbafd2b08f4f6cb01U, 0x35d4e1f4fe04e904U,
  0x30e3082af912d0e8U, 0xfb21eeecf4e0f90dU, 0xedfa15f6de08f7d8U, 0x12b2f1e1bb10d3d6U,
  0x3f8dbe70108edc4U, 0xaa130c28def8edfaU, 0xef06f1e2cde027e7U, 0xdc0207babad4ecfdU,
  0xfb1c19e5cf01fa23U, 0xccf300c6f9f91804U, 0xafe1508bb11dee5U, 0xf0d106e905dc1a12U,
  0xcdf61cddc9de3ae0U, 0xcdd9ead70b1afc01U, 0x27f406fcfe01faf9U, 0xf8c4c8f234de1e08U,
  0x2bcb0bf0e325edf2U, 0xe705071ef8f4ed15U, 0xf5dcffed08fbea02U, 0x2108f1f7fbf0040fU,
  0x180202f04e04e0e8U, 0x19d8e712f9f5e90aU, 0x1ff0ea07e7d10deeU, 0xe413e109f7e8e7e8U,
  0x19f7fd15fdfa01d1U, 0x9d0e7f8e514e7fbU, 0xe02ef804f819e6ffU, 0xe7f824e8d2f3daf5U,
  0xdacf14dfbc0ae6dbU, 0xebd725ec0107ebecU, 0xf5002f13e7d6f633U, 0x5ecf5e5ec06c103U,
  0x1f0ec05e40bfc00U, 0x2701f7f2fee4efddU, 0xdef71ff7190623edU, 0x2f04f7050fcd1ef0U,
  0xfae9feff03fcdce7U, 0xfaf100ff01edfc0eU, 0x160ed51ff8eefc0dU, 0xf7fdf639e50d0428U,
  0xf3f7fd1a03d7ffcaU, 0xe3ecf1fde6f0f7dcU, 0xf215eaf4ff300a0aU, 0xd701f4fc071c0602U,
  0xdc1d1fe3e5eadaffU, 0xfbfce1e0e1e502e2U, 0x17dbdaebf2fbe1f0U, 0x40af7ff0c02f63eU,
  0xf6081adbe8ff0aedU, 0xbf13e04050807fcU, 0xecfaf6facada27edU, 0xfe3efd00e8f80beaU,
  0xbfede1b00f3e7c5U, 0x1240c03eae61cefU, 0xe7f307d7d2f80819U, 0xe90f1c16ef00e3ecU,
  0x19d100f6e0e9f2f7U, 0xe7e017101dfd24U, 0x5eef9f104e51007U, 0x2d05cfd4ee1bfc1eU,
  0xf50b1fd515dcf206U, 0xdb01140bfd0bf0e2U, 0xbdfae5f8fed8071fU, 0xe0400d3f1f60ff0U,
  0xe41dec04fc23e5fbU, 0xe5d9e4e6f5fc041bU, 0x7e40a0af3e7ecf7U, 0xf406f1fbe6f2f9fbU,
  0xfbfdf1eb06fcd8fdU, 0x1e3dcf4f8d8e61cU, 0xdd1beb1328d6ffd6U, 0x19f4f6f7f2e4fff7U,
  0xeccef306ebe70afbU, 0xf1fcfef20ff5010dU, 0x2090c15ff202724U, 0x1d423e9edebfde8U,
  0xf1e51a00ee0bfd08U, 0xd4f428cfdef4f2fbU, 0xe2e1d3f5f0f4eef5U, 0xe9ed05f9d91ffb03U,
  0x1922fd0afde924f7U, 0xf4fa2209ece8e70cU, 0xdde001d0e9f2df38U, 0xf53ffc0fefeeee17U,
  0xecdff3edfdec150dU, 0xfdf5e11927e813f8U, 0xe41eff07fad9eef3U, 0xb2c6d1171300f6f5U,
  0xffed10eefbee2bf2U, 0x11d7ec0800f9ebdbU, 0xf006e4f80018d6e5U, 0xf5fe0502f2c9efefU,
  0xf51605e8dfebff21U, 0xfee70e0ef6c80ffcU, 0xe6141ae9e6f9f3e4U, 0xfd0bf9e4ece4e523U,
  0xd3eb0e0d0dfa00ebU, 0xf208dfc0c7d208e3U, 0xfeecf2f0e9f4d1eeU, 0x2e4fb0ae2d22109U,
  0x1eea14bed0e5edU, 0xf82006e312101441U, 0x1d0af4ebf03ff7e5U, 0x13f2e4d7fcf2e120U,
  0xdb10f8eff5200d0fU, 0x3eaffe3010603c7U, 0xfbfce8f31ffc1503U, 0x1efe04f703e823ffU,
  0x16e4e6de160f0824U, 0xe21cfb36dbf1d70aU, 0x710f7fdd310ebe7U, 0x8dae9dbdbf6f318U,
  0xd60bf909190deae8U, 0x3e6fde102d00bddU, 0xd2fbf400e7e9e9ecU, 0xee1ddfedfdfb1d2aU,
  0xddd90700e61f2a10U, 0x8fd091f1a12e404U, 0xd2f50ee9f7e8fc13U, 0x1a161b0b1e1dd5fdU,
  0xd7fcebd0fd0e1be0U, 0xdcfd1bfcecfbeefbU, 0xf1f9e7e3ecf7011bU, 0xebf80fd2f62af9d8U,
  0xfb05091edfcad809U, 0xf05f7eb29f6151dU, 0xce0ae8d318fcfff3U, 0x20261ee60414f6faU,
  0x15eee30e0704bccfU, 0xdefaf11202142ffaU, 0xdb0bddfef1f6e5e5U, 0x718fbfaf9c8f3f6U,
  0xf9170be113fbf6e1U, 0xfe0efbf81402f8f5U, 0xfefa0608f2e2db0cU, 0xfc06e408f7ddff25U,
  0xf8fd0efb1d360befU, 0xfd15f0e9f7f504f2U, 0xf40e1de5f2e53b05U, 0xe1e5fd20d9ec0605U,
  0xdbc4fcedfbc9f5e3U, 0x4cbcbeaeef2eff4U, 0xe8d415c9e8e6dd21U, 0xf3f0e2eefafae403U,
  0xf408fdf4e5100303U, 0xf4ebf503f1f4ddeaU, 0xfcf5f6e9eff7f708U, 0x1dfee805ed08e907U,
  0xf7f9ea0100fa07f9U, 0xa1303e6ec10fff8U, 0xf3f40be2f6fbe806U, 0x1400fbeeedfc11f0U,
  0xe21010f4dddf0cfbU, 0x1007f2e90c0afd04U, 0xe8fa0609f1fcefe8U, 0xebdb2bf40410ffe4U,
  0xfe020efa0d10e015U, 0xf6f205e1effef6f8U, 0xf3f90600ed1be9f4U, 0xf0d9d9d804ef1113U,
  0xf6facce6e900e6e5U, 0xd0be400f0f31c00U, 0xfd02ff05df04e3ffU, 0xe9edf0e2020bfdf1U,
  0xdaf3f1faf017f406U, 0xf3f8ff020d0ded11U, 0x1fe2f601f7f805f1U, 0xd8ee22f4f9faf908U,
  0xdf12dbe8dfe8dbfaU, 0x19ecfbf5090be500U, 0xd80b11050c07161dU, 0x3f5e511fcd0f2ebU,
  0xfaf5dfe5f4f90305U, 0x3f1fbf2e8e31121U, 0xf70ceff404fb131aU, 0xf5ff030fe4eb00e2U,
  0xed6f30b0414dd08U, 0xfef0fcf2ece8fe1bU, 0xf8ea10e71b09e004U, 0x5060ad7e3e910eeU,
  0x8ff03f8e41709e5U, 0x4f0fc03f5f5f8efU, 0xdfe0211fae5fef2U, 0x3e9f800ef2d1117U,
  0xe6f110f900f61f0aU, 0xd6fe11fbf2181ef3U, 0xfafbf500ebf20c00U, 0xd3f908eaf105d9e1U,
  0x5fdf912ff061907U, 0xde06fdeceb03e806U, 0xf8eafafc2df901feU, 0xf414f5fe011d27fdU,
  0xf6f7faf20ceffdf3U, 0xebf5e9d9f6e3f604U, 0xc0205f0fbf00803U, 0xeeed0e010c11fa06U,
  0xf8e8f9f0e116f33bU, 0xf8f9f3fe0ae9ef04U, 0x19121aebfc04030fU, 0x1cea0304fbfc02f8U,
  0x13ebfde31eebfe17U, 0xed160510f100f030U, 0xfbfaf8fde2ea04d5U, 0xf5f1dfe91bf7fd14U,
  0x905ecf8fb28f923U, 0xd02f4ea02eeeefaU, 0xdfedf31210fa070fU, 0x1fb0212fe03ebf3U,
  0x1eef4f23611f9dfU, 0x1e5f2f7ecdf0febU, 0xf50ae1e70902f4fdU, 0xf2fbe2eeff01e40dU,
  0xf715e100d311dd07U, 0xb12fffdf2efe6edU, 0xec16fb06e9e5faf7U, 0xfe06ea20f104061fU,
  0x1f06f1f3e9e5fd00U, 0x25f6e7e90816ef15U, 0xf8f6f7fa1115ec0aU, 0xfefd01e9de10fb07U,
  0xfcf8f3d30cf708U, 0x18fbecf9e7f9f616U, 0xae8dce1eee8ffe4U, 0xeffaf1ff0bffef04U,
  0xe6f80509021910ecU, 0xeee70df01eeffa0bU, 0xed1a17dc07f1e007U, 0xfa05fbdee50af610U,
  0x300f3f5fefa14f4U, 0xf11fdc230f0d0403U, 0xfaed0512efebf907U, 0x50012f3001cf6f1U,
  0x4010828eafcf91cU, 0xf30b08ec160508feU, 0xf5f1ff161c0ce7fbU, 0xf9e7f2d6ff01ea08U,
  0xf2f6fef705fa14eeU, 0xefe01fb02e4effdU, 0x200cfb18e1e0fbebU, 0xc1d0e14e9faf305U,
  0x51401f3f3e7f90eU, 0xf1e30fd9150110f7U, 0xe4f505f8e5fefcf3U, 0x1fff4f8e3060cf1U,
  0x17ec1adc0ee30adeU, 0x4fbf4f2fbf31603U, 0x140d04f5daf800e8U, 0xcfb03eb05f500U,
  0xff3418fdcb0cdd18U, 0xf4f604efe1e8ff06U, 0xe7df0dd410f6f3f7U, 0xf3f513f7fde4ef1cU,
  0xf4fa00e1d70af3fcU, 0x9f805071dd80107U, 0xec05f908e2dff6eeU, 0xf8e6e812f7eb1109U,
  0xcae9edeadd25e6edU, 0x24fe1aecf2ef04f5U, 0xe4fbf8ee1ee90ff0U, 0xfcebf30afffd1ee7U,
  0x1100fcf6100f2711U, 0xfffd12e129022010U, 0xf7f8ea0900f7daU, 0xc06ee18f8f4f4f2U,
  0x1513f2eafbe2f8f2U, 0x3fb05fbe4e502feU, 0x2f70bfdee10fdf8U, 0xec01f9d909ebf4eeU,
  0xee08e60f2719e90cU, 0xebf4e22af5e7f3e4U, 0xfdeff6fc13f7fdfdU, 0x6f3eb2607e7f707U,
  0x25c6f2fb1c001ddeU, 0x1afb23d306fa15e7U, 0x11fdf909dc06dcf6U, 0x17e603cd2408e4e3U,
  0x1a1bd401bad03c22U, 0xf0f328e615040ef5U, 0xccd7dcf80b1d01d7U, 0xfd00ea01e30cf5fbU,
  0xd00ffde10fdeb15U, 0x2df406e6051df502U, 0xff061b0c2b00eb00U, 0xd247f400ec13dfeeU,
  0xec201bd901d5ededU, 0xeed3330f26fe06faU, 0x17bbc309f1d5ea1cU, 0xedecea38190fde40U,
  0xe31a0e15cc30ee10U, 0xfb12ebe3e9303508U, 0xccee01e625051ed7U, 0x2ef7fc14cc240a08U,
  0xf70df7031a00c619U, 0xf3f61408db2a0f0aU, 0x14f1eb09fa14d2edU, 0x9d9212efe18e0bfU,
  0xf936dffd11dc061fU, 0xf51f0d1be04110e8U, 0xedb1fdfc27f20805U, 0xec20f8dee21b0bfaU,
  0xe6e52dfeedda0334U, 0x2d28f4fec1eb3c1fU, 0xfe18c2eacc1bdffeU, 0x811c6d7fcd3f9e9U,
  0xe8d2fbd4b8dadc0fU, 0xfe07f1f5eaf6f1f9U, 0xd8faf61614ebeaf2U, 0xfdeb0e28f916c3daU,
  0xe020201fff0d153aU, 0xeb1bd9cdf01c1212U, 0xee24e637ca32be0cU, 0x1ae2d512fdd9daedU,
  0xf716f309acdd04e1U, 0xfbd11402d4e725f5U, 0xe01519e506030cbcU, 0xff2ae220dc46c7f4U,
  0x1d11efd4f2db1ddcU, 0x2003d615ff0bbff6U, 0x280715f1e9c2022cU, 0xf91b022ced081214U,
  0xebc1050cf2000a05U, 0x509fffffd140f01U, 0x4fec2f3bd00141fU, 0x3b0d090ddfe2fd17U,
  0x1de9fad40800d820U, 0xfdff0704ed07f4f0U, 0xe424ec12dbc9c4e3U, 0x2eefdfde4f50cf3U,
  0xc009d5e5dde903edU, 0xdddf194119fd1f06U, 0x1524d8e9ea1e0c0dU, 0xfc17040bf21a00eeU,
  0xf4102619c9091235U, 0xf713fa00bcf42ff4U, 0xfa1aebffe3f931e3U, 0x8e9eaeb0d001cf9U,
  0xec0bf0fbef14ea11U, 0xf9f9e7eff605e50dU, 0xfc0bf800ec0309fdU, 0xd2ffea0af60af8feU,
  0x1bf01a0d0a03f7f9U, 0xf7ede8001d07eff7U, 0xf1f1daeaf6ed08e8U, 0xf307f707f5edf700U,
  0xfc0e1df32905f7e9U, 0xf4e8f5f5dff2fa01U, 0x1ffd070df6f7e2f4U, 0xef0600effff0d2feU,
  0xfceee5f0020af704U, 0x9f1030701f1fcedU, 0xbf8f6020ef6f7f1U, 0x102e001820edeefaU,
  0xfd1101dde21b0df9U, 0x7eff6fcef19f9f0U, 0xeef7fae0de13e1dfU, 0xffe5fdfc0af4f6e6U,
  0xfff6f0f721170deaU, 0xf6eefdf9d205f5e5U, 0x100703eefee511e2U, 0xffe9050c0eebeee6U,
  0xfaf202010de6e5e7U, 0xfdf2ee0dead21e2fU, 0xf01fedfddf03e10eU, 0x15ed02dee2f8dc04U,
  0xfdffedf9f91bde0bU, 0xce1fc0f00070704U, 0xed04e3e5e8e3fcfeU, 0xae2de1104fedef1U,
  0xf4dfe71a04faf815U, 0x1f1fce406f2dfe7U, 0xbf0e90be714f5eeU, 0x14f6eff70dcef7feU,
  0xed01efe9ed05fb28U, 0xf2ebe904d2f6fbfdU, 0xf9e4010116ff10feU, 0xf8f4fff4ef0a03f6U,
  0x2f0f601effe08fbU, 0xfbedffdbee22fbedU, 0xe7f2fa02f3fbe718U, 0x10d9e2ff00eb1ff0U,
  0xf708ec01fdfd1debU, 0xe900010ee405ee08U, 0x1b051e30fcfcfdd3U, 0x1ff01ebf1f609d3U,
  0xf60109f0e8f50b18U, 0xd2f900fc13fe0f0aU, 0xe5e5efe0f3eaecebU, 0xf0dcfb0918f6e31aU,
  0xfb100e00e8ebe909U, 0x603edf8110ef400U, 0x10e6e316fced010bU, 0xf8edfe160109f008U,
  0xcfd1feb00e4021eU, 0x413f1e1fdee06f4U, 0xd900120d09f0e807U, 0x8fd02eb02d603e7U,
  0xeae4d6d702e20218U, 0xf017141105e5fd09U, 0xe929070edc11daddU, 0xd9fc09f407f402efU,
  0xf01200fbe1fd0e09U, 0xbe2f5e912e9f5feU, 0xd1dfd4150700f4ffU, 0x60123000ffecc22U,
  0xecd2c2d7f0fa09f3U, 0xe2f6010302edd8ebU, 0xf6fd180ceacdf1d0U, 0xf2f5dbd033e221f5U,
  0xf9def8ddd0fb0b00U, 0xe1f1d4fdd0d6dc07U, 0x14110bcbd63dae08U, 0xd007111e01d4231bU,
  0xee1e5effbeee50fU, 0x2ecdefde2d1e219U, 0xb21c0dfef7120ae3U, 0x29e812e6f61c03f9U,
  0x150411ea0cd9f118U, 0xfe19d8eaedbec52aU, 0xc8001a18e6f10c21U, 0xf0606f9bfd60afaU,
  0xf8ef14040ce1f61cU, 0xe4dd00171e1fbfe9U, 0xeaf7f9eaf3f31ef7U, 0xe533e8d6dbfee3e6U,
  0xe800e9c3d4f80c14U, 0xdfe6180a07f6e9efU, 0xdaf4e6f4bebb2df6U, 0xea120d11161af6ebU,
  0x1b0eeffbeaeff902U, 0x12f0e3efd22710b5U, 0x8b805fdf6cff8f5U, 0xd9101e0e01040414U,
  0xf2c215f9fb26fdeeU, 0x903cff0e611e6efU, 0x240e005fbe7ffU, 0x4c9d7cd0019222cU,
  0xcc09f5cedd011000U, 0xd4dd2318bff9e71aU, 0xedf108a2c736e0f8U, 0x1103d9f504b3fcf6U,
  0xbaff00e9dbe706f5U, 0xeae702facd0ef627U, 0x12f3f9f9e5cc0cf2U, 0xeb19f60bf5ee0cf1U,
  0xe01e60cfad5ec0aU, 0x10e4e3d2fdf713ebU, 0xa1026d2dcfaeb0dU, 0xfcffd0e71af2f2e1U,
  0x3eb25e0f7f4e3f1U, 0x2ff7c518de0c132aU, 0xd1c0909e51607d5U, 0x13fa0c1bf90af5beU,
  0xf11ff30602f80dd6U, 0xaecf8dbebfafae4U, 0xc2e6f1f11a3c0a4cU, 0x92e0cd6f0e0c710U,
  0xda0e070e1fef21e4U, 0x5f414d7e2e0f819U, 0x3180fe9d9e0f319U, 0xf20dd5001adce7U,
  0xe14e704e608f2fdU, 0x1104fdfdf1eb332aU, 0xe8281edbf712fb2fU, 0x102af11f0a02ff0bU,
  0xd1f114f4cae9f21fU, 0xf92d14ef23f540f5U, 0x1309f2fbe0e4259fU, 0x442420f9f50ae1fbU,
  0xcf0a2312eb07f22aU, 0x31c11030514bdacU, 0x1adbcf2003f7ecfeU, 0x37ff0bf7e214f31eU,
  0xd7e523d9d0be3a03U, 0xdb13c3151b3211d3U, 0x2611ea1613fa18f9U, 0xc0208e9eb0202fcU,
  0xffb6191d04fb072aU, 0x1cee0e160b16d7e5U, 0x610e1e1fdd8fdaeU, 0x1febf1f22f15cb39U,
  0x201116fb1bd5dbecU, 0x1de9d90b11403514U, 0x9e4ffe527dee02cU, 0xad0c15efdcf9c0f3U,
  0xd60111ea040a0f0bU, 0xb1512ffffe7f7d9U, 0x2de1af5e527090fU, 0x8151f0c07e7b70fU,
  0xf928fc14161f0d15U, 0xbc0ff916f62be9ceU, 0x2c2921040a8ec836U, 0xffe912d8f5f829fcU,
  0x70c010dd633122bU, 0xe5ed13f30e08ea01U, 0xdce70aca08fd3fc6U, 0x14e9f420fefb00ffU,
  0x2deadc11ebf6f7e1U, 0xd07fef3e7cc48f5U, 0xed16ea1cc3ffd6fbU, 0x13aef70c0824020aU,
  0x1106e4e504cfe212U, 0x8fbe8e5f1e304f6U, 0x2619fabae50e02bbU, 0xede7f3dfbdf80ec4U,
  0xd4f90917d120ecd8U, 0xc2f9fe1513190317U, 0x171311efcdfbd4efU, 0xb0ea121a18d6f6d5U,
  0xf7d11a4f031beb15U, 0x91ecae8fdce15ebU, 0xe2dee3bc0fe91512U, 0xf61f16e8f3c30307U,
  0x3a4eaf8d603bbf7U, 0xdf0cf10cf51f11d8U, 0xf516fefd3604ef19U, 0xf01922e514470909U,
  0xee04ee01eb28f21dU, 0x20d14b8c8fa17feU, 0xcec12142f21629e2U, 0x36ea1cf93eea1d05U,
  0x21524d10dcee700U, 0xc80bffc3ace118f9U, 0x4e8f329d3d9ba12U, 0x1ff82ddcdbf1ec14U,
  0xf3d6ea034206d6f0U, 0xd01f9f9c8e1f400U, 0x1cff08fce40af0e8U, 0xfdc8f2f81cddf521U,
  0xfdfc0ae90af1fb00U, 0xeefdf4e6e2fee5e7U, 0x306f0f2f401fd0cU, 0xfa0a0700f3fbfbU,
  0xfcf620f5d6110e00U, 0x9f5f7000100edf1U, 0xf2ec0902f002f70dU, 0xf0f7f9f10af1f509U,
  0xf18eef7fcf9fbf3U, 0xe205fceff7fffff1U, 0x7fdf4f800eff90aU, 0xf6ec03fedff711f9U,
  0x908e80bfafff5fbU, 0xfafdf9f200f80708U, 0x6f6faeef203feecU, 0xbfee9ed0301f9f5U,
  0xf10e1deef505fefeU, 0xfcf7000ef503f9f7U, 0xf20a0af80af3e604U, 0xfaf9f8f2ee010c01U,
  0x12eafc12fdeef717U, 0xff0df801e8f202e5U, 0x1fff701fa03f906U, 0xfa02f2050405fffbU,
  0x1cfbeb081300f8efU, 0xf40703e106fcfb01U, 0xf514f9f7ebf7f9edU, 0x6de00fdeaf61ff0U,
  0xf4070712f704ff0aU, 0xfe10eb02f4f601fbU, 0x13f6fb03f8f1fd00U, 0xf908edf1eaf5ec06U,
  0x1715031aebfcf3e8U, 0x2ec0507f2f2f9e8U, 0xfa16fff0ffeffcf3U, 0xfaec00faf6f801f6U,
  0xe5f7fe02d6f1f000U, 0xf4f9efef00ee0f00U, 0x12030d0be2f901e8U, 0xfc06f7021216e9faU,
  0xc0a1200e0f9f6f7U, 0x3f2f00df1010807U, 0x13f1f501f4010006U, 0x806fdf5f1fcfdfbU,
  0xf5fa14effbd4eafbU, 0xf0f8f501fff2f701U, 0xe90215f3ed04f90dU, 0xfcfef9fb01fbf1d5U,
  0xf04e3fdef05eee8U, 0xf5f4f3f7f10f07feU, 0x101f3110d04e7f4U, 0xe322f3f6edf5ed04U,
  0x308f7fcf00afc08U, 0x1f20908f8fe0cf9U, 0xdc0605030dfdfc15U, 0x3e113010bfcf6fbU,
  0xf9e6eff102f903fcU, 0xf9f8f8f0eb1bf1f7U, 0x3e5e507010bfde7U, 0x218fef6fe09fd09U,
  0xf5fb02f8fef603dfU, 0x3f7050f03f1fd24U, 0x414edf0f5e6f907U, 0xff011a020cfb1007U,
  0xed1916f3feeeeaebU, 0xa06fad9cdf6fc20U, 0x21c0ef12607191bU, 0xe902ecfe16f41402U,
  0x11f2f109fb02efe5U, 0x2206f0ff130ee0deU, 0x2a000fea03f5e4f5U, 0xd829210806e22305U,
  0xf6f8fd2bea010312U, 0xd5010803f412f6f9U, 0x1e0205e7e4d7ece4U, 0xfcbae2f5010cc6d8U,
  0xfe02edf5f1d3e9edU, 0xa09dd190e0823f9U, 0xafb0f16e90e0bf4U, 0x13eceae108e5def2U,
  0xf100fce3e71208f8U, 0x40be6f4f503f0e1U, 0xf0e3ff000af0fae6U, 0x2f1ef0cf3f9d6e2U,
  0xdff4fde1eed2f5c8U, 0xf81114fff6e1e9dbU, 0x2f6200707d7f3f3U, 0x26ec1be209da1301U,
  0xe0fb240af9f9eb03U, 0xd0f00be5e40d16dfU, 0xd3ea0a1101d6ee03U, 0xe5fff9e3f1e104e9U,
  0xe706fbf5eefee6e3U, 0x80aebef0424e1ffU, 0xeeba0215e2eee8fdU, 0xe00a16000e0ce3U,
  0xc3ccfbfff9f910eeU, 0xf4f0f6fde5edc301U, 0xf40a0dd2e71b0eU, 0x215e433fd13f9fdU,
  0xf2170e00150c0328U, 0x1103db0c090b0f06U, 0x3ecd6deec020716U, 0xdc0211010d0d07e9U,
  0xde0102f1e70f1304U, 0xdb161d1f0ee9f42dU, 0xc0c11180be9f608U, 0xe228e8e301fdece7U,
  0x923f3fff1e110f2U, 0x603fedd1535f1f4U, 0x3dce8f5eaf4e7ddU, 0xf7eaef1ef4e20c0bU,
  0xf6dc18fc01fbe0f0U, 0xdde10c10f3effc07U, 0x8fbdddcf2e40dU, 0x12f8fde9e1cef3f0U,
  0xf61023ec10fdeee9U, 0x4e5c7fdf6fcea12U, 0xf70df90308ebf8f7U, 0xecfa041601f2fbfcU,
  0x16f81ff9f818fcf6U, 0x2edf8f2ea11fff9U, 0xf4fce7f7f1fcf113U, 0xf4121b031104f0efU,
  0x8ffdeedf4f5d510U, 0xd107e2f003fdf5f4U, 0xed031711df023cd8U, 0xd90915e003fce6f1U,
  0xfc06060ef3ffff04U, 0xedf00608ffef1500U, 0xfcf1f8d2fb26f1f7U, 0xf8f601ff00e90ff1U,
  0xe0f3f1fb07f0f4fdU, 0xfd05fd00fdf6f9f1U, 0xebfaf3f2f6eef9f9U, 0xf70aeb09150bf1e4U,
  0x903fe0b00ecf8f5U, 0xf6f709fdf1e7e9e1U, 0x121002faeffef6faU, 0x4f00bf1fe0e000aU,
  0x2ebf2fa11fcf3U, 0xeb05e205e908fe04U, 0xf1f3eff4fff60304U, 0xf10414fef0f41ff3U,
  0x1f002f0fa05f8f6U, 0xfbecdcebfe08ea09U, 0xf7f10505edfdedf1U, 0xff4f41af6fc0cf0U,
  0xff8fde2e9fcf3fcU, 0x13fe08faf4f3fcf0U, 0xfc0ef2030ee2f603U, 0x4dbd9f803eeea01U,
  0xeffaf7f507f1f1ffU, 0xff50812f8fcfc09U, 0x3d703e412f9f7U, 0xbf807f4fbefeafbU,
  0xf40cf5f3f6f1fcfeU, 0xf0faf800faeeeeffU, 0xf91ff7f30712edfaU, 0x20702fb25f804fbU,
  0xf81ce4feec0d04f2U, 0xf603f801ed04f3fcU, 0x702f5edf7fbeef7U, 0xf2faf9faecf403feU,
  0xc0706f213f90c08U, 0xff08fbeeeaf50309U, 0xf111e7cefbf8fcefU, 0xedf6f50ef3eb08fdU,
  0xcfafaf5f4f5ffeeU, 0xa001501f4fd16e9U, 0xffecf10b09fafcebU, 0x18eeeff7fffdebfeU,
  0x1e4fefbf61df4f9U, 0xf6f30401fd09ea0eU, 0x140ceeeeed13fafcU, 0xfb05fbf5f3f9f7feU,
  0xecf1fef0f4f6e2feU, 0xfb02ef0004eeedffU, 0xea12010e02f205f1U, 0xf419fe090001f3d7U,
  0xfbf4ecfbfb05fef6U, 0xee19f0041305ed0aU, 0xf8f20008080100ecU, 0x20a0a09e3f3f8f9U,
  0xf403110e0bfaf30bU, 0xafbf5f800f90c11U, 0x6210f05edf7f6e7U, 0x1501f60d0ff5ffefU,
  0xfaf810f20c0dedfeU, 0xe0fef306f6f90aebU, 0xf8f7faf5fc0d06fbU, 0xff01fde9fadf00f5U,
  0x311301fdcd0519f2U, 0xe90afd07e6f6e8f2U, 0xe408edede800fdfeU, 0xd001c800f60ae210U,
  0xfdff0e312eeae6ecU, 0xebe7f604f9e1d604U, 0xeda01eff706d4d7U, 0x40beaf5e21419U,
  0xe9f3f92d190be0f1U, 0xfc101eebee1b11e8U, 0xf1f301cee9e402f6U, 0xedf7fef9f0e8f3f7U,
  0xf8ed07f2f402fbf7U, 0x80101f4e1f401faU, 0x7fa1615090d03fdU, 0x8e8f9fdf2dae509U,
  0xdd01f5f8e7f601e7U, 0xef90ef5ebf40301U, 0x2f4f8e1dce7fc0bU, 0x40ce705ebf8ebeeU,
  0xcfa06fed7fcf7f2U, 0xf9f1f2f8f8ec151fU, 0xf0ff5efe30a160cU, 0xf15fcf6faec0a05U,
  0xe1f6f51df7eb0afcU, 0x12d9c5f3e21ae8e0U, 0x20e00ecf8130f07U, 0xfc0ff2f502ef0d12U,
  0x114cc11fc0ae5f6U, 0x90719ebfff4d9f6U, 0x18ed00e0dffbf8d5U, 0xef080e101fff0121U,
  0x17e4fc00eaf0f0e2U, 0x120f0febede70901U, 0xfdf90a1cfbc1f1ebU, 0x160bfe0bf6de2213U,
  0xe7f602dfec1009dbU, 0xff0af7ecfd12e9f5U, 0xfd13080409e31511U, 0x91d021cf90adef4U,
  0xfa0a06f10411ff06U, 0xf1e4eefb03f6ffefU, 0x1050b050206fbdbU, 0x11f3110603fdf502U,
  0xe927f40e1aede1e0U, 0xea0208f1f40d07f1U, 0xee0a0dfff703f1f0U, 0xdcee0403f40800ffU,
  0xfaece8fe14f41de3U, 0xf2f2f6ddf3fd231fU, 0x2f7eb0eed01f109U, 0xfa02f7ed05fd0cf1U,
  0xfc05f5f0f10eeed6U, 0xe7effd1311f0f705U, 0xfce8dbf62bcdc70cU, 0x180efb0c1ff4fd07U,
  0x13faffe5ea0016f8U, 0x171c35f4ffe2ebf6U, 0xf5fac71a0cfbf7dfU, 0xd040010f6e10be4U,
  0xe8ffece60dfcee03U, 0xf4f404f7f4eb1309U, 0xd91fe6faf1f8e9f2U, 0xfae608ddebee02e5U,
  0xe80a0ce1f00be5d6U, 0xf819faf6fd15defcU, 0xceaf7def30a081aU, 0x14f4e407fdf906d7U,
  0xf3e3faf004ecf7feU, 0x2e604f608f01dfaU, 0xfcf5f1ef11e3f707U, 0xf11be5f1ecf4ee05U,
  0xde03fc08ece9e719U, 0xf50b0401e6eedb03U, 0x14fbe7feeff6f5ecU, 0xfdeff5f1ede709f3U,
  0xfc11f4e913fce52aU, 0xaeee4fee6f9070eU, 0x818ee10f421e0ecU, 0x11f30508fd0814eaU,
  0xf4e40be60df3e8fcU, 0xda03160104f702e1U, 0xf0eeede914e7e801U, 0xef1f04d8e3fef306U,
  0xafa0116fbf510eaU, 0x4efe3e1fdf9e6d3U, 0x5e4fdf1e203dff0U, 0x8ff1bfafbfefe0bU,
  0xf9f9fd16f4020afeU, 0xe736e2fef4f51408U, 0x1602f2e3f015f0e8U, 0xf8f6efeddd0e0211U,
  0x182a03ea0be9ef0dU, 0x100608f2edfc05ffU, 0xf80ce416f8ffe6e7U, 0x8fbef0aec0d20f4U,
  0xf8f50af0fb01f90eU, 0x3fcdaeeff1aeb11U, 0xe80cf2f4e70ae9efU, 0x111fc0b0dfde9efU,
  0x50bfbf9effe00e1U, 0x2713e5f3f5fe03e1U, 0x11f8ec2910dffdfdU, 0xcd04ed063018db02U,
  0xf7ddfe00e800f0faU, 0x5ebfd1603f1d50aU, 0xe7eceb0908f2e7f6U, 0x2e807cfdbf9fcf9U,
  0x706e223010fe0f9U, 0xe5fa13fbf70de7f4U, 0xeefbf111fa01ef05U, 0xcfff2f4d70ce81eU,
  0x3f829e8fa31ff0eU, 0xe80d1111fb0bfbefU, 0xf1ea0c00ffe9f0deU, 0xee0af1f3ecf913eeU,
  0xebe709d110ffe103U, 0xdfa11fcefb3f8fbU, 0xf0f1defafef4f90cU, 0xdafd04ffef25e5fcU,
  0xeb041605f9f2U, 0xf8f20404f61ae5e3U, 0x3eff700f4f5e5feU, 0xf401e8ded4eaffecU,
  0xef0c1508020501e1U, 0xf9ede8f602291fd5U, 0x9f90405e0f2f0d4U, 0xf5e10aeafaffe300U,
  0x51e23d27f9dc2c24U, 0xebe9e01b2d00cbd0U, 0xcc0eedf71cf00204U, 0xdc150cce391af809U,
  0xe0dc14d937ff23ceU, 0x21d4fc2330ec2f29U, 0xeeb42210db0bb4e8U, 0x1eff040403cb32e2U,
  0xf314fce7f8fa1704U, 0x4e23802610c04b5U, 0xc80cfefb13d400fcU, 0xcc09030a2de6ebf2U,
  0x50a07fe04ecfef8U, 0x40901ec12fd1de7U, 0xefd8ccf2fc1b0005U, 0xf812f60bc70de01fU,
  0xf3fe12b611ef0925U, 0xe2d8f906dffadaf2U, 0x16effcbaad0f0612U, 0x14fee7e528150a16U,
  0xb51ce40315dcdf1dU, 0x18141be9f0e9f927U, 0x12fe121806fbf536U, 0x2bfe19dbee1120f0U,
  0xc913f004eb051d08U, 0x10e30204bc17f5e5U, 0xf8fa033fd2f2251bU, 0xf5f4e91322171203U,
  0xd102e906f609d70eU, 0x6c005b3e7dff2c6U, 0xf2dff5faf9a52af8U, 0xcd0af735d613ec1bU,
  0xf3e0d9e9fac20bd9U, 0xef09f0faec02e5e8U, 0x150bedcd1f021e11U, 0xfee621f91ef7ffbdU,
  0xb8c6f9b12419f2f1U, 0xe4d2fceb11ec0e00U, 0xe42710211c041b15U, 0x5a0f0df61ad7de0cU,
  0x2212d51a0d06f7e7U, 0xe0ee22d5cc000ebeU, 0x3063941f71bf0f0U, 0xe4eb1421082acdedU,
  0x1304ece0fb2f27ceU, 0xeef50ff6f40514f6U, 0x13ef03f0e9fe2ccbU, 0xff28f2ec0dffcbcfU,
  0xd40ae6deeee50529U, 0x91b1ef0f314ded7U, 0x1e160bfae00c04e1U, 0xfed9fff3c517d7ecU,
  0x1001e304d64c04eaU, 0xe601da1d0e3cdeffU, 0xdf1f2bf07f30f1cU, 0x6f5f113e80438f3U,
  0x3309d6fffc07e02dU, 0xdd36e4e512ed00ecU, 0x201406f60631e3f8U, 0xf5f514270b12d5ffU,
  0x41517faf8d6efd9U, 0x2b01e504130e0df2U, 0x6eaf1f6d020cbe0U, 0xf91410f7f636e6e0U,
  0xd5c1ed04f6c9f104U, 0xed00f8fcf4f5ddccU, 0xe4ff28400d26e7e0U, 0xfcd7deede2f2d5e8U,
  0xa1b00fd2bf9153bU, 0xf406cf0bece9de22U, 0xf71eed0316f0df28U, 0xe2e9e9e3d8d7f20bU,
  0xe4e5fe0132f3f2c3U, 0x70a20f3f004faf7U, 0x1014f9d2e525c51aU, 0x1710fbc31ffefe1fU,
  0xf7fefcdde5d5fb20U, 0x7011c120abf1410U, 0xa15f023d9eaed19U, 0xa0c0ffc01f910d3U,
  0x16f3f3f4e539d4d7U, 0xfdda149800ebe505U, 0xd7dad62efc060703U, 0x3ecebfa11f7d8e5U,
  0xfe1d092303011811U, 0xfcda16eb18ddfbe0U, 0xd8e1ff0f1221a8f3U, 0xff3fcea04e4d5e2U,
  0xfadee3dcef0f2febU, 0x1f17140bec16db04U, 0xfb0600d6dee82de5U, 0x3013fbfb1e3b02f9U,
  0xf307ff0126dbf720U, 0xf2ccc6f523e1db04U, 0xf8120b161c12181dU, 0xf31115c128c8ecd5U,
  0xfba00f09d8ef13f6U, 0x2011f703f10112cbU, 0xd41dfc0bdd04eefaU, 0x7d23504100ce0f2U,
  0xff0b091af606e610U, 0x1e7f4e7032a111cU, 0x17f6c6edea0058f7U, 0x10df91cd6e528fbU,
  0x6e9fbfdf312f7e5U, 0xfc152604b213d4d1U, 0x5f2de211c2716d9U, 0x28fde704dde0f1d8U,
  0xcffa0010e405111aU, 0xfff206fbe9ff0433U, 0xe91703f919e018edU, 0xfbfcf8d2f918e2daU,
  0x2a24e0fb15f0e7e4U, 0xfaf7f6def20e060bU, 0xc01525f0e5dd37fcU, 0x1c0b06fffbf00bf9U,
  0xf21008f8e4fff0daU, 0xfbf6ebe715e6fbfeU, 0xde316ef03eae7d6U, 0x1cbf3e4ea1c07ffU,
  0xf21415f7d8f71ed5U, 0xe0d300db11fc0ae0U, 0xf4e216b5f0e4e016U, 0xeef81bd1c62cf9efU,
  0xcaefd7f3c3fe0af7U, 0xf80a22fdf9da10fbU, 0x206e0e1fef8eee5U, 0xf6fa01ff07e8ef0fU,
  0xfb08151af6c9eefcU, 0xd01ff1010102ed0aU, 0xdc01d9fe14ee2bfcU, 0xb02bbfdcffa1df2U,
  0xd405f6f3dc08f41cU, 0x2c1ad91cfd3ad9U, 0xc0c23f2fb0333ffU, 0xc8edfa290201f802U,
  0x1f39cb19e820ddf7U, 0xe0de1324cafd02f9U, 0xfce1f901e8ea0defU, 0xf1ec111522e6dde6U,
  0x161e05101317U, 0xc810fad400ef0ce7U, 0xea21050212fc1bf4U, 0xeb1ef1d1e600dcfcU,
  0x1fed605e1033713U, 0xf615010126d2f001U, 0x6cbe60b1309fd31U, 0x7e8e5e4fee0e7e5U,
  0xfebf6e8d9f9e8eaU, 0x152deb21b9f1e51bU, 0x2b27edbbf3fc080eU, 0xf120ecf21de013e1U,
  0x2ef2ea0ef7f40ffeU, 0xd5ea1502d7cfcff2U, 0xfa06e4ec2606ffe6U, 0xf7cfffb72405eed9U,
  0xea1d14ea0804fd0eU, 0x28fe2906e6091bfcU, 0x15020d012ef90b2bU, 0xd40fd7e7fcdec7f9U,
  0x1b0217e9130311feU, 0xeef0f0ae111f704U, 0x707dff410d72efaU, 0xe8d31ef8f6000c1fU,
  0x2f03fc0aefe90210U, 0xef16ec24040d2acfU, 0xe23b2005e6f62c05U, 0x1ee90ff60df80e2aU,
  0xef0d0af617e507e8U, 0x18ed08ee1414f3e5U, 0x9f3ea12f200f70bU, 0xe02212fffb10cf0aU,
  0x419d413dcf726efU, 0x1a1df8101ede190cU, 0xf6e2ee1c0cfd052cU, 0xa04f5f7dfc8f3fcU,
  0xfa0cfb09cef3dceaU, 0xe80ed1f70712f60eU, 0xfaee031bffff09f7U, 0x50ce61d3e1de0e8U,
  0x300f00e07f9410eU, 0xeede0ceeec243ffeU, 0xede2f4f81af0ee16U, 0xf6f506293ef5f4eaU,
  0xe5e50ff808fbf3c9U, 0xd7f9f402e6fdf4feU, 0xce0b0c1a1317df05U, 0xe4de01e9ee0509ffU,
  0xf9bbf21f0be112faU, 0x70df4f1f4fdfaf5U, 0xef13c418f7f82b0fU, 0xdffff80114fcecf1U,
  0xfb0101000403fcf7U, 0x3f40aeff6fd05f6U, 0xf4fa01f4fcf9fffdU, 0xe8f2f80cfb00f600U,
  0xf2fefc02f9040701U, 0xfafe020702fa0703U, 0x101f8fd0106faf7U, 0x1fcf803f916fbf3U,
  0xfc02fb01000008f4U, 0xfafc1ffa02fe0204U, 0xfdfbf6f3f4fa06feU, 0xf4ff08fafcf9f701U,
  0xf4fbfdfefaf9f6f9U, 0x3f9ee0ffff5f4f1U, 0xfff1f7fcf2fbff08U, 0xf3f104faeafcfb00U,
  0xfcfdfcfbfb020000U, 0xeffb01f50cf90901U, 0xfa06f4f001fef6ffU, 0x3f7edfbf402fdf4U,
  0xedfcf3010601fff6U, 0xfa01fdfdfdf3f30dU, 0xfdf5fbfcf810f806U, 0xfdf6fcf806faf2f6U,
  0x2f8fd010ff704faU, 0xf9fff3f00208fa01U, 0xfb03fefbf60e12f9U, 0xfcf1f6fcfafb04f9U,
  0xf70bf8fffef50af7U, 0xf20300f40afb02faU, 0xfdfcee05fc0d02f9U, 0x109fcfafefd04f4U,
  0xf50404fa01f6fc13U, 0xfd070604f800f602U, 0xfc06fafdfffbf5U, 0x307f614fcfafaf1U,
  0x803120402f8ea03U, 0x3f9fffef7fb0004U, 0x9fefa06fffffaeeU, 0x3fcfb01eafc0503U,
  0xfaf70908f1f405feU, 0xdf8f5f605f5f405U, 0x5fff8f7fcf6f4faU, 0xfbfef2f7eb07f505U,
  0xfef8faf9f9f9f802U, 0xf5fbf6fbeef80400U, 0xef8fdf701f2fdfbU, 0xee050af7feff0601U,
  0x2f2fb030500fef9U, 0xf7f8fcfaf7f9f9edU, 0x4f3f9f4f5fdfaecU, 0xf5ff050100fafdffU,
  0x91202f7fafc01fdU, 0xfdf600fc01fdfef2U, 0xf9fcf0f601fcf5f8U, 0xf6fa030203f5f3fbU,
  0xedf20008f8020407U, 0xf4fb10070104fcU, 0x1fbfd09fbfffef8U, 0xfcfff902ebf60cf8U,
  0xf60afefc01f109fcU, 0xfffef70001fe1102U, 0xfdf902f9f502ef01U, 0xfbf8f601fcf0edf8U,
  0xf7371dfd2f16e3f3U, 0xf7310a01eef0052dU, 0x4a1c09f7dff51d2bU, 0xe1f5ec00fc160d09U,
  0x11e5eb26eef2edfcU, 0xbcde7e0e7dde9ecU, 0xfaf6eecf00edb6e6U, 0x1f11130cf3eefd06U,
  0xb1314eaec1fd2d6U, 0xe5ebf603fc14fc23U, 0xc81fecfb12113a17U, 0xfe070eedec27e7d6U,
  0x29ede3cef705e0f7U, 0x11cbe4ff07dce016U, 0xe80eebe827fa27efU, 0x22f31e16f009e8f3U,
  0xd4df06f8efeae8ecU, 0xe60defef07cb10c6U, 0x1105f3e0e7fef30bU, 0x7e4e7f1f0f0c5U,
  0xf7ebed1af60f1fe5U, 0xdec6d6b714d212dbU, 0xc6ca1b0d010b3bd8U, 0xee0ac214f00100dfU,
  0x2400ead734131acdU, 0x723eabbfed9ffd6U, 0xeb08d81cf1202d14U, 0xfdae0e3d4f8170cU,
  0x1bf41601090f02eaU, 0x5f5e9f525db0707U, 0xeb1becf0f315c2f4U, 0xe1f5e2dc0c10c800U,
  0xcbfb3705c7e90c1bU, 0xcc2fddec2ece3a2cU, 0xb19cb0cfdf2e801U, 0x6f0fcfc0c16e301U,
  0xf6f31609fef5fb24U, 0xe4f1e128f303d0f9U, 0x3df3e8f112ded4fdU, 0x1aed1aedfdf4f7e6U,
  0x1df304251706e54cU, 0x6ef2fdd122ef615U, 0xea03e3161efa16c2U, 0x13af716d0edee0fU,
  0xe0db08dd12fe17e6U, 0x12f1e701f8c9dad7U, 0xf0f8fb10de0ee2edU, 0xfa00fddd1005170bU,
  0xe11a00051ef6f5efU, 0xcd0c13e9f4cf16cfU, 0x230d10dc1de8f9eeU, 0xe11c11e82000dfe4U,
  0xd6d1fdf410f00cf4U, 0xee29ebcffae30ee2U, 0xf904e301ed041a0cU, 0x171df109ed4ae6f1U,
  0xcce51c07fde625e8U, 0xed12012703210408U, 0xf0dcd0f09fa24c0U, 0xaef31d50925f7e8U,
  0xfdfdf9f3062d022cU, 0xc40a032235ee22fcU, 0x2e0412d8edcfeee5U, 0x4e2f011f404c905U,
  0xf61807f0f1f5fb01U, 0x100eef0012707e9U, 0x4f61401f60f08efU, 0x162704ff03d5f1f5U,
  0xef04e1ed08ffff04U, 0x6110af5fceee7feU, 0x102fefa05fa01f6U, 0xffa01ddf1cdf415U,
  0x13efdaf31920f2e9U, 0xf2f0f6d1eae1f2deU, 0x210102fe0c0b0009U, 0xed18cef7f4fff3f9U,
  0xf5e005d1ede809feU, 0xf3e009ecfbf212fdU, 0xaf3f104fcf6f20bU, 0x915150aec0ffef1U,
  0xf08080b09ea03d8U, 0x18eaf3f7f103f4edU, 0xe5f7edf9ecfafaf0U, 0xf7eedfe9f7fffbefU,
  0xe1dfe906f1f8eb0cU, 0x1f6e015f3ffeafbU, 0xf6041c0306f102f1U, 0x7e1e8faf220ecefU,
  0x2f604d527e8fee2U, 0xe403f703dbf9feebU, 0x12e51efddee709edU, 0xfdf4f9ebf4f3070dU,
  0xe90c1cfeec09d1d1U, 0x7eee7f2defa14e7U, 0xf0f50d070603f0feU, 0xffebfb1d01e122f2U,
  0xf911e507090b07f6U, 0xe1e60500ec0cfa2aU, 0xda1d00f70eeef714U, 0xffe3ecec1fecddefU,
  0xe901ffbae5eded22U, 0xf10f04d300f8e3d1U, 0xf8f1ef03ee08e4f9U, 0xdc05ddf8fcc7e41fU,
  0xec06e4fbf708e224U, 0xebf52107081204e2U, 0x80ad6ecefee1ae2U, 0xe9ebd5f1e70807ecU,
  0xe916e509dbf9f8dfU, 0x4cadcf413ff18ffU, 0xf5fa0f2ef8eb0f0eU, 0xf700f1fd0dfefc0bU,
  0xf7f30d02f0def110U, 0xf2d60ff906e5f8e4U, 0x604f126152cfe04U, 0xecedfbf90816dd00U,
  0x3fb0ffa06f8fbe7U, 0x6ea0c0fffebf01bU, 0xff112e6f922ef02U, 0x1527ea0af41d03f7U,
  0xffbc9e4dcf3cef7U, 0xf7e9f90bf0faeaf5U, 0xea00f2fad9f110e8U, 0xf1f3fef5221ae0eaU,
  0xd2007e0e3ea0dU, 0xeea13df04dff01bU, 0xfa071bf5f9f00d0dU, 0xddfc091f04171100U,
  0xede214f00a0ef616U, 0xd02fbe20cf00507U, 0x1f11009000823e9U, 0xeffef00a1cffff14U,
  0xef02f1f7f1ebf5fcU, 0xfefaeffe0201110bU, 0x2deeeaedf6f607f0U, 0xfd10f4f8ebfff6f9U,
  0xf004fbea04f8f604U, 0xf9f7f1fafd0efeedU, 0xfbe7f1e0fa11fce4U, 0x9e307f1ef1417f6U,
  0xfbf200f40de3f702U, 0xf30e09ebe5edfcfbU, 0xdd0501e7fff709e4U, 0xf4f9f60a08f8f3f7U,
  0xf8fff404fffcf5f3U, 0xe5eb131124ecfdf5U, 0xf6edff00f1fe12f3U, 0xe102f7e402f00cf1U,
  0x5f4fdfdf808f803U, 0xfb07fbeae3f3fafcU, 0xeb11f6f5edf5f906U, 0xe09eef7faf9f509U,
  0xef11b160c0bf40aU, 0xef060213fa1e000eU, 0x70af2f304f7eb07U, 0xedfd04fdf2ebf6f4U,
  0xecf2fe11ef02fffbU, 0xf8fc11faf6080e00U, 0xf4ef04eefbec0feeU, 0xfd01eff31afcf6fbU,
  0xe90aea030bed1afbU, 0xf004f015ff110afaU, 0xf20606fae0010be1U, 0xfa05000afcfaf9fcU,
  0xfdf0f6f5f3f2f2efU, 0xfff9f1fbf9ece9f0U, 0xf805f209fa0311deU, 0xe320fde50701ff11U,
  0xf70300ff140e0f0dU, 0xfc0011fa0400ef06U, 0xfef3f7f2fe0600ebU, 0xe8050c04f7fcff0dU,
  0x50401fbe81500fbU, 0xf4f904eef9eef3e7U, 0xe9fef2fad8f7fff9U, 0xfcf70b0cecf1ee04U,
  0xf919f8f0fff8f1fbU, 0x9f9fb06f4ebe0eaU, 0xfbf817e51311e4e8U, 0xf9ff00fd0909ec02U,
  0x706eefd0af9f5faU, 0xede2f4e9cf04fdf2U, 0xf001fe0af505f020U, 0xf6030106f8fc0202U,
  0xfffcf5dc0cfefffbU, 0xf80100faf5ebe400U, 0x10f09fe02f80b02U, 0x1faf2f0d3f2ee14U,
  0xfdebf313eefef612U, 0xf605112efceefe04U, 0x2e907f2190706fbU, 0xfa0d0e020304e506U,
  0xbeb0efbe3ddeb03U, 0xae3f22af81af3ebU, 0xfe08f9e4efe007fcU, 0xdd1ecde1ede2fb30U,
  0xf32021f4d9fefa11U, 0x5c40ff40009e6f5U, 0xf2def41303fc0301U, 0xe2031006fd1326dfU,
  0xd301f1f118eb2407U, 0xd500fc29080ce9c6U, 0xef15f7ee0b071febU, 0xede3d3fc16090204U,
  0x13071315f2e915f1U, 0xfe7090bf1d4eaf5U, 0x7d3eafe13fbf4eeU, 0xec05ef0cf020f7f8U,
  0x81714def9d0dff3U, 0xeefeff1e12ddf8fcU, 0xfecc08deded90604U, 0xdae8f3fa0bec1ce3U,
  0xe6e7fee4f9dcf2deU, 0xcd1222e2e4f4ecU, 0x1ffafee6e2e714feU, 0xe9d804e8f1e30228U,
  0x28c8f4fe231de6e9U, 0xeafcfbf4e415f1fcU, 0xd303fb16f8f0d6f5U, 0x9e8fcf8081309e7U,
  0xfbeafc01f6eaf009U, 0x8fd0e0f03e8fadbU, 0x7ecde05cedefefcU, 0xf3fad4f5da15f8f4U,
  0x18f9fdd5f3ea1ee7U, 0x51eece0d9cd0213U, 0xf4fe21d4fddb0dfcU, 0xef2f92619f800faU,
  0xeefcd1f818160ad8U, 0x3021421fb0c2deeU, 0xa0e08e717fbe301U, 0xca1d21fdf101d80eU,
  0x24d4ee04fc08e9feU, 0xf8230ef40ef019f5U, 0xf1ced28db0aedf8U, 0xfd3c1210f9d4ea19U,
  0xee904fdf2e6fbf9U, 0xe4faf4e1f504ebf8U, 0xf5cee8ffe31d16f8U, 0xe7ccf7e8f6cad3e5U,
