/**
  ******************************************************************************
  * @file    twoline_data_params.c
  * @author  AST Embedded Analytics Research Platform
  * @date    Tue Nov 14 01:07:01 2023
  * @brief   AI Tool Automatic Code Generator for Embedded NN computing
  ******************************************************************************
  * Copyright (c) 2023 STMicroelectronics.
  * All rights reserved.
  *
  * This software is licensed under terms that can be found in the LICENSE file
  * in the root directory of this software component.
  * If no LICENSE file comes with this software, it is provided AS-IS.
  ******************************************************************************
  */

#include "twoline_data_params.h"


/**  Activations Section  ****************************************************/
ai_handle g_twoline_activations_table[1 + 2] = {
  AI_HANDLE_PTR(AI_MAGIC_MARKER),
  AI_HANDLE_PTR(NULL),
  AI_HANDLE_PTR(AI_MAGIC_MARKER),
};




/**  Weights Section  ********************************************************/
AI_ALIGNED(32)
const ai_u64 s_twoline_weights_array_u64[10738] = {
  0xfe12fbe41107f705U, 0x171bf5060e060e35U, 0xeb3d09fa38d230ecU, 0xeaeff2250942e205U,
  0x1cda1913c4f1e8U, 0xeefd0e1113de090dU, 0xf7d70af4dcedecefU, 0xeed8fff21d140627U,
  0xea21e8f7f1d634e1U, 0xfeecd501dff40f01U, 0xf333fd32e8e2e12cU, 0x7d107fdfcf31121U,
  0x115eaef0de80612U, 0x1933f0f8fcdb22ebU, 0x26ff000619ebec1bU, 0xf9dac115fb02c90fU,
  0xe171c353b05040fU, 0xed04ec39c602ea12U, 0xf708fcf2efe5d909U, 0xfe551f07fbe7f121U,
  0xf61126120425ff12U, 0xfe02dffb32ff04f5U, 0x16c3fff7e9020bfaU, 0xdc030d30d8180defU,
  0xfe1306f9081235f6U, 0x29effef5df1de711U, 0xf9fc1605def1e8ebU, 0x13d41b1b05fcf20eU,
  0x151bf0e4faeff814U, 0xf8e622031be435ebU, 0xf714f306edf8fcf6U, 0xf112bf56f11909e0U,
  0xcf500eb14e2f020U, 0x635c50a22ec020eU, 0xf00f1414f71d13ecU, 0xf9f01a0d0321f90bU,
  0x315fe1c111e00d3U, 0xfcee0a02f937faf9U, 0xe4e810210d1d19f9U, 0xf41ff8e4eb2d1feeU,
  0xcfce90dee05f5f3U, 0x1cfa03e9f5bc0117U, 0xd0ff011320080cf2U, 0xfffcfacd1906e624U,
  0xe3d216f1f9ff140aU, 0xda043330f5efdafcU, 0xf1011ff316dd2424U, 0x1503fefcc92601f3U,
  0x14d9edc3f1291bf2U, 0x18faed0e0704eb29U, 0xf115e71f0102d818U, 0x1adafe1e060d08e3U,
  0xc2f0ae4c2e5f0f5U, 0x32111f6131ff226U, 0xb5e1ea17fb0d1019U, 0xea06e7ecebff0ae1U,
  0xceb0a1f09321cddU, 0xda2c09f4ec0bf6e5U, 0x2620fcfd00f90f1fU, 0x23f503e9f11edce6U,
  0xfc0cee01ef15e7baU, 0xd05f90901f9f610U, 0xfdf7a60613020703U, 0x422180cf7f4e03cU,
  0xfd0e0606d70c090aU, 0xe13080221201dfaU, 0xf50514101204eaf9U, 0xe7e9f5090200082aU,
  0xde0ac939e7eaf9f0U, 0xffef0e0511f006e0U, 0x1617fbeddff40e06U, 0xdef218ac3a27ff12U,
  0xfcbbfc1cf6e427fcU, 0xe6011cf6f723f02bU, 0x634ecf81819d909U, 0xda45e8dff2f7f2e5U,
  0xff00bf1de17f8feU, 0xfe2a0ce32e122800U, 0xee2626dde626e916U, 0x5e6d6110e2f1fedU,
  0xe6edf4150b312007U, 0x18e94cfc0c00c51eU, 0x2b0c2be7f600f3f9U, 0x21040be91622eaf0U,
  0xdf8f035100df311U, 0xf303ffcc121ee30cU, 0xfe151aebc7f1e023U, 0xf1fd05c528f7ea27U,
  0xcf2c15f625e6dc1fU, 0xfa1d1cee0afe0720U, 0xf80ffefc08d40eeeU, 0xf7fd012ef03808edU,
  0xefe6d2140de610fdU, 0x58d3d9fd0200e6feU, 0xe8f1fa17110ff41bU, 0x8e026cceddef6feU,
  0x1d02d3180109ed31U, 0xc21ff06260dfb0aU, 0x2aeefffb08030ffaU, 0xf813ead5f7240118U,
  0xd4fdce19e417f6efU, 0xdf0ef13724e82708U, 0x5e5fa0de9f70ef4U, 0xff061d1c18ecfaf1U,
  0x16202136e3fce618U, 0xf2cd15e1eeefebU, 0xe223091001cc0f0bU, 0x3a1edf23c4f7e90aU,
  0xeda10fdff03de01U, 0x2a11f5eb06f70bd7U, 0xfb1d22cb09240bfcU, 0xf9f1eae932c903fbU,
  0x6eff7f4fa0206eaU, 0xaf5e5071c140af6U, 0xfa03190dc7def8fbU, 0x2005de2c1a041adfU,
  0x7dc320018211bebU, 0xc2190f35031bd10bU, 0xfe1601ee110aedfbU, 0xe03029f637cd1611U,
  0xf8ce0101f022d90fU, 0x1e1a2cd6f406e108U, 0xfcf5fe0b05f8fe06U, 0x12ce18eaf0ed1befU,
  0xf0f20f0412f4171fU, 0x710113012bcfcf4U, 0x217d12403f023d7U, 0xf1f406e0040a17cfU,
  0xd05e20d15d02d08U, 0xeafdd301e302fcU, 0x7e61b002f1ffdecU, 0xd1e10905c91c11fbU,
  0x23f8d8d2f6f0ee11U, 0x1f1a140d0c17f429U, 0x2b06c7e6e4f84121U, 0xdb102ce9f80b010dU,
  0x2103ebe1f21f014eU, 0xf10514efdd2f2b10U, 0x1c1d001ae500f6f7U, 0x60fe411f6e4ee14U,
  0x14fab30903ce17cfU, 0xf5fa01d3fdf1fb01U, 0x231807000106fee3U, 0x71df60315130519U,
  0xebff0717dbfff830U, 0xfeff03ec01f5f4f7U, 0xe526edd3f3df0009U, 0xfad1f91b131ef7fdU,
  0x8fa1704fafdebdeU, 0x501e1d329bdc816U, 0xa091302fd4df9efU, 0xf608d1cff1eaf2fcU,
  0x2510eb082b06e410U, 0x30af3ef02f2f8f4U, 0xfd150945fde713f8U, 0xe7321de7ee0fee00U,
  0xebfee411f6e60ef8U, 0xfd073a0d0c410cf9U, 0x1e0031fa18f002feU, 0xd0422edf7f405f6U,
  0xd1f60804f1f2e8f5U, 0xfce527ec080ce908U, 0xed0e0b454bfa02f2U, 0x16f4e6e0f9ec2206U,
  0x1010fb1ddf14f202U, 0xf9f9e1022314f1f9U, 0x2a3304ebe5e10c26U, 0x24e6e8e711cffefeU,
  0xe00b2ae704efede3U, 0xf51e0ae8ee090af8U, 0x3dff6fb12e91c02U, 0xe7012024dd0c0204U,
  0xeff713d8161be7e9U, 0xd319f8f9252dfdfcU, 0x131be9fa03fdd22eU, 0x8ebfa05092303e2U,
  0x1013e0f3dae4fefaU, 0xede110ebd31af0fdU, 0x2e12142cc921d3f8U, 0x18ef0101351e2306U,
  0x1ff1df45fffcd5ebU, 0xf50805ee16391a11U, 0x261cc215ec161fe6U, 0xeff338fe16da0d03U,
  0xf3f8040c0619edd2U, 0x4ec18f61437f5fcU, 0x1feee9df170bddf6U, 0x1ff2102ef2d0614U,
  0x20b22e9edda1815U, 0x14fadbf9f0d51331U, 0x80f04d9181e10f7U, 0xf2ea0b0be1f72823U,
  0x200a05f9fae4e002U, 0xfaee07141f15faebU, 0x8010cdf3f25d810U, 0xf0f81ad808f60dfeU,
  0x2903fae4d3040905U, 0xf0f4031de8d20fe5U, 0xf213e6f018eb02f5U, 0xf60819d91309fd06U,
  0x4936fadce010f8dbU, 0xe6e5ece4c51cbcf9U, 0x1e5fb1807f31c10U, 0x2510fb0d2d042af5U,
  0x12ea17fd070bef00U, 0x12ffefe506e206ebU, 0x13153907c2ff08daU, 0xf83305d40700eb11U,
  0x1b13c515eb0bebU, 0x21e01e20af93c0aU, 0xef1f23e8fdf0e5f3U, 0x1ce10fdfff00150aU,
  0x23f1eee21e12f5cbU, 0x4eec21414f04bdcU, 0x30f3f70c11e916ffU, 0xfbff0008d6e025f2U,
  0xec0aef0a10fffdffU, 0xfef00c1bfc1700ebU, 0x16f7eff0f9d7c8U, 0x22d8fe16c705e2e8U,
  0xfc0216e3fe07f9f1U, 0xfb22200bc740edU, 0x1706d9fc01effefbU, 0xfd26e84b01fcfcfbU,
  0xe506ed055cdd0313U, 0x1070ec31eff240cU, 0xf6dce406090a0904U, 0x304d0d9e91c2ff9U,
  0xeaf1f80913ee21e0U, 0x113f0fd06fce71dU, 0xf8242ee8f61706d1U, 0x110cef010303facfU,
  0x1e5fe08e3240ae6U, 0x11e0110f5e2001eU, 0xe7f9d91313f61205U, 0x4090409fb0bfaf8U,
  0xf0fd23f9b425d9eeU, 0xf9d8d21ff52c0a07U, 0x90b00100acecedbU, 0xfa1a01ddddfb1309U,
  0x335e3db1c15f715U, 0xeae90fcb0c1cf2faU, 0x200d13f7e81e1704U, 0x27ee331014f72004U,
  0x1a100830feec0001U, 0x232b1b000aee43ffU, 0xd4ca37df24c323edU, 0xe201021f04f8f9f2U,
  0xfdee111b1af7e0f6U, 0xfe10e8e502ff1415U, 0xfbdadbf527d8f5d5U, 0x4010d06d04dfffdU,
  0xed0101e7fef60ff9U, 0xdcfa1eda12f0ead6U, 0xf3f20e1b393ef507U, 0xf00d191614fcf6f3U,
  0xfbe9ff06fbe8ee02U, 0xdd3cf3f1f2fc1006U, 0xaf20d26ece4f7edU, 0x222806f0ee11fbecU,
  0xcbf7192230fafc19U, 0xfde848f527ec0cffU, 0xfa0ef3f3023be3e3U, 0xcb17f81a44f60d03U,
  0x1cdd1cfde30cfff1U, 0x22d10228fbf71f0bU, 0x8fe2005f12c2008U, 0x1dda3725d21a0ce7U,
  0xf30f00f21ee9ff0dU, 0x21b060afced3210U, 0x112702f3e511020dU, 0xdc1c12e703f106f8U,
  0x18e5e8f2fa010be3U, 0x635f0e80f12fb25U, 0xe10e0410061af1e1U, 0x171011381afe1efaU,
  0x1c1befec2b14f9deU, 0x10cc1081ae7201dU, 0xef9061501102cefU, 0xeafbecf9fbfed012U,
  0xf3f5f610ef0f16e3U, 0x1304e2f5ff2cddf2U, 0x1bd631fe01f00ff2U, 0xf5fff901d509fce9U,
  0x209150929adde05U, 0xfc22e4fece0327faU, 0xff030e0e0316e4ffU, 0xe0ddf14d8d80e16U,
  0x22eb24fe2a0d0c0cU, 0xf200f01904e70705U, 0xf12e749dcfecffbU, 0xe8e3f3220bebaccaU,
  0xfe07e0020302d6f6U, 0x271e06eb1f04f610U, 0x24fe460cfd0c03d5U, 0x17e7ee0d1914cdf3U,
  0x7eb040c243626fdU, 0xe9392ceef8ecf118U, 0xec1d01f3050ce432U, 0x1ef412f4f4d01ff6U,
  0x227e6fc0e0ed6f7U, 0x7e4fe0d1703fbe4U, 0x242af1e6c8042627U, 0x15f23705f10dfd32U,
  0xf5e9f2171aedcf34U, 0x15000728e51d1b19U, 0xf6efee0be0e224edU, 0xe20a1a130d09f31aU,
  0x7e8d7fce236061aU, 0xefeaf4ea0306fd0dU, 0x220aeb32d8d314fbU, 0x12f5151fd8df0ee1U,
  0x10f2390ce0151423U, 0x14e4e7f5d0d7df15U, 0x2fee2df1908fe14U, 0xff1511ee03da0304U,
  0x3e03fd1af50fec1eU, 0xeadf35ebf8f21319U, 0xec04ee11c7f914e4U, 0x8f024080b06fdd7U,
  0x9f606eee1eefef9U, 0x4f714043c0a0d19U, 0xf5e400e11222e912U, 0xf063a0f07e800e3U,
  0x23709f6efe9ed07U, 0x1512f113f813f431U, 0x10302c02f2e1f412U, 0xe9fc24f6f60be6ffU,
  0x131c01f1de022de0U, 0xf10e25f41c1ad4fdU, 0x10e7d51825172209U, 0xe80715efedefe908U,
  0xf0f2ea4704ebebf8U, 0xecde15f814fcf9f2U, 0x6180deb211b07f7U, 0xce22bf13edf7f71bU,
  0x13dbe61af8000418U, 0xf30a0719060f24efU, 0x32c20021ff516e7U, 0xfeec18e8ed100efdU,
  0xe3fff1f0d9dd16e7U, 0xdcfce657361f0916U, 0x1ef3f5fcf3e416f3U, 0xfd0bf5d7e82cdc19U,
  0x408fcea1ae5fa08U, 0xdedf0e2628f6efebU, 0xfb11000f0fe2fd02U, 0x71c180ed8d8f802U,
  0x1ee93bcc06ecf0fbU, 0xe8f704171ff2fdffU, 0xebfefb2c3411f906U, 0xeafdf30520f7e5fdU,
  0x2e06e2f5eefed7edU, 0xfe14fafed0f93109U, 0xbf1eafd2ce00121U, 0x14000dfbd6f1f4c1U,
  0x11110504ff18dd18U, 0xf411030bedfb05ffU, 0xd2fb30ed06eefbdbU, 0x1b23d818f0ed0920U,
  0xfdf627f21205e405U, 0xfd000c140afe000cU, 0xd0506f1f3dd5c1bU, 0xfce10070bed00ecU,
  0xf21bfbc50517f1f5U, 0x2a19f213e70afa09U, 0x9090907d9e22ff2U, 0xda1d00f71b1d0618U,
  0xcff4f7041f17db04U, 0xfadbf7ffe8e3ef2fU, 0xef181afef9061312U, 0xafeed15e0f8f7e8U,
  0xf5ed2a1eefd9fc13U, 0x320030325e526d5U, 0x15fce1140bf3e305U, 0xf6f8e12a2519fef6U,
  0xfdf22fe7d503fef4U, 0xf3f3f309e2db2912U, 0x1c07f2f804e1e4ffU, 0x7eeef2cf3f8e60cU,
  0x5ee2e8cf150912e9U, 0x1dfae4e4df1d2ef6U, 0xd7fae305f4d7132aU, 0x3f01dd042532fe06U,
  0xf00c2018000113f6U, 0xfe0d10d81935fe2bU, 0x11ff0a22e818eaefU, 0x341210f715fb09feU,
  0xfee16e00a1d1501U, 0x13281723f4e8d7f4U, 0x1b0fddfce6e8fb27U, 0xea2bdde90cea070eU,
  0xc601112e32a1ee8U, 0x812fee814d8eac6U, 0xf518041fe4161cd9U, 0x1a26d8ebf8330b22U,
  0x16f2f5fe14ed2f36U, 0x710e2fb1930170eU, 0xcdf6fced19dbfc07U, 0xf211fb18fcdcee03U,
  0xf4fceb00d426f0eeU, 0x2fc0c000a155814U, 0xd904360bcf0c0915U, 0x1efdee132417ed00U,
  0xdc03f9f6fff5f500U, 0x3b2bf01cfc12e821U, 0x15040a170027e601U, 0x60e5ee71efbf4ebU,
  0xdcf7eade24feff13U, 0xec09fa0506f7ec27U, 0xe902ede81af2f30fU, 0xe2eaf1310205f9ffU,
  0xf200d4fe2f9060cU, 0x70105132eebf5e6U, 0x37dcee3133edfee9U, 0x1725f1211502da2cU,
  0x7f208fb0dfc10dfU, 0x12dd0e08f3e9ea13U, 0xe6f8241afff91c35U, 0xe1e2f2ff0ddbf608U,
  0xed1910efe00e09f6U, 0xe40afcfe0120fd19U, 0x2dbfd09164c14f9U, 0x2c25ff18fbe703daU,
  0x1b25fb19f0040917U, 0xf91108e437250916U, 0xfbed060b01f12aU, 0xfe170a19d42a0221U,
  0xfef603ee03cd19f0U, 0xe21715050527d324U, 0xf8050ee5e6fc00f6U, 0x103f3213034fbf4U,
  0x14f9e0e23efa1d31U, 0xe920f526dee900d6U, 0xf3043308f6240d07U, 0x3ea241b0ae0e3e7U,
  0xf0200035131aed14U, 0xf90ff4c4ea030505U, 0xe3e92aebee110014U, 0xc2fd303f0e52128U,
  0x35f706c0f6151117U, 0x20e103fedaf10f0dU, 0x112a27f401131920U, 0xec15090df50dfa08U,
  0xe20703dd0e031c0cU, 0xf30c42db0ee7df0dU, 0x2115252e0bf5cef0U, 0xfd34ff19f110ff15U,
  0xf9f3f4f916010501U, 0xe01a09fff3010516U, 0xeb071420d826e8fcU, 0xcfee000614e0cf00U,
  0x1efe1604070b2af8U, 0xcdefebebd21aff23U, 0xfcf8140b1bee09fdU, 0xe3ee03f0f62b05d9U,
  0xe7f5ef12e50f31f9U, 0x1cedcf1401fe031eU, 0xe120effaebffed0aU, 0x25f027e716fd0af1U,
  0xff3fa02e805e043U, 0xe218f624ed171924U, 0x5f50c35e10f2edaU, 0xf02ae71ee6f1facbU,
  0xf7fff7e31eeb0d10U, 0xe5170c13ebea0bf3U, 0x13f006e9f9f40c06U, 0x1710dce74bf93420U,
  0xf2ebebd715ef2f0eU, 0x7e513ea09e30ffaU, 0x1300bfef14f9f425U, 0x1e22d0dc1bed25e2U,
  0xfbedf105eecc09feU, 0x511f8d6fe14171cU, 0x12080a0007f9e7fbU, 0xf3d4073b02ce0a1aU,
  0xd20814d418e70beaU, 0xc8f01001e2010012U, 0xfa0d0c290de80e0dU, 0x1201819f5ff391dU,
  0xf6d30f073807dc02U, 0xde13eff204f7c60bU, 0xff1207efe0cd2cfbU, 0xec1a02f80e11d713U,
  0xf20823202dd80af6U, 0x31e20934f11007e6U, 0x13bc20f70a07e3f5U, 0xe5ecf9da051bfa0bU,
  0xfe0f03f217ee3df5U, 0xcefae0d9f0100ef2U, 0xfd22cfee1dfced2cU, 0xfffd45f41338150bU,
  0x102b18efe2e206f3U, 0xeecf2f6f13c08f6U, 0x1efc290fdcf513f9U, 0xf70b4d160e0f0a0cU,
  0xebfd0c07db1c10f0U, 0xf3050dfe11f6f208U, 0xcbe90df6eef72620U, 0x1807ebf5030b10U,
  0xe30822fcdff90321U, 0xeadc0308150324e2U, 0xc12e3d917dbdcf9U, 0x2f5a041909dfe7dfU,
  0xf0fd2303ed0208f8U, 0xf0091f13080fe706U, 0x7eedae5f104f208U, 0x80931d6dff4f309U,
  0x1b1e01f3180a10efU, 0xe803f6ddb20f1804U, 0xc1c034e1f1203e7U, 0xfdffe2071215f4dfU,
  0xf719ff4adcc305deU, 0x2101b9f4ecf0dad6U, 0xa2911311113f4d2U, 0x170701f6e914f0e3U,
  0xf4fbee11040c0602U, 0xfafc2235012d0ae4U, 0x13e4edeefdfb04f7U, 0x14c5320208ec0800U,
  0xfffe12dd2ce905U, 0x61efef2bb02d7e4U, 0xe040aef020cf9fdU, 0x1011ef7f6d2e511U,
  0x110eee1ee8f934d8U, 0xad09fe0c02f2f2f3U, 0xd9f40ae003e5f817U, 0xc0c07fb14f7f806U,
  0xe1c2d1f0f8f208edU, 0x16180533dd10dae0U, 0xe008dd00e80e3be9U, 0xcc1fd11916002e03U,
  0xf225100b22d2e5dfU, 0x1e0a01e5d108021cU, 0x16210af5ee06fbeeU, 0x16ec3204001ad811U,
  0xfbda0bd7db1ef805U, 0xbd93a271018ee0bU, 0xf70310fd15fe15f4U, 0xe90a17f022f40507U,
  0xae6102b1ff2bef7U, 0x1908e3f6e1f40bU, 0x2fc0716c836e2f1U, 0xf3e5002cf8020cf2U,
  0xe7f9fb3d09e1f3ffU, 0xeb1000f0c61917feU, 0xd9fb0ad0050208f2U, 0xfb19f21cf93ee623U,
  0xdf031604ee10e215U, 0xfd012d1a05d6df1aU, 0xa2ce8de0df0edeaU, 0xc233ffbfff906dbU,
  0xff02dee02e071df5U, 0xf1f6fa31031718e5U, 0x2346f1f8ecf9ddf4U, 0xf305071b2427f2U,
  0xf804dfccfffffff2U, 0xf5170b06c2170bfdU, 0x1605fb14f91708e3U, 0x2ce71d0afff8e707U,
  0xe204e71c09f0d4d2U, 0x191e25030bf5d6fbU, 0xe4f11f01e1dd1d04U, 0x1806db0ae5180505U,
  0x1efc26f109edf5e9U, 0x6e4fbf500133120U, 0x160a0a03ffec2626U, 0x1c08f8cb39f4f7fcU,
  0xae1f71925ecf9f4U, 0xfd0f1cdc0702e8f5U, 0xd324f7f402ee0707U, 0xe50208040405f41dU,
  0x2306f3131efffe18U, 0xe9f5e6d61e0bf9deU, 0xe425ff17fa2d03f8U, 0xee11fc06e4e615ecU,
  0x3556f324ec18d812U, 0xe8f20efbe5f4e5d6U, 0x221ff1fd24e2de17U, 0x6f3e00c3518d518U,
  0xf0fd1c0211e3f2fdU, 0x2f5de22fefde8U, 0x30f10d1533d21d03U, 0xff21ef261d06f9f9U,
  0x261d0e381a26e513U, 0x1111aea00002de0U, 0xf5000210e005da1bU, 0xf201f0f40fd80d2cU,
  0x4f124f7ed08fd02U, 0x8ffd9f1e51c063aU, 0x13dfe701e6143fd1U, 0x1030ff4f915ef09U,
  0x121adff21bf3c7fdU, 0xdb09dc12ea072905U, 0x25faeb2323f9f1dcU, 0xd7e803efe3f52bU,
  0x3e4e4d81c0df9f4U, 0xf1fe311ef6f3f305U, 0x14f5f222ec0ff202U, 0x412f617e7f3e40eU,
  0x1f122f070bc10d12U, 0x1a09171800f714d6U, 0xf0f5f9f9f539f9e9U, 0xf6f4e003c6e60a05U,
  0x2a2203e1020b0a17U, 0x50c0e02e816041bU, 0xf8f447de300a0900U, 0x24df1bffe7eb1108U,
  0x2220fff601f13800U, 0xfec6fc05efff01e2U, 0xe7fbfbfcf2eb1c30U, 0xd5f129103df2e6fcU,
  0xfbeef8e510000df6U, 0xdefcdcfe06e30d2dU, 0x46f9220ef00c05e3U, 0x24de1905ebef15f1U,
  0x21c4f71502dfff19U, 0x1310f90ce0f9e1fdU, 0xfd23f93bf7f40c0bU, 0x1deb0903e2fc040cU,
  0x352fede2fced12faU, 0xe0212bf70b0ff8d7U, 0x10ff101afe061b11U, 0xc70705f7f0fcdd0dU,
  0x8d633ecf20e10f1U, 0xffe912ed0f161508U, 0xf7ee09cde010f3f5U, 0xfd14eedbee131f10U,
  0x150afdd01502d316U, 0xfd0a1612f90be1dbU, 0xe3f6f8ffffedfddeU, 0xeb11f121e2dfe917U,
  0x1fff0bfa36fe0ad5U, 0x100139e109fd00f2U, 0x2c1617ff06d7ecU, 0xeb1bd5ccec050f00U,
  0x3208f01001271b0dU, 0xf811ed1ad718160fU, 0x50b1426d728f006U, 0xeb0c2223dd0f05f0U,
  0xfefd000a0f0ffd25U, 0x61c02bf011804d3U, 0x2d010d0fff0be9f3U, 0xd201080405f0ce27U,
  0xd0011befd2063433U, 0xb0b121ff61ef7edU, 0xe5fe0d18f302eae6U, 0xed14ed17f022f1e8U,
  0xe90de7071a1caf04U, 0xdde916f80cfc1cf6U, 0xf920e644ebeb240dU, 0x10f1072e113004f8U,
  0x1afdf506fe2dd6f4U, 0x38e404f7040cefe1U, 0x12b0e1ce80f020dU, 0x5e802f803dd28ddU,
  0x7da45e10df610fbU, 0xfcb4dd2615f6160dU, 0xe9ecea04fc07fc0dU, 0xfe0ffe161f301fffU,
  0x160f04322cddeddaU, 0x60b1403ecf60718U, 0xcef610e31005c9d2U, 0x9161dc8f5eaf1f7U,
  0xbf5f7081ef9d9d5U, 0x16062418dbeb05f1U, 0x200d0fd3140bf010U, 0x18091920f4e72bffU,
  0xf8fef310f1e93301U, 0xd709230a090127feU, 0xf8fa12e5e00afbf1U, 0x1ffb0ac812f5ebf4U,
  0x3f612eae91bf1efU, 0xceef304b11f0c34U, 0x1e0afaed0209e317U, 0x6b6d41a09ee2f3aU,
  0xefd31ee511e0f416U, 0xfb0307e0171ddcf5U, 0x331840f0facf031dU, 0x1e0f05fae91502e5U,
  0xfdf3f9f226f3ecebU, 0xddf5e7e80a1f11dcU, 0xe03171afc23db21U, 0xbfafcf810effe19U,
  0x2408f80af81ee20eU, 0xcef00c15e80c1012U, 0xfafd11e7e122ed1cU, 0x411081808d3e5e1U,
  0x31e3319fa2b0801U, 0xa0eef0310e0def5U, 0x11e35edaf213f6fcU, 0xf0faf90ae20326eaU,
  0xdfd06f9efd70ce7U, 0xf1eee9fe1a12f857U, 0x12eb15072e040103U, 0xf715030af0edf221U,
  0x3e40013f20b18f5U, 0x60009fb401703d3U, 0x11130ff1f409badaU, 0x22ee01fc020717f4U,
  0xf305f9e20505110aU, 0x1802f5ead217f8e8U, 0xf93113fe1ffbf92dU, 0xe711e4f3d8160ff9U,
  0xe6f0441106f9fef0U, 0x1d302cfefc03fddaU, 0xf6e111fb02f5f3f0U, 0x51e38051cf82afbU,
  0xf6e1001606eaf6ffU, 0x1aeadd1421fbdff8U, 0x40307ea5db414e6U, 0xb30ead7fa0feaf9U,
  0x4f715eacf17f7f2U, 0x32e1ba0c12e7e2efU, 0xf2f5f6f911d609f1U, 0xa06f9c90534ebe8U,
  0xe307df2c28ff0812U, 0xfc1525d4f0d910edU, 0xfd1915e203090226U, 0xf3f109dcfde340fbU,
  0xa1cf60e1412e7f7U, 0xd02e00f80df81df3U, 0xeee4f40cf7e2e502U, 0xc3a0d0302f3f405U,
  0xd401f5f61314ebd9U, 0x1d08011adad7d800U, 0x511ea08ddf21ce9U, 0xdf61613f5041b2cU,
  0xecf8f9e7e90c3503U, 0xd2fc1ce110fbf515U, 0x300120bff180deaU, 0x2011fb00e2dc0fe3U,
  0xfe10080615e1c5e9U, 0xe3d90015163704fbU, 0xe20623ed06111f2fU, 0x3c29ddfde7e2f50bU,
  0xf0e8f5f5ffd0dc19U, 0xebf71e182c29f5e3U, 0x7190ced12bf1e0fU, 0x26121014d71af210U,
  0x2ff3f11a6220f317U, 0xddfa190602f2f106U, 0xf6fdfef7fa0dd60eU, 0x17b3e9f81504e905U,
  0xb13fd0ffe0a2f07U, 0xf904cc0d12241cfaU, 0x25f6e6ffe8e2ea0aU, 0x37ed001afcf2f6f0U,
  0xeef90a06240cf102U, 0xfe0325020ee014f6U, 0x1fb02ea17efeeefU, 0xdc20e713f205fffaU,
  0xdf480cff2cfee31cU, 0xf1261412ed000116U, 0x8cdf508f21727f5U, 0xa0e26d1ea281bfdU,
  0xdf61418131bdf19U, 0x1ffa0c1a031ff4f5U, 0xe207ed2bf50029ddU, 0xdffcc1f0faf63affU,
  0xce8061b09130cfbU, 0x1bc31ee3e9cce806U, 0xf3def60af9040325U, 0xecf437dff50410f1U,
  0xd7da00e639f90afaU, 0xeb14e9010e0f0030U, 0xe9ff0a18ffe2f11aU, 0xf0cce06de0f4c09U,
  0x109e81611261bU, 0x1608092ae30bf50fU, 0x46dafc2010e62ce9U, 0xff2108e8ecfae10aU,
  0xf8f10907fff308e8U, 0xe5133046de0ff51cU, 0xf80a30d404161301U, 0x14ecfafd26f5f2e1U,
  0xfb1afd06f0f42229U, 0xcb11cddfed05091aU, 0xd70b2116f43cfd27U, 0xf60a020bf700de08U,
  0xd8db08fc12f7e3ebU, 0xfff3142cf4f3f827U, 0xf8fcee0301401a14U, 0xfcd504da44e9230fU,
  0xf6f3dbdbeff81828U, 0x172408faee2311f5U, 0xc1a09e7d6ea1716U, 0xc2301081804f9f9U,
  0xc600de0df8e50cefU, 0xe3c9deebee2108f4U, 0xea26260810ea112aU, 0xe4e4f030143e0900U,
  0x15edef25fb3202cfU, 0xf2f0f504e6f61af0U, 0xddfcfd1bd304e70aU, 0x106d502e6fb07e6U,
  0xd8001df600170602U, 0x2ae6df1cbcd411U, 0x35e30d0701fd0406U, 0x2306eaf6f8e51522U,
  0xeee7c90006f9f4f8U, 0xd6131a0e0aef25faU, 0xfdf20608eb1e15ebU, 0x39162d12f91ad4f1U,
  0x1303000bf6e33929U, 0xf10af90e05de23ecU, 0xee0a12f6d2fc1bf7U, 0xd13e0d0a0102d7e3U,
  0x204e302031324c9U, 0x8270602d71bfdf2U, 0x7162214fa0fe124U, 0xcf406ddd628fa26U,
  0xf6fde2140bcffd12U, 0xf07fafbeb08eeeeU, 0x628ff30e906f8f7U, 0x390edb06f737f6f4U,
  0xfe0e17fb00e70be3U, 0xf3fd3ece0a070314U, 0xe8e90603fbcce508U, 0x6f1160ee0f8fdffU,
  0xf601f913e90607d2U, 0xbf6e3071fe513f8U, 0xa15f3fee2094306U, 0xe10ef500e5eb0816U,
  0x1723ef0a08e91709U, 0xffe3f2d4f9e9dcf3U, 0xf9f7fb13ed09f9faU, 0xf061b1c4e0ff90dU,
  0xf9facc041202ddd0U, 0xe1fa0600edf7fef6U, 0x223415ef1c18fc16U, 0x12041bb93d151d0aU,
  0xfaef020a2af3f127U, 0xd6e4170bfcf21cf6U, 0xf3113af5e518fdfeU, 0xf01afb20f6d8ea23U,
  0xfffffa1605fd0d1aU, 0x12feffd9220010efU, 0xf7050f18f7f6f5f4U, 0xe53f1e27edf7fc0dU,
  0x2f0516f41901f5U, 0x7f4f92e08311400U, 0xe52fe00d2cfa1308U, 0xdff21290d06e4fdU,
  0xf4f3fa0401f2e5f5U, 0x22ddbf09101e0520U, 0xf30a38d103f4df21U, 0xd70902eeff0d04b8U,
  0x1f6f90e131713feU, 0x26f2f01af0ebedf7U, 0xebfdeef604052d0bU, 0x20dceccc28e70810U,
  0x61022fa06e7ebf5U, 0xafa0f232710dd27U, 0x1de9e40a21090ef6U, 0x1c3b36fa04e5e8f8U,
  0xf108f3f303fbeee9U, 0xf01c070b0beeeb15U, 0xe9f1e70f1629fadcU, 0x39f6f5ce030cd4fdU,
  0xf71213ff41d624e1U, 0xfa08d9fefcf8e9f8U, 0xfd090aeff4eff6e4U, 0xe4f7f610fb437ed2U,
  0x12fdd0e1cd241607U, 0xfd111b2dcb25d714U, 0x2bfc09ef01ee22f9U, 0xfae021c720fa1013U,
  0xee04fa070111081aU, 0xe4f0f4210a260005U, 0xe041fff4dd2ae9f6U, 0x11e6162110feec12U,
  0xf9da0b0508ddfa12U, 0xe8f3e6f7f5c2122dU, 0xe9f41603122d21fbU, 0x25180101eb011804U,
  0xdde8d91102ea0807U, 0x1702af020aeb0f11U, 0xe810ff10ef0d131aU, 0x3ef7d1fbd32e131fU,
  0x7fc16180cf7091dU, 0xb08080a140b0a1eU, 0xf13cf91cddff0bdfU, 0x7e9f71a0121e215U,
  0xe42b0bd917f33cdeU, 0x13c1d21bde0927f5U, 0x2f0d06daee070e14U, 0xe8f8fce3fe092414U,
  0xfd3bd412eefff512U, 0x7080b051124fe15U, 0xe6ec20fa11e31deaU, 0xe3d1802f80d24fcU,
  0xef03d8072215fcf0U, 0xf6d2190e0f020c0cU, 0x1c140513f0d812e5U, 0xaf703fcfaf0fd3aU,
  0xf9f4013ef20e1009U, 0xfee81914fbeb0409U, 0x300c21da12fd01ccU, 0xf5e5d11e350cf3f7U,
  0xe5e4f116f01afd0cU, 0xe5dccf270804f1fdU, 0x23160609d4d9fd02U, 0x2d19edfdede417edU,
  0xffee9e909e40602U, 0x230f41e4ef11f508U, 0xe0f6090bcaeefad9U, 0x5f0effd1a000f01U,
  0x70a120c08182cdcU, 0xdf0906200a182cf7U, 0x9ff0def260510ebU, 0x2809f4e4d9f2f5f4U,
  0xfbf20507d5041b0dU, 0x7e8000f32edebe1U, 0x3bf4f9d01adfecfeU, 0xddcbf50c120bd7f7U,
  0x11d6fb2710f0e0f5U, 0xe4eafa013b2ce4fdU, 0xf631fd0d12f4e8f1U, 0xfbfb10cde929de38U,
  0x180cf6da0a211400U, 0xf50fd41cf9e84406U, 0xe7f50c131aedef1eU, 0xf3ff08fec6092efbU,
  0xfdc629281bece906U, 0xfbf80d04e5f7f129U, 0x810e7f318091f06U, 0x3193cd508fef5f9U,
  0xff0ce5240e011522U, 0xe909060b20eff908U, 0xb092620eeef202fU, 0xf405defdfae52c0dU,
  0xfcebe2ddfc07e01cU, 0xe0a314f5ebf41efbU, 0xe4f8f41b0df404f0U, 0x160e08dc16231604U,
  0x3be60c2814e90402U, 0xf9f7e70ef31a1602U, 0xee1ffeee03de3804U, 0x1023ecf9eb0f2ffcU,
  0xf9ebe8ed02081ce7U, 0xe0f10c1f12f620bdU, 0xe1e22704d1f0fd12U, 0x12f7cc19030108f7U,
  0x24fbfb131614e6f5U, 0xf9092bf212fd022dU, 0xe51d0414d4db15e3U, 0x22f506ec08052812U,
  0x1ed61df4e9f2f2e1U, 0xef0cf6fe0b26e4fbU, 0xf9fac7f72407e3fcU, 0xa06f13fface21e8U,
  0x7140cfadc0b141aU, 0xf5feeefde1def622U, 0x1bcfe3e33af9eae2U, 0xfcff14f60b0a06c3U,
  0xf1fc231b0f120e06U, 0xedfcfa01e4f7f706U, 0xfce808e508f816efU, 0xfbcfd82c38cf1bfcU,
  0x29f753ca270e080cU, 0x120effd0e1fbe3edU, 0x6ebf4eaf83514eaU, 0xf8fd30d3e6080935U,
  0xf123e9dd09f5cd06U, 0x1cde0c2829f51bf9U, 0xeb0b4cf9fee61500U, 0x120de41e0ee50cd3U,
  0xfecefd3f9d0fbf5U, 0x40a141133f222e1U, 0x1002214f2f8fb18U, 0xcbdbd4f2f53d22faU,
  0xb9ef3df5fadbfa01U, 0x1df6f5dfef1f1307U, 0x15020523211eecf4U, 0xff2c1e0c2a0dead5U,
  0xbf2d8fadb0ce704U, 0xf5da030d022d1406U, 0xe6f9edf9eefb1d08U, 0xedfa081027e7fd32U,
  0x4080229d7e8bdccU, 0xf5ecfacc210d10e9U, 0xf7eae0df39d306e2U, 0x1008f2102e0215edU,
  0x1de6e8dd3bf9ececU, 0xee150b0e0fd5d72cU, 0x4fe5e51f160cd91eU, 0xe6e023e5de211603U,
  0xceee0ee20234ffefU, 0xff1c0f0c4403ee00U, 0xf1d212e2faf6e3fdU, 0x17160e1204c3fef5U,
  0x41705d31b2af7e2U, 0x22eb060ff103c1e8U, 0x607ed220f15dad1U, 0x1f5f4fa19330911U,
  0x10f11fee1f06eeffU, 0xf80af216df09fa01U, 0x1d2300e32213e6edU, 0x1a1234f41102010cU,
  0x1124f9f6e1ffe110U, 0x1e2da26e8e519U, 0xedf033fdf3f911f1U, 0x2832eefe0edfe506U,
  0xd2e70e02df0704e1U, 0xe11a1ff6f40eeaf1U, 0x2700f1ccffd72244U, 0x18e9e0f9290d140bU,
  0x704f31f0703e7e7U, 0xfcdb26e80ae919f0U, 0xeff9f4e908fee432U, 0xf2eecd611eeeffeU,
  0xfdef050efee4ea18U, 0xf6f0350eead5feU, 0x1dd319fefef80106U, 0x27f0fc02da13f924U,
  0x11f8021cbe34dbf6U, 0x2716f1d8d3173df3U, 0x1bfc010d31f81306U, 0xd403fce62a0be6eeU,
  0xed022209281cf2eeU, 0xfe10f4fc0a0ef717U, 0xbe10403fa05e708U, 0xd2722d13422f0f7U,
  0xb0618edfb120d0fU, 0x2815f5f81dfee708U, 0x4140df0fef529c1U, 0xef3220fe9051ffcU,
  0xf8fc0901fa121207U, 0x1f6eef0f9efe6faU, 0x210800231fc5e909U, 0x4c16d3f30d0c14e1U,
  0xf9e1e4ff0721fde1U, 0xf901021a041a0df7U, 0xbf708dd21d4e9ddU, 0xec0707f310fdf913U,
  0xe303093017dcf843U, 0xb0002ea46fdf614U, 0xb02f219e100fbddU, 0x6f5fc02fce83501U,
  0xead3342fe40d0518U, 0x70cf7cff304fbc8U, 0xd7f905fc272e0d1fU, 0x17e7fc2614d822feU,
  0x11f7072b20e20111U, 0xeb19faf2f2f03410U, 0x216fbf23a12d015U, 0x6c80f1bc9fd15fbU,
  0x3da091aea17053bU, 0xe1de0133bf0f1903U, 0x13ba250ede0dfbfaU, 0x200f7f4f80ff410U,
  0xeefe00c780ceb1bU, 0xe7ee0d2d03172712U, 0x2e4f502100d2d20U, 0x3609fc2e3fff02faU,
  0x211d3ff3f4f0ecfeU, 0x260416f502f9f91fU, 0x181504be22d30205U, 0x3009241620f1f628U,
  0x80727d0050012e8U, 0x16111200f61b1014U, 0xd2f61a081009d923U, 0xff70bede7e7e7f2U,
  0xeb0801eef2e70af4U, 0xf3f6e2160ff0f4ebU, 0xfd19f421e5f404efU, 0xf0fce8e3e504330cU,
  0xfb28fb0c1109f2f2U, 0x8fb3403fa08f3e2U, 0x410f21e0844de40U, 0x51625fe1edc210cU,
  0xf310ea03040addd5U, 0xeaf7ed1c232acd15U, 0xde05f31adbf30506U, 0xe4e6f71908b8ec01U,
  0x1be6290311f1ec06U, 0x5010d12f70ffd18U, 0x211ee0f1044fee1U, 0xea11fa0dd70f0603U,
  0x130c1a0fe51c1ae4U, 0x201a1703d3f118e6U, 0xfb12fb2726f8fafeU, 0x9131613d2e90f06U,
  0x13e6ec09fce2d7deU, 0x3efddd1ccb351af4U, 0xfcf6f610db14fb05U, 0xef25f128fd1210feU,
  0x342b0bd0fa19f511U, 0xa1bf3d8f1060305U, 0x29181012e8fbe1e4U, 0x20e0ef90cfa2dfdU,
  0xc08da24061119edU, 0x911f1f70a12031eU, 0x160b38100fe5e718U, 0xf720c9d5f015fef3U,
  0xf7f2ffed21150b0eU, 0x15fa0d022715281aU, 0xefe3ff030301e121U, 0x611e802eaf22c2dU,
  0x4f5f405fd250829U, 0x12efe2fef0192212U, 0xfbd91aeef905f1eaU, 0x8fbf404f2e91024U,
  0xd2fb02fce8f7bcfdU, 0xee1735f9e12cd5e8U, 0xf50a0b1327e921f3U, 0xdde6f6f12d00ecf9U,
  0x16f01beed2db05ebU, 0xf1310731fefc1011U, 0xfaeee91904f8d412U, 0xe2f2fbff21d6db20U,
  0xdae8e4fa030842e7U, 0xfbf4142ff7dae2f6U, 0xf9f6023804e802faU, 0xe101d03c6feff13U,
  0x3801f7e6fef8f6edU, 0xee11c933ecf3410fU, 0x81ee7ddf7ed110eU, 0xef04110fff13fee8U,
  0xe5e9eb09f54301deU, 0xfce9ece5f72308faU, 0x34fd0cf3f12208dfU, 0xdcfd18dceefa0718U,
  0x4e33a1c0d001505U, 0x14251c13f905150cU, 0xfbfdf1e314ee12e0U, 0xf8f9eed734093af1U,
  0xf0af00eb230cf9eeU, 0x1d02ebda091e1c0dU, 0xf60d23ec10df0d13U, 0x23d3c4d2cffe18fcU,
  0x17df2e1531f1e316U, 0xe50f2c1d1bd1e72dU, 0xfae1412a1b09daeeU, 0x2510f4fb22d61008U,
  0xdf2ec16dee20109U, 0x13ade21f06e92029U, 0x9d3d70de0d9efd8U, 0x1906fc0201edfdfaU,
  0xfb09fd174aecec0bU, 0xf717fc07d9e9f346U, 0xf901e8e3e901101fU, 0xeaf01101e118d009U,
  0xda0b2a1c0b21c2eeU, 0xf51ce6dde6ff0e16U, 0xf5f2da110eeee1f4U, 0x3c0014ffff0c1ff7U,
  0xe9efe5e837072317U, 0x31de0ff1dd1804f4U, 0xf7f7080fddf92fffU, 0xdc1d20f8242a28ecU,
  0xdf1ee050fea13e9U, 0x5f707dc0c1523f3U, 0x19f91feb5af1dbecU, 0x281ce606ed0f0a0eU,
  0xf1011cf7efc2100eU, 0x1ae12192e1f21eeU, 0x2e0afd0af0ecfd03U, 0x7fa09eed41b1afdU,
  0x5f00fee8f7f1e1faU, 0x2dcce71208f2ef01U, 0xf1f605ee30f53a15U, 0xcfede80a16ec09eeU,
  0xf6eef9d2120d04dfU, 0xf31c2bf7f413da07U, 0x181bf922b53af5f9U, 0xecf60624ec080418U,
  0xf20a0109f4f613f3U, 0xf2f7f6e8ff1357d9U, 0xd9fc26f5e4162aecU, 0xf00fff03e6daf3e9U,
  0x6e9e248f2ed05e9U, 0xe9e11deffef7efecU, 0xf823fbe9f635f929U, 0xfa0f1a130822ee11U,
  0xf430e8ecde2103fbU, 0xbe1f5e9e2dd05d5U, 0xf20606f163e0f604U, 0x6301101100705e8U,
  0xfe08dbe727110218U, 0x405f3ba20faf1dfU, 0xf0bf60f0e13f205U, 0xf536e8061fefd3d7U,
  0xf8d209e4fa110dedU, 0x1ee705d511fefcfdU, 0xe0c1feb00ed10fbU, 0xfda1ef525fdc705U,
  0xf319c8f607f7f3fdU, 0x22fdf64111f1e210U, 0x14fd0704b80cf2f6U, 0xfef007e501ff54f1U,
  0x7f8e6f01af4fd01U, 0xf109f03730f21efcU, 0x502d2411f60ce4eeU, 0xe4e01406fe1309eeU,
  0xe1fbecdffc0eed05U, 0xebedfef7d2eeea2fU, 0x16e608020ff611e5U, 0x118f97f11de100cU,
  0x36d5fc1202040effU, 0xfdf3f62bfbc9fce3U, 0xdc06e30dfbdce92aU, 0x2ccddef7d5130f1cU,
  0x1d0939edf21bf90fU, 0x1df916f80bdc0c10U, 0x231724f10a0d14f7U, 0xfff332fdeeefe4f7U,
  0xdf002ad605182cfbU, 0xff0116f801e3e208U, 0xfe05f4fce5f93411U, 0x16f5ed2a4ffae408U,
  0xeae7fceaf3074324U, 0xfe9eaff0cf1e2U, 0xe601d0fd3303efeeU, 0xdfdfa1015180df0U,
  0x253d190a27e1ed1bU, 0xf7fe391de82404ebU, 0x18fd160b02fa1a08U, 0xfc0af7f0e2fb1400U,
  0x5f42d14f7dffe0bU, 0x1130fa1bf20df206U, 0x117f624edf1ca04U, 0xe5e9f5f7eeebab1bU,
  0x1c1ff0f41343fa06U, 0xf10dfe15fc001718U, 0x20ceebdc021e2718U, 0x9e0e504d6150803U,
  0xe8031efbd6061bfeU, 0xcbc12f432320807U, 0xe31108d50efdd007U, 0xfae6ea191eda05dbU,
  0xe00ff506161d2906U, 0xfde20814ddf51bf4U, 0x110101e1fe0e2621U, 0xdf0cf6e1ff4c3efeU,
  0xff16f3e40d081022U, 0x611f1dae4f914f6U, 0xee03f5eae2031a08U, 0xf5f2ee1a0c180ceeU,
  0xcbf33e20a19feecU, 0xe5fe002cdb172bf2U, 0x39de12ebefedf8ecU, 0x19c82ade01080a0bU,
  0xe92d10fc4304fce7U, 0x4f0ecfbe019270aU, 0xde21e4f9ea14e332U, 0x132f71dd6d626e6U,
  0xefdff3f01420170aU, 0xf8e0dc24fcde1914U, 0xf9011ef91707df06U, 0x81b0b192212ed0bU,
  0xf5db221ee6f4f4f3U, 0xff29e2f918eb060bU, 0x2efd0811f5121bd5U, 0xf42022f7f01426fcU,
  0xf7d210dddff6f9f9U, 0xcf0de0913f91ff0U, 0xeae908121f0d29f8U, 0x4fdf22ef6ece7d5U,
  0x4072ae7d5ede71bU, 0x12f81d16232715feU, 0xeddf1019f72cf507U, 0x21d0d0ef1ffe836U,
  0xcd08e4db01fe05f1U, 0x29e92602070aee00U, 0x52513f8fd05e60cU, 0x31aec0a1d0c2b0bU,
  0xddf31eeaf237e7faU, 0xe5052404e5111de8U, 0x9fae8260bd4f5U, 0x8ea214100f60d1dU,
  0xf9b8faf8fde605f9U, 0x3d0921f01d0ef41bU, 0x1401f931ec31df0cU, 0xc171233f705120aU,
  0xec20e11dd7f122cfU, 0xcd03fff5da03fefeU, 0x918f72cc8fb1209U, 0x100be60b0ff6f5c3U,
  0xd4fd1c00220d4ae9U, 0xf609eefc2ffaecf4U, 0x712f90108cd0705U, 0xf4f8ea13f6f05000U,
  0x3f3f4e90e14f0edU, 0x2800eae81b15f911U, 0x3ec2005c7fe18e7U, 0x2a3de8f921f0280aU,
  0x141705f71e01f8fbU, 0xfff8fa0cffee0009U, 0xc2060512dcf2e6eeU, 0xeaf60811f90b2204U,
  0x5f5c60b19090affU, 0xe060afbf7f801deU, 0x512ff0c11ef3a25U, 0x1dff28fd0cecdc07U,
  0xb23cc3d25f02c05U, 0xfbf706e6f308e8f0U, 0xfc0706fd2305ff06U, 0xf081129eaf2e6e5U,
  0xf516cdf40bef06f6U, 0xfc072523df0b07d3U, 0x2df6ef07f4fce1fcU, 0xf1f3e4ecf7f8e9efU,
  0xaf21d2023132908U, 0x1de8340d15e90024U, 0x60c09faf11fefecU, 0xe9c6dafd1e26110bU,
  0x8e5002deb140f11U, 0xd9031b3de9eafcdeU, 0xef130ffbe1fdfe17U, 0xfce5f314ea2fdb0bU,
  0x6f91eef1710ec10U, 0x103fed3fe3bd916U, 0x40bace9fd03ebebU, 0x2130326fa0d1807U,
  0xe4070cfb083e0df4U, 0x3401317e7fcfcf3U, 0xf9f100fabe2d0f45U, 0xed22ffda18fbd50bU,
  0xf738fae5fd0b02fdU, 0xf61133fde0e6ebd7U, 0xf83c0a1e26d922e7U, 0xfe2df4ed07e00820U,
  0xfc02ff1b23010205U, 0xfbec074001f1d026U, 0xf50ed2dd0320fa19U, 0x34fafeef00f713f1U,
  0xe6f1c6e3d10917f1U, 0x212af015f7faf009U, 0xfcf00afd222b0f1dU, 0x4ecf0ef2ce70bf7U,
  0xf9182220fedafbf4U, 0xf212f21b19070f1cU, 0xf3121b29041314f1U, 0xc1dbea34d906f901U,
  0xf818f61e092bf8feU, 0xe3f414feea0cc4ffU, 0xfd0bff380105f0e8U, 0x11dcf91a02040708U,
  0xbedf4e30aed26e9U, 0xda17120127f717ffU, 0x1713f101e5f3e8faU, 0xf2f2cd30f125d0eaU,
  0x4adf2afb02e114e9U, 0xf21e150930fb0ddfU, 0x6110eeb1e2de11bU, 0x491ff7060411dceeU,
  0xdf05d70520f9ffdaU, 0xdbd426011003f6U, 0xdffeffedf20ff8ecU, 0xd0717e0f0e32e23U,
  0xe926f83c17b0050fU, 0xeb2bf6f729e910f6U, 0x1c04e6dde910e10eU, 0xf7f11702ecfff52fU,
  0xfefa10230b1cf1e0U, 0xb13ebf4de0ae8fcU, 0xd8fa12bf0e0109fdU, 0xd1ffcb2ef50706f3U,
  0x19e518eed2370523U, 0x2ef2f71234f51f14U, 0x32e528d7072af0fcU, 0xe41c05defa0c1b17U,
  0xfefd0514012fd0e9U, 0xdb28f7f701ebf028U, 0xe03ffe12e30e10cU, 0xe8ff0ef03621d5e0U,
  0x4b180014c2dde805U, 0x4091f1cf616e2ffU, 0x6fa19effa050f0dU, 0x211735f10d0bd8e6U,
  0x12f50ff9fdf5caedU, 0x5fe1833fee9e4f9U, 0x3f8151002fe00e7U, 0xee27c926091f1216U,
  0xe6e5e3181d1ee9eeU, 0xea11f7fd0404101cU, 0xf7001907f247130dU, 0xf701f915f41f07faU,
  0xf6eef437250e1804U, 0xdd8130431f7df01U, 0xfc02fdfdf8452018U, 0xf0ed3f3a0ee22501U,
  0x1205f2f7070bfd1dU, 0xfe01f10e132c0b08U, 0xd6e0031907fbfa07U, 0xf1232e13d0f50ff4U,
  0x1e24f0f100f10400U, 0x16eff3e50bf81a00U, 0xf6f02d18fc17edf3U, 0x11ebe20aff26fde7U,
  0xe6f2a414fbfb0d25U, 0x7f42215da01ede2U, 0xf2fce5150dfa03f3U, 0xc7e9e4f8eef61d08U,
  0x2fd0c17e9df24ffU, 0x23fcd63107141600U, 0x4040c02ec13e9f9U, 0x45f6eafafdeff81aU,
  0x19f402282afbdbfbU, 0x12190cfb15120ef5U, 0x9ef0eebf6bbef02U, 0xf4ef3efb0a18f619U,
  0x7f7fbecf93516e1U, 0xfa3018ec1d11fd17U, 0xc017e4df2311e8daU, 0xe40dfcdd241f051dU,
  0xcfb0f2511e62e16U, 0xe802e9edf00700faU, 0x1215cae8f6ddf405U, 0x4f4dcfed6e7f115U,
  0xe607433a1c221804U, 0xe90109e20ffbf221U, 0xe31c12171722ce02U, 0xed0fdeed0421f8deU,
  0xf8fe0dfced1514feU, 0xf405eace003dfde4U, 0xb0de0ec0ffef5f4U, 0x162012f2deed0be9U,
  0xfb0befe3482af4fcU, 0xfbfefff202fff505U, 0x7072cea05e0ddf4U, 0xe8f9ed44e51deceaU,
  0x13f30f0d2930080aU, 0xf502cd64ef01ebf1U, 0x7fcf2ff081303dbU, 0xeb16e903f407080dU,
  0xf8ffd5ec0d050ff8U, 0x900fe07fafe0aeaU, 0x2501de1bf0294109U, 0xd42efe6cbebf01dU,
  0xf3263ffc02ea05eeU, 0x240c3b14030319fdU, 0x44dad2f9e710ffceU, 0xdf08e60821f70bf2U,
  0xfdd08ee3008fdfaU, 0x16e01ee5ea25f904U, 0x2202070df5e710f5U, 0xf6e31fdcf3ecdb1aU,
  0xaf5ef12f749dcf6U, 0xef0cecddf111db22U, 0xef7bb00e70d170eU, 0xae4f51afdfef1eeU,
  0xf1fb052bf8faf106U, 0xf413f9eed64804f2U, 0xf7cd00edfb0e04fcU, 0xe7fdf4f813ece70bU,
  0xe70b0342ede3ff11U, 0xf50cddff1d01f612U, 0x1511ed1e10fd032cU, 0xc9fdeff436cff82aU,
  0xfcf7eb113bdef2f2U, 0xf6eb17ec11f9f3U, 0x402f51f07dcfb02U, 0xd1e83be9f02505dfU,
  0xe5fa0100d1eeeaf8U, 0xe002f80efe103d0eU, 0x1300ea1bf7e7f120U, 0x2f327430dc0faf9U,
  0xe0f3e8f315edf904U, 0xefefbe2d8f934edU, 0xebe716f81fe62ff0U, 0x40ae7f6f3ec22e9U,
  0xf8eb1231f415f711U, 0xdb0debcd11f02e30U, 0x17e9fce8f9fd0814U, 0x10f5041c050405f1U,
  0xfc15f0e70906e52fU, 0x1dfbf4f815cfe7e5U, 0x110d051ff4e734edU, 0x1cf2fddd07d30dffU,
  0xe32f0dd61c0ffb1eU, 0x2b2a51e00aea0e2eU, 0xf8ebf71ce719e014U, 0xdde909e1e2f6f1fdU,
  0xf7ce2311f4dd37ffU, 0xe421219ee08dcf4U, 0x211204322e1630e7U, 0xe3e7210adb0dfa01U,
  0xf3f4dcfd091ad6ffU, 0x6083109131ae233U, 0x1cffd9eae60deef0U, 0x1ff42b1c0900e8eeU,
  0xd1e1cd40f3f232fcU, 0xfc2b11e201fff6f8U, 0xfbecf9181acf1fe6U, 0xf904172b17f9f1f2U,
  0xede91e25dc18e8f5U, 0x11e5e8ebf005fb10U, 0x10fff20b0400f6f6U, 0x1723f11f0e1f130aU,
  0x120114132d04f30dU, 0x17180b133e1befU, 0xe1f700effb122306U, 0x2e03052002d4ee23U,
  0x6ffeed73135d7f1U, 0xde0b081cebf90bd4U, 0x9f3f2f9cd0ffee2U, 0x2fdf07fef4031904U,
  0x1def1f5ed12ebf1U, 0xf72bfd0714241137U, 0xf4ede7ee1af83807U, 0x61b1f0717ecfceaU,
  0x7fd1214e81b10U, 0xece5ebf86c2019f5U, 0x10d3502dcebf944U, 0xf2ea0504fa05fc07U,
  0xf0f01eee739f0c8U, 0xda1e0f2502d928dfU, 0x3605f40716e3ed35U, 0x16fde6e90ce212U,
  0xea04d429e80231f8U, 0xfaedf00813ecfa11U, 0x1202020e1cf2e902U, 0x9ca080712e2d8dbU,
  0xdff6130c03091d0bU, 0xfd0aed29d3e10cfaU, 0xe6de0d0dfb221ef3U, 0xce04f9f1fc1ddfe3U,
  0xeeeee4822064102U, 0xf70803e225fad201U, 0x91b222503f1ffeeU, 0x33fa1bf0c407f9fcU,
  0xf6140107f9fe01e0U, 0xebdeeb030bdd2af0U, 0xf3f0e125ee021df3U, 0xfa020928c907294bU,
  0x8fc0af90b08dff4U, 0xff35081c11f8e3edU, 0xf7f7e92412250a2eU, 0xf6fbf60bfb00e600U,
  0xe3cff50a49f42e03U, 0xf40bf1fc1504eaf2U, 0xf5f7f3fb0a2bdfedU, 0x49d2141522c6f70fU,
  0xffffa910ffffad56U, 0xffffc4c1ffffb3c7U, 0xffffaf16ffffd5e2U, 0xffffbac5ffffb8f0U,
  0xffffcd58ffffb107U, 0xffffa529ffff9cafU, 0xffff9568ffffbf5cU, 0xffffa5daffffc33dU,
  0xffffb9ecffffe52eU, 0xffffc1a8ffffb153U, 0xffffcd61ffffb46aU, 0xffffc6d5ffffc68fU,
  0xffffb2e6ffffb95dU, 0xffffad30ffffc809U, 0xffffafaaffffc000U, 0xffffa32bffffb8abU,
  0xffffc24fffffd189U, 0xffffd6c3ffffcfbaU, 0xffffd1d2ffffcf12U, 0xffffbc78ffffa397U,
  0xffffad3effffce2fU, 0xffffc043ffff9aabU, 0xffffbf4bffffa13fU, 0xffffdf65ffffa465U,
  0xffffb303ffffc02fU, 0xffffb8b5ffffb130U, 0xffffcb7cffffb59cU, 0xffffb5d2ffffbaa9U,
  0xffffb647ffffaa21U, 0xffffc595ffffb70bU, 0xffffcb16fffface5U, 0xffffaab9ffffc953U,
  0xffffc671ffffe213U, 0xffffb4eeffffbff5U, 0xffffcb41ffffdb47U, 0xffffcf77ffffbd11U,
  0xffffc1abffffc734U, 0xffffa5e9ffffbf5cU, 0xffffad07ffffd441U, 0xffffb5ebffffaed1U,
  0xffffafedffffb761U, 0xffffcbbfffffb3a2U, 0xffffca98ffffc1d1U, 0xffffa20effffbed3U,
  0xffffc76dffffb427U, 0xffffc470ffff9a86U, 0xffffbf14ffff9981U, 0xffffc5cfffffbcdaU,
  0xffffa73effffc85bU, 0xffffaf19ffffcd95U, 0xffffa9d3ffffb7cfU, 0xffffbe74ffffb0a6U,
  0xffffc76fffffb253U, 0xffffab4dffffbd92U, 0xffffb435ffffdd17U, 0xffffb59fffffcbb8U,
  0xffffdbe9ffffd3e3U, 0xffffc246ffffcd17U, 0xffffcd63ffffba74U, 0xffffae7fffffbe95U,
  0xffffca1affffe404U, 0xffffbeaaffffa562U, 0xffffc59cffffc029U, 0xffffc62effffc322U,
  0xffffdd9cffffc2d6U, 0xffffaacbffffad0fU, 0xffffd84affffc0d5U, 0xffffa360ffffb467U,
  0xffffcee1ffffc0d7U, 0xffffb927ffffbc26U, 0xffffbbf0ffffe75eU, 0xffffdc52ffffc723U,
  0xffffacfeffffa91fU, 0xffffd880ffffad9fU, 0xffffebeeffffa85bU, 0xffffb0a2ffffc394U,
  0xffffcdceffffb9eaU, 0xffffcb1fffffb6c4U, 0xffffca31ffffc7bfU, 0xffff9a6effff9e93U,
  0xffffcef5ffffa526U, 0xffffa583ffffd63bU, 0xffffe2a3ffffd939U, 0xffffa19fffffc0c0U,
  0xffffb196ffffe5f0U, 0xffffbbe1ffffb3c6U, 0xffffab70ffffb048U, 0xffffa92dffffdc8aU,
  0xffffab06ffffbb12U, 0xffffefb2ffffc38aU, 0xffffc6e5ffffb8dcU, 0xffffbd10ffffac29U,
  0xffffcb24ffffb824U, 0xffffbc94ffffbaeaU, 0xffffc174ffffd94dU, 0xffffbeaeffffcc54U,
  0xffffec74ffffb5bdU, 0xffffc745ffffc679U, 0xffffc8c7ffffb2a6U, 0xffffd4afffffaf92U,
  0xffffc76bffffcb53U, 0xffffb4e8ffffb20aU, 0xffffc694ffffccf1U, 0xffffb7aaffff9607U,
  0xffffb63effffc30dU, 0xffffb94cffffaee7U, 0xffffce86ffffd272U, 0xffffd9eeffffb558U,
  0xffffcb06ffffb5c6U, 0xffffef3affffc114U, 0xffffccedffffce9bU, 0xffffc21cffffe11eU,
  0xffff9c35ffffb388U, 0xffffc17cffffbfefU, 0xffffcee2ffffa861U, 0xffffbc27ffffb1daU,
  0xffffc864ffffaffbU, 0xffffca46ffffb8cdU, 0xffff95a3ffffbc42U, 0xffffb27affffbb7aU,
  0xffffb55affffa39fU, 0xffffc7cfffffde89U, 0xffff97d2ffffafeeU, 0xffffb8faffffbb5cU,
  0xffffe45effffbe4dU, 0xffff950bffffbb34U, 0xffffb35bffffc3c2U, 0xffffafa3ffffb294U,
  0xffffccc5ffffc1c7U, 0xffffae24ffffba62U, 0xffffc047ffffbb78U, 0xffff9a3cffffbc8fU,
  0xffffae84ffffb037U, 0xffffb2fcffffb7ebU, 0xffff94dfffffb23bU, 0xffffb613ffffc021U,
  0xffffc818ffffa338U, 0xffffcb3fffffccd6U, 0xffffafe6ffffad4bU, 0xffffd506ffffe3faU,
  0xffffc227ffffbbffU, 0xffffbffeffffb7bcU, 0xffffe71fffffd234U, 0xffffc794ffff941fU,
  0xffffe507ffffac12U, 0xffffc5fcffffb291U, 0xffffb5bfffffab19U, 0xffffb507ffffc997U,
  0xffffd4fbffffd0c8U, 0xffffb53effffea85U, 0xffffc981ffffb9b8U, 0xffffbe89ffffca31U,
  0xffffbda3ffffca18U, 0xffffb3fcffffbdccU, 0xffffc076fffff2a5U, 0xffffbbceffffa082U,
  0xffffb058ffffd54cU, 0xffffd1c9ffffcb7bU, 0xffffb22cffffc534U, 0xffffaa17ffffd584U,
  0xffffa7abffffaeefU, 0xffffb8e9ffffaa9dU, 0xffffcc91ffffb08dU, 0xffffb50affffb584U,
  0xffffbffdffffb2e6U, 0xffffcd66ffffc4adU, 0xffffb6e6ffffd6a1U, 0xffffd0e1ffffaa52U,
  0xffffc472ffff9670U, 0xffffbb4bffffb745U, 0xffffc08effffcd46U, 0xffffc990ffffd053U,
  0xffffca7effffe620U, 0xffff94c0ffffa22eU, 0xffffbba5ffffbda3U, 0xffffb160ffffcca1U,
  0xffffa1ebffffae1bU, 0xffffc185ffffacecU, 0xffffb835ffffb0acU, 0xffffd0e0ffffa9eeU,
  0xffffac1bffffd051U, 0xffffda42ffffc15bU, 0xfffffd80ffffca6fU, 0xffffcaa3ffffd792U,
  0xffffb49affffb534U, 0xffffc8b0ffffaa5aU, 0xffffb36dffffcdb9U, 0xffffd0eaffffb355U,
  0xffffa952ffffa7bcU, 0xffffb089ffffd533U, 0xffff9695ffffb9d1U, 0xffffcca3ffffcb01U,
  0xffffb86dffffdc9bU, 0xffffb409ffffb64aU, 0xffffe08bffffb5c7U, 0xffffbfbcffffbba7U,
  0xffffacb4ffffb595U, 0xffffda47ffffbdf1U, 0xffffe710ffffacc5U, 0xffffbe05ffffaa2cU,
  0xffffca6fffffe5b1U, 0xfffff96dffffc1e1U, 0xffff9d6cffffc80bU, 0xffffad0dffffcd11U,
  0xffffbf88ffffa5c1U, 0xffffdc24ffffbbacU, 0xffff9c73ffffd89eU, 0xffff9b2effffb5f5U,
  0xffffbcbeffffd331U, 0xffffba01ffff9dfaU, 0xffffc499ffffb4d7U, 0xffffbb39ffffc3b1U,
  0xffffbe14ffffd22dU, 0xffffcd04ffffb7c4U, 0xffffeb28ffffeb2eU, 0xffffbfeaffffce5aU,
  0xffffbbfeffffecefU, 0xffffbacbfffff00aU, 0xffffcc4affff98f4U, 0xffff8db0ffffe194U,
  0xffffacacffffbfa8U, 0xffffd956ffffbd93U, 0xffff95adffffd973U, 0xffff9cc1ffffb8ecU,
  0xffffbeddffffc4fcU, 0xffffbc6fffffbb76U, 0xffffb89bffffb205U, 0xffffb598ffffcc21U,
  0xffffcd2bffffb5c1U, 0xffffc56cffffbfdcU, 0xffffc494ffffd44bU, 0xffffe0c4ffffd8d2U,
  0xffffb6e6ffffd602U, 0xffffb0b6ffffdde8U, 0xffffb57effffa1dbU, 0xffffc722ffffa811U,
  0xffffc443ffffba5aU, 0xffffc24cffffb98bU, 0xffffb1c1fffff765U, 0xffffab96ffffd77bU,
  0xffffdbbafffface6U, 0xffffb092ffffd68aU, 0xffffa452ffffc2f3U, 0xffffa0b0ffffa106U,
  0xffffc2d3ffffca45U, 0xffff95beffffb45cU, 0xffffae1dffffa750U, 0xffffc249ffffc4d7U,
  0xffffb623ffffaa87U, 0xffffa644ffffc671U, 0xffffcfa3ffffe900U, 0xffffb4dbffffad30U,
  0xffffb925fffff9a5U, 0xffffbf97ffffb188U, 0xffffc2ebffffbf95U, 0xffffb4d2ffffc527U,
  0xfe00d90001f0110fU, 0xedf6f40ffef80fdfU, 0xf6f2f0f1000404ecU, 0xf2ebf210eadb0200U,
  0x17fdfae5e3e40ae3U, 0xdbf1c4f40ff51510U, 0xaf3dde02914fdddU, 0xe2f1f71ae70707U,
  0xe2f913fff2dffae5U, 0xe050800f8fb09ffU, 0xd2e41b11ffd503f5U, 0xe4e8f403f61a26f0U,
  0x2f9dceb1efbf409U, 0x18dceff6dcf5f1efU, 0xf826f5ecf1fff202U, 0xe1f80409ece816d2U,
  0xe8fef1d8f6050d1fU, 0x2202ff05defbfc07U, 0xff280b0d20f5e210U, 0xbded00ef0f04e3feU,
  0xf7e21ae3f40b0813U, 0x408fb06f618e6f8U, 0xef503f31b18d4deU, 0xffed300602da0216U,
  0xe6fcf1fbf3eeebeaU, 0xf1e3dde709c7e6faU, 0xf1fee5eefde9f8e4U, 0xec0b02f80b21f2f1U,
  0xf905d9d8fff8eed6U, 0x10f4f5f912d4d2faU, 0xff6f806f7150309U, 0xe6eaf403dc19e9edU,
  0xf6f5e7f805fdfb15U, 0x8ddf3e9f3ecec30U, 0x3509000c04def11bU, 0x50801eef4efef16U,
  0xf118e504f2fbd40bU, 0x4efd213fbf207d3U, 0x1a04fcfccae628f1U, 0xf6def1faeb16f50bU,
  0xdbe4f2f3eefb1ddbU, 0xf9f4f1fef7dde4ebU, 0xd109e008ecfafb05U, 0xf6f1dbec1ade0affU,
  0xf5eafd0cdd10fdf6U, 0xf0cefbfed6feed00U, 0x1700f81fdcf708feU, 0x9f50cf0ff04f6f8U,
  0x80e25eef7e926d4U, 0xf5f2e203e3e9e7f6U, 0xdef1d3f6e007e4faU, 0x6f102e0df0e0dffU,
  0xf5e60bf5fdf6fd09U, 0xe8f72de9e0eeedebU, 0xece806fcfdf101ffU, 0xfb27011103fa10fcU,
  0xf4f70700fc11e306U, 0xf9fcf110d9ff0411U, 0xf41309f2ffd4fa08U, 0xf00121eae9ece2eeU,
  0xf2f5e102f8110215U, 0x40a00e6f7e813fdU, 0xe8e8f625f703000aU, 0xe617ed07fa1c05deU,
  0x1fbfffffa02fafbU, 0xfcf8fe02010300fdU, 0xf8ff0202fb00fc01U, 0x1fb01fd00fdfb03U,
  0xfffd000304fefe01U, 0x2fd01fefb01fafbU, 0xfdfb01020104fcU, 0xff04fefb0000fdfdU,
  0xfafe02f8fcfdf9faU, 0x7fffdf902fe02fcU, 0x30100f800fdffU, 0xf8fc0100fd01f901U,
  0x200fe010103fcfcU, 0xfefafe00fffffb00U, 0xfc02fb0105ffffffU, 0xf901fc04fe0203feU,
  0x1f9fffb00fffbf9U, 0xfef80206fafa01U, 0xfefdfffefefd03fbU, 0xf8fdfb01fdfef700U,
  0xfbfefafdfd00fbU, 0xfc02fe020103fe02U, 0xfeff00fc02fe01fcU, 0xfafafafefcfdfdfaU,
  0xfcfd0503ff000101U, 0xfcfe01020300ff04U, 0x401fefcfc0002fbU, 0x300fefcfefeff01U,
  0x501fbfc01fb0101U, 0x2ff00fdf800ff01U, 0xfcfb01000100ff03U, 0xfdfffefc0000fa04U,
  0xfefefdfe040601feU, 0x2fe03fefa0403faU, 0x20201f8ff050102U, 0x1020002fc040105U,
  0x103fe03fdff04U, 0xfd01fa01fbfcfdfcU, 0xfd01ff00fefdfffdU, 0xfcff0000fbfe03fbU,
  0x401fd010003U, 0x1fe04fefcfffd02U, 0xfa02fffe00fff9fbU, 0x3fb04fcfcfff9fcU,
  0xff00fa0302f80003U, 0xfbfd020103fb03feU, 0x1fbfb020003fcU, 0x500fc03fcfcfcffU,
  0x3040503040100U, 0x2f902fafef9fdfcU, 0x101fcfdfc02f9fbU, 0xfdfdfefefb01fbfdU,
  0xfa010100fd0003ffU, 0xfb00fffd02fbfc02U, 0xfa02f9fdfc01ff02U, 0xfbff03fe000200U,
  0xff02010102fe0005U, 0xfd03fafe03f9fefcU, 0xff000001fff805U, 0xfcfefbfd0100fa02U,
  0xf8fe00fdfd00fef9U, 0xfcfd0401fc04fbU, 0xfc01fbfdf7fdfcffU, 0xff01ff010000fafdU,
  0xf6f72116f70b09f6U, 0x21fef1eff3fcfbfbU, 0xfe04f2effbf9f6ebU, 0xf20ceee3ed0c04U,
  0x70efe10ec08f812U, 0x6fced0303fbf4f6U, 0xf20cf308f6f7e0faU, 0xe0f2ed0307ecf4faU,
  0xfcfb08f2e8f6fb08U, 0xf7fff704fd09e5ffU, 0xf50bf609ecf0f10bU, 0xeef5040705f4f2f6U,
  0xfef60b0100e5ef15U, 0xf6fcf9fbe3e50af5U, 0xecf8fdff0afa09e1U, 0x4f9eafb06f8ee00U,
  0xf30bfeddeef1f40aU, 0xe705eee8f9eeffedU, 0xf6e91901f4edf001U, 0xa08edf304fdebfaU,
  0xe8db10f00df70df2U, 0xf2e70bfc01fafdffU, 0xf6fb240c0ee206f1U, 0x50a09f7fef9f7e7U,
  0xff05fcf9f5f1eaf3U, 0xd7ee0301f1feec03U, 0xf20602f5e4fdfa06U, 0xf719f9eb0112fa0fU,
  0x8e60903f6ed03fbU, 0xfdfcfafdf1edfb08U, 0xf0f7f608f6f8f400U, 0xfbeff802dff1f3faU,
  0xedeef70c0616f7f3U, 0x2f6f206f6f304f7U, 0xea0511f4f5fcf405U, 0xeb02fa12f8f7f3f1U,
  0xf40c1d000c020bfcU, 0x4f90102f7edfd03U, 0x1700f1f5fcfd07faU, 0xf6f3f5fd10fcffe8U,
  0xf3f900fce1ebfce8U, 0xf8e2f5f4e1e90cdcU, 0xf0e9f4fa0400e506U, 0xfae6f2e512f816fdU,
  0x6f8f403eceff7f4U, 0xf8f415f118fb0214U, 0x508ed07040100U, 0xf3ff06fbf01501f6U,
  0x12fee9ef14fa07f7U, 0xf90fecf8eb03fe04U, 0xfcf7ebe6fce20fU, 0xfaf7f1ebe60afdf6U,
  0xdef9cf281203f5e7U, 0xf80e02ea0405fffaU, 0xfcffe7f8f4fbfbf8U, 0xeed2f8f20df0ebf6U,
  0xfd0901f7fee0f401U, 0xf4f4f20cfaf3f2U, 0xfa0100fd1ce4fbefU, 0xf8f50302eeeff903U,
  0x705ebfdf4edfcfeU, 0xfbf8f107f609f9fbU, 0x3f7fc15f50004fcU, 0xebfbfa05efec15fcU,
  0xf6f1f2f3eaffe7f8U, 0xfe0f0cf9f801fc06U, 0xfafbf8fbf602e8feU, 0xe9efd7faf9fcff13U,
  0xd3e6f2fa121afafbU, 0xfa01dffadfeafaf4U, 0x61bfc05fbf005e5U, 0x1ed02ecfee9faf6U,
  0xdd07f0f8f3dffe25U, 0xe8fcf5040bfef4ffU, 0x705eef9ff0a00fdU, 0xfdf4040bf3fa0deeU,
  0x2fd0cfaebfde6ecU, 0x310ebfa0b1205f5U, 0xf8f7fa07d5e3ea0dU, 0x8f8dd02f6ffe511U,
  0xf8e4f6fafbe1f6fcU, 0xe5f2f9effb01defaU, 0xfcfae20323fe02f8U, 0xf702f002e4eb0702U,
  0xeb020dfaf7f4f0edU, 0xf3f5e200edf7fa01U, 0x4f7e4f50eecfb03U, 0xf6e20700f3f80efcU,
  0xfff2fefbeef8fcU, 0x8e300f40b090fedU, 0xfffaf3f8fc000f1eU, 0x14f506270306ddf0U,
  0xfbf20f00f31132f1U, 0x5f106e5fa07e315U, 0x1fff6fe0eecfafaU, 0x7fcf9ee0b051117U,
  0xf6f11bedf401eef0U, 0xfadc07080a0c0d10U, 0xefe90ef6f7f3f30aU, 0x7f300f5fef507fbU,
  0xb071605f9f8f608U, 0x4edfce3f61506e5U, 0xdcf30506eceeef0aU, 0xf2edfe04f7e102e2U,
  0xf107fdfdfc140a0cU, 0xfffa140afbf101f7U, 0xf2fcf1020deffa11U, 0xf905fe05ed1205d9U,
  0x7fe09e405fe0e22U, 0xf8ecf0fff0ece4U, 0xfceef2fee7f1f2efU, 0xedfc04fac6061000U,
  0xec0afee11606fe19U, 0xf2e500fd17fdf603U, 0xf5fb060905ff250dU, 0xf900f20b0afc01fbU,
  0x13f7f4e3eef6f504U, 0x190bfbe903f8f209U, 0xf8ff01ef03f4f1f2U, 0xfee5f7ebe2f7fafbU,
  0xdaed00f7fbe9070fU, 0xf6f00305f0fb2205U, 0xf9f4f404fbfef4ecU, 0xf5f4f406fee9ffU,
  0xf9f3f2f6ed05f3ecU, 0xcec00e8e1f7ff1bU, 0x2eff8f4ff09f304U, 0xe5fe08fbf00df80fU,
  0xfffcf3fc01f6e6fdU, 0xe00605f43000fefaU, 0xfce9fbf80b04f80cU, 0x6d8ea05f6f812f7U,
  0x17ef09f01309f5fcU, 0xd409e0d4fc0eecf3U, 0xfde5e3f20700e5ffU, 0xfc06f7ad0017f0f1U,
  0x72e0af9e6061326U, 0xe61dfef0e9faed0dU, 0xf9f3eae4f5e5f617U, 0x11fd07f9fc08f602U,
  0x19fbf80a0cf61ce8U, 0xf10eeb0006f9e8e1U, 0xefd8fbefe5f2e9bfU, 0x26f813f305fbe800U,
  0xf207da04f318f304U, 0xfee1f601f8f4e2f1U, 0x18f90f02f3f7edf0U, 0xf8f706f6f905f70cU,
  0xd9e7f2dc13f217efU, 0xe9ee07d305f5e6dfU, 0xf9eef40206fe08fcU, 0x12fd02f2f00016faU,
  0xf606f0fffa0eed0aU, 0xfdf7eb1ae1fed1f2U, 0xfff7fa12eafc0df3U, 0xededf410c50bbeffU,
  0x200f0180604f6faU, 0xfeeb13f6e9140e03U, 0xf9f6071801ea0314U, 0xd4f8fdf909dedffeU,
  0xf404fcf01df8ddeeU, 0xe1fb100dfc0b0ffdU, 0x9ef0207e42002e7U, 0xcdfae7f5f1fefad0U,
  0xecd3ec26dff9e8f6U, 0xf3fa10fafaf2fd1dU, 0xfdf0f5fc0613f1d5U, 0xff04d603f7f328ecU,
  0xf11decf3e700f7ecU, 0xf2f606f6f1eff92fU, 0xf5d7ed0503eb0ff7U, 0xe8faec2109f703ddU,
  0x1002ee14ec09fdfbU, 0x3edf0fbeef801f4U, 0xfffc1febe6fd0cf5U, 0xebeefceedee735f7U,
  0xe8dbed0d0fe71716U, 0xfe16f502f0e9061bU, 0xa0205f4eaecf50cU, 0x7090beef3f8fecfU,
  0xee041204150307d7U, 0xe5cc050c11f92c05U, 0xf4fa1601fcf82123U, 0x3f7f9feee0cf9f7U,
  0x6f9ff0aec0ff401U, 0xbdd02f6ef1ef7f6U, 0xf821bff60ae5e718U, 0xe1e108ea0ce105f1U,
  0x306fce706e7fa03U, 0xf705e0f9e0f6f90cU, 0xdc00f806d8e500U, 0xfddee5fe0406f3ffU,
  0xdfdf08eef411e9f9U, 0xececd1f8f1fb0801U, 0xd60a07200ef0e918U, 0xea01f009faf5e4e8U,
  0xeb17e6d00bfece1eU, 0xef04fc06f7e803cdU, 0x17fa12ecfde4c517U, 0xe0321af81600e3ffU,
  0xd0dff9eff6fa0e2fU, 0xdaffddecdeecdafeU, 0xfe03fbe50708c402U, 0xd0ae313f3edebfaU,
  0x1d071806ec10dd1dU, 0xf70804f2df122204U, 0xbebecfdddf9e2f3U, 0xedf809e30bf6f50dU,
  0x1df4def6d3eabfe4U, 0xfe2bd3030d010df4U, 0xee07c8feece6ede6U, 0xd90be1d21c02de14U,
  0xdc20fff700fa1717U, 0x11fa05ececf3db0aU, 0x4fb0efcde02eeebU, 0xf6f0ebef1628fad9U,
  0xedf0cd904f1f7fcU, 0x18191f1407f70436U, 0xfbf4aedae104efefU, 0xf60d17f7f820f0f9U,
  0xe60d0afa0a15f4d7U, 0xd1da9f0a21eef501U, 0x4bd12c7fafb02U, 0xebfcde170005f60aU,
  0x81adff305faf4d8U, 0xfe01fd05f60b0e20U, 0x113ee02d5e4fa0eU, 0xdbeff237f7dd3decU,
  0xcddd5f914fc1800U, 0xdb1f1efeecf70b05U, 0x20ae0f3f8fce106U, 0xfcf80b141c05f406U,
  0xecfacc1618e6e6fcU, 0xfe4fdef0cebee03U, 0xe538f5e2fcfd020aU, 0xe30e170d14e5ecf0U,
  0xf80e2003d60ee6f1U, 0xf316efda07e91a01U, 0xe8f8020307fa16ceU, 0x2fdc09182909fcfeU,
  0xe807fa02f1fa1af1U, 0xf0131afb0a09e0f6U, 0x1115e8f80ee8fd0aU, 0x1be1ebebd90108e3U,
  0xf4fa1913e2fb07feU, 0xd8de08fb1df30ef5U, 0xd9ede5f3f9cafd01U, 0xdbf909fb02e2dbf9U,
  0xe2eafbcddd4a0f22U, 0xf301d71100faef2cU, 0xefc2040c09f2f8daU, 0xe720f5eaf3fe120dU,
  0xe21526fffe070c00U, 0x10d5fdea15e7ddefU, 0xd30c0708e3ef0200U, 0xeceb051118faebfcU,
  0x1aed17de11f6022aU, 0xf5fc13eaefe31203U, 0x50d0e16e1e408ecU, 0xf2dddde5d31af9efU,
  0x90cfaeacdf10d19U, 0xfc0ed1d021e2fae4U, 0xc000b01fcf0e1e5U, 0x2d9e1faf40105f9U,
  0x2d2e0f6e4fd2dfaU, 0xe527fefceeeed5ecU, 0xeb1c1114e5d91a04U, 0xdb21ede9ec07e2f1U,
  0xe0717e20014f104U, 0xfeec0af919ec06ffU, 0xeb101ef405190418U, 0xe409fdd5bf0600ffU,
  0xf5e9ead8effaf3dfU, 0xe3f20421fa2c3cf0U, 0xfdd80605f9f9e920U, 0xf101f3d8f4ed2109U,
  0xdaf0dee212db3af5U, 0xf50bc705dfd3fa0cU, 0xda0ee200071dd3e7U, 0xdbd4e6f6f1e307e6U,
  0xece3f10f0833f7d9U, 0xffeae9121dff1702U, 0x3fae01ce30feffdU, 0xdad806f3f0022900U,
  0xfe05d511fe02f307U, 0xf51720e0e30debe1U, 0x5f0f4f5e10318e9U, 0xe1f3fcfc0c110f03U,
  0xcea05ec2adb1327U, 0xe10b0a033f0504ffU, 0x2bed11f700e6f011U, 0xd4e014362df6053bU,
  0xfef1f10cf21efce1U, 0xf6fc04eae3f2fffdU, 0xde08fccc0ada05d6U, 0x10e5f9151bfa2cfaU,
  0xe6e8e7e5e9f9fc00U, 0xda1bfbf2d1c3dffaU, 0x12f2da21ebff2106U, 0xc8c21913f106e7f6U,
  0xea1af6f0e313f8efU, 0x411d7fce00af2cfU, 0xee0ff2d11be623efU, 0x15e9f0f4f8ee09efU,
  0xe6fadeb5f0002319U, 0x11cb070403e4e1f4U, 0x18fc06bc0bf3f3e7U, 0x19000aedf2e51e30U,
  0xd3e3f52ece11140aU, 0xf9e3ea02eb0df3e0U, 0x27d7b906de0fffddU, 0x705092416e9ffefU,
  0xf6d9fbda08f400e6U, 0xbe5ef0ce7f20fe4U, 0x210be5feffea11e9U, 0xfc0ce7efd2091700U,
  0xd2f6dff201180002U, 0xfe12fd31fb181bf7U, 0xfff4080923fa040bU, 0x606f30b1aeed708U,
  0xefd3fde803020424U, 0xfb0218ffdad62f10U, 0xe3f526f0191be204U, 0xe2d1e1081b0ee805U,
  0xfef0d7d902fd02e0U, 0xd8dc2b02f31807dbU, 0x9f1db06062d15f1U, 0xe5f4c812aaf8e0fdU,
  0xdc1dfaee0601e804U, 0xd4eef4f3fa143bdeU, 0xfdce17f8fb0c37d4U, 0xf0d70dd914f6f2U,
  0xdcf7231b101bf5d5U, 0xde2ce6ec1a17f9dbU, 0xf7c9f6f6f5cf1704U, 0xe7e210f801febeffU,
  0x19ee00e51206faeaU, 0x3120cb0d08dff1d9U, 0x11f6120a0c3d18d1U, 0x3cd8e0d9fed9f6ffU,
  0xe20c0e002716f9f6U, 0x4e0edfa21fd08f1U, 0xe705e9ddf5fa04e8U, 0xd722fc081d00d8d1U,
  0xaadedfcec0dd917U, 0xe4f6edd0e9d10031U, 0x19f807bff4fff6eeU, 0x17f9f6ddf70bef09U,
  0xf9fcf9f20e2cfdf0U, 0x1ad4090a1ffa32fdU, 0xe94dcc0fecf7ef11U, 0x5f40fbe13f416eeU,
  0x16f5b0faf50dfcfbU, 0xe0163febfdd71ef2U, 0xd819050de9f4ecfdU, 0xc4130bf1d0eb08e5U,
  0x320f309f50ad6d8U, 0x19fcf3ffd70f1007U, 0xf5eef41c0cdfe6daU, 0xfd20e3f6eb0d0800U,
  0xd3051a09de08fb04U, 0xf4f707ffe3ee09f3U, 0x170318fb12f5cc07U, 0xf51ce3f63ccf2df1U,
  0xe2e60bf9e5df150bU, 0xf7ee1ce1c4f8f60aU, 0x17f3f2c418ce1ad2U, 0xedbef1f7e7fc0e0dU,
  0xf7f912ea040d07f5U, 0xe221f3e1d3f01b1fU, 0xedfbfdf0f90e3210U, 0xfc0d11e8f914f6f5U,
  0xe21fede3dafafdf5U, 0xfb220ee214eefff4U, 0xece9ecc0bffa17ebU, 0xf5140a0df4e4e4ffU,
  0xf9dd4506eb12190dU, 0xffef25bbcff5dbedU, 0xfbdbf80fc5eb0d21U, 0xecd8f6ccfdcafd0bU,
  0x7e3e608fd27e7f0U, 0xfaeae02b19fcf1f8U, 0x213816e7071c1c02U, 0x726e12119eb1e15U,
  0xf30308011d041d09U, 0xecf300dbf7fb19edU, 0x5f4f50f0f0b12f6U, 0xfe07dd06eeebeae0U,
  0xeffbf20214ef0501U, 0xf8f6eb0302ffebe6U, 0xf6fee7f2f8fafcefU, 0xf7080bf6e10ee0f6U,
  0xf4e7fd0bf809e9ffU, 0xf60a0235eefdfbdbU, 0xf1e7030506f2f9f8U, 0xd00fde502f83cf7U,
  0xf901fd0012d0ecf3U, 0xdae5ebe9ff12dff4U, 0x5f8f802e712efU, 0xbcdecf4e102f1ffU,
  0x604e5e706dec2d3U, 0x8fefdd9ed0502e6U, 0xd1ff190116f4f8f2U, 0xd60f01fbfcec11faU,
  0xe6e80d07ddf10f04U, 0xe8e3f2e00ce70b14U, 0x23ed10fc1410cafcU, 0xe6f9eb13fbe6ecf1U,
  0xfc0ee7d8f2d7eaf2U, 0xebea0c0dfc10f5f7U, 0xfe0111e10ed3000dU, 0xfe18fa0006fcfeeaU,
  0x2fbf0fbe2fa12eaU, 0xff80ceef706ea05U, 0xe00beef70018e7f3U, 0xf1fbf00514e711dcU,
  0xef1905e2fdd6d4e7U, 0xf3f914f5fcdeea06U, 0xe51fdb00f71715eaU, 0xf0cdd6fef2f8ddU,
  0xa17de1203f8db01U, 0xf2fbf5f1f501fa03U, 0xce1f91f05f519f1U, 0xeefd04e7dbfadd0aU,
  0xf403e9eb0cfd080dU, 0x200fefdce9f4d8dcU, 0xbaf7fa0bd1f7eff0U, 0xfbd007e404e902f6U,
  0xde6f7fc0314e00fU, 0x2f601e600dcf006U, 0x21f2f2f7fffb15e8U, 0xf412e7e9fc08d9f0U,
  0xe5232debfce81bf5U, 0xe110efe7e107e513U, 0x13e61cf6da0ce6f9U, 0xede008020a04f3U,
  0xe5faf2dffbf305U, 0xf80d07edf9fa00d1U, 0xe5d9dceb0cf2fe0eU, 0x41ee0f3f3ffececU,
  0x8e4d7fe080ad2fdU, 0xaf70b2ae6f4e603U, 0xe5f3faf9f1cfefefU, 0xf806df0511e205e0U,
  0x5dcfdf308ee0502U, 0xdf110a261d09e3f4U, 0x712151cf100cdd8U, 0x1281f24f1eff40cU,
  0xdf5e6f4dc2dfaf8U, 0xfbf8f2effefd0702U, 0xef10fde9fc05ede1U, 0xeeaf3eeeff7e6d6U,
  0xf207f4e20bf6fdfbU, 0x1a0d11f8ece604edU, 0x17e80ae6eef1db0eU, 0xd424fef6ebeb0104U,
  0xf1f1eff8e8ec18f6U, 0xe6f4fef5fafa050cU, 0xcd0e0507eff5fcfcU, 0xf21003fdf11bf700U,
  0xf4e6fe0adef40ce8U, 0xfcf8f3f7fe04f2f3U, 0xf7f5fcfdf92409faU, 0xee1fd0308f9e9ffU,
  0x31b01ecedcdfdecU, 0x1f400050bf8fefeU, 0x14f4f6d9fceaf3feU, 0xfc01d0eaede80112U,
  0xf203e615f306ff2eU, 0xefdf02fe01e0fb07U, 0xfaeff6eafefdf7f5U, 0xe1f7d9f7f41106f4U,
  0x1ee7f816f7f9edfbU, 0xff70f0b0ef70eecU, 0xf40df0fbeae6e901U, 0xf4f9f71004daedf8U,
  0xfdfbdaf7dc08fef7U, 0xf10707100be81500U, 0xe9ede8ffd0d915f5U, 0xf7efece2eee701f2U,
  0xff2016ebcdedf6f5U, 0xf71dedef0b10e501U, 0x10205f5fbf91feaU, 0xd1ff0af6fe02f2faU,
  0xff00ff07e4e9fbeaU, 0xff00ff0fe8f0f308U, 0xf3edebfb07d6e8U, 0xadee52eeb0f3103U,
  0xea0a01fef706e9fdU, 0xdd0ceef8e0d5f0e5U, 0xf8e6faf52ef9f4e5U, 0xf9c72400d9e9fde7U,
  0xeb1a0bf8ef120105U, 0xf1f2f3f106f80704U, 0x10d00e7f6f20e08U, 0xeaec0b03f7e4e417U,
  0xe828e2f504f40a0bU, 0x7edfcf3dde211ddU, 0xe9f20428ebfbf007U, 0xf206f9e4e5e60902U,
  0xecf9ce03e6fb05fdU, 0xf7eef905e8fde7e6U, 0xe3d6e2fdeff914f5U, 0x14f20ef4f8f8fee7U,
  0x6edf1110606ddf1U, 0x4d9fbedf4e8f40bU, 0xe8e4fff8f8ebfd04U, 0xd2fc15fde9ee1018U,
  0x2f90828ef26d0f9U, 0xccffcfbe8fee4ceU, 0xe81cfed0eae3fb05U, 0xede61003ecef1300U,
  0x1c10def1111a0123U, 0x230cee02ffff13d2U, 0xd922d3cbdefce315U, 0xd1d2eff6eaecb519U,
  0xff0bde03fd10e749U, 0xf21af90d0639110cU, 0x616b318dcdaf7f5U, 0xef0723ed02dcefd1U,
  0x2a0d2002cdccf3efU, 0xe906d221fd0500e2U, 0x1ee044efefb1ee1U, 0xd5e625deebf51009U,
  0x1f16fd05d832ecfbU, 0xe7100dcefbe8aedfU, 0x939c9ed0fe008f6U, 0xf50118ffe9fc1920U,
  0x19e1e5114e21ebffU, 0xb10f4c91a03fdf1U, 0xeaf7c119e2f22b39U, 0x161ce6cb04f006c8U,
  0xe9eac1ee14fbbbe1U, 0x3f108facfbd16eeU, 0xe9e5f609fff3eaf3U, 0xfce5e72adcf4fd40U,
  0xf3ed15cadad51bfdU, 0xe60bf901fc1ae6U, 0x9ef161efff4fa06U, 0xbe7f00602de1e11U,
  0xeed0aa20cef0ca1dU, 0x2ff3ec1b1dece00aU, 0xf610e10bf8d6a606U, 0xd7e20de814e40ef0U,
  0xe7e5faf6c90e11eaU, 0x16e853e91620dbf5U, 0xf0e20f060dbfed08U, 0x280ae1c1e6f5c0e4U,
  0xe004fbf229d2f516U, 0xfdfedd17ee05caeeU, 0x2100effeda01031dU, 0xd9101c0aeb30de1fU,
  0xee08b8fcd90df306U, 0xd4e9dd001ce9fafdU, 0xf2d8e8f5c9381af8U, 0xc242add0eedef09U,
  0x140312c6f3cdc2e0U, 0xe826da09db220805U, 0x121028fd17f60b0eU, 0xe609f1dad927dc08U,
  0x7fa0eea1be14617U, 0x24fef1e52dfde0d8U, 0xdc0937e1ec160e34U, 0xe0e8fdf615fad705U,
  0xf908e9ddfa1a0ef6U, 0xcf9f614f8fdfa2bU, 0xed41bd3fc06ede0U, 0x16f107edf8fff325U,
  0xafb0a0bc3f1def5U, 0xf4e4dfdbf1181fb3U, 0xf7fef1cdfacff123U, 0x2e6f3f904f6d6f5U,
  0xf3e600eb02110de4U, 0x160a2b0cfdf9111eU, 0xea1be20b0b2305eaU, 0x3fe12e4e10e06f4U,
  0xf10feaf9f2f6fbebU, 0xfcf8f7f9f9f1f7feU, 0x200eef5eb042bU, 0xf5010005eaffee03U,
  0xfd14fc07ea00ee05U, 0xf402161be6f9fff8U, 0x4ed04f21ce7f3f7U, 0xf7f8edf7fef5fae1U,
  0xf602e70bf810eff4U, 0xeee4ed0bf8e4f408U, 0xf7f40bf8f4fce600U, 0x3fff5fded00ecf7U,
  0xf710fbedeffde2fcU, 0x2011e0ffa10f1f2U, 0xfbe7e8f9f301fcefU, 0x307f4f7f1e723f6U,
  0x9fe08fc0f04fbf3U, 0x8fcff03f91105e9U, 0xffe801fb0a140ed6U, 0xfcf1eafffef412f1U,
  0x7f71b1606e900e8U, 0xf7f409fe11eff8f6U, 0xafef2e7f900f103U, 0x1bfd030def07fa10U,
  0xf0f0e8f9e9e7e8f4U, 0xf50700e7010407U, 0x19f2140d12f904faU, 0xf015ed15f40ae9f8U,
  0x4fef903ecfdf8f0U, 0xf60106f31202eb08U, 0xffebf406fd0f02f8U, 0x300f913f90ffb0aU,
  0xe703edf3f90500U, 0x19fd030beb04e3f2U, 0x1907faf402f5ebf0U, 0x31200f6f9fefbf0U,
  0xec0100f0f2fcfaffU, 0xf7080bf1f40cfcf7U, 0xeefef5e7f924fce8U, 0xff02f7fafcfbf003U,
  0x6f9ed030df6f2f1U, 0xfaf2eff701effce4U, 0xbfaf2e60c03eefdU, 0x6f4eef9eff3f016U,
  0x10fafaf5fcf4f5fdU, 0xf5faffef142bf90eU, 0xf5ebf4ece2fcd719U, 0xe1ff00e3e7f6f2e8U,
  0xd10f0fdfd030409U, 0x214faf7ebe8def1U, 0xf8e8ed05e50201f1U, 0x701fdfa07f3f4ffU,
  0x5190beb0be1e803U, 0xfc01f2e7f8fa03f9U, 0xffeef9e101fbf0fdU, 0xfdfbfafb0103f8f1U,
  0xed210210fceff6efU, 0xec18f2ed0f03e40aU, 0xecf6300ff10707e3U, 0xcee0d03fbf8e70bU,
  0xfcf1fdf7fdf7eee7U, 0xeb011000fde301faU, 0xdeec0ced06fed3f4U, 0xef000601fa07ee05U,
  0x2fceebc5f5e5f5f4U, 0xbf5c9ee11eefff6U, 0xfde8fffce6e3e4edU, 0xb8eddb4302eceeddU,
  0x9fd06e8ecedf9e7U, 0xee17d3f6fde9ed23U, 0xd9f219f4fcec0b1dU, 0xfe21ddf80c1800edU,
  0xbf9ea08f2ee0dbfU, 0xf4151a0d36d72014U, 0x121dec003b08e311U, 0xfb060007f4f0dffdU,
  0xe0afa211de915e2U, 0x7fae3daef09db1aU, 0x90509e2fb14f4f1U, 0xe90bfd0a13f71ffcU,
  0xeae40ccad7efe0feU, 0xfeecf5e4130004feU, 0xdd03f5f2d7f103f4U, 0xf8204638edd8e314U,
  0xf7d9edf5defae8f1U, 0xf911f1e5e3f8dcedU, 0x10fafeeee0ded906U, 0xffd60dfe18dc06ceU,
  0xce9ecf7f0fdd6d1U, 0xefef1d1e09dfeed5U, 0xf2dffefa0516e602U, 0xec021cfbb9c80203U,
  0xec0df7fff4f6f711U, 0xef0aef0def0510ffU, 0xaedfa10e6fe09f6U, 0xf6f1d709e1d7edeaU,
  0xebfe1ad2eef031fdU, 0x1dda0cf2ede20eU, 0xd9c8ead80b130218U, 0xf0e81013f2f9ef0aU,
  0xe1f9f4fdbbb5d6feU, 0xda0df6f61209de14U, 0xd11deed310fde6e5U, 0x2081ec903f408d0U,
  0xf5fbe5e5efd7f702U, 0xcd6e2ea0df5ce11U, 0xf90eeb03e9e6f003U, 0xfe03f2f60bf608U,
  0xe7f4ec08f409fb11U, 0x1d04fceee0ee21dcU, 0x5f7d90fee0a012eU, 0x60af8df1702fc09U,
  0xde05f30be7f1f3dbU, 0xf50ddde200f2f103U, 0x14def9f0d8ead10dU, 0x13020b1bf3fed7eeU,
  0xe0d6fdf3ece6f0d2U, 0xfec804efe8f11dffU, 0xe424eff7d027fafcU, 0xed05f6f1ff02e6ffU,
  0xf9c6df0d24f6b1faU, 0xebf0ef1cedf70404U, 0xd6fc0ae2f9f80b1cU, 0xf1debc0deb0cf601U,
  0xf18d016fe1ef5f8U, 0x30c1c04d7fb02eeU, 0xfe04f919f3f1ff03U, 0x1ed4e708db00f4ebU,
  0xfef8fefe02f1eee8U, 0xf0f10806fcf4ff02U, 0xf5ef09f8f2f1f9f2U, 0xf7020d04fbfeea04U,
  0xfcf80508f7f1f7eaU, 0xebf4fff3fcfbf9f5U, 0x6edf7f4090205e9U, 0xf910f4f81204fbffU,
  0xfb00ec0cfefcfa04U, 0xfbf3020df9fdf9f6U, 0x3fc1ffffcfb03fdU, 0xf103f5f3f6fdfc0eU,
  0xeffa0d09f62607faU, 0xf4f8f00df904f406U, 0xfc00fffe0e080104U, 0xef0cecf3fafafb03U,
  0x1e60600020006f3U, 0xfc01e9f5eaf0e6f7U, 0xf31905fef1fbf4f4U, 0xe5f1fdf3fdf7f4U,
  0x4f10204f3fdf200U, 0xf70408f9f7f9f608U, 0xfaec05000103e8f0U, 0xf4fbec01ffeefbeaU,
  0xcf3f0f8f8f7fdf9U, 0xf41904effb0cf5ffU, 0x80c1eebe9ff02f5U, 0x10f5efdf06f61df5U,
  0xf4eff4fd00f8f511U, 0xf3f60c0008f7ff02U, 0xd09fb00fe030002U, 0x1fcfefa01f9f40aU,
  0xfef5ed0aeeec00f8U, 0xfb01f5f6f5f5fcf3U, 0x7f3f703fbf5fef9U, 0xf3f509eef1fc0cf6U,
  0xeb0af3fcf4f8f6fcU, 0x7f20706f6fdeeU, 0xfbf7f223fa03f805U, 0xfdffec01faec0501U,
  0xfaff0ff3f6fb05f8U, 0xe9f60b100d00060eU, 0x300edf7f4f5f5faU, 0xf604eafdf8f5eb01U,
  0xfcf5f8e5eefaf5f6U, 0xf60bf702f9edfdf6U, 0xf3f709f51df800edU, 0xbfdfdffebf805fbU,
  0xe0cf3fdfa0efbf2U, 0xf0fefff6fbf7f6e5U, 0xfff0f6fb06f80fe8U, 0xfffc07fd02f9ffffU,
  0x5f2f9fafc0102f4U, 0xe1e6f503f5f5f6feU, 0xe9f40dfcfe0507f7U, 0xfdf5f100f6f8f9ebU,
  0x2fefd06eaeff106U, 0xc00f3f5f603f807U, 0xf301e6f9f100f7f1U, 0xf0f8f1e4fcfa07U,
  0xfcfb03eaff0715fdU, 0xfefc06f9f6eb03edU, 0xf8fcfde80eedededU, 0xf8f9f4f0f900f6e9U,
  0x505d7f3e32f0508U, 0xf40af50a11e2eff5U, 0x90817ecf4faf911U, 0xf5fd0def00f4fffeU,
  0xf8f5faebe2ef07fcU, 0xea0af5f8fa0a07e6U, 0xebeafcfff7fefb17U, 0xfc06f0ff20ec05f2U,
  0x1f7e90cf80600e0U, 0xbdefc030af1e5ecU, 0xe5060b0403e9faf8U, 0xf6fee7f1e6eb0701U,
  0x10e7f6fafceff8f3U, 0xedfcfc0c07e8040cU, 0xf5edf2f4e5160817U, 0x1f40df2ff1201f7U,
  0xfff1d6040001fef2U, 0xfd06010a12f02f05U, 0x3f4fb02e8dfe10cU, 0xf23ea1df3eceb0aU,
  0xf11711ef0e06f3e7U, 0xf90102f4ee0ef0U, 0xc0fedebfc08f902U, 0xefeffbfede0311fcU,
  0xae90200fbf0f004U, 0xffb11ff0ffcf023U, 0xfbf5ef07f2fb0609U, 0xe91cf308e30cf4eeU,
  0x31eef040406ec01U, 0xf8f1f6e9090909fcU, 0xe403e408f600f8dfU, 0x525f10be50302f2U,
  0x1f8f9f7fdf11105U, 0xedfae711f204fa1eU, 0xe90bfbffe5fc06f7U, 0xeaecfdf2e7f3f40bU,
  0xdb02fcfefb0904f3U, 0xedf601f6f2010df6U, 0xe901ece4fdf6fdf3U, 0xfcede1160d08fffdU,
  0xf6fbf6fa03ef01efU, 0xfc29f5faef0528f3U, 0xf7f8f8ebd3f6f8feU, 0x30b1bf9fe05daeeU,
  0xddf2edf3f60cf1faU, 0x16fff2fff7f7f81eU, 0xe201f90df8effffdU, 0x2f8e4f0f8e20119U,
  0xfc1ce1f2ecedfbU, 0xfe1602f9f5f501f6U, 0xfbfbf700f61802f0U, 0xec1805e6fa02fbf1U,
  0xf801e0fef1f813feU, 0xdaf3eced07df07fdU, 0xfa11181007f90d00U, 0x110020bf60a0b06U,
  0xf6e80aecff06f7e3U, 0xf4e900e9fef2ecf7U, 0xe300f5ef12f605f8U, 0xedf1e8e6d90bf505U,
  0xdf112f10105eef1U, 0x11f119f10310f200U, 0xf5f9fcf6f5f4f814U, 0xfb02fb21fbf8fe07U,
  0xf8d9050012fb04efU, 0xc5f40ae909f40c4aU, 0xd111101813e61f04U, 0x63f24cfd0bfcd4edU,
  0xff20dad0d7f4df08U, 0x293c21d2dee511f7U, 0xfbf1f8fef6e6fde5U, 0xcaf2e82a01fceacfU,
  0xfbf2e7effcf1fbd2U, 0xe80c0f1ce2111900U, 0xe01226f1b602f1c7U, 0x31ff30dfa24f31dU,
  0xf6d1ea08f2c3fefaU, 0xf2eadf2dddf0f9c4U, 0xdc0b09bbef1b060fU, 0xce5f9c3f900f0efU,
  0xf9f109f30c13feb7U, 0xf3f2f7f4eef91cU, 0xcff923ec20e0cf15U, 0xfce0f9fe111ff8f0U,
  0xd30a1520f033081dU, 0xe4ff14e1ebf9cba8U, 0xf635bff2bae1d3cbU, 0x3924fa0414ebe42cU,
  0xa0109d608e12326U, 0x7c206e304d7010aU, 0x16ebc0d9f1f91ceeU, 0x8fff2131823e2fdU,
  0x1df6f20e033130e2U, 0xf9fef1051500e6d8U, 0xfc09ec17c90d040aU, 0xd0ebe603dfc90e05U,
  0x12e2f729aff4d117U, 0xd8f9c3d9e01600c3U, 0xe5cfc708d12deddfU, 0x122f18d0f7ea0301U,
  0xff12ea041705f60cU, 0xcf10fd21032f2809U, 0x16f1fe24b2250430U, 0xac2beeb50fceda06U,
  0xcd061ee42fbfebd8U, 0xfed5f3f9e5a8dd16U, 0x1420bd22c1200f2U, 0xf4ffec06e8decee3U,
  0xcf1261ed9cecfd3U, 0xe00506f124d1da41U, 0x25b8f006cde2e1f6U, 0xedee3f3f4e21423U,
  0xdbbcf1320ee61910U, 0xeaf817e7dfe7e8f4U, 0xee0f29bc2ae00f09U, 0x251d3adfbb13e10dU,
  0xe0f82ed401d6410aU, 0xf3010cf0ce1dfa04U, 0xcd20e7cbf20521fdU, 0xd08fe1a19d8010eU,
  0xea11eded0ddff40eU, 0x12f7d119d9b6eb15U, 0x1cdc30e103fff218U, 0xd61c0b1a1bed21ffU,
  0x8eaea10f8e0f6e3U, 0x16f0cf3e24ff0411U, 0x11e1150813faf8f8U, 0x40cf8020917c317U,
  0x3fe0401ff04fdfcU, 0x6fcfffe01fcff03U, 0xfbfafb02fc020103U, 0xfcfefe0002feff02U,
  0x1fd0202f9fafa05U, 0xfd04f80100fb0102U, 0xfe03fe03ffff0004U, 0xfffc0102020303faU,
  0xff0103fafdfafdffU, 0xfd03fdf7fffffffbU, 0xfcfaf8fd03fafdffU, 0xfdfdfdf902fcfefeU,
  0x20101fd03ff0100U, 0xfe03fcfbfcfbfaffU, 0x401fafc0006fd02U, 0xfb00fdf902fcfbfdU,
  0xfafefdfefefdfb04U, 0xff02fffd01fefbfcU, 0xfdfffcfdff03fcf8U, 0xf9fcfeff0003fdfdU,
  0xf9fe00f90002fa00U, 0xf802f7fdfffffb00U, 0x2fffffa03fefa03U, 0xfffbfefb02000203U,
  0xfe020106fd000502U, 0xfbfa01fd03fefafeU, 0xfc0101f9f6fd04feU, 0xfa0403f8fefd0703U,
  0xfdfefefcf9fffdfdU, 0xfffffd0000fefbfeU, 0xfafdfe020104ff00U, 0xfb00f9010002fdfdU,
  0xfefcfefefd0201feU, 0xfd04f9f903f8f9fcU, 0xfefff7fcff00fcfdU, 0xfafa0302fbfa03fcU,
  0xfcf700fcfefd0202U, 0xfc01fbff04fffc03U, 0xfff8ff0000fe05fdU, 0xf9fffefdfffcfe03U,
  0xfbfd03fd03faffffU, 0xfefbfc05fcfcfcfcU, 0xfa00fefe0404fc00U, 0x303fc01020104fdU,
  0xfdfdfdfffc00fc00U, 0xfffdfdfdfb02ff00U, 0xfefcfcfbfe00fcU, 0xfbfd00050003fcf9U,
  0x20502fdfbfdfffaU, 0xfdfefafffefc01faU, 0xfd020003fd0004f7U, 0xfefd04f7ff000302U,
  0xfcfe02fd0300fa01U, 0x3f8fe04fb02fd03U, 0xff020406ff03U, 0x400fefefffcfcfdU,
  0x203ff0002fa07fbU, 0x100fdfefdfdfc00U, 0xfe0405040004fcfeU, 0x303f8fffdfcfdU,
  0xfefdfffefcfd01fdU, 0xfff9fbfdfa02fe06U, 0xfe02070100f804feU, 0xfb03fbfef904fe00U,
  0xd1b10fdf1f2ea08U, 0xf0e705f21ffcd11cU, 0xf1e91ef40eede6d7U, 0xf012e41e01f314e7U,
  0xf8d004e3ff15e4cdU, 0xf8fa1ad805f8d506U, 0xed0afcdff4fa2fe1U, 0xefe8fdf8e2e0f3U,
  0x805e82011eee2f4U, 0x614d823e5f2dc0aU, 0xfafa0004d20122f3U, 0xfdbf5f80701fcfaU,
  0x1bd91cf80be70f1cU, 0xfbf7f0f5070bf6e2U, 0xa0f01d8ec11f00dU, 0xde14e6f1f72217dfU,
  0xd20519d3f503fa12U, 0xf6ca03eaf93211e6U, 0x520f7e1f4faf0f0U, 0xcdbf5e7df08e812U,
  0x1ce80e10d4022cf1U, 0xdaf003e3dd09f813U, 0xf2f41ae7f9fddd12U, 0xe50bdfd919eafc0aU,
  0xf30bd4f8f523d6edU, 0xf4d8ec01d7eff600U, 0x220e3012e5160ee9U, 0x21fed208fff151f9U,
  0xe6e2f614fac9fdf4U, 0x9f2e2f704071b10U, 0xf80ce209e0f302f6U, 0xfbeae60117dc15f3U,
  0xe5fadfe7f8cc0e02U, 0x22e409f4f5efe2faU, 0x8d500f406f7f904U, 0xf9ebdbf10a0ce8cbU,
  0xcf0ae70bdc1de826U, 0xfbf6f2f2eee906f8U, 0xf2e1e5f508ef0220U, 0xea10f215fae4f41bU,
  0xf8e9cef9f4cb0afeU, 0xd1d4edf40cc8f3f0U, 0xa09e8ebe411eaeeU, 0xf9f9acf7041be601U,
  0xf5e1d3fe17f6edf1U, 0xf71af714fe04ff01U, 0xee911f623ebf0e0U, 0xe40efdec0bfb11e3U,
  0xcfecfef601f8e4e0U, 0x2916ddfdd3dfede5U, 0xf1e5fbd311ebe30bU, 0x4ee0bf1cbeddcdbU,
  0xfb010cfcef03f700U, 0x5ffdb0af9ee382bU, 0xf71122f5f9e60fecU, 0x1fd0500fcf304e1U,
  0xf7fcf10dfcfd38ffU, 0xafbeaf8f014eddfU, 0xbde7eecfe71f1efcU, 0xec052ff51502f9feU,
  0xf3ebe5fff0e813e1U, 0xf9ff0400e6c620e3U, 0xea2013e1ff04eb06U, 0xdad614e7e5ddf8f2U,
  0xd6d806f0e606f1e8U, 0xc10d622f119f605U, 0x1ef2f9f2151bf4c7U, 0xd0010f4fb0eebecU,
  0xadef606f801f3eaU, 0xecf0f1f40af7eae4U, 0x8fd06f7e2fdeeU, 0xee1b20ebcce7e407U,
  0xeb00f4e0f0f5e5feU, 0xeef704eaf7110ff5U, 0x1e5e2e9ecf2040fU, 0xfb08e9f8dc07ffe5U,
  0xf1f40217e1e6031cU, 0xecf6f0f501fe24f5U, 0xedf81f0dd2e61bdcU, 0xf1fcf00206f7f823U,
  0xee07feda0bf9dbf1U, 0x27f005eff5f9e7f2U, 0x8e9050b0d17093aU, 0xfecf7040d05d0daU,
  0xfa0512ddfdffcb12U, 0x2402e6e2e7e9ed0eU, 0xdd0ef3fcf8fee2fbU, 0x6fffce3de10f301U,
  0xe7f3eaf0eb110102U, 0xfef408fce8110135U, 0xf913e52a0709f800U, 0x3e8e620c91000f3U,
  0x402f2000109ebdeU, 0xfde6edfad70602feU, 0xdc1af816dfcae2dbU, 0xef0cecf7f2dafc00U,
  0x3fafa0722fcfae9U, 0x16ccf1fbf30e1fd5U, 0xf109f8f0e7f7eb05U, 0x518120a1cf209efU,
  0x1f8edfcfbeb15f5U, 0xfbede7eaffe1ff0cU, 0xd3f7001be2040002U, 0xf0f0d60d370c00dcU,
  0xefb0fff1408e7f3U, 0xfbf50c07f60ee304U, 0x9efe501fcfcf6e8U, 0xf511f6f60cc7030dU,
  0xe30b0f03f90ffc16U, 0xe3e4ddeb0d12fedbU, 0xe001ec00f3030016U, 0xc408e4efe9f2f7e8U,
  0xa0f04eef909f907U, 0xef12e9f00ae1fdeaU, 0xf103f2fce9eb0d10U, 0xfcf6f4d5e9edeb00U,
  0xec14ea00eb0cf2f2U, 0x2190f040fdb1101U, 0xcd07daf90bf6e6f1U, 0xfffafd000cf5effeU,
  0x7eff5ecf2f3092fU, 0x8f001fe09eff5fcU, 0x1dfebfafefe04d9U, 0x40af419dd15f8f2U,
  0xfcea0616fdfbedecU, 0xed0501efe6f3f1f1U, 0x1e02412ef1beaebU, 0x10ffee105f7facbU,
  0xe3f6dd01ddf20beeU, 0x5ef121232d3f10dU, 0xf1f16ececd6fa32U, 0x6d622dc09e9dfdbU,
  0xfcedf0e6adf4ffb7U, 0xce1f81603c71cddU, 0x208c8c0fac202e6U, 0xe00002321819ce05U,
  0x1413f9031cf701U, 0x23b5ee131ff6d2f2U, 0x2d433c207fcf21eU, 0xa0406e6f00638eeU,
  0xce2fffff0f7e421U, 0x1bf4d2d432cdf645U, 0xea18f0f820efd415U, 0x29090eeaf3efc5fbU,
  0xf40bd1da202425c2U, 0xfef5e8d3c80f1614U, 0xde16efecf3eae21aU, 0x70b27d4ece0e4f0U,
  0x26fc30fb2dfcec26U, 0xee071eefd30ff4d9U, 0x40b10f6370afaf9U, 0xe5f024e505cc0003U,
  0xd528eaf5f7fb20f2U, 0xdeebe633fb0de8ffU, 0xbe03d40407e629eaU, 0xf00311c1ea032407U,
  0x903fcfbec2ad0e8U, 0xf71420fbf0f112e5U, 0xcae3f5f7f7070bfeU, 0xebbdd6f7e10a03dbU,
  0x1726000be7fb08ecU, 0xe0caf5dbd224f1a2U, 0xecfb2113130a13edU, 0xe804f8ecc9ffdef9U,
  0xe7f943bdf8f4101aU, 0xfdf7cce9d8d209eeU, 0x1bd71034040bffe4U, 0xe06ebf529d90506U,
  0xf2dd1a03171e0c0fU, 0x451e50a0affdafaU, 0xe3e1effc1b241ad8U, 0x1ff804f344d1d80bU,
  0x10d60a2e250efc39U, 0xf9181ae4d6d5e30fU, 0xf0de5feebeff521U, 0xe000e5f9d0001606U,
  0x8eb0ce2e1e0f3faU, 0xf4dfea0205bfe228U, 0xe6f817f30e29ebf6U, 0xf3cff90c10ecf629U,
  0xd7d6cedc17fa1c17U, 0xce1b14f8f0faf8edU, 0xe50ddcf414e8db09U, 0x51fd6fc18192825U,
  0x14fc2716261bdebaU, 0xf82d331d21d3fedfU, 0x1ec714d3ebedffe9U, 0xedd00f0df11604c7U,
  0xc091f07f3f600dcU, 0x3e7e3f6d5cee0ccU, 0xe8d00e18e5ee0be2U, 0x34f6ee0bfeee0fc7U,
  0xe7f70fe90ff9fdf2U, 0xe01100e50e1717f0U, 0x10fde9edfbf205fdU, 0xf6e8fa16fff804e9U,
  0xe601e5f11312e8edU, 0xdcfa040b1be3ea1fU, 0xfa01eff3fd0909f8U, 0xe4fcfdeee8d1f1daU,
  0xedf7e707f5f4fef6U, 0xf0eb030af307e806U, 0xfa0422fbeffaf6e6U, 0x1cdcfff8e4ee01f6U,
  0xfcec1dfad6e21cd5U, 0xc7e8fff2dac30b25U, 0x1e2fade02f7f9feU, 0x11f7f514f7e3e9e8U,
  0xf61118bcefeffe05U, 0x7e3fff30005fa02U, 0x10c190607c9ffddU, 0x40523dee7dcf20cU,
  0x71c1a09dbe5faeeU, 0x2f3f801f502de05U, 0x20f10ee520e0d6e0U, 0x204f2e3e6d31001U,
  0xf10dee02f3ed050dU, 0xf8fa0ce2f8d9ecdbU, 0xf82be8fd0def0af3U, 0xd6dfd817e3ffede9U,
  0x8ef081209ffe6e6U, 0xd9edf916f20ff5e1U, 0x3faea23eb10130dU, 0xff27f3e40bdb01ffU,
  0x16d0e012fde20aedU, 0xedfc21fefee7e8fdU, 0xf31ad2e2082ff10eU, 0x9ebfdd201132fecU,
  0x5e8152e25000aefU, 0x1205f3f3fceffdd6U, 0xedbfd41022ed1e0bU, 0xeafaf8e106e3ee0cU,
  0xe003e81ce9f31afaU, 0xff20f7db16f6feedU, 0xd7ecf6feeef2f9d8U, 0xefe2fde5e1f7f7e7U,
  0xf40aff0816050cedU, 0x161afaedf0ec0ce1U, 0xfbd903f5080216edU, 0xf7f5e2040d21dbe2U,
  0xd2e0eb09f5f7eaf2U, 0x130eddeae30405ebU, 0xdb15fee6f7ee0c04U, 0x1ef2ecef14f6dceeU,
  0xfef113f5fde1cff7U, 0xe0d5fefd0af6f7e6U, 0xea091a02daef27ffU, 0x909e9f4f1df0beeU,
  0xd4f0e4f91d100bfaU, 0xe8f1da09daf0e6e6U, 0xf8f3e1f911f8d2d6U, 0xd4f2e4de0e11f9f3U,
  0xbef040b00f50c19U, 0xe200dc10d20cfb1cU, 0xeecf70dfaf8f6e4U, 0x19e520f5e8f10d0fU,
  0xe6ef03f8c1d4ccfdU, 0xdf121005f615e306U, 0x11ddc723f019d0d7U, 0xe2bffb1ee7e2d2f8U,
  0xf9fc03fe3009d80aU, 0x32ffce7f421c8ffU, 0xe008f8ece80dfbe3U, 0x1dcf1d15ef0cfef7U,
  0xed1c18f2d8f30531U, 0xe31014ee08ec17d0U, 0xccea0e09dcb926fbU, 0xdbd9c439f52a2622U,
  0xf4ede530ea3b12f4U, 0xeede11af6e5fe01U, 0xdecffbd8d413ad13U, 0xefe2d926faf22cd5U,
  0xd3f9f31228f1e2f4U, 0xe6151f06d2f9dee6U, 0xf06fc1bfa0fedbeU, 0x14f8f7e00117e4f5U,
  0x1c02d5e7cac32b02U, 0xf1f8da3f0adde01bU, 0xf7f1cb0204f1281aU, 0x1af5171602e7031bU,
  0x907e1fb112eeef3U, 0xce1e41ae205ebe3U, 0x3f0d6fbe6f5ff12U, 0xe6e509e4cfe3e1f9U,
  0x15ce0f03f0f21502U, 0xc8efffcd30e71908U, 0xe8f7edbe05ce1305U, 0xc40907f302e21713U,
  0xf4cd0916e426dadfU, 0x1cdb11150bfefbebU, 0xdffff5c506ebd3U, 0x43c9f223e8ee0603U,
  0x1eecfcda15d2e603U, 0x811f54341e5c6dcU, 0xebdee7e304eafbfdU, 0xf3e52825ec113cbdU,
  0x2be5020428f23901U, 0x2707fd03f0eaeb14U, 0x1710101105c8c9fcU, 0x15e91d0f30cd1bf3U,
  0xfaf10420fb1435f4U, 0xe5e31328fe22aaf9U, 0xdefcd8eb19dd012cU, 0xdcdb24ccdb08cbffU,
  0xe50ef00dddf2e1f3U, 0xd8f315da17fef3e6U, 0xe91bec23bde32dc0U, 0x4e2c051310e9f3e3U,
  0xf9c6efdfeb06defbU, 0xfeeed10afc20dc0eU, 0xf9d81efce3c4fddaU, 0xe9d3dff4ec04b2afU,
  0x1ff222f618e2fcfbU, 0xeefd0310ff1510f7U, 0x3d5eaebf3dd0ed1U, 0x21be51702d118ffU,
  0x11eeeddef1f9de16U, 0xec05f450fb2228fbU, 0x1ad82fdc07e22812U, 0xf5cb21f62ce1d010U,
  0xf11202010912f601U, 0x40412eaf2fc12eaU, 0xfcfb04ffffe805fcU, 0xeaea00fc06041626U,
  0x1be4ffec0dfaeed5U, 0xfffb05f00a090df6U, 0xed04db0ff90009fdU, 0xcf50eecf8ebff0eU,
  0xfa1a09e3fef4ea14U, 0x5f2e80501f1f0eeU, 0xfc04f0f9f2fcf90cU, 0xfe4efe7e7f7e1fbU,
  0xf7ed05f5fefe0107U, 0xf71aed05f3de0606U, 0xf0f8f3f9ff03d101U, 0xe6ffe7ef0304f702U,
  0xf601fd0d0df2f0e7U, 0x100300f71ffff7f9U, 0xf1f7eb16fce8fbfcU, 0x81216080106d004U,
  0xef020213d8ffedf9U, 0x19faf6fce900eaebU, 0xfffafffe05ff000dU, 0xaecf305f2ece115U,
  0xefecf9eff90b04f4U, 0xee1df0020302fef5U, 0xedf0f1f3ec07efe9U, 0x10f513f3f8f6e6fdU,
  0xe6e7f6f0f41511f1U, 0x5f7f2240714dfeeU, 0xfad20bf9061300f8U, 0x15f606ed02f31218U,
  0xf508e801ee07f40cU, 0xfdf700ede6f703ecU, 0xf1f6f206ef19f300U, 0xa06efe0e4fdf8e7U,
  0xed03eff527f7fd07U, 0xfdf4fd0bf8f911f2U, 0xf6e7051b01fef00fU, 0xfef307e4fde9f2f0U,
  0xf1150f07f20502eeU, 0xf03fcf9e5fbeff5U, 0xe8f60006e1fcf5f9U, 0xf9f3f902f0f52402U,
  0x15f9210605fee6f9U, 0x603100704000fedU, 0x2faf1fe04f6ed00U, 0xf8ebf2ecfff5f8efU,
  0xfce6fe08ecedf804U, 0xede610f6f2f9f5f3U, 0xf4f3fa09ee0504feU, 0xcedeeeff0f9e702U,
  0xfafae8f30dfbf1f1U, 0x235f3fdec07f1U, 0x1ea14fbeb01f52eU, 0xf9f405e603d3fbU,
  0xf0eb06faf0e8fe12U, 0x70a000305001b03U, 0xbfbf7f5fd03dbf3U, 0xebe7f2dae30012f8U,
  0xf107f6e9daf3ea00U, 0xecf7f1dafc0df1e8U, 0x60601eaf1dfc3f7U, 0x30a13fffed80b19U,
  0xe13409e3f82310d7U, 0xd9f1dffe07ebfd12U, 0x14f5dfe3f8071eeeU, 0xece8ee0f2b01c4afU,
  0xde04e0ebf8f9f405U, 0xfc210ad60e2317f6U, 0xbc16b70803efd3d8U, 0xb06f20f3017e4f5U,
  0xf3fdebed1fe415e2U, 0xf5e1fef0e0ddd006U, 0x2ee61815e526fd09U, 0xecff06ce1b16020bU,
  0x26e5eb08f2e223f2U, 0x60eece609daf914U, 0x3e0df06edcea1fcU, 0xb70920f6db0af907U,
  0xf603f11341e1f5dcU, 0xfbf70c2cc61d0ff9U, 0xe6e5f9d3172a33feU, 0x6f116f2fa29f52fU,
  0xf012e81fcf08130aU, 0xd03f306eae9e50bU, 0xdce519f1ec0510ecU, 0xfccab6f406feffc8U,
  0xfd10e1090c020cf2U, 0xe0082e0bf4f70006U, 0xfdfc191112e6effeU, 0x171df005fb090fe2U,
  0x25ddfeedeffec8d9U, 0x160fe215faff0bd8U, 0xbeecdc2d1e08c4aaU, 0xe181801f4d2ff09U,
  0x4fb14e7b5fde80dU, 0xe8c8070826eabbebU, 0xb1902e50304c8c1U, 0xf73d000ce50037faU,
  0x1210010512f52413U, 0xedff8f52e20ed09U, 0xf010eb0c20f52fd9U, 0xdddf27c814ff0006U,
  0x21e5fceefcfaf3feU, 0xcfdeeff6f2c7aba0U, 0xd09c5dbf008e9e2U, 0xeb010ae6f1f002f4U,
  0xcedef05fef20a24U, 0x1a28d1f339ebf91eU, 0xea0716e212e300fcU, 0xc1e8e0e7031512c1U,
  0xdfdc25ee19eaf9feU, 0xcff12eced11f8deU, 0xe00224f2d108f5f1U, 0x1c0829dad303ec06U,
  0xfcfbe71934e92adeU, 0xe31c190fe3d9fe0cU, 0xebb3f30ae0d8e60bU, 0xc216dce90ec3c0d4U,
  0xc31cf72211d1ef12U, 0xf3181718150fca00U, 0xf902e72001cb18b9U, 0x13cf2117030ee7f5U,
  0x20cedfbeefce317U, 0xd81be22be5f5ecf3U, 0x13fe1901fcef0722U, 0xac0315360c17f11dU,
  0xea01fcfaf9fbee05U, 0xef01070415fe01f9U, 0xf6f40103fff4eff5U, 0xf7f6f5f9fe09f1f3U,
  0xfbfefbeee8f30afdU, 0xfdfff6ededf0f3faU, 0x18fbf60dfbf502fbU, 0x5fb0c0709fb00f0U,
  0xecf3ff11f60410U, 0xf9f6f6fa07f5feedU, 0xfcfbfa0bfb00f3f6U, 0xeffaeef613f7effbU,
  0xfbf6fa03e6f8f5f3U, 0xf803f4fafcfef102U, 0xfb11f2fafbfef805U, 0xfdfd12fef40102f3U,
  0x6fbfa0703f6f4fbU, 0xf5f602effef6ffU, 0xf6fc17f1fdecf515U, 0xf9fef5f60800ecfbU,
  0xff0712effaeefa01U, 0xfafdef0efbf0f1fcU, 0xfff5fff4fbfa00f9U, 0xfaf3fff8f4fc0210U,
  0xf302f5fef6f7f3f8U, 0xeffefcf2faf7faeaU, 0xee00f603e7fb0002U, 0xf41cf5eff5fcfb0aU,
  0x11f1f300fcf3f3fdU, 0xec010503f20ef706U, 0xee19fc0ffaf6f1f1U, 0xf8fdff09f4fdf9f4U,
  0xfdfeff0af9ed1502U, 0x9fcfd04fa02f501U, 0x4f0f302fdfcf7ecU, 0xeaf60904ef13fd10U,
  0xf5e30dfa0004fbfaU, 0x3ff030407f30307U, 0xbfff3f107fbf7f5U, 0xfb01faf810f9ededU,
  0x1f5f1ec08f4edf4U, 0x5fef9eeefff08f0U, 0xfafef7fefefaf5fcU, 0xebeff40601ee010cU,
  0x11fb0417fbf0fc01U, 0x30106f109f8ff13U, 0xe7fb0decf3fafc05U, 0x10b07fdf0f3fef2U,
  0xf005e8e9fdeef2faU, 0xbf0f3f804eff9f9U, 0xfd02f2f1fbf9fbf4U, 0xf900f6f6eee904f6U,
  0xf606fd1502f6fff4U, 0xf90cf406fbf400fbU, 0xeded050bfcfbfc09U, 0xfef703f2eef8fcf0U,
  0x1e70ffbfdfaf8fcU, 0xf40cf30315f502fbU, 0xf8f40c01fc090a12U, 0xdf80efff3f607feU,
  0xfeec030cfcfbfef5U, 0xf5fe05fcfff0fcecU, 0xfbe3f4ec030303fcU, 0xfa04f7fdf7fc0ae0U,
  0xd5ea0dfbc917ea0dU, 0xf801ea0b10e80aedU, 0x18f5e008e0eec5c0U, 0x2110010917e1eee7U,
  0xefb16f827fcfd23U, 0xf70c0b1f090cf1ceU, 0x10df203e31019f7U, 0xaf903e1da0d1ffeU,
  0xffe80d1fff07f419U, 0xc40009fb1cf4e7f4U, 0xdbf8f4e40be80b0cU, 0xe01212d0eeee0de7U,
  0xddfb2af80ff9fc0fU, 0x1b0209fa17c9ef07U, 0xd0170cdf18d8efe3U, 0xdf3909e21aef13e3U,
  0x8d009f402ebe804U, 0x2ee701ecee1b0414U, 0xdadb0d00e41315fdU, 0xf7f4d10401fff6c8U,
  0x1dfc0313f3d4e324U, 0xe12a07120115ea24U, 0x1e6f7ddeac2fbe3U, 0xf5080ffdd9db07f0U,
  0x1f2bdd4d804f3f5U, 0xf5fc08e8fa08c411U, 0xf1000b07d5fb0e0fU, 0x4e525e51a080fc9U,
  0x16edd906fdfaef01U, 0xe0b01fffbf4f70dU, 0xf5f1e3fcfdeb14f7U, 0x1300aec31dd80817U,
  0xfcd101dc0decfff6U, 0xf9080026f7e2f10eU, 0xf6d116e8050ff302U, 0xf103ff27fadef7dfU,
  0xe3fd02e1faee04faU, 0x8d8f6eb06eefef9U, 0xc01cdd1528efdbfbU, 0xf2e3e2ef02080af9U,
  0xebe6cdecadfd01d5U, 0xf5e4fc151420f1d4U, 0x1ecef9ee10fae0e2U, 0xf1efe60e00f9e014U,
  0xcf011f2e40513edU, 0x102111f2eb1f27ebU, 0x91f14d31922f0d9U, 0xeee3032328eff508U,
  0xeef70402f6f5ea09U, 0xf4ea1cf315010d03U, 0xd8effaef11f6ebe4U, 0xcf29130eeed92b12U,
  0xffaf306e602f605U, 0xa06ee13e70d0525U, 0xf1e6e2f808ecec08U, 0x9f1dcf7eef8dee9U,
  0x19f439060ffeed09U, 0x29d009070307c9f7U, 0xf5e2100a22d30efcU, 0x16ddf221e5f3e816U,
  0xf4f0e6e3291fdb10U, 0xe6e8e4dcebd30efeU, 0x4eccdde062513f2U, 0x729ecf00af6edf2U,
  0xeec4c3f5c602fef1U, 0xda2a09e5df2e2302U, 0x1ef517d9fd15fe0fU, 0xdd170cf3fc0d01fbU,
  0x1302f1e9ece1fb1cU, 0x7dd08cdfbf410f3U, 0x1f0dd427e516cbe1U, 0xea09ed0ac8ebfc05U,
  0x172dd6fc02f4caU, 0x7e6060409e91c05U, 0xd527080df0ea2ed4U, 0xffd9e9f7dff82901U,
  0xf10632ffde03062eU, 0x30602f2f01ffcd4U, 0xea01d80e17ca2d41U, 0xe5de14eef8071015U,
  0xbeda05b8d2eabbffU, 0xdf1b7fee54d03feU, 0x807f8d5360efdd1U, 0x5efd4daf5182e02U,
  0xe40beb001df3dbfdU, 0xf1e60f1a2005f917U, 0xd6e5d7d2e90a2ae0U, 0xe6f7c2fbbfecdfe1U,
  0xfee8dd0b0aed23feU, 0x5f2e00cfaf5ffeeU, 0xcdf11c0eea1003d9U, 0xfd2fecf905e0e907U,
  0xdee5fe1e17eecbfaU, 0x8fbdd0f05e4fdf8U, 0xc90acc04fb1df9f3U, 0x17f604cc06f743cfU,
  0xe5c4f9f7e00ee40dU, 0xfa15f5bff2ece3d3U, 0xde091a0eefec021eU, 0xbbf9f31cd817fbf5U,
  0xf7e21b09e92c24ffU, 0xe0ce617de1706ecU, 0xcedfe0ce114e2e8U, 0xf2e80ed4eef4f207U,
  0x6eaf23ddcf116c1U, 0xe9e4ddedf109ce20U, 0xef22f00d183eccfcU, 0xeaf60000edeeff03U,
  0xe8eff7feee19fe0fU, 0xd131f90afc11cc21U, 0xfffee5ce15c1bdbfU, 0x12f2e402ba0cdad9U,
  0x1fdb25c4f9c6e3daU, 0xf5cfecccf1d4f613U, 0xe6fe23d802de180dU, 0x2026c9041b0afb22U,
  0xecdce611fff605f3U, 0xf10d2406e5b6f613U, 0xfab515cffbcde4dcU, 0xfe0ff5f200f8d60bU,
  0x906ed000d080945U, 0xc0bedd91ee5f59cU, 0xf8ef1207deff1fe2U, 0xff3420fddce908d5U,
  0xe6e6ecdfe100deU, 0x19ddfff50bf7ff1aU, 0xf21e2a1aece1c0fcU, 0xe4eed1f001e51bf6U,
  0xfbf0fcf9d1f21ce2U, 0x17eafadde1eb06feU, 0xebffebf9f1eee8e3U, 0x1b23fc00e423d8feU,
  0xe313fbda001fe8f2U, 0xb17230e1cdfd4feU, 0xe2000ff6e7030bf6U, 0x1cf2f8e7d0fbeb1cU,
  0xe7041a2f14dc01f2U, 0xeb0a05f3f7001418U, 0xef09ea06f201ecf4U, 0xf21b2700f2161cd3U,
  0xfc1d1cfc0112dc0eU, 0xf5f7e9de131900cdU, 0xf6fcfcecfc0cf2f7U, 0xf9f2d7fe06f0e519U,
  0xf108ddebd6f6e230U, 0xcde8e00c0a1cf003U, 0x33f9ebfc0e02f9e2U, 0xf2c2eae6020601d5U,
  0x17d3c709ffd8fc02U, 0xe216f5d8fef30903U, 0x1608bd011013e2f8U, 0xe10621ebe5e1f4f0U,
  0xe0906151f0bf8d8U, 0xfafdfb00e2e706f2U, 0xdf3102005faf9efU, 0xd6e2f7eeeff6eed5U,
  0xe31cf7fbd1f42600U, 0xff030e0d0fe50adbU, 0x1303e5e6d8ff2303U, 0x2903e100f0dc001eU,
  0xe802f4e7e3eb0b05U, 0xf301fbd11cf71004U, 0x202df0edfb0e1615U, 0xde9f8072a1502e9U,
  0xdeda0809fd04f7d4U, 0xdf15f216f746f1f3U, 0xddcfebfc0703dbe3U, 0xf051029df0bfb02U,
  0xddfa08fefa00eceeU, 0xf3f50dedd7f2d40eU, 0xe0af3fad423110aU, 0xe5eae303db14fbe6U,
  0xfffff2cdd6cf0901U, 0xe8060e14fceaea13U, 0xd9fadac3fcecc7fbU, 0xdc010712e013eff0U,
  0xfd35e4ceec03eff0U, 0xf900011329ede3e2U, 0x10ebfee8f5daf2fdU, 0xd0ced6000af6d928U,
  0x2cfa041ff7f1daecU, 0x622e2f6ef12e214U, 0xdc0fdaf201ed24ebU, 0xf70af60b06ecf2e8U,
  0xf3f7feec18dff6edU, 0xfdf509ec1001f7ecU, 0xeef203e00217d8fcU, 0xef7ec06e20b04f6U,
  0xecd705010300f609U, 0x7e808ea0bfc1d21U, 0x8210c14efdcf5ffU, 0x13ee0519ebddda02U,
  0xea050e0fe81d0bfcU, 0x1920ebf4f40a0d22U, 0xecbfe5191cf6f220U, 0xef0bd12feed7ed0cU,
  0xea0403d6f01a17ebU, 0xce10901f1e5e21dU, 0x4ddf407fbebdbfdU, 0x130005d2fbee041cU,
  0xe62c11fb00d9070bU, 0xf2df0314e103f8edU, 0xfce5e62f34faeae0U, 0xf0f707cef702d6f5U,
  0xb21ed0313dc0414U, 0x9f212c4bcd7ced2U, 0xf4070ed3d926ea2aU, 0xe41100eff20be3ffU,
  0xeff834ee14d3efd9U, 0x20fa1a0506ef0c14U, 0xe20c11fc22ebf4e9U, 0xe91220f8dfe511f3U,
  0xcee4aae4c30dff43U, 0xfb040ae6e921f3d0U, 0x19f70511b80fbfccU, 0x4daf600ea100a2bU,
  0xe5e5ee1715fb14e2U, 0xeee8010ff2ca03dcU, 0xfc24f124d61e0deaU, 0xf600f9fc230e18d4U,
  0xe402f012f6fad924U, 0x281b0109ed0d1829U, 0xee1fffef18f9151aU, 0x711cf0bf913edfcU,
  0xbdeedcf9d9ac2123U, 0xef05f30ad6eaf9d3U, 0xe5c2e9cb0102fa13U, 0x2df4f907d014f836U,
  0x1f0da0206e3d20eU, 0xe7f10002f8d604d3U, 0xf7fdd3e4280115e8U, 0xfd7db0c20f003c4U,
  0xe3e7f503fa2cd3ccU, 0xe7f901dfec14fae1U, 0x21f5efe2220915f9U, 0x23e92d24dffd03f9U,
  0x10100f342404ebf9U, 0x8172defee1803f1U, 0xf1f00b1de412e81dU, 0x1fe6ef16cac10c19U,
  0xf1d90b00e1fafadcU, 0xebfa02ce1e130d10U, 0x16be2418e3070ed6U, 0x417081e38f6f8f9U,
  0xd22d07fe13dde8e1U, 0xd3df18191af1fad7U, 0xe91fede5e8301703U, 0xe21d4e72cfb1e0cU,
  0x10210e110ac41de3U, 0xede6d3fd131ff6d9U, 0xe70b1607281d0ef5U, 0xc7d4d353d3e4060fU,
  0x13faf604db0c07fdU, 0xee5f1f8fdd3ffdbU, 0xf2dde5080b121a1fU, 0xeaeeeb03f3f9dc00U,
  0xfafcec21160cf40aU, 0xdc072d070de4f2edU, 0xaf2f4e9eff81afcU, 0xefd7f51aef0d0400U,
  0xed1e03ee15d2e0caU, 0xed6f82a0c0f1bebU, 0xdf237e431000f0bU, 0x40afced072be208U,
  0xe920bad31b1efefaU, 0xf5f71524f0d803f7U, 0xfe0536c9fde1f713U, 0xde306f90007ead5U,
  0xd3f0e711efeac9f9U, 0xf2030f01d814d50cU, 0x819e7060019a803U, 0xf5cb10fb1f13e1eeU,
  0xea1ec400052903dfU, 0xe5e8e7f706fd0210U, 0x6f9d0f123fac0e0U, 0xe91f2709d21cda0cU,
  0x47f2f3d3fef2f100U, 0xee601f3e90015ebU, 0xc7f90c21daf019cfU, 0xd81523bd2803ed1eU,
  0x20efbe011eaffffU, 0x2122050723c605fbU, 0x21de0a08fe29b701U, 0xdee91b3aeacafde6U,
  0x1a0adedfd2dbd917U, 0xf30b25eeeff2e7b2U, 0x1de90c0ce6e0d3f3U, 0xd91e2be5f6e5eaU,
  0xdc250aeddbe60dfbU, 0xf92d22ecf4f2000fU, 0x1dcbd72222030610U, 0xe4fa0bdf140edae7U,
  0x4000bdd241eeae0U, 0xe612f026d3f2ce05U, 0xe5fcbd17ed020af9U, 0x1d0319439ecbf5d0U,
  0x2bf1fa16f3e8f7e2U, 0xcdca010107271b05U, 0x3decc21fd17ebU, 0xf5cac30827f2f8f1U,
  0x25e8d6f7f615f5fbU, 0xfde924d6001cd009U, 0xb701f5e7f3e9c9f9U, 0x10d70613d9e004f3U,
  0xfcddf0e7dd01c1e2U, 0xfb14efe617f0e5f8U, 0x38ff11c2e3ef0bd9U, 0xff2af5f4f219ffeeU,
  0x1ed90ee718f8f4U, 0xd40002d416f41205U, 0xf42ed404eaccece2U, 0xcfec0dd6e00127f4U,
  0xf4daeefc161dd5faU, 0xc9edf6e018d90901U, 0xf7fce4f0acf1d3ecU, 0x35f2d5f8ea03f203U,
  0x3e417ebf7fe3c03U, 0xf6cd15f6ebfccdd6U, 0x11140ce510f32204U, 0x25f325ddd5ee15f1U,
  0xf1010504e8dbee13U, 0xf8eaeaf3ecfafa0aU, 0xeb0cf1d712f704f6U, 0xf113feea0dedede9U,
  0xeb112b08f20ef405U, 0xedf63ce914f0daf0U, 0xfb1406ecebffebdcU, 0xfaecfc20f80df5U,
  0x12161324040b0808U, 0x8eeec1911f300efU, 0xfc0ef6fbfbf22af6U, 0xf807142102f3ef13U,
  0xaf9dff2ebf912f7U, 0xdef1eef9effc18f9U, 0xbf714e6fcf9ef01U, 0xf711e5e0fafce5fcU,
  0xe9e8d7f7e90805f1U, 0xf6020afee304e91fU, 0xfde805fb0ed8efU, 0x6e0f6f4eefaf3eeU,
  0xf6e0db0520cd06d7U, 0x9fdeb18fd0708f7U, 0x15eff721e10b00eaU, 0xfde9efef05fee8fcU,
  0xffece8e0f6e20119U, 0xf6ee1214fa1b02fdU, 0xfe2e2ed1e01faf3U, 0xe7220114f9060411U,
  0xf0e1f90eeb10f9ebU, 0xf606f6f7e0050ee9U, 0x1df3fbe312ea1e0eU, 0x1e4fc12ecfd040eU,
  0xef0f0a0f05d7fd08U, 0x11eb060ced190bfeU, 0xf1dff607fddaf0f2U, 0xfae1f4fafbf919f3U,
  0xd8f4f2df060d13fbU, 0x1512dfe903fdfd07U, 0xefe808e1f4040ff8U, 0xf3effa06f2f500f4U,
  0xf71bfb2efaedf4feU, 0xe217f607fc02f8faU, 0xeddae7fa14fa0cffU, 0x1fe6fee7ec11e8ebU,
  0xe1f3f7f9deede609U, 0xd01d4ea21e803feU, 0xf7f5120603f8f9f8U, 0xfef627f103f71eedU,
  0xefd8050df5e8f6ebU, 0x4130805e5fff7ebU, 0xedee13fef50801f1U, 0xfd02feeefdfa0001U,
  0xddf204fe0cfb18e0U, 0xf1f2fd280b15f1e6U, 0xf3dbfe07f7f1fbe6U, 0xd1c04d3f6cf070bU,
  0x15f70ceff4e61fd7U, 0xf6ede3ebf3f90a07U, 0x5f80806ef1ed6e6U, 0xfb11ff0f11f0fdddU,
  0xf6f510f4fbddf8f7U, 0x2fdffdaf0fbeee7U, 0xf8f6e6f303d6f8ffU, 0xfcfe000d0cfee1f8U,
  0xf8fee9f5f70af303U, 0x304f2f8fafcebf9U, 0xf60404f900f2f400U, 0xfaf1fef30209f901U,
  0x8fbfef90905f0f5U, 0xfef700f5fe01fdU, 0xf6fbfff60003f1feU, 0xf2f301fd02fbfcefU,
  0xa060efaecf6f9f7U, 0xf9f6eb01ee01f700U, 0x30604fd01fefbf7U, 0xfff4fbe8fbfefd01U,
  0xf603f3fcf7fdedffU, 0x2f6fcfcfa00fefcU, 0x3f7f20116f7fa00U, 0xf8fef00dfaf800f7U,
  0xfdf6fffff3fdfdf2U, 0x13fbfffafef4f5feU, 0xf2eb1504fbf2f00bU, 0x3f2ed0200f9f4faU,
  0x9000bfa06f0f2f9U, 0xfdf603faffeefdf4U, 0xf4f6f6ee26fc0afbU, 0xf0f9f403eef8f604U,
  0xeafaf9fff8fbf300U, 0xecff0407060700fdU, 0xf4f207f8fafcfbf3U, 0xff02fbf500f9fbfcU,
  0x7fbf9f3fbfc02fcU, 0x8fcfef603f4f705U, 0x1f9f7ecf80205f7U, 0xf1f0fd0af400fefbU,
  0x100f9effd1400f5U, 0xf9ee08f9fff8f6fdU, 0x5fa03ff00fff50cU, 0xedfd0afdfa08f409U,
  0x106f6fd00f3f8fcU, 0x9f7f200fc03f3faU, 0x3f3fcfaf9faf0f7U, 0xf5f306fc01fcf1efU,
  0xfa02f3f7f2f3f6fbU, 0xcf5fdfafffafdf9U, 0xf2f2f9f8fc02f2f7U, 0xf7f005fef9fbf8U,
  0xf0001fc07f809f1U, 0xf800e8f6ff01f7fbU, 0x6fefefaf6f4f5f9U, 0xfbfafcf4fc15fbfcU,
  0xffed05fc05f9fdefU, 0x2f6f1f7fe0beef8U, 0xfa00fbf504faf5edU, 0xfbfc03fcfa0503fbU,
  0xf6fff4fbfaf1f507U, 0xfa06fef20607f400U, 0xfdfafff1fafefcfeU, 0xfbfff80cf703f900U,
  0xfefafff8f808f908U, 0xf7f9f5f602f6f3fbU, 0xfcf806f5fffbfef4U, 0xf4f807ec05fbfbf9U,
  0xfdfbf5f7f101f6feU, 0xf3f7f3fd0004031bU, 0xf508faf9fffb04ffU, 0x1f4f6fbe9ff1000U,
  0xc7d6e40e17ccd7f8U, 0xca100ce6dff6daeeU, 0x4d04fcf916feede6U, 0x2023e6f408f5edbeU,
  0xe5dee10c05c721c1U, 0x60d0b0608090709U, 0xed4a02f419fdd9e4U, 0xe0fb01e909fd09f8U,
  0xf9ccf3f0ebf3ca00U, 0x110305eff308fff1U, 0xe0fa04c618ff0e09U, 0x3f4170bdd00ea0cU,
  0xceed1e8e3ebf7c9U, 0x17be15e4f0e7fff2U, 0xf1d2f2c0e2fee7fbU, 0xf811f90f04e20be0U,
  0xeb070d070fc8dbe3U, 0x4f5db0cd0fffb07U, 0x35fed807d929fbe5U, 0xfe1902df0609c3f9U,
  0xf7ecaed2f9f415daU, 0x5f8ec3212fb1901U, 0xf1f1122cb8dfea11U, 0x7fafcf614e0f40cU,
  0x70000ee19ccda12U, 0xf818f70feaf5ddeeU, 0x162510e707bcd600U, 0xfff6e7dceb31ebU,
  0xebdd0cfc19f0e9f8U, 0xe6f2ec0cd4f00ffaU, 0xf8cbfc20edfff709U, 0xad611e8e4070dfdU,
  0xe8f603050cd82140U, 0xd8fc370b03f1eb13U, 0xe4dcdcf9f9fafaa2U, 0x6de1b081bdd0afaU,
  0xbe0af20005e0eb32U, 0x17ed0bfbe115e2c1U, 0xfc0be1e81ae6e403U, 0x215fbe9aafad13bU,
  0xda1c03ea1ff1ed09U, 0xf8f3fdf90f0f0d27U, 0xe0befc1a07e81deeU, 0x28b80fc8e8dbd3faU,
  0xda00cb11fabdee0cU, 0xef17b9d60df813f8U, 0xda082221ff04efe6U, 0xf30cf314fd1110fbU,
  0xe5e70021db10d304U, 0xea04da0b0706f322U, 0xc04ddee0efedbf4U, 0x903e7eaceefe0f3U,
  0xe51e24d5ebeff9fbU, 0x1b07fffff1d3260bU, 0xe2130b10e034ef14U, 0xf33328f7bdebf4f1U,
  0xd7ef0411fa0a02b9U, 0x1ce41a0be3f819fcU, 0x1ac6f3fe13fddc03U, 0x81ece0d00f2e506U,
  0xebf7070401121309U, 0xf31c03fd061e09e9U, 0x26db10efe611f2f8U, 0x140efffa2ad9e70dU,
  0xfaf8ffe6ed07ea00U, 0x911eaf710edf50aU, 0x13e4f905eef80af2U, 0xf003f4100e0ded09U,
  0xe502f8100fedfff1U, 0xf8faf11bf0faf4f6U, 0xf9f5f0eeede006edU, 0xee0aedf1f1021becU,
  0xec01dffae701fa32U, 0xf01710ecfefffc11U, 0xf308081be7f70305U, 0xfe0d1efff5eefcfeU,
  0xeaf6eb13f8e504dbU, 0xde702f703fe0707U, 0xed1620f7f3f80feeU, 0x150cfcfb1609fc05U,
  0xea0bfbe5fd061cfaU, 0x15f5f9faf4f7ed09U, 0xe8eefdefece80b22U, 0xfef5f30df9f2e1e9U,
  0xedef26fcecf6fc0cU, 0xedfc1ee7fc1316f6U, 0xf7f0f4fcf0f7f200U, 0x18f7ebe7e4e2f6fcU,
  0x17ea12ee03f4dde9U, 0xf0f3f61309eaf5eeU, 0xf7f00c010a02e719U, 0x2fb0515f5ebf600U,
  0xde9f60600011d0fU, 0xf8fdf6d902f80b0fU, 0x2f5e9e809f8fdf7U, 0xfcf5f4f10dfbf7f8U,
  0xf1fa0917f61adef2U, 0xfd06ed030aeaf5d9U, 0x1f505eb0adff9f8U, 0xdafe0c01f6f6eaf8U,
  0xf9e1fa0701fbf3f7U, 0x4e1faf40ff206f7U, 0x6f1dffc031ff6U, 0x2d2f222ecfefcf8U,
  0xe105f513ef010205U, 0xfafb1aff0b0efdf0U, 0xf2e20be20c03f4U, 0xf336e80bf7f6ddfaU,
  0xfeedf8fe0106fef2U, 0x209d101faf8d600U, 0xf1fb0301fbed02edU, 0xf2f5fbedde0cf0f2U,
  0xf204defae8f1f6fbU, 0xf919fafae7f5050bU, 0xe90001010b02ebf1U, 0xdeeffef9001ff9U,
  0x7f0edfb0002f4fcU, 0xf4f8f82203f7e8f4U, 0xfffefc0008daf9fcU, 0xfbfdeef7f8f6f3f0U,
  0xf109ef0808f1e9f0U, 0xecf305f5e9f6ede6U, 0xe6eef9f40a040fedU, 0xf3ef02edf0f8fdf2U,
  0xf9f2f6fff4f906f1U, 0xf5f6f9f3070702e4U, 0x90f1107fc18e801U, 0xee01e5eefbe2f1d8U,
  0xfaf9e9ebe3dde70fU, 0x1050c06ea0bebe8U, 0xd6d9281dfb0c120bU, 0xf0fb22ff1ee6e9f8U,
  0x2d0dfff2d902f702U, 0x1edad9e3030cff18U, 0xfbd3f113f209f6d4U, 0xf3fb17071900c8f8U,
  0x8e7ece908e2dfd9U, 0xf8cb1e00dcce2cfeU, 0xf71abee40208cbd1U, 0xedfd04ecfde10d13U,
  0xf3e2f9d2fb1418e6U, 0xec0b042af5e8ce0eU, 0x4d4e4fcfefad20dU, 0xece8f61407dad11aU,
  0xf05eaf01a03e9fbU, 0xec0d1801fad90f2dU, 0x7cf200109f9e91eU, 0x7c0eae7feeaf0fdU,
  0xe6ee2218fce20506U, 0xfbe40616effec10bU, 0xc0dd1ec070ddc0fU, 0xf814041cdad8e11aU,
  0xf80901d2fff9dddaU, 0xe6d51bf3feade41fU, 0xf40ad6f9f621fd07U, 0x17e802f9f7ef0af5U,
  0xfaef010d1be8f8edU, 0xe9d9c9dc1b0cf5dcU, 0xfce0fa0120def2f5U, 0x71023dde40c1bdcU,
  0x1de5f1e5f7eef4ffU, 0xe3fde3ef041d1ce6U, 0x270a05ffd6edeff0U, 0xf3e01fee17f1e9e5U,
  0xf7d0f9fbf4f81ae8U, 0xe81d05ea080629e7U, 0x1f703f4f60afebfU, 0x10d4ede820e3ebf2U,
  0x92911e01cc6ffedU, 0x11fa0d05fafcf2ddU, 0xd504ec010b0de2f2U, 0xe933f1f4250a2828U,
  0xb8e10401dcf7ef05U, 0x16ff01ec0d06ea19U, 0xf5130aebf7ffd302U, 0xe5f6e7c7e1effffaU,
  0xf90212fd02c10b11U, 0x2f1effbe706e4d6U, 0xcc16f70f0ff0f8f8U, 0xc4dcdfe6ffef05c7U,
  0x18e7e8f407e9ce13U, 0x72fe1e3dceaf707U, 0x3fce90417e71decU, 0xfce9d8fcfdedf5faU,
  0xecd022feea11dde8U, 0x431efeec01deeceaU, 0x13d5e907f80bf81bU, 0xf816f3ea0c09e7eaU,
  0xeae7fbf6f9f0cef9U, 0xe6ffe6ec28e1d9ffU, 0xfee8f7f50f21e4e2U, 0x1902efe1f7fee3U,
  0x102010404fbfe05U, 0x101fefffb01fe00U, 0xfdfd04ffff04f8feU, 0xfefd00fd01fcU,
  0x1fcfafdfc01fd02U, 0xf8fffffd03fefbffU, 0xfcfa0500f8fc00fdU, 0xfa0200fdfe000102U,
  0xff02000102ff0200U, 0x40007fa020203fbU, 0x1fb0202fffb0402U, 0xf9fffdfffffb04fcU,
  0x2010006fcfdfbffU, 0xff01fe0000fffffeU, 0xfa030003fefcff01U, 0x104fefa03f90300U,
  0xfbfcfffc00fe05U, 0xfffef9fcfb0005fbU, 0x3fc04fffcfb02feU, 0xfa03faff02fdfffaU,
  0xfffefe000205f8U, 0x2fefdff010100ffU, 0xff01fcfe00fef9fdU, 0x1faf9000303fcU,
  0xf902fc00000402feU, 0x103010103f70200U, 0x1fd05fffcfafb00U, 0xfefffb00f9fe02fdU,
  0xffff06fe00fd02fbU, 0xfbfffe0003fbfdU, 0xfe00fefffefbfefcU, 0x1fefdfc01fcfbfcU,
  0xfb01fefbfbfcfe05U, 0xf90500fc05fdfafeU, 0x2fff8fbfffb0201U, 0x40100fcfffefffcU,
  0xfcfc0003fdfa0002U, 0xf800fdfffdf802fdU, 0x4fcfcfef90104fbU, 0xf8fb0200fc050002U,
  0xfef9fcff00ffffffU, 0xfcfbfcfefcfafe02U, 0xfb0103fffd02f8fcU, 0x2020004fffe02fdU,
  0x5fe0302ff02fff8U, 0xfafa030402fcffU, 0x303fdfdff03fefcU, 0x104fe01ff00ff03U,
  0xfcf90302ff06fffcU, 0xfd02fffbfefeU, 0xfcfffd00fa00fe00U, 0x1040103fffd02faU,
  0xff0604fcfc00fe01U, 0x2faff01fffffcU, 0x2fe04ff01fdfefaU, 0xfd0104fffffbfeU,
  0xfef80102fc020800U, 0xfa00ff03000001fdU, 0xfcfe05000200f8U, 0x302fefbf8fb04feU,
  0xfc0006fbfd05ffffU, 0xfcfbfefb0001fefdU, 0xfcfc00fc050301fdU, 0xfb00fe02fffb00faU,
  0xe8081de9120917ccU, 0xfe20f826dae8f8eaU, 0xecf4e3fa0c09aed7U, 0xea0111160121d608U,
  0x17cef6e827f6f00eU, 0xf7be07d53be6e90eU, 0x16171128f2d60804U, 0x1d2fcf5ecd516d5U,
  0xdb21f0d811c80215U, 0xe1daea1f08edea05U, 0xecfac706c5dca9deU, 0xd81e0c160203bcdbU,
  0xd8ef01dc04e4eb14U, 0x17eb0fdc27f0edffU, 0x1fbbe40c09d9f9f9U, 0xf3e7ecf4fe0bf9e1U,
  0x2f00defd0bfff7feU, 0x31e7ef12dd26dfffU, 0x60313f6de08f4eeU, 0x109e7dee3ead10bU,
  0xee16f30104e6d1fcU, 0x1ee2e216e82df108U, 0x18d6eadb03ee0a2eU, 0xfc161306dcf9cfdfU,
  0x60508fd03f2de02U, 0xeae2ca16f7f6eaeaU, 0x5ff03de0802e722U, 0x2db04f1ea190de9U,
  0x10fce0dcc3ff17e4U, 0xdecc04f7e7170216U, 0xe9e8e20909c9fa0dU, 0xe1f5d912feef08d7U,
  0xa25101ce207e514U, 0x1e7f123df1fecfdU, 0xec1806f8d105db06U, 0x7131ff8edfdf3f2U,
  0x5ef121d48e21bd0U, 0xf30606e3cdf318f9U, 0x10f904fdbbebdff5U, 0xe013ebf30c33fceaU,
  0xecf74adcf8f4f1fbU, 0xe8270d0ce911fee2U, 0xd4ea0815f0fab8fcU, 0xf6f6d10a1027f2feU,
  0x14051cfbfceb032fU, 0x111015020ffcd6edU, 0xe2f20300f4e4cbe1U, 0xbd16eff808f10cafU,
  0xdee1d6010cecd7efU, 0xefeaddde1afccddfU, 0xbd0ac52602d62141U, 0xf2080bf5eee920f3U,
  0xfc2623f9fae9cd18U, 0x2955292ce0ffd409U, 0xf8f2eaf7ddd9fd00U, 0x1af6e5f027f62bdeU,
  0xfafb2af1f9d6fe01U, 0x192d06f60d2901e3U, 0xfcee4ea0fff11f2U, 0x2e09fa0112e21cf6U,
  0x15dcfa0820fff8e0U, 0xe60cf8d1ebeefc2fU, 0x70fddd2f648d6f3U, 0x343426c0df2fef1fU,
  0xae9112d12ed16efU, 0x40bd3721062ce5f6U, 0x28dce7ea06cde1ecU, 0xfb12ec0c03e81d29U,
  0x1b1620f425f2def2U, 0xd9f0fc111015fd0aU, 0x171cfbf4f733f00bU, 0x7e5f7040f07d9ccU,
  0xea13f40deae0e218U, 0xf20ef6f4380dc70eU, 0xfef2ebe917d504e4U, 0xefd71506f8ff1104U,
  0xc70927100acfdc12U, 0xdc9fa1102ff0b26U, 0xcc19f3dde806d313U, 0xfa28ffed163415daU,
  0x2112f20710f9f30dU, 0xf0ed09fdd3e60b26U, 0xfb02f6d70fff17f6U, 0xecbe1f13dcf3ecdaU,
  0xfc0ffd24e1efe8cfU, 0xfed90feb0c03e804U, 0xeee8eaee02c9e11fU, 0xfff11cc9e913d7faU,
  0xceee2ed09e6f112U, 0xc9f8f120f0ca1c34U, 0x1e50325f6dd0f18U, 0x3fd16e12fe00013U,
  0xfdb9e704da0c0029U, 0xffefe9e71700eb1bU, 0xac70614f4f526dbU, 0xf0fbf22206e9cdd0U,
  0xe32a14fb0cc6f8ecU, 0x12fd1605c906fbdeU, 0xd8090b3214d5ea02U, 0x250702de23e1e216U,
  0x11d17fb2608fe40U, 0xe7e005eef0f5e30aU, 0x2208e702d8ecdad6U, 0x9b9ff2ed603050bU,
  0x1019f610d9f5f20aU, 0xdaed160ae7e90402U, 0xe400ebe8e2e717f8U, 0x1f8e8efef05cfeeU,
  0x3d5dacdfb0915f0U, 0xea030604f711e417U, 0xfff611f2dadcd7cdU, 0xe10ae847d31af5f5U,
  0xcc7d4f4000dffedU, 0x2ed1d4f1f11601f8U, 0xfef40ef9edf3e10fU, 0xf4f3150c05decbd7U,
  0x17140e33cee2d201U, 0x9e8f1eaee1b24fbU, 0x71e1cf6ff0505U, 0xf3defc05ea0afb1bU,
  0xdd6020206020b32U, 0xaec0700f2ed1be5U, 0xdd20ce6f30de928U, 0xbbe4ec16e7f816e3U,
  0xfddaf2ec10142feaU, 0x6ec01da21e6ddf0U, 0xd11ccfd4f8000b15U, 0x1ffd09d90ffbef13U,
  0xfbf8ee0000f1f0d6U, 0xfbeff9f7faf4f305U, 0xeff403f912f710feU, 0x5011b07f8e619f2U,
  0xfc01f401dcf70af9U, 0xfcfa1005e71a0708U, 0xeedfe7dfff15e50fU, 0xde0eedf4f22110fbU,
  0xf5fe12f6efffe9U, 0x5eefdf215f0f0ffU, 0xbf502eaf8fa2cfaU, 0x20fe15e110ec0f0aU,
  0x6f5fe00fcea12ffU, 0x6f00c04f501f8ffU, 0xd1bfee91612ebf4U, 0xe9eef3f4f4ecf110U,
  0xeff015eaeddfddf2U, 0x2ffdefe9eefcf603U, 0xed030422e9fd09feU, 0xf2ebf8e1ed0610f7U,
  0x1ee12fffefdf005U, 0x3fc200ded00e60cU, 0xdf01d19e9eaf403U, 0xfcff04f024f8f2fcU,
  0x9ebe9e8fd00ffffU, 0xf2ffe1f5f8280303U, 0xff1201ff03f205f4U, 0xe90514ebf5f8f8e4U,
  0xff1101e60502e732U, 0xfc1d120012faeefbU, 0xee18f710fc091b09U, 0x26fbed03eb06f4ddU,
  0xf4f5e8eaf40c0416U, 0x101fa0af8f1fdeeU, 0xea00edf30d0802U, 0xf3e917ec0803f6f4U,
  0x7fb0bf6ddf111U, 0x7f4fcf2f9f5eae0U, 0xefe1f9060cfd0207U, 0xfedaf7100dec0403U,
  0xd3e3ee0eed0701edU, 0xfcecfb010b06e003U, 0xf102f8f1fd1208fbU, 0xe7ddfef4e8faf8ddU,
  0x301fbf502f601ffU, 0x20df1f1f0e2ed0aU, 0xf8f900080706e504U, 0xa01071b06f3fafeU,
  0xfcfa030febfafef0U, 0xf802e7f7efe4e7f0U, 0xf4f1eef9eff3eef6U, 0x10e309fb05eae9fdU,
  0xedebe4eff7f41be1U, 0xf5f8f801eb0dececU, 0x3000009f91509e4U, 0x1009f7eaec08f613U,
  0xe303eef505fdefedU, 0xdfe081203041cf0U, 0x15ffed071007e6f2U, 0xe3f4f7f01dfcf206U,
  0x8f6eaf8e7f90b25U, 0xffe2f8fd1af1dfebU, 0xfb09fdf7f2f80d1dU, 0xfd0afffcedfdf1efU,
  0xeae9f3d524b2cfe6U, 0x21fe24e718fe1115U, 0xf6e8e7130b02d304U, 0xefd03e410f7ead4U,
  0x3e0f6f3e5f2e6ebU, 0xf6071a19ef14140fU, 0xeb12f10ffb0922eeU, 0xf7f50af6f8fd0bf5U,
  0x10d7eafefa0111eaU, 0xdaf4390b39cf11f9U, 0xfae81dd7d80e1fc4U, 0xe08cb03fb032404U,
  0xeb19280fc3e0e405U, 0xe6f9ebd41d33d6e9U, 0x51308def4ed0123U, 0xe603f0f60aecebe1U,
  0xfcf12813c8eed02fU, 0x1ad9fd16d316d4dcU, 0xf6000b13db44ef3cU, 0xeefb0809f20addecU,
  0xdf00fee00effa2dU, 0x6f5da02efd2ecf6U, 0xddd160720d5f1f0U, 0xdee80705080b05f0U,
  0xdeebd8e2f41501fcU, 0xf21efcffd522c519U, 0xff0b0feffbeecef3U, 0xf8fae3b8ff16122cU,
  0xfffcfffa10defbcfU, 0x1fbe6e2eff6e1dfU, 0xd506da230cf6f0ddU, 0x7080df2ffe10116U,
  0xff0c1d0f07011f0bU, 0xcd1beb1df7df11efU, 0x15f010e9f7021424U, 0xeefde91fe8f20d0fU,
  0xda110ee21ef3d80aU, 0x11ec35f80afd04deU, 0xef1ad5fff0d3d910U, 0xa15e5ebfb03fcfdU,
  0xe5e2001b0ef118ecU, 0x181ae203c2d14a15U, 0x1014f3e7f6e1dbfdU, 0xf701fcfa26df1110U,
  0x22e5f607fe0e11caU, 0xee0f602e6dff722U, 0x2fcf308fc01fe1bU, 0xe311fe1e0a130905U,
  0x9f90beee9d50605U, 0xf21402d8d3fa0ee8U, 0xf0faf619c1d82606U, 0xe4dde0d315fcf907U,
  0x1100fff608df1c0eU, 0x1222170615042c1aU, 0xb9dfdb0509c1f5fcU, 0x14da12131dea0af5U,
  0xeac2fdfaff190c03U, 0x1b0006170ae4d418U, 0xe2deea091013f1f2U, 0x5e0ef0dece5e112U,
  0xefd9081ae7eede46U, 0xd0ecf9fd0406f507U, 0xf917f8fdeb0405f1U, 0xa141ad6f805fb18U,
  0xf117eee8e9f2fb06U, 0x3b030a0051081ff8U, 0xcdf7160e0f1cf803U, 0xad0fcf01dfd2605U,
  0xeb34ede90bed090aU, 0xf509f60dfe2c0500U, 0xf707c913e5fcfaddU, 0xfaf1f41a07fbf31eU,
  0x4de20fd0ef1e8ffU, 0x17f9030c1f0f05feU, 0x211307f5ec2b08feU, 0x111d0b2204e8f81dU,
  0x17001110eafdf8f2U, 0xbf101f401d6f601U, 0xee15e806eede002aU, 0xf9f8f2e7eefbe404U,
  0xf13fae90617f218U, 0xdcf900fc062efce7U, 0x715f5dd08150c20U, 0x27ee1cf5f4eb22e9U,
  0xd0fb06e9fcebfc2aU, 0x2ff715e20312f4dfU, 0xf006eafc0dfb1408U, 0xf10114eaeceaf201U,
  0x726f6f5ee19f014U, 0x82115f41818f4e5U, 0xf8df0d1316e70e09U, 0xeadb01e4f6fbfee1U,
  0xeb25fa11e71020f8U, 0x22165bee01050000U, 0xff0f15f01119f9d3U, 0x1103f6001afe0316U,
  0x18f008f5e509fcfbU, 0xf6053216e2190602U, 0xfef314090aeeeff6U, 0xe019ffebf60cf812U,
  0x1bfb15010b0d0125U, 0xf303ef17e41ef907U, 0x160810000d1ecf11U, 0xd7f9ce1016020b0dU,
  0x10faf4f71e14132aU, 0xfe11fbfefee6f5fcU, 0xee0a071a0bf70dd8U, 0x2b07e8021ef2e601U,
  0xf3f91bfee20c1a05U, 0x807e0f7cf0bf107U, 0x11808da0e08ece6U, 0xf9141cf90001132aU,
  0xecd50110f90426fbU, 0xfee3f82105f50ccfU, 0x20fa0dbcf2f904f5U, 0x80728f5e417ed28U,
  0x2802ebe5f3d801f0U, 0x1afa15ec131b13deU, 0x2bf2ff25faf1dff7U, 0xfb1e1d15eaf81703U,
  0xfb0619fb030af806U, 0xfcdd00f5f2fdf603U, 0xdc291dfa0ef006f6U, 0xdb09e4d309de1afbU,
  0x12f618d517e7fe18U, 0xcc2aea2502000cf0U, 0x7e504ffe4e1f6f2U, 0x80cd2b3eb11fbe1U,
  0xf00bfc00f909160eU, 0xfcfe0aeee31eefd4U, 0xc1e9e401cedbfad2U, 0x30ceb150b0cf02dU,
  0x272cf4f3bccbb703U, 0xf702e7cd430c0a28U, 0x19f10ae5fef51102U, 0x1e0623123216fafcU,
  0xf9e5fbdff414e6f7U, 0x8e5141df5f4f0d8U, 0xdef40a0c1007bc07U, 0xf60fe5fcf2022617U,
  0xbf0115da1220e0e8U, 0xe4f9fbf4fb0e0efdU, 0xe2080b100fe2dfd9U, 0xf508d0e9ebf9fe20U,
  0xfdf71bf4f1efe20dU, 0xf0170e18fcf9d004U, 0x5fbf81dcad016f4U, 0xda29cdf605f9cbe9U,
  0x11cbc6f6f8191c08U, 0xef1a1fdaf01ce6fbU, 0xf0eb1111e902ecdbU, 0xed00fd12dfede5eeU,
  0x5e2080d150afcfcU, 0x1decf10cf2efd4f6U, 0xfac9091411f2f4f3U, 0xf6d90ab003ecfae5U,
  0x511f31826fc11d9U, 0x2120130602e4ffe8U, 0xf0dc4f3f2232503U, 0x31e1f0eff8d503deU,
  0x9f3e9e307052908U, 0xfa07f1ebfdd8ff0fU, 0xeb12e008f5fb3819U, 0xf11b0516dff50301U,
  0xcc21ecf5e9041f1aU, 0xe116b90007d90808U, 0x1bd5fa0627ead902U, 0xa14f709ede1dee2U,
  0x230f10dee2eceb09U, 0xf6fd26eb26d7f2ddU, 0x3290e1d0511fcedU, 0xd91cfbea08ef0f02U,
  0xdfef1fe3dcebf314U, 0xded411fc19d90d0dU, 0xb901e9d90401eae2U, 0x7def302f2f6f0d8U,
  0xf9eee21df004fac0U, 0xcf05f1f837faf410U, 0x38e1f1fc02f80b0bU, 0x15e1e2efdfe6e8f7U,
  0x6ea1012f4d8dff9U, 0x7d8fc040210c9e9U, 0xf0e901ce0ffee600U, 0xf20b9ebfed7fbe3U,
  0xf609f6fefa0526f1U, 0xcd5df26f5071018U, 0xae3fdddeedbb807U, 0xfefee1bde618e9edU,
  0xf5fcdfd3faf00a04U, 0xfbe7e3050cd803e7U, 0xfafcee25f3f9e8d0U, 0xf3ee2df0e5b6cdfbU,
  0x305eddcf823fff2U, 0xed01fef6fd0dfef6U, 0xe8200300f9fc07f7U, 0x411e7de0bedfc11U,
  0x5ef16fc0403f1f6U, 0xebf8fc06f7fe0cf1U, 0xfc03f8e4fefafd08U, 0xfef00208e7e902eeU,
  0x2fbf6f6f3eefefdU, 0xfdf2fdfefdffe504U, 0x503f602f509e6faU, 0xeffff4fbfbf20be9U,
  0xf7fef0fa0af4f5f1U, 0x1feec0feaf4f1e9U, 0xfc00edfd0204f703U, 0xfde402fe0bfe0d00U,
  0xfe00f60a00fcf8f3U, 0xf2ff0305f7ec16ebU, 0xfdf8fcece1000b00U, 0xe6f0f6f9e5ed07f3U,
  0x4fd140ffc1bf5f5U, 0xe6f8ef0403fbfff8U, 0xf800fc09eceef2U, 0xfcf3f30cfbf5eef9U,
  0x13ec0114f9fd12fdU, 0xf2ecf405f6f3f1ffU, 0x3f40ef600f6f7e1U, 0xf8fafd081e04efedU,
  0x1ea1700f1081c02U, 0xf908f30ce50fecf4U, 0xf60800f7f9f2fdf3U, 0xf001f3f8f9060eecU,
  0xf1ee0600f5f1ffefU, 0xfeeef4fff1fdefecU, 0x302fb00edfcf6eeU, 0xfd00051dfefaf50dU,
  0xedffeeedfc1100edU, 0xfaf6fa000412fb00U, 0xf2f5fd2a01f70401U, 0x1fa00f700edfdffU,
  0xfd01fcf5f1e9eafcU, 0x306f50cf8f7f108U, 0xfcf0fa03f2e806fdU, 0x9e1e7f10b02180cU,
  0xf50f1310de0005f5U, 0xd06e9f4fbe8edfcU, 0xf5ecfcf3fcf004e1U, 0xe8f0f502fb02f1ddU,
  0xfff501fe08fde5f4U, 0xfaf3f7feecf404fcU, 0x60506f80cf8eafcU, 0xfdf605f201f1f1f0U,
  0xf6f8f7e50ce61aefU, 0xfef5e8f0f3fbecf9U, 0xfdf7f9f20bf0f500U, 0xf4010b03fe08f7U,
  0xee04f8f805f6f2f7U, 0xfd0a0703000200eaU, 0x1fdf509f800f102U, 0xf7eff7f9fe04f601U,
  0x9eee403f3f4fe04U, 0xf9f3ff0008021903U, 0xf4f7ef22eef0ff05U, 0x4eff5fc02e8f519U,
  0xe1bfcdff4f1070aU, 0x12feef1e15fd01faU, 0x10fef8eae1e0ff09U, 0xcdd6dd1519131217U,
  0xd9f80b211602ffb9U, 0x5c6fbedf9eb15eaU, 0x16edf6081addbc19U, 0xe41a08ff0ed03c0cU,
  0xda1bc2f9da1f06cbU, 0xe0f502f8dcefe623U, 0xf40d07d0e80507efU, 0xe1fdf0cf2ae4f32eU,
  0x1cdfbaecd7ec1ef9U, 0x1cfbf1f002f5132dU, 0x3f508f0f2290a00U, 0xf0d704e6161947dfU,
  0x17032a0d01da1513U, 0xd807ec112bfb1f08U, 0xd4b4eaf525f2f412U, 0xb151cf0c7100c1cU,
  0xfeed020ad8fcf0cbU, 0xfc1909efc934e2ccU, 0x1f40bf9e5dbd907U, 0x8fe1ef60ce6ebffU,
  0x7d4fdf315dbd308U, 0x90101f3220efa0bU, 0xa1a050529f2dae5U, 0xf319daf7fbf51ac0U,
  0x2900f201f1f2d608U, 0xc520f7efe92b041aU, 0xf5ea18defdd6dffbU, 0xaf7e3ea101b092cU,
  0xf1efdce301c207e0U, 0x1402011108dd0c03U, 0xfedfdf82c0bfa0dU, 0x30df20207efd91dU,
  0xe4f4311ffce0fc16U, 0x2ed0610c0eced23U, 0xf32cd3d4e4fbebe1U, 0xfdf818f50bf82af5U,
  0xbffdc20161ceb12U, 0xd015d8f6080d0de2U, 0x11fae3d22102e7f9U, 0xe6ddeaf808110e05U,
  0x3228ffe3150712f0U, 0xfcf8cef6c5220005U, 0xdc04f9faee1704feU, 0x6e4eceb02e6221dU,
  0x5dad0eefd254b03U, 0xe2f8d114d1fdfa06U, 0xdf1703f6080633e9U, 0xdf214041808fbdeU,
  0xbc0de51610fcfc06U, 0xcf2ddda0ef50f22U, 0xedf9f01726c0c8deU, 0xd8b8f702eb05230cU,
  0xdffb2819d9f8d9ccU, 0xe1ebfae525e2ca13U, 0xaf5153f12da03c4U, 0xf4bc09ad072fd40dU,
  0xcf0af82b23ed02dbU, 0x120017dd35101fe7U, 0xc50cffd04127f41dU, 0xce03fc1006fbdbe3U,
  0xd7fa1306e3e3f0faU, 0xfbf90fe4f2f51015U, 0xefdc3016071ae7d7U, 0x6f7f91319e99c0cU,
  0x1406f43aedfa05f8U, 0x7f611f6ee39050fU, 0xf500f2fbc9e310f9U, 0xf413fce0db27e0c5U,
  0xfd29ff112004d005U, 0xf6df110f0df8d019U, 0x11c8fbf701d4dae3U, 0xfafef90a05e7f0efU,
  0xcb14260903ea1412U, 0x12f1e4e61719e106U, 0xfc2522eef908f6faU, 0x3122181c0d31f0c5U,
  0x1007f826fa030dfaU, 0x490decece1dcf5eeU, 0x2101f9160ddeebd9U, 0xf2e9e501f6161311U,
  0xfa0c1213220b09f5U, 0xe1e71a10ef061617U, 0x7eee00df11e0cdbU, 0xe514f203cf040e13U,
  0xe7fb19f30cec0207U, 0xb0b1005e8f3f814U, 0xe70d0cecec011b04U, 0xfee4e7dcf802d21bU,
  0x28d1e61f0b06f7d6U, 0xb3d1c8f7ca0a0cffU, 0xed0e20dfed04f3cfU, 0xfd1d2412e4dfd00bU,
  0xfb03f3e2ee1feafbU, 0xf1151d20fd0419d3U, 0x3d8fe1ccdf104ffU, 0xf20c02e1f301cae1U,
  0xf6ebf4d912fc05f5U, 0xefd25ffe8d9ebfbU, 0x1d0ce0dd18fd0009U, 0xf0e9f208dff90a00U,
  0x171aeef816050ff8U, 0xe1bfedafad029f9U, 0xfefffb2001e7cc17U, 0xdaec0bfef61f20U,
