/**
  ******************************************************************************
  * @file    twoline_data_params.c
  * @author  AST Embedded Analytics Research Platform
  * @date    Mon Nov 13 14:17:17 2023
  * @brief   AI Tool Automatic Code Generator for Embedded NN computing
  ******************************************************************************
  * Copyright (c) 2023 STMicroelectronics.
  * All rights reserved.
  *
  * This software is licensed under terms that can be found in the LICENSE file
  * in the root directory of this software component.
  * If no LICENSE file comes with this software, it is provided AS-IS.
  ******************************************************************************
  */

#include "twoline_data_params.h"


/**  Activations Section  ****************************************************/
ai_handle g_twoline_activations_table[1 + 2] = {
  AI_HANDLE_PTR(AI_MAGIC_MARKER),
  AI_HANDLE_PTR(NULL),
  AI_HANDLE_PTR(AI_MAGIC_MARKER),
};




/**  Weights Section  ********************************************************/
AI_ALIGNED(32)
const ai_u64 s_twoline_weights_array_u64[10738] = {
  0xee001903e6e8e909U, 0xe6f80b0915e5ffddU, 0xf804f237e72705fdU, 0xede61100f8302706U,
  0xee2be7f70ee20629U, 0xf41615fce1d806f8U, 0xfca9d30ef6f729f5U, 0xfdf4f1f801ea1bdaU,
  0xe9f7f629faf819eaU, 0xff081514fdf60a1aU, 0x6eb1c070bff05e6U, 0x2d38110d1b14f312U,
  0x3813f5101be92701U, 0xf731fe00f900ecd0U, 0x18ecf634db17e4f4U, 0x21cacbf5ffff17f0U,
  0x2f816e8e91de5c6U, 0xeefcf6d74fff1d13U, 0xf0222efef8f00403U, 0xeef01ff3d71afbf1U,
  0x21141b31491afb0eU, 0xfff901f2e407ee04U, 0x4af011ee02f7110aU, 0xf03f219dbec10f2U,
  0xe0d17c3090727feU, 0xffffe917fbf2e6fdU, 0xf315c52110f6f60aU, 0xf8dc00db10eaebf9U,
  0xf526dd11fd180513U, 0x1819dedd052ff8eaU, 0xe20e4df2fb1df3f0U, 0x1fd411fd2310da1bU,
  0xdfb2515e10001fdU, 0x240d0ee72c0a0a12U, 0xf6f1eff8f215e81eU, 0xad1f403ff0adaf2U,
  0x8f411c1d60312fcU, 0xfbf80eda25fafd17U, 0xe80b2606fcd5d6e8U, 0xc23f5f225e6fcfaU,
  0x2c191ef31504f9cfU, 0xdef8f81be5f9053cU, 0xef4fbe2f8060decU, 0xf01929e901e404f8U,
  0xdf22a0bfb0212dfU, 0x111f008faf6f9ecU, 0xf02e30bf900deeaU, 0x263bf420fe05d805U,
  0xe400112cfc162715U, 0x20171af80ed40ae6U, 0xfb14deeb00532df3U, 0x1905131106f8dff1U,
  0xa1b17def8f0eb0fU, 0xce903e9ef0b32f9U, 0xfc28c1efd510e40fU, 0x12000e0510021132U,
  0xedfe0cfcedf2dcf5U, 0xdc0a11dee2e8ff0fU, 0xe5e232090c23dffcU, 0xe8e7dc131fe2000dU,
  0xf7efdaf01f39ff10U, 0xf5f71803edf0fd02U, 0xf3101305da3bf2d8U, 0xd22cea0d0804ceU,
  0x1b0b161201e7d7U, 0xfce402e125f9f30bU, 0xdd09f6fc02160209U, 0xf5e6e30bf3ff0402U,
  0xfe3fe3e3ee25ef32U, 0xd72fe9fde4f6070aU, 0xf5f1f3f9072c040bU, 0xebdd090b1bd70807U,
  0x178117180dd916U, 0x401f91312d9ebeeU, 0x218020ceaefd901U, 0x22cdfeefe80247f0U,
  0x101050ddef3fd0eU, 0xff490e025810e710U, 0xf511161dfc0709c7U, 0x14e509ee0bea0e05U,
  0xcecdece0ee7f906U, 0x211a05fb0d17e6f9U, 0x805f0f40cfcf416U, 0xd90909050bce0e07U,
  0x71312e605f3100cU, 0x10e512ded6f90d06U, 0xeef9e93017e32e1cU, 0x404f3f6daffcd21U,
  0xe9f2f6fae128010cU, 0xe6170f1eec0e2feaU, 0x5dec0000cc042200U, 0xfee6f3f2e1fe01ecU,
  0xfe160ef9e0191afeU, 0x39fb0a0bfe1ae403U, 0x1cf704fbf41811f6U, 0x32f1f733fae2f2feU,
  0xe1f82e021903dee8U, 0xf10030e8fafa04e6U, 0x5ea130cce09091bU, 0x23f61e17f8f5cdf5U,
  0xa090cbff409d02dU, 0xf6e6f6dc1f2bf310U, 0x170eff14fdfaee06U, 0x2af8e730fb0a14f3U,
  0x12f90518ff3a2af4U, 0xe51cf7eee1f5fff5U, 0xe316f6f82302c829U, 0x3fee2f9f4d8f001U,
  0x5edf307c1f61622U, 0xeb0aff0e2608e3f4U, 0x1e3ec0b0821c9faU, 0xf92219ecf507f92bU,
  0x4feecfb1be1d61dU, 0xe7e83a00fff903e6U, 0xd7fb32e4f00af7f3U, 0xc111a1d07df1601U,
  0x17120fca35082af9U, 0x352abaf2f1eb1bdcU, 0xf4f804ddebfe1bd0U, 0xe8091b1705e306feU,
  0xda1ee2f0230b0dU, 0xf9f01b100e2502ecU, 0x1403fde00218dff3U, 0xfb0afe29ec1df00cU,
  0xf9c70ffe07fdf2e2U, 0x8da01f32a40f31bU, 0xfbec1ae6040f0606U, 0xf7df231700ea13fdU,
  0x2f8fe320ecb2acdU, 0xf41e1019f2ffebf2U, 0x12ed06f0edfc1ffcU, 0x4fa0dfff1c5f518U,
  0x445fad9ecded70eU, 0x20ebf5050f28d105U, 0xee1e050c0f27f8e9U, 0x838e01feb0619e9U,
  0xa2000fc1010ff05U, 0xeaf3fb2cdb36f0f9U, 0xe712f3f3fe1ef72aU, 0x20f1132306ee14e5U,
  0xf400e9f722ee3c16U, 0xf400c4f515f92c0eU, 0xcd1d00ea2edfe1fcU, 0xf3f31c1e021bf80bU,
  0x19010e10f614edf1U, 0x23ce12e2fbe31120U, 0xdbe81805273ee9f4U, 0xfb09fef40f1b1dceU,
  0xf90d00190d12e1e5U, 0xd10feae927ea1a08U, 0xf8cef909f7ee10f4U, 0x1908e3060debee10U,
  0x2edaf503480e16dfU, 0xb0d26ebf529fe41U, 0x612110afe0efd0aU, 0xfe1f0719fecb4ff6U,
  0xe20410edff0aed08U, 0xeffb16d4f431d7e8U, 0xdfb291e0ded0dfdU, 0x320b07eb1d10bbf9U,
  0xf6062417fec30f0fU, 0xf216d6fc0f2fdcfcU, 0xf723020108242a01U, 0x1ebd22df2107f401U,
  0x7040ff51d3912f7U, 0x1108e1b0a04e7eeU, 0xedf800151ff4f1f4U, 0xfa07d51ad4f0160eU,
  0x4107b90114e828f6U, 0x6c92e18ff07d807U, 0x15ecf7ff18151b19U, 0x112feafbe40d1e1cU,
  0x9dbf8e818f7d029U, 0x200502ff06ef24e8U, 0xc00fbd5ff04ee15U, 0xe2e348241825f21dU,
  0xf6f6f5f7d51a1307U, 0x310deb07fefee126U, 0xb0607140ce8e7fbU, 0xf6cd09033423e201U,
  0x19eeeb28effc12daU, 0x1115ff0d09010305U, 0xfa04defe25e5bcfcU, 0xf4f3e7331d170df1U,
  0xd0e600d2d7ff0427U, 0xf7effb17ed080cffU, 0xf14fe19180b211cU, 0xef15fa25dc08e8edU,
  0xdcf5f80419e1e2eaU, 0x43051a1719f2f707U, 0xeafbcafe0febee0fU, 0xf0fe0ae214e0f9e8U,
  0x122bd517f8f01efcU, 0x828111b21f5180aU, 0xfaf0faf5253cedd5U, 0xcae02fecf5d30c01U,
  0x1de90009ed13e4f8U, 0x1efcfcfa1009c31aU, 0xf2cbe91409eff5efU, 0xffcd33fe1eedc7f1U,
  0xfff60226d736d600U, 0xe8f3f70cdee2ff0dU, 0xefec0700f11004d7U, 0xf003e9ece02e27dfU,
  0x12f3f8ddfa1c01f2U, 0x210f5fbecdbcc18U, 0x172229f521de0feaU, 0x2317d9012e12ee08U,
  0xfcf1030dc912ff0aU, 0xe4df124fe116dbe8U, 0xfd12d6bc26051306U, 0xec05e608e1edf0b0U,
  0xfbe20e164a16f725U, 0x1f215fe05f10affU, 0xbf91aeae61504e0U, 0x350df536111e07e6U,
  0xf2c2ea0e04d30a0eU, 0xfeb1af3f80c0fecU, 0xf001e04303c9ddU, 0xc4ca04fc06dff201U,
  0x200bfae10ee510feU, 0xf8e6090f03e4dae8U, 0xfbfef5e5ecdae609U, 0x33f82c0cedf1fcebU,
  0xec05330af408f7eeU, 0xdc0320f8e2f71eeeU, 0xfc1decfc0605e917U, 0xfcf5dff1f32df6d6U,
  0x1d2910050411fadeU, 0xd6fef30ff9441a01U, 0xc07f019faddf3dcU, 0xa173bf9ee08fd17U,
  0xea12fcf812fbfcfdU, 0x24f4d525ef0c1502U, 0xe2f7ff3406e7ceefU, 0xef9eaf506f0ec50U,
  0xd8fbf72b112117f5U, 0xf4b5e2dc0ef706f8U, 0x1f01ef2b020222e8U, 0xf4f83c1b06ee08f7U,
  0x5c224161607f3U, 0xe9f3f8020f02fc0eU, 0x904f7efd1dce922U, 0xeb2ff5fadf2923f9U,
  0xf4f9f9f70cf8f53eU, 0xdbe4efe20ed521fdU, 0xf4f7c217dfbb1119U, 0xf280edf01d9fa1eU,
  0xffebea20eefafc05U, 0x8efceda292014e9U, 0xfaf3fb2f020ff4f1U, 0x8f2fad211ef10f1U,
  0xedf91000fa1935e4U, 0x7f7e6e00df608e0U, 0xe7021330f627dcfeU, 0xb17282ef817f40dU,
  0x3f51203ec090dfbU, 0xdbfefff6e32df9fcU, 0xfa1d3f15f6e711cfU, 0xd1dd3fee614fa12U,
  0xfb121c3e69112909U, 0x606c60d0c02eaffU, 0xf4f6f717e5010704U, 0xec11211bd2cfe108U,
  0xce7ca16ed0009eeU, 0xfa12cc0b29d8dd17U, 0xcce2523fdfeea14U, 0x14050aefdb04dde4U,
  0xef16e9d4fa08dc03U, 0xf123150c3f00fce0U, 0xf0ffef23f11cfbU, 0xf1fd41bc40600c9U,
  0x70de7f10e01f2f6U, 0xefed240811f60e22U, 0xcd6fdf61afb07f2U, 0xea11fff2342cba13U,
  0xefffdd2df4d308e7U, 0x802f40bf2e6fd01U, 0xc40b0bfd2ffbf1dbU, 0xdbdceb20ed1313f8U,
  0xf803e9f807d2f601U, 0xf41111f2f104f6e0U, 0xdfd428f711f115f6U, 0xd2c17ed0e1603e6U,
  0x1d0d1407d42bda14U, 0xfcf3ecdceef8fef3U, 0x61b0c0bfce521dbU, 0xfaf13219ee251915U,
  0xd3f2b025f8f418dcU, 0x15dc320829e91bU, 0xdbfbf211dd24ffffU, 0xe705f1f9020d1509U,
  0xece4e4f9ebeb1822U, 0x60af800c357f7e1U, 0x26fd0aee00f4e0e9U, 0xc7f528efeb091828U,
  0xf62b4de20cfb0b12U, 0xda281c01f5fb0eefU, 0x8f30c29140ae506U, 0xf90522c31e0df503U,
  0x7fa02fd11f0e6ebU, 0xfc042a0eed0bf605U, 0x13e406f8fbeff01cU, 0xf606f1f32cfaee12U,
  0x1cf802f21c00dc25U, 0x1906e25b0bea00f8U, 0xcfb172aea19e1d7U, 0xfceb07d8f4ee040cU,
  0x10f10f0731d6e20bU, 0xd8eddfec0d00e716U, 0xfa1ad3f3f4e51513U, 0xeb1aedf6fdf3e9e8U,
  0xf7290df516c114e7U, 0xf8ee0d24f9f4e518U, 0x1dfa1d1fdae8ed1aU, 0xdc0ff6fb0e1cd216U,
  0xbf012f303e709efU, 0xc072f2402c60cefU, 0xfede914fcd301f7U, 0x1cfc14fcf40af305U,
  0x81897f4f8f20f0dU, 0x16f82e2a0d0cf124U, 0xf9ff11e8ef03fa05U, 0xf6cc0e101be50cfeU,
  0x16d6ed06f5dbfd12U, 0xb10003b2beddb18U, 0x510faebf7f90ce7U, 0x3dce12e30d0713ecU,
  0x1a1afed7ce10f005U, 0xa09360d121ff9e2U, 0xe1f6ef0748160402U, 0x130107f6101d1915U,
  0xdc1827ec501ed2feU, 0xf7daea0f04d1fff3U, 0xfbfed3e6fa0328f3U, 0x41b07c8fcdffe1dU,
  0xdeeaf83714d11df3U, 0x3f113fe0315f3dfU, 0x904f7f507c6dcf8U, 0xe623f2f1e3d6f7d2U,
  0x7ec1c05ed07e420U, 0xea1f2438150324ffU, 0x8fd00fde2d52a1bU, 0xf0dc27f516faebedU,
  0xef817f0f53e2d0cU, 0x260af1fbffe6ceceU, 0xf3effe4208fe1d0cU, 0xd5ca20f8f70d02U,
  0xfd21f2f72904e2edU, 0xef0800f5faf3040cU, 0xdde07d2d8fa5deeU, 0xe4ff4a141cfce6f2U,
  0x4e9f804041802ecU, 0x905e13901d60703U, 0x205d3070d221b08U, 0xe92e32f60e1b2605U,
  0xd0f11ea40faf2f2U, 0xe8121edc28f30301U, 0xffe00613faf4dff7U, 0x1d2905e31af3d118U,
  0x1906f21304072208U, 0x50323ef33f307fbU, 0xbe06ec13fafb0d26U, 0x14042027f80107f6U,
  0x1d090ffd03cccb0eU, 0xf301ef0221090b10U, 0xf0160b04fbf628c7U, 0x704120ee0dc1c1cU,
  0x1e0e0de91cfb12faU, 0xc9f5e715ecd2010aU, 0xecd16e80ce3f70eU, 0xd24f0dd07102b07U,
  0x433fbff250517f2U, 0x703f8ed281e111cU, 0x1900d317fcfce2edU, 0x81af4eb1deef0f4U,
  0xf4f204050b261c4eU, 0x113f9e912f6caf9U, 0x427bd01f5dfe817U, 0x905f609f40214dcU,
  0x15cf27c6092ce8f4U, 0x17e54a20faed06feU, 0xdffaf333161d0ef4U, 0xe905251f1b061c0cU,
  0x3fee4e31be3ede3U, 0xfce9f0091a26fbfbU, 0xf7ff0cf6060ae404U, 0xfa041a2bf3ea0823U,
  0xf114f4d505fa0f42U, 0x16080bf3e003130bU, 0xc19e2fe1f2a1d12U, 0x2003162bf6fb03f1U,
  0x5e6e9cbd71010f5U, 0x5deeb040c25f3feU, 0xe09d9effa1eeb08U, 0x6052922f0f4f1f6U,
  0xb192cf71a0510f7U, 0x30f1f5030e2608e6U, 0x1f2317f21c1b03U, 0xf7131cfcfafaf61bU,
  0xfef011da2714d5d0U, 0xd7160de8ff0a2517U, 0x1fde13f40ed31fceU, 0x30e1ffe05eb2900U,
  0xef19f806e010ff15U, 0xd7d0edf5121145fcU, 0xdf007ea2de1e220U, 0xff2b251ffbe61220U,
  0xeff911eb16e6eae6U, 0xde51429f6e3f808U, 0x10f0f2f10614fee8U, 0xf3cbf40d1cfdd110U,
  0x6201316e91e2bfaU, 0xe22b517fc1cf5f0U, 0x17b8d503fff1ef17U, 0x281e11fefdd6ff10U,
  0xee1705f510fdf702U, 0x27f8e4ef050fed01U, 0x4ecf2f2fff4e81eU, 0xaf51a0d0eedfb02U,
  0x2cfb11171bef2920U, 0xe3e01702fa06f2e5U, 0x22fb07e2eafbd00dU, 0x109fee6caf50af3U,
  0x40a30e3fc28ff05U, 0xf315edeefce31adbU, 0xd170b05e4f733f0U, 0x10e1dc24f2e7f0f3U,
  0xe711ffdaf6130016U, 0xf6270afd09f9e518U, 0xf113ff070fbefcfaU, 0x1fe224f9e1c6f604U,
  0x301d1f60d01f31aU, 0x2fffef241009021aU, 0x140ff1f0fdf3ca17U, 0xfe51000fd20f21dU,
  0x352c20f60df6ee19U, 0x62b2519fb0405dcU, 0x101efb0bfc0206e8U, 0xf1e518f1f613fc02U,
  0xefd500e93502deffU, 0xe7e90f22f91f27f9U, 0xfce7f3120d07e4e5U, 0x1ce611f5cd1902f7U,
  0xcd9e8fbf62c0bf5U, 0x131929ff14f4220fU, 0xf91bf7f1f9eef9fdU, 0xf40a1cebe3d1e81fU,
  0xfdf907d8111c0b01U, 0xeffff02017d8fef1U, 0x9c10e15d719e206U, 0xf1f5dd05e611e8f6U,
  0xf3f820ec04f80010U, 0xd2efde151502c027U, 0xe911082014271102U, 0x71d2302fe2bfc14U,
  0xf2ef150a02e811f9U, 0x25f919060402fc27U, 0xfa2efd36f1cf0cfcU, 0xef22fbf306db0f09U,
  0x835caedf60030e6U, 0xf519ffe7fc121a09U, 0x6d2c3f603f8ee00U, 0xf31fef10f2eafbf3U,
  0x200f012535e2191bU, 0x1af30314e9ff10eaU, 0xfd2fd8f5fcf41700U, 0x7dad304e70af60aU,
  0xbfa032eea22ebf6U, 0x210cfa1d0813e40cU, 0xddbcfee000e31516U, 0xd6122404fa2f290fU,
  0xf6fb141315ef02f3U, 0xf7f9feead0040bc7U, 0xed171c0be7f8fb05U, 0xcf311d5f8f70bbfU,
  0xdf02181826eefceeU, 0x532d90d0a1339f8U, 0xcfeddc202a02210bU, 0xe2f6ef2119ed0ffdU,
  0xe21f9a0d02e0f9e4U, 0xe7f5e8ed20f215fdU, 0xf92907202207170cU, 0xdf0e712f2f60ef6U,
  0x2feff8f4ec0ae70fU, 0xf6e0f7ea051e070cU, 0x12e423c2fb19faf6U, 0xfee00806340aecfcU,
  0x9cacade04f517f5U, 0xf709f80f11ecde01U, 0x2fdd00f00ce7dc07U, 0x60a00d4f2efff18U,
  0xc20302f8ef020d30U, 0xed3feff283402f0U, 0x4ff010536330401U, 0xcd26012af5f41bU,
  0xff091704fa111b0aU, 0x5fdf9170ae0eb04U, 0xe604ed0f2c1726e5U, 0x1800d40805130a16U,
  0xf30cf9f6c220fdf0U, 0xf74505f9f3e7e8fdU, 0x16110202f3d7df1eU, 0xdd4fdfc1401e101U,
  0x38b541d420f4f712U, 0xd9061207fe1afb35U, 0xffdf7e6d2f2e808U, 0x8e1fef20cf6ca11U,
  0xf7d91cffed0806fdU, 0xfafa02090af90af2U, 0xf317e0ee07e2ec04U, 0xdef800e7f0e6fd28U,
  0xfee00209f519b1dcU, 0x240a3df9f80509efU, 0x182900ea000f1af8U, 0xe5000202ed11b30dU,
  0x2f6f71e320ee0e2U, 0x41022f5fbdf1cf1U, 0x2f60902c109f200U, 0x13210c0fe9dbfb03U,
  0xf903194eecfaf1feU, 0xe815fe25cc05ff03U, 0x2be35dcef4040cf0U, 0x13e7f1e216f3380bU,
  0x1b100d3812262f01U, 0xf3ed2613050307f1U, 0x120ae0cb0d08fe06U, 0x1f05fdf40de81037U,
  0x2ed91a07eefb170eU, 0x2109f11efaf41dddU, 0x26eeeeec1810dbfeU, 0xb13020fe30ded0fU,
  0x23d4011025112c03U, 0x12e1d20b020b1feaU, 0x1ade3801e60c0cf7U, 0x1efa1ef5eec8fa2bU,
  0xdc04e319ecf0e22cU, 0x1d102fdc1eedf700U, 0xeef305170ae01314U, 0xf3ec1f19e9230b12U,
  0xec2db0be6ef080dU, 0xe30907dc27f30d0dU, 0x1c0bfdf4f1400c08U, 0x39fb0b2febfd24d3U,
  0x13e104c210291507U, 0xfb082a01fff3ebd0U, 0x9d6b20d01f50926U, 0xb240a010cf8edcfU,
  0x9fef8ebcf08f6faU, 0x16f3191d1f0d2707U, 0x17df13c903e902f1U, 0xf0d9d31718fd1ee7U,
  0x16fbf10b0cf3f616U, 0x13010232de1a1fffU, 0xef0c09dfed00ec0aU, 0xf908ff1c08031d19U,
  0x200e712ecf60ef5U, 0xdd39e2f805fbf203U, 0x3062d07121dd9f3U, 0xde32c093516e03fU,
  0xa07cac8282f1bf0U, 0x16c4fae7ff18fec7U, 0x716f7071e2ed407U, 0xf2f0d311f119010bU,
  0x61ef901fce7223bU, 0x715fa04fcc9f616U, 0xf5fcfbecfee8fbe7U, 0xc9c300cd16e1061eU,
  0xe70700f7f72117e5U, 0x7ffea28270111f0U, 0x21d161226fae406U, 0xf50ae4cbf8ebf0edU,
  0xd11fde9f6cf0311U, 0xf9ecf0010d0c272bU, 0xf7f713f8eae4c7c0U, 0xddbddf61aedfe18U,
  0x21d61fc4f8e722f3U, 0xfdfa1deafb060c3eU, 0x11170ff010fa1225U, 0x3200fcccffe515d9U,
  0x16f4da00fef1e633U, 0xf6f508c3f6e3f8f9U, 0xfe1ce7f5fd0be312U, 0xdf13211302c0ea0fU,
  0x1911fa0202240205U, 0xf4e803e70b08ed05U, 0xee18d50727ed091cU, 0xdb1a040ae81112e3U,
  0xfe0b03e0e02eff00U, 0x2f06f9ed1bf8f2fdU, 0xd2cfefd4042efeeU, 0x21c0cbca03f706f6U,
  0x18f5e115fc04ea00U, 0x1ae418e3f00f1722U, 0xf3d81fd7d3ec0820U, 0xf30c0908e60ae6f9U,
  0x15eae1f7352a15efU, 0xf222e3e917f9dcd7U, 0xfeeb150413b931f4U, 0x22faf3f10c09fcf7U,
  0x1b2ee3f52a09eb0cU, 0xf8e0350023ea01f5U, 0xb0aeeea1cdcef0dU, 0xfc0204f9f421e9f0U,
  0xff03020219f4341fU, 0x13cef5ff0aedd821U, 0xc12f3f9d7f5de21U, 0x1cf0f51cf907eb01U,
  0x1e1011e70ed3d0e0U, 0xee2aff00ee0cecf6U, 0xe5e4eb1d1513230cU, 0xf6070b18c7fd1a07U,
  0x20dc3f2f3feeb25U, 0xe2010a0c171001ddU, 0x1d372138f1e604e3U, 0xdaef1ce6241f01f5U,
  0xff06e00a09ed1e32U, 0xad918fb190f06efU, 0x2cece137ec1110ecU, 0xf5e4ef1008fa1302U,
  0xb1315c920130cf6U, 0xea281f093719e7e3U, 0x32b0c0f12fef9e9U, 0x6071feb1d0af3f2U,
  0x18e8d1f725fb18edU, 0x2ff03ff11be0c15U, 0xf8052d2116ec06e3U, 0x6cfcf2be0ca041aU,
  0x411050dfd060dd5U, 0x13edf4fd1add3f1cU, 0xbc9ebf714192210U, 0xece507041532f703U,
  0x301bd20506edf5daU, 0x1cde15ea0bf41af7U, 0xde06fdeefddadee3U, 0xe92d0af432082217U,
  0xff0b16090bdcdc1aU, 0xc9ce0df5fcfb0a13U, 0xe5d20207fd1205f1U, 0x2216011b2a0b0efdU,
  0xc11f1dffd1fddcdU, 0x16fd1c1c06ee1b03U, 0xfdaafd010f17f9fcU, 0xb01071012f0fcf5U,
  0x2934eaf6e9070af7U, 0x170b14eeedebf9e1U, 0xe5faf20f07c6210dU, 0xfafe0a44090ae321U,
  0x902f204f7feecd4U, 0x9fafa1623e11809U, 0x31f4f91cf431e20eU, 0xf1ea10d5eefb0ce9U,
  0xedfd011ff9ff01e4U, 0xe7d0e8130812d8feU, 0xff4fc01f202fdfbU, 0xe6f4fd02060317f0U,
  0x2f19341e08421cfbU, 0xf43207f405d1f6e9U, 0xe3080406e31908fdU, 0xc0f250cfdfa0b0dU,
  0x35fa2522291f12e9U, 0x3eafd2a18f8dceeU, 0x1d170b17eef603U, 0x1223c916f6f9f705U,
  0xfede0ff217f2dce0U, 0xdc0922206841fe04U, 0xfa06d80706073806U, 0xbf4e4e50ed9e6e3U,
  0xd2de2fad81b1012U, 0x18240efafdf3e8e7U, 0xfe0ed1e50cf1f8caU, 0xa07ecf80dfa0123U,
  0xdda142ceaf5eff3U, 0x4c0220010301fe02U, 0x1ed9dec7ef39e716U, 0x143a1d1ef9d8f307U,
  0xe3ef11ea19f90cf9U, 0xf037f3f526090d13U, 0xfde3db050aec0bf5U, 0x1edc060621141511U,
  0x17efd7fd18f121f8U, 0xfdd2f8dbfde812U, 0xf18121d22e6fe06U, 0x1a21cbf4f1eddc07U,
  0xf7d730f70bfc40fcU, 0x181be7f017e8f7f5U, 0xfcea0e070e4ce635U, 0x1e16c102e6ef0519U,
  0xff27eb072fdbfdfbU, 0xf31605f71b0aed0fU, 0x21fcdc07f1f9c10bU, 0xadaf3f9270cd8eaU,
  0xe1050edb04fa14e3U, 0xfc80cdffff50c0dU, 0xfc04fa2d04eb10feU, 0xc92e0d0225fd18f9U,
  0xfa01021014e10302U, 0x2f0f200712f9ef07U, 0xf8e020fcf8af4d0dU, 0xdbeb163be1052af7U,
  0x200afc260eea00eaU, 0xf6e615fc34e0f5feU, 0xdf2902ece3db0727U, 0xe9230b0515e80d30U,
  0xe5f90014e81e111aU, 0xbf5f1d02a00e7feU, 0x23142422f2e5f800U, 0xfaef1006f3e00313U,
  0xf020e50109e8f626U, 0x33e40aee04e70be8U, 0xddf5eaeaea24d30aU, 0xeb1a0df00be80de4U,
  0xc1001260211fdd7U, 0xd627f1104010e5f1U, 0xf22540fa09f01deaU, 0x1a18f70a070910d4U,
  0xef1af21a0fdc1611U, 0x13f5eef20f18ff02U, 0xfb0e321b03080a29U, 0xed1df538f911ee02U,
  0xf1e81cfc03fa000eU, 0x1f0df1020bd604f1U, 0xf5f32709e9ecbd0cU, 0x35f6f90b1ed4e3ebU,
  0x201eb1413e329d0U, 0xe3e7fa020efc07eeU, 0x34063906fc0fee08U, 0xf414fcf208252b10U,
  0xf9e901103f28f9e8U, 0xfeae4110ae9190cU, 0x1b01dbfe04e52902U, 0x734f83e19ed0cf1U,
  0x4f6dc10fef90910U, 0xfd0d1ffaf50aca0cU, 0xce132426c907ea14U, 0xfef623ffec0b37faU,
  0xe2f5d1f3f90efd23U, 0x5f218df07ec1ae0U, 0xef504ff322d12ecU, 0xd1070314f811fed9U,
  0x81207f107c405f5U, 0x10ec1301190c2118U, 0xf8fc1febff19fbd6U, 0xeb11e12c2115db03U,
  0x3173edbf00b10d5U, 0x404e906fcdc0de5U, 0x141a13e7dd2e1c00U, 0xf04efa03f6fe3516U,
  0xfb072be21ae8deefU, 0xf8130345ffe3e6f2U, 0x1604d5cc1becf506U, 0xfc15f0f0d802edf5U,
  0x13d52f0b2c140f09U, 0xf80cc418fd18e1f2U, 0x9180cd61312fcf5U, 0xebe11438f81f34feU,
  0x19efb3391acfe1fdU, 0x14fa16fe170404f6U, 0xe0f9f1f00be3ffe5U, 0x223120ffc06f706U,
  0x4e00df0000c0d07U, 0x20300e160df4fee8U, 0x2f041b05fbe1fd19U, 0xf4eff4da2af5d909U,
  0x17e21c33eecdf503U, 0x1d12ebd6120bf21dU, 0xef12fae9fd272f21U, 0x4fddced061f2802U,
  0xed24e3e611f1e201U, 0xe6dc02f100240821U, 0xe7f91bebd711f10bU, 0xee03ffece7fd2910U,
  0xe026e712fadef5faU, 0x17fffe2907e9e2f1U, 0xf7f60bea070bf6f9U, 0x205f5e804ed2801U,
  0x9ee15cb29ce26cdU, 0xfebbcef3c7050ef0U, 0xb16f6faf013f3e1U, 0x1415fc1be31511e4U,
  0xfc3f200d05effff8U, 0x12d0edf3fef81235U, 0xf40414060c1dda0dU, 0xe927280612051925U,
  0xc0dfe052114140eU, 0xecf132f611d501f9U, 0xfde6f21a081a06feU, 0xfe0dda0828181ee8U,
  0x705f4f0d70eeb1aU, 0xfc0ffc16edff03fcU, 0xf1a1a3213f00b31U, 0xe2f1de0ef2ed0126U,
  0x90f2d090504f2fbU, 0x1b2926f0dbe7f847U, 0xdf0a02eef3290406U, 0x1d094af726fc1002U,
  0xf606e21108e811eaU, 0xef6d8ea20e72a05U, 0x1e2419f5f7f702fbU, 0x11d8e905cd19fdfdU,
  0xff06f6ee17f6eef9U, 0x4b0d211d09fc0d20U, 0x9f2f7e1101dedebU, 0xf90502e1cb001d16U,
  0x1c5fa1500d3e8d2U, 0xe3e80c11e8f5f7ffU, 0x191d14131ec1ed0bU, 0x13dbe905130717dcU,
  0xf30005ea15edd7c5U, 0x1812f2f4f11ace06U, 0x26212cbc02160fe5U, 0x2b060a1eed08fc17U,
  0xfefa11033c0433f5U, 0xee01d918f03738f8U, 0xfde2060bdc0fdae7U, 0xf52206fcdfc6fae7U,
  0xf7cf141405d9ff20U, 0x17021409e1f81701U, 0x39f8efe60ff6fb02U, 0xe820f3ee23ed0804U,
  0xfe01ea0ee3eb1afdU, 0xde1d3500130a27cdU, 0xdee2462af611ff08U, 0xf31925f4e9e6f224U,
  0xef08e4220ced1618U, 0xe8e6230507f3060eU, 0xdeff01fcc904e7dfU, 0xd811fae0c4dc03eeU,
  0xf9f2fefa20f3f0e0U, 0x1ce910dc0e110cfeU, 0x30eed07ebf1da12U, 0x7e0bbf2f4171119U,
  0x6f3f2fe21f8ea18U, 0xefeacdebdfdadff0U, 0x60b0219f0f0f703U, 0x1f26e2c9fefeea1bU,
  0x1a31d33c17f5e71fU, 0xec3805010dfa0700U, 0xdfeeee0f1cea08efU, 0x1cfae4e5f62230c4U,
  0xe2dae1fcfffef9fbU, 0xece7dc1028ed1908U, 0xe7fee22215080a2dU, 0xce7fe20061f0de9U,
  0x21e60ae824fdff0dU, 0xdf27cb12cc07051fU, 0xfb1019e3fb16daf3U, 0x1a180408230af727U,
  0xf43a07050ae6e6ffU, 0x14be0ef0e1f81808U, 0xe9f710f3fcd51113U, 0xfef3cf09fd3bcaedU,
  0x32e2e6f736ea0ae6U, 0x2fef91be300f244U, 0xe311d1c40737e5fcU, 0xe8f5e612f1ff16f1U,
  0x18ffeed619c7d9U, 0xf805ea0804f8cfebU, 0xe3de1328f60de0e3U, 0x9fae0e70aef27f4U,
  0x10ea27180c0c02e5U, 0xcf19f2e2d9f3e9feU, 0x23d2dc180c17f419U, 0x8f70fe0f0f400feU,
  0x6fa340cedf40c1cU, 0x3337ee05f5082c26U, 0xe51d1806300f1809U, 0x1018e5ed27e7f419U,
  0x10f4041e0e061c20U, 0x3efb002921ed0aebU, 0xf110151710f1af17U, 0xf8ffeb180904f50bU,
  0xdc01e21aeae8e7eeU, 0x12ab0ff803f32a12U, 0xf8050fedf61600f8U, 0x2cd2ecfadef4ef01U,
  0x805f0100000e208U, 0xfed626f90200080eU, 0x3ef721d2092df1d2U, 0xcfe1fdf5eff90d03U,
  0x2005f009f523d713U, 0xc34e11b1fd13f19U, 0x917ec2101fafd24U, 0x15fe1df702f9f522U,
  0x1fef060addf9ddfdU, 0x1bb7e8e90e2f1635U, 0x18f7e5f9fef401f3U, 0xf8f4fe01df16f80eU,
  0xfc0eb70ae3040704U, 0xcf9f9070ef717ffU, 0x1cca140fd30b0cf1U, 0x182fff0304ebe4f8U,
  0x10ed0f0316ece60dU, 0x28f61718220f0615U, 0xfcf60df4eafe2821U, 0x90214fcf2e7ec15U,
  0xfcf4e41ee704ff14U, 0xf2023719eef90402U, 0xeef80508efff0002U, 0xcbf709d84d411b14U,
  0x214799f70f060513U, 0xf90d0114ecdcebdfU, 0xfb2deb1312092becU, 0x900dc1b07f5dcfbU,
  0xf6222ae9fc0ffd0bU, 0xfb1311fbf5db0813U, 0xd7f1de0bebe1f5f7U, 0xf0f71918ec0a18f5U,
  0x1a00d04cebf901U, 0xeb0be802eb00f0f4U, 0xf900e6f408d233fcU, 0xfbd9100e2b0df927U,
  0x1de2172223230aU, 0xd40b14ea12cc000dU, 0xf320dfff10924e3U, 0xf300edee21617ebU,
  0x70406e30a10d2f9U, 0x6071f2af6391013U, 0xfcf3e926fd04ed1fU, 0xe9f5f6180702d910U,
  0xe610db002d3df8ecU, 0x29fbfae8e4eef4f8U, 0xe2122cead554250bU, 0x1b04fe3a1aece6fcU,
  0x4182a2ce10f1c14U, 0x3c0d0b0509fee111U, 0xdff9071313fa24edU, 0xc14c7f8f40f0f02U,
  0xff180a06d9eff701U, 0xf7fa20ebe809cde5U, 0x30f929de24d23430U, 0x3421d02df9f40806U,
  0x111d2cf3fbf722f6U, 0x11215ef04fcf310U, 0x1ffef19eced0ef1U, 0xc4f20e27d3fe1e06U,
  0xe3f0d903fcec06U, 0xf21e0810f80bf11aU, 0x2405dff8e31fcf2eU, 0xaee040c320b1a1eU,
  0xd9ff150c0220f0deU, 0xe2fef7f707f52ce6U, 0xed2cdbf60cdaf2f6U, 0x1efff7eaf505f5f4U,
  0x131109f5ff07ebd3U, 0xf5d8fbf1eceb1feaU, 0xfddafd270f1cf8f3U, 0x25efe51af0f213ffU,
  0x1ee011ce3f9f328U, 0xf114d615f712d4ffU, 0xe9c9152ef513fbfbU, 0xaecfed4ee09f23cU,
  0xfad1fd03f9dff4e1U, 0xfd39ff14ff1300dfU, 0xf0f40b23dd31fa30U, 0xedf50af7f20e1de7U,
  0x21f2ef1a2b0c0dfbU, 0xf305dc04e222e409U, 0xafa17eafa031822U, 0x11f342e5c1fdf3f4U,
  0xfffdf02005200a16U, 0x1fdae30d0910ed13U, 0xb90f21da1cf918f7U, 0xe8eaecf8f5e8f60dU,
  0x1de5ff15c9fdf01eU, 0xe5f415190918071dU, 0x25f8021c1ee2f8f6U, 0xc1fcd6f3072305e1U,
  0xe0fede1e29faf8f1U, 0xf641d9bb0c261cf7U, 0x90af5ddf8190a03U, 0x310ea12f0f326fbU,
  0xf5fe11050be60119U, 0x2719200a1d0708e6U, 0xfefe25dd2320d0e6U, 0x1ddc17fb0ef31cecU,
  0x9eef41afe01fdfeU, 0xf30108ffd613e5e9U, 0xfae4ecd5ef1b04f1U, 0xedfac823f4f21b24U,
  0xe81a31eb22ee0f0dU, 0x37072b09fd03ed17U, 0x62bdf28faeff4e7U, 0xf920f7e50d0a070fU,
  0xe911cf0ce5faf2eeU, 0xe7fd011213fe17f3U, 0xd62bde1a472b0cedU, 0xefe91ada38281f01U,
  0xf711f8f30813d228U, 0x1a26e942e91c0c0aU, 0xc2be7ed0a052afaU, 0xffe3f83401e10203U,
  0x15dc0133edf917f1U, 0xeef1000efa1fe81bU, 0xee0aee260bf5e202U, 0xec17deb72115eb09U,
  0xfe1836d6ebf50c24U, 0xfbe3f30ef51c0ddeU, 0xe1360728e233f512U, 0x1ae227fcde0cc8fdU,
  0xfd1424f2ed020107U, 0xf415ef5522f3fbf9U, 0x1c1dfdfee6f6fffdU, 0xf6ecf806f3d5f706U,
  0xddd2400ed2110e9U, 0x170ff21b11ed17feU, 0xea20231518d71001U, 0xfbe6ddde1e2a0ef9U,
  0xfe08f234ffebf104U, 0xc0c1f1823e7ffU, 0xf922e4f1241803e9U, 0x545fbef0ff609f2U,
  0x508dbdb1cdfed19U, 0xed072bf00ff1de00U, 0xde4fd230b251013U, 0xfb0ed8180400ff19U,
  0xae8430f45f7fefaU, 0xdae6dbfd0efb0ceeU, 0xebedfcddfd1335U, 0xb0f1800bfdefcf9U,
  0x53ef502dd1500edU, 0x1a04fff803ee0ad8U, 0xc0ce906f5fc1518U, 0x1af6eae2f5e6faf0U,
  0xe6e7e5fee4e6fffdU, 0x11f4fe23e33a12ccU, 0x1ad4070af4ed1e28U, 0xee04030419d5f8d6U,
  0xdf0c2f1b19d2dff8U, 0x1d45e9f8dff30bd1U, 0xf032aeaf3140508U, 0xc092bf90d1d0110U,
  0x1e122def111cf10dU, 0xec0bfa381c050a27U, 0x8eace02fa10eee2U, 0xc5e91a191efa0de3U,
  0x13fbe6e719d1f6f3U, 0x3090b02e10a0f0bU, 0x1bd8e3e600f9e2efU, 0x10f1eed051ebf0bU,
  0x1b20bf0efe1826f9U, 0x2dc3215091100dcU, 0xe5effe18eae4f80aU, 0xf023ebd4defae5f6U,
  0xde112fff301bec2dU, 0xbef02e108f70cfeU, 0x2d130f14ef182eddU, 0xef0b1809f2f4dddbU,
  0x19e7d3e4071ff40cU, 0x7fbe5143622fd08U, 0xd609d1fee90e0011U, 0xcff11fcf604de04U,
  0xfa05dd06d209cee8U, 0xdaee0df7011ed8faU, 0x24001cdff0f71bfaU, 0x11125f346130d15U,
  0x2c21af13080c0b14U, 0x180fffe6f1fc16d8U, 0xfde605eb3c2eecf7U, 0x7cb35edff02f6c9U,
  0x1df21800f109d5e6U, 0xf52d08f2091b0f1bU, 0x290328f8f6df0e07U, 0x21f4d9d0ec0306e6U,
  0xfcebdfebe5d1faeeU, 0xedebfc1bc533ea01U, 0xf5fdf00f05d80718U, 0x7f608f4030f2d1fU,
  0x1d0b2000f80222ebU, 0xe004d50e080308feU, 0xe0df1ff4d5def600U, 0x1f1dcefde7023714U,
  0xc01eff5f70c0713U, 0x12fddb0bcd12e624U, 0xeff937e7f8f023d9U, 0xf6eb0204d604ecebU,
  0xfb2e0bfffcefd6f9U, 0xaed15fde7234b04U, 0xe90e081d00fbd6e3U, 0xfbf513fa03f1110bU,
  0x10eff2fce643f718U, 0x1f4dcc80326f604U, 0x161a0c05042001fcU, 0xd9fa02f3f01a0deaU,
  0x814011ed026e803U, 0x3af1f32623e2f61fU, 0x63a2916fd02f605U, 0xe70c18f4020ee506U,
  0xfb0b0d0600c62d13U, 0xcccdf3d91bea0607U, 0xd10eedf9fd12e40bU, 0xbdee310cffa0df0U,
  0xff21011d011202fbU, 0xec0bf4fcecf61effU, 0xff06ff11b80d202aU, 0xc0aac0419fe2504U,
  0xd0e05d6e7f6100dU, 0xb0621deec0221eeU, 0xff1413e90a0c2aedU, 0xd0d18f82120f522U,
  0xff429bfdaf907e5U, 0x120e05022fdbfcffU, 0xfffb1e07fff4fcd9U, 0xfa37004ce00ce502U,
  0xe413de1f151d0fdaU, 0x1711f2f121ff0df6U, 0x31ec0e0df01f0cf2U, 0xdaf9f5eaf6ddfe0bU,
  0x10ccf30f12f83be7U, 0x7f3f7e9f7fadb06U, 0xfeff080ae304f60eU, 0xf7e7f30bfff11005U,
  0x22f40829fccd3b06U, 0xf309d9060df40405U, 0x2a02f1d2e6fcfe2aU, 0xfc15e7f7181e0506U,
  0xd71cd4f30b10fbebU, 0xa0e0dedfd14fe02U, 0xed40fef1fc1511f1U, 0xf6130b0ee6f918dfU,
  0xdd16cf231f16011eU, 0x406ffd40efaf0f1U, 0xfaf4f61a05ff0bd9U, 0x2c1a0d1e1714ff00U,
  0x1df508f4e7f12bf7U, 0xbeaf2eeec26f01bU, 0x1335e102e4fae702U, 0xf3db030e090f1ef7U,
  0x62d38f01411ff1bU, 0x1ffc0b1302041706U, 0x2e082f3724f1fe15U, 0xe4cb29021fedf7ebU,
  0xe3f6241b1003f008U, 0xede10315d3e3e5e8U, 0x22f1f9e3080ad817U, 0xf0ffffed11fb1b0bU,
  0xfaf1f9d7e2e1d5ffU, 0xfbad1bdee8fbf7dfU, 0x370edbfceb0c02f7U, 0xf401dd1b2b16f3faU,
  0xfae4f3182125e401U, 0xb03f6f31c0cde24U, 0xeec6f1ed0c29faf2U, 0xdeddbf511e516e8U,
  0x6e323eafe191200U, 0x18d8f804162ff2faU, 0xfb18dfedeef40601U, 0xf8f30a06d91ee9fcU,
  0xe50216e3fce431f7U, 0x1b0416111a0219edU, 0x32d5fffa1ded1f31U, 0x10fdfacdf602d8ffU,
  0xf80e03e90005fc12U, 0x30ff0d0d0ff7efeeU, 0xd73716d501fa0907U, 0xef19e3d2f613c5e7U,
  0x1e0c10020f0ee6e9U, 0xc1bfd1ee212ecf4U, 0xe211d014ebfaf31cU, 0xc8192803e800ff43U,
  0xd200f0e1821ff1fU, 0x10fa18dcfaf9eef8U, 0x16ffe9ebe7431208U, 0x21edead501ebffeaU,
  0x14f3caff0b0df8U, 0xed0e0ff61df50f07U, 0xe5112ce404db2606U, 0xe8d20c0911de010dU,
  0xfb3009eefcfef507U, 0xcfe2a17e90be702U, 0xc1aef1104fd07f9U, 0xe0ee0a20fae6ee29U,
  0xdffab82b0c10e928U, 0xeef8001ee10afce3U, 0xdcf7d1f31cf2fce4U, 0x3e90000012526f8U,
  0x10fe9131b27ededU, 0xf100fbf6f30303e9U, 0xf2b9f507220a0500U, 0xffcb0739e61e18e9U,
  0xfaf6f421ef1e0331U, 0xf5071d1640fcd908U, 0x7053002fbd20804U, 0x1fefea25fdf5f1e9U,
  0xf808f2dceee80719U, 0xf7b5e90df50b1eedU, 0xf81c08e605211b09U, 0xe5f2f8f713b02a0eU,
  0xf9f219e9f2093618U, 0x4fcfae30efd11f0U, 0x20effa3e0bcb07f5U, 0x140eeaf8fee7f120U,
  0x26e7daf5f10117f9U, 0x10ef140f200d2bc2U, 0x200afa27fbd40222U, 0xf409d31019ca1320U,
  0xdd0bec2ae30c1ef0U, 0xe0f3e22512060725U, 0x1706e429e91bfd00U, 0xf5d0e707e5f3121cU,
  0x8081802f5fa15faU, 0xf406f90015fe21f8U, 0xf6fdd3e1e1201c1bU, 0xeb29f8030ffe181fU,
  0xe41101f7f42215fdU, 0x26f41ee715f9fc01U, 0xeef2f114f4f823f0U, 0x30c1f2a10dbfce6U,
  0xbfc2314e6d6f1eeU, 0xcca09f00a1313eaU, 0xff0af4f2f51714feU, 0xff9ffddfedd1600U,
  0xf3ed0300d4ef2826U, 0xf30709da07daf21dU, 0x1c02daf654cefcdcU, 0xfbf71bcb070a1e0cU,
  0xad5082f1105f0b6U, 0xf60d030fe920ede5U, 0x4dbc60f000eecebU, 0x511201af6f71b2eU,
  0xfff110c9c8f80fd2U, 0xfca0024d7e9f1e7U, 0xd222fcf80405e33aU, 0x10e228cd0cef3fefU,
  0x3111b90f09f2fdf4U, 0xf807171ee20fe6e7U, 0xe40f05f1dc0be9d9U, 0x29230c1b07140c1dU,
  0x1405f317ff06d503U, 0xf9fae2320030f801U, 0x1e15ca27e00727f0U, 0x1518eeeefcea13ffU,
  0xe6d4dd0319fd0ce3U, 0x2feedfa18ecd51fU, 0x9e6edd90e382e00U, 0xeef30908e6230103U,
  0xdef104efde03d324U, 0xdaf81dfbe7db22f9U, 0xea1dd5f015101d06U, 0x3f49fd08f1ffdf00U,
  0xfeeb080b02030723U, 0xdcd7f6f824f3fc03U, 0xdef019fde108240aU, 0xeb0c16cfef132232U,
  0xf1102b0af328e521U, 0x15fbfbd2ebe8fc12U, 0xe401dd01322dc9f3U, 0xfb08ca1003caf402U,
  0x26de0414e4fe05f3U, 0xe0e9ff152300e5ffU, 0xdc08eb0ceccd34e6U, 0xfd0fe407fc1d0319U,
  0xf3c5f90213bf213dU, 0x3e50315ee0640f4U, 0xe616fef0fffc130dU, 0xe8e6bdf30bfe08e0U,
  0xf615e3f92f0319f8U, 0xd1f3160207dae704U, 0x201515eb09f41415U, 0x107474116e4dc00U,
  0xe42414f8e72c03f1U, 0xf5e6f6181005f705U, 0xff23065113f2e50aU, 0x2e0b300cf5121201U,
  0xfb04001ff0f1e129U, 0xf30611eaf800270bU, 0xccea37f9dc0b02ffU, 0x10f0e8e8eb07072eU,
  0xfdfbf000010be807U, 0x4218fd0afe0e08f4U, 0xd81dfad310083b2dU, 0x1406371f28e9f001U,
  0xfbf0cd04fcdd26eeU, 0xf9fad10ee822e22aU, 0xc24dbd9e50ce7e5U, 0x415dae6d910feecU,
  0x23dbc4f7d6f01533U, 0x71f11fcfae32c0fU, 0xe4c00003f9e719e5U, 0xf4eb1b18f2fad929U,
  0xe5d704cd2f274203U, 0x230f2000e4e7fa0fU, 0xdceb0b10f8f6d61eU, 0x1b2119ffdbfa06d2U,
  0x316e5f81300fbecU, 0x19190412122015e7U, 0xeaf810dafae101d4U, 0xfdf4b1120cfe1320U,
  0x17efe0f3f6c60801U, 0x16080c0a28052034U, 0xf1f2e62425d6fee0U, 0xec1418040cfc3213U,
  0xd15d02d18e8161fU, 0xff14f4d41afaf4f6U, 0x9e7e4340d0606f6U, 0x21f6152d040114fbU,
  0xfbf61df2f511eb17U, 0x12daf229f7f3121bU, 0x32bfed112416e1f1U, 0x8d8242a320d0307U,
  0xc6f5f31bdae8de29U, 0xfa150612e421080eU, 0x240c13f5fc15f401U, 0xdff322fbfe161ff9U,
  0xfbd82414f7fef918U, 0x14afd4fbfdf3fdfbU, 0x12f514190e2aed14U, 0xd41316f6f6e1cdf3U,
  0xfd03e10bfd1adff5U, 0x3f7f8e20ccb0fdcU, 0xf507eb04242cf411U, 0xd8f70906f8dcd1fbU,
  0x1902e519f9e6f0daU, 0xe1ef0215c823ffe0U, 0xc2dfcf81d0b1beaU, 0xf8d9e9f4ceff0003U,
  0xc9f8162104f41f11U, 0x262ad805e2f3d9e6U, 0xdc0cee06f9010801U, 0xea033c08db0cfd2bU,
  0x1713fc0b10070514U, 0x2fefddef3ea02feU, 0xc2900d3e848e0f8U, 0xf514cc144824041fU,
  0xea08160403f50902U, 0xffeadd182203f00fU, 0xe5daeffdf22005fdU, 0xfbf804320e02e12bU,
  0xef1f0435d5e81af6U, 0x1f8fc23f90008fbU, 0xfaed0c04f5f31bfaU, 0xf6c91d08efe1f702U,
  0x11fbd0f30909fd31U, 0x9e1fff10af90854U, 0x3ea1fd5f300f01aU, 0xbd12f9eef80100f3U,
  0xdee0718dd0df6ebU, 0x1fbfc143f0cd3f3U, 0x7dcefef1fd604daU, 0xfbeec0ff1df5e223U,
  0x1b110bfc02f9ea0eU, 0xfd1e030af0f7feebU, 0x12162f0aec0f06fbU, 0xf218ee0fdd3f1cf2U,
  0x51e0e20301e2c2fU, 0x33070cf102ffea18U, 0x1ef1206f9e9f40dU, 0x9f5ef0f071201e9U,
  0x1ad3dde3050306daU, 0x152af2fdf2e22c0dU, 0xe9ee190a1ff00e02U, 0x1041d0201c4020aU,
  0xffed0d0e09eb4b22U, 0x91afe1250e42a0bU, 0x1ddf0af2f913e9e6U, 0xe7f1f3101df80407U,
  0x1a20170d15dff1dcU, 0x2802140c06dd1feeU, 0xfcf8f7f5d50b2000U, 0xf3f700141415f21bU,
  0xe15f80addede810U, 0x10e2c812f7d242f7U, 0x1d19bee114ffdd18U, 0x90ad316041ecd19U,
  0xf9220aeb25f71016U, 0xea0119011a151af8U, 0xecf9ded2fee6fbf1U, 0xf925f71bf52df3f9U,
  0x2ffde2f715fde62bU, 0x281c0b00dffefb02U, 0xf4e1f5ebf80b25f2U, 0xe20d1715001400fdU,
  0xf904ffed01dd181dU, 0xeefc01ebd9ebf5f2U, 0xffff1bd4e9f7dbe2U, 0xea16e2eb201c191eU,
  0xced311c33f20b06U, 0xf3fc11e303ccde0fU, 0xf42907ec0715e1fbU, 0xe504c931fcfa09e9U,
  0x51413f5153121U, 0xd4241a0dfbfcf801U, 0xefeb0210f8ddee2bU, 0xe0a0dc8da15f1e0U,
  0x2e03250c1a21f828U, 0xe5ecfdfc12fc1808U, 0xef17f3fedd02d206U, 0x2f2031c03fadaeaU,
  0x14293de6c208eef5U, 0x19021efe44f3f2f9U, 0xf5dbf50def2a0737U, 0xed20dce11df9040bU,
  0x1ce5fef815fc2e08U, 0x73e14e017e9e9f5U, 0xdf20be71cf4f3e5U, 0xfb041b3ccd1312f0U,
  0x100cf9ec0605f605U, 0x51cfafde0fa0310U, 0xeb35dffb011610ecU, 0x2cf40cdcf807f110U,
  0xfc21fd19f5fe1805U, 0xfe00d8061b0b2cecU, 0xf1f108fcfe1f051aU, 0xeb25ff27f2f0fed0U,
  0x22fd4610da03ebf1U, 0xde22aee25071fdaU, 0xf01532f6160eefffU, 0xf71d14fc07f51408U,
  0x1609e918e926ff11U, 0xd8eafe1b0711efc8U, 0xdbf8b4f61c0b421bU, 0x10f71327fe1bebf9U,
  0x13ff070620ef0fe7U, 0x19f1ff2306f1f7f2U, 0x1d9f3e8eb01fe2cU, 0xf91b1bf1db450209U,
  0xbeedf25f10ae0f7U, 0xdbf321f0e5fe0cfdU, 0xf3ecf30944cdec02U, 0xef5fc17221ae624U,
  0x9e8f5c916dbfef0U, 0xfd2fd8f600f3161fU, 0xe41eed170ebdedU, 0xfde4fa15f5ee07efU,
  0x121f381f0dfbf609U, 0xcb02e6080526ec2fU, 0x2042c2516e20f33U, 0xef14100d14f208fcU,
  0x16e3131ee9f20bf6U, 0x5eef9e50d090cf1U, 0x181317fbd7f8cf37U, 0x8ce1efbff25f108U,
  0xee23d506f60902f0U, 0x16100c0cf7f4e8e3U, 0xe20cb518de0afd0aU, 0x17fddff8fa071835U,
  0x26faec22f01001U, 0xcdc26e907eaf50cU, 0x610091300e22500U, 0xf4000e1a152226ffU,
  0xeef3cf1204e313fdU, 0xde03fbcbfa0607d6U, 0x1fd08155f2501f1U, 0x131dcee90219fbf9U,
  0x7ede408fc25fde2U, 0xd4350feecde9fe0aU, 0x2005f2f3f10901ffU, 0xcf1d3f2fb010d16U,
  0xfb202df9f40ee321U, 0x110001f7093810d6U, 0x307fb0bf1fefa17U, 0xfd0ff24e1fffcc24U,
  0xf0ffdaf618071929U, 0x1a0af5f309fef2ccU, 0x170009e5d31e10fbU, 0xf7fe07f015121c26U,
  0xc2fee8fc2108dd14U, 0xee1429ee2123302dU, 0x1fdab9ed110ae601U, 0xfdeb0bcceb1a0f19U,
  0xe3212039d3061b05U, 0xf4ee2cecf8f50203U, 0xeaf3ec29df3717d1U, 0xfbf1f51600ee1d10U,
  0xfaf7f0ef120d1d37U, 0x16fe15dc07f114c7U, 0xe41c0e1e191f0a00U, 0x22d71802fc05dde1U,
  0xbfd28270be4f013U, 0x310502e8f921121dU, 0xfef809f40ce5ed1bU, 0xf706eb03ebddea07U,
  0xe8212f3bfc141011U, 0xfccb320210f6edf0U, 0xdd0507e4251eff04U, 0x2ffd0ef43037e306U,
  0x2301e9f2ecfd1aceU, 0x2b2ce2fafa00130eU, 0xe4100d05fcfff3U, 0xf707f202e6e62221U,
  0x113ed44fe30e408U, 0xf08f128250d3b1cU, 0xf52b0300f2faffc9U, 0xa121719f7f7f725U,
  0x25191b132c10c91aU, 0xf502beae3fa0efeU, 0xe0b15101521e2d7U, 0x11001bee33e8f7e7U,
  0x41dfcddf016cc16U, 0xef1515d3ee090ee2U, 0x7e4d1fed610fa11U, 0xf4f4d1fedf0801feU,
  0xfc0d0e1ef5f617e0U, 0xfcefd618f2f20603U, 0xde7d5060f11effdU, 0xeb0010f3fc13f2ccU,
  0x70f0f232707bffcU, 0xe92b282ae00715eeU, 0xfade2113fceef3efU, 0xf1fe7e30b10ffd4U,
  0xe215ffbf122f3405U, 0xf80a1d070506f9e9U, 0xf4fde6dee902ea14U, 0x2911efe50a2efcU,
  0x2cfefd2f07e9f421U, 0xf03fb1c142803e3U, 0x1302d30bf2f119e9U, 0xde7c802d60012e3U,
  0x2324081c12d52fe9U, 0x12f213e2f0f5ecefU, 0xccfa01dc06cff8fdU, 0x321eff0e07ed06fbU,
  0x3703f7ed09df08f5U, 0x406f4fc1935daebU, 0xb0217dd0f0a2120U, 0xf7f33f050af1f811U,
  0xe101e506da01210cU, 0x7faf211cf19ee00U, 0xd901c7021c05d60fU, 0x29ef111a16f8cbffU,
  0x17e71c24082f1017U, 0x4142d2a0728f2f1U, 0xf3fdee15e80ded10U, 0xf50104f30609c7e3U,
  0x1012f1ec1a1a13d1U, 0xf8f626d209f7222aU, 0x2c01d5041d031c0bU, 0xfe0628e3341f1c22U,
  0x22ebe82200170015U, 0x27f5e2e6dffd0019U, 0xee1be91502f31208U, 0x725e4fdfeef0b03U,
  0xf2fbd7dfef1ff7e6U, 0xedfc032d0f3a14f1U, 0x160a1f2b15de05f6U, 0x918fe3b460dfe15U,
  0xffffab83ffffc755U, 0xffffd646ffffb1beU, 0xffffda26ffffc695U, 0xffffbc98ffffce49U,
  0xffffc55bffffb6f0U, 0xffffb8b5ffffc22eU, 0xffffba46ffffac25U, 0xffffb8d1ffffc6cbU,
  0xffffb1d8ffffb9faU, 0xffffb289ffffbe1fU, 0xffffbd84ffffd821U, 0xffffdb9affffbc5cU,
  0xffffdd6dffffcf9aU, 0xffffb17dffffc174U, 0xffffd777ffffd32aU, 0xffffcca8ffffb451U,
  0xffffcb94ffffb24cU, 0xffffc2f0ffffdbc4U, 0xffffc916ffffc541U, 0xffffacb2ffffcce7U,
  0xffffa76dffffce8cU, 0xffffc08bffffc298U, 0xffffb0dfffffd5f3U, 0xffffb9a4ffffdfe0U,
  0xffffd47effffce99U, 0xffffc6fefffff991U, 0xffffc9f7ffffc426U, 0xffffbb89ffffc15aU,
  0xffffc9dfffffc487U, 0xffffe256ffffc0d5U, 0xffffab4bffffb7fcU, 0xffffb127ffffb97cU,
  0xffffbd7bffffb5beU, 0xffffd3aaffffc207U, 0xffffbf22ffffd8d0U, 0xffffcb9fffffc379U,
  0xffffb825ffffd429U, 0xffffb737ffffbec5U, 0xffffcab7ffffb532U, 0xffffd3a4ffffc809U,
  0xffffc634ffffcfa6U, 0xffffbb7dffffafe0U, 0xffffbae7ffffa755U, 0xffffc2b9ffffe205U,
  0xffffcfa3ffffcdbbU, 0xffffd8e8ffffc1ebU, 0xffffc22cffffc364U, 0xffffbe8dffffc847U,
  0xffffb330ffffc552U, 0xffffb842ffffc39fU, 0xffffa4a4ffffc19dU, 0xffffc006ffffbd92U,
  0xffffb3c2ffffb992U, 0xffffc9b4ffffb594U, 0xffffc6bcffffbdc1U, 0xffffa6ecffffc81dU,
  0xffffc438ffffb79cU, 0xffffa9d7ffffcd19U, 0xffffb3b8ffffaeecU, 0xffffad82ffffc801U,
  0xffffddd6ffffc898U, 0xffffb9c3ffffae62U, 0xffffc9e2ffffcc98U, 0xffffcf11ffffbf52U,
  0xffffd290ffffc775U, 0xffffc8a7ffffa90bU, 0xffffa5f0ffffe023U, 0xffffb521ffffd5d6U,
  0xffffbbe5ffffd775U, 0xffffcbbcffffe0a9U, 0xffffb3aaffffa90dU, 0xffffb1b0ffffbd82U,
  0xffffd94cffffd286U, 0xffffcbaaffffc34cU, 0xffffea4dffffcd05U, 0xffffca66ffffb8e1U,
  0xffffcb08ffffc60aU, 0xffffb82effffd4eeU, 0xffffc39cffffc2c9U, 0xffffad6fffffba8eU,
  0xffffd64affffe61bU, 0xffffbdfcffff9420U, 0xffffbd26ffffc570U, 0xffffc203ffffc1feU,
  0xffffd1cfffffc91bU, 0xffffb1b1ffffb407U, 0xffffbffaffffc47bU, 0xffffbb5bffffc432U,
  0xffffcf76ffffc107U, 0xffffc662ffffc261U, 0xffffab61ffffe06eU, 0xffffb359ffffccbfU,
  0xffffc794ffffcf30U, 0xffffbdbeffffb3c8U, 0xffffce46ffffd176U, 0xffffa96cffffb648U,
  0xffffb744ffffb4a4U, 0xffffb85cffffc9ccU, 0xffffbcb7ffffba56U, 0xffffae6dffffbccfU,
  0xffffbd4effffc33dU, 0xffffbd83ffffa937U, 0xffffc262ffffa6c5U, 0xffffb27bffffcd38U,
  0xffffbf78ffffdbb6U, 0xffffd8d5ffffd062U, 0xffffc8fdffffc2aaU, 0xffffae62ffffbf01U,
  0xffffbf57ffffe8bcU, 0xffffc9fbffffea9cU, 0xffffdee3ffffac1bU, 0xffffb4d5ffffc704U,
  0xffffb64cffffb3c5U, 0xffffb747ffffdd43U, 0xffffd154ffffb423U, 0xffffcff1ffffcc6fU,
  0xffffb4aeffffb25fU, 0xffffc71cffffb2d0U, 0xffffc620ffffa57cU, 0xffffdaf5ffffc8c3U,
  0xffffb959ffffc1afU, 0xffffe925ffffc907U, 0xffffd683ffffb8e7U, 0xffffd613ffffa73bU,
  0xffffc3cbffffb86eU, 0xffffd022ffffe0dfU, 0xffffea95ffffe08dU, 0xffffbc22ffffb6a2U,
  0xffffc408ffffb661U, 0xffffb6e3ffffa56cU, 0xffffbc23ffffb7bdU, 0xffffbbdbffffb1afU,
  0xffffb7f1ffffbcd4U, 0xffffcac9ffff9c5fU, 0xffffbcc7ffffc739U, 0xffffa6a4ffffced8U,
  0xffffb1e2ffffb30eU, 0xffffa994ffffb837U, 0xffffc57effffb2aaU, 0xffff9bc7ffffad9aU,
  0xffffca36ffffbae7U, 0xffffbf2affffbf47U, 0xffffc377ffffb94cU, 0xffff9412ffffaa55U,
  0xffffc1a4ffffcf4cU, 0xffffa319ffffbdf5U, 0xffffb7b7ffffbcaeU, 0xffffbc62ffffe196U,
  0xffffd0e2ffffc3b8U, 0xffffe511ffffca2dU, 0xffffd795ffffc299U, 0xffffa72effffb2c6U,
  0xffffc76affffc992U, 0xffff9cd8ffffcff2U, 0xffffc535ffffc898U, 0xffffb17dffffc9cdU,
  0xffffca7dffffba8cU, 0xffffd0baffffc033U, 0xffffc33affffc4d6U, 0xffffb40bffffd8fbU,
  0xffffc028ffffc358U, 0xffffb462ffffb976U, 0xffffc5afffffb247U, 0xffffcd75ffffbf58U,
  0xffffbe30ffffcbf7U, 0xffffc7b7ffffbc10U, 0xffffcb54ffffcc27U, 0xffffd602ffffd346U,
  0xffffb752ffffec7dU, 0xffffb783ffffc27eU, 0xffffd3e4ffffb640U, 0xffffc225ffffcb0cU,
  0xffffc5b4ffffe67fU, 0xffffaee4ffffe0b2U, 0xffffd54affffccb4U, 0xffffabf9ffffba06U,
  0xffffc615ffffda8cU, 0xffffb3beffffa4ceU, 0xffffc2b5ffffb4b7U, 0xffffc009ffffa821U,
  0xffffb9faffffc759U, 0xffffa3f3ffffc406U, 0xffffc54bffffd006U, 0xffffccdaffffb1cbU,
  0xffff9ed4ffffcfb9U, 0xffffe4faffffc968U, 0xffffb5b2ffffdf24U, 0xffffce3cffffc43cU,
  0xffffbc35ffffb95bU, 0xffffc0a9ffffcb1dU, 0xffffd211ffffdfacU, 0xffff9fbaffffae71U,
  0xffffa8cbffffb01cU, 0xffffb566ffffab82U, 0xffffca23ffffc6dbU, 0xffffd998ffffa8aeU,
  0xffffc281ffffcfc3U, 0xffff9deaffffb9efU, 0xffffccd9ffffc192U, 0xffffe50affffd548U,
  0xffffd09effffd932U, 0xffffbb08ffffcbd4U, 0xffffb51cffffb246U, 0xffffbc0effffb6cdU,
  0xffffd5efffffb74fU, 0xffffafe3ffffbca8U, 0xffffbee5ffffb999U, 0xffffa919ffffb4c5U,
  0xffffd027ffffba5fU, 0xffffaa3affffba7cU, 0xffffc38dffffce9dU, 0xffffd4c7ffffbf9dU,
  0xffffb035ffffc72dU, 0xffffced5ffffc283U, 0xffffe78dffffd5a5U, 0xffffc2c4ffffcd33U,
  0xffffcd85ffffc9a5U, 0xffffc182ffffc3a9U, 0xffffa399ffffbeebU, 0xffffc257ffffb7e1U,
  0xffffd555ffffd5adU, 0xffffb71effffadf2U, 0xffffc0a9ffffc4baU, 0xffffc8e0ffffd8b5U,
  0xffffb249ffffd0dbU, 0xffffb9e9ffffbd36U, 0xffffbc11ffffc5a7U, 0xffffc66cffffc353U,
  0xffffcd3effffbe9fU, 0xffffbd34ffffe1d5U, 0xffffae65ffffaeeaU, 0xffffc5ffffffa951U,
  0xffffb25affffda8eU, 0xffffe178ffffed72U, 0xffffbf9dffffaa59U, 0xffffe697ffffd8d6U,
  0xffffa119fffff2c2U, 0xffffc099ffffb845U, 0xffffb8aaffffb174U, 0xffffd13bffffbc08U,
  0xffffb91effffcb72U, 0xffffbaacffffd34aU, 0xffffc774ffffd44eU, 0xffffc153ffffd923U,
  0xffffeab3ffffc1fbU, 0xffffbbabffffbba4U, 0xffffe047ffffd385U, 0xffffa53affffc1c2U,
  0xffffb2d0ffff9749U, 0xffffb3beffffcafeU, 0xffffc372ffffb80aU, 0xffffb4c1ffffc8d9U,
  0xffffc17effffc441U, 0xffffb839ffffbb45U, 0xffffbe25ffffa8c2U, 0xffffb133ffffc052U,
  0xf700e21616e80007U, 0x5fbf4e4f6f9140cU, 0xfe1bf30413e402fbU, 0xec06fdfd14edfa10U,
  0xeced04f101fcf8f4U, 0xf7f8f4f6090febf5U, 0xfdf417fbfbecf6edU, 0xfbebfcec010b01f8U,
  0xb04e20524e0e30fU, 0xf0ef1ed7fdf2fef8U, 0xebe8e6dbfe05f106U, 0xf5d9ff000312fc05U,
  0x40821f3f3e4f6f3U, 0xee0bfff4ecfbf0ffU, 0xfaecf6eafa04f2fdU, 0xeffddff1f704eaf1U,
  0xf301fdfefefff2U, 0x1fdfaf805dd1007U, 0x5050bf2f0ddd818U, 0x101dbf0f6ec0909U,
  0x8faef090b18ebffU, 0x9050af3e8f20101U, 0xeee4fbf7e7f4f6faU, 0xf6ec0f08030209ebU,
  0x41f04ef0c052002U, 0xf7080cf3f6d0fffbU, 0xf0ebffdef1f6fbU, 0x1e6ebf306fe200fU,
  0xf9f6f8e80efb0df4U, 0xfcfa08ebf11202f3U, 0xe1f6f9f50ce608f9U, 0x101204fdf7020900U,
  0xf606fbf1faef03f6U, 0x212db110afd0fdbU, 0xea2e0de10cff03fbU, 0xedf9f4ef00070a24U,
  0xcfaf7de020c0af1U, 0xfcf0eef0ece020f8U, 0xee0101f4e0010300U, 0xe7df10ebeeeaf409U,
  0xee1408f8f9e9ee0fU, 0x4fdfb02ec04e722U, 0xee115fcff07f7f4U, 0xececf4f50216eb03U,
  0x6fbeb051509faf5U, 0x301e8ea14fcfa1bU, 0x14fde0fa1109fbf0U, 0xa08f01d0003eeecU,
  0xec11f0f308fb03e6U, 0xdafceffaeef40412U, 0xe202ecf11ae9f3U, 0xcf1d807f3f2f902U,
  0xe004ea19e9f408efU, 0xa2103f5f1e906e1U, 0xebeff5f5f5e6edf8U, 0x15effa07fa0cf4faU,
  0xdffefb05e8fcf102U, 0xde6f0ec19ef0107U, 0xf3f7f7f200f905f1U, 0xf81c07fa180015e9U,
  0x7f2fbe60518f3dfU, 0xf9e4eeffeddd10edU, 0x19f90bede5dffa1cU, 0x23f4090afbf70b0dU,
  0xf60015f9e21f0e01U, 0xf7101206023111ecU, 0xf805e7f7fffe14f2U, 0xe7e9f200fadef6ffU,
  0xbe40ef50fecf807U, 0xe7fa051cf2e8fc00U, 0xfbf503020e1107eeU, 0xeb02e209020f05fbU,
  0x2bf5eef504120026U, 0xf8e90a09fe0e03ecU, 0xeef4eff4f907dfe9U, 0xe2fbec04f721eef8U,
  0x13ef12fff3edeb10U, 0xf9130e08fcfb05e8U, 0x1fefedbf5fee1faU, 0xf1d9f4f8eff9f70cU,
  0xf407fbe1f1f2e00eU, 0xf2d7f9edf10602f2U, 0xf117edfa05fe1bU, 0x2fc01100d06eee9U,
  0xf6fd0be61420f2f9U, 0xfd00fde90cf1f30bU, 0x201130bf4f007e5U, 0xef0007db05f8f301U,
  0xf50af3faf50fffe7U, 0xbf3f0060af90a06U, 0x2070203f708140aU, 0xd703ebf9d8f0f416U,
  0xf2f0f9f4f4ecf2f4U, 0xfa08dd02fde8f0eaU, 0xf40806ebfef6fef5U, 0xe204fdf1f3080ae9U,
  0xf1fc0dee10e7eaf3U, 0x7e7fdf2dffcf8fdU, 0xeb1a101118dbf8fdU, 0xfa030700e6fe1f1dU,
  0xeff901d6fb1603daU, 0xf8f6f110f3ef10ebU, 0xd2d3e5edf1ed10fcU, 0xcbf40c031b00fc05U,
  0xf8ef04f214fefd01U, 0xf205efe723ef1bd4U, 0xfcef1df0f3eafff0U, 0xed06f3150c17f6ffU,
  0x8fd17e7f80beef4U, 0x40107e8f31e01f9U, 0xeef809fc02f4fcdeU, 0xf6f9030aedebfcf3U,
  0x60d0cfb00e40d01U, 0xfdf008fe04edebdeU, 0xe0f6dcc40311fdfeU, 0xfdf2ffe9240601f6U,
  0x16040003f404ecf7U, 0xe402fc1dfbfbe50eU, 0xf9ee07fff7f1fcfeU, 0xfd10ecf5effceff7U,
  0x2180ef3f7f3faf7U, 0x81409fc13fa020cU, 0xe90f0df2030cff16U, 0xf0e20be5e3070ed9U,
  0xff00fff7f503eafdU, 0xf1fa110efcff06f6U, 0xed09f60afaf6f8f3U, 0xf119eff508120108U,
  0x2000400fafdfc01U, 0xfbfefdfdfff903U, 0xfd00020003fc0300U, 0x301fffdfdfdfeU,
  0xfb03fdfe01fefd00U, 0x101f9fe00fefffdU, 0x1020400fffcfefeU, 0xf800fb010402fffdU,
  0x1fd0103000001f9U, 0x2fefdfefffa01fbU, 0xffff0302fffe03fbU, 0xfa03fd00fe02fdfeU,
  0xff04ff03030200feU, 0xfc00fefffbfbU, 0xfe00ff04fd0501fdU, 0xfa020102ffff05U,
  0xfbfb020203f90104U, 0xff00fffdfc0101ffU, 0xfefffbfffcff04fcU, 0x2fc0403fb0203U,
  0xff01f90003fcfcfeU, 0x2f9ff01fdff05feU, 0xfaffff01f8fbfa06U, 0xfa0302fefefe00feU,
  0xfaff0104fefcfcU, 0x200fdfffd02ff00U, 0xff0404fefdfb03ffU, 0xfefdfc06fd00ffffU,
  0xfb02fdfcfa04fff8U, 0xfffdfcfd0204f9ffU, 0x2fdffff03fe02U, 0x4fffcfbfefc0500U,
  0xfbfffefd03f70101U, 0xfc0601fe00fdfcfcU, 0x2fcfd01fdfe0503U, 0x4fd03ff06fefff9U,
  0xfe03feff05fd04feU, 0x3ff030102fbfe04U, 0xfbfd0000fdff02ffU, 0xfe04fffd0103fb01U,
  0xff0204faff05fef9U, 0xfafffafbfafaffffU, 0x3fc0400fe0300f8U, 0xfdffff0000f9fefbU,
  0x6fdfbfe02fd00U, 0x3fb02fbfaf9fe03U, 0x10501fefc00f9f9U, 0xfbfeff01fa00fffbU,
  0xfcfcfefefdf9fdfcU, 0x3fffc00fdfbfefdU, 0x3fffffbfa000200U, 0xfc0200fffef900ffU,
  0xfbfdfcfefe00fffeU, 0x305fffc00feff02U, 0xfffe02fe03fffb02U, 0xfcfd01fffbfcfffeU,
  0xfe03fffcfdfc0602U, 0x3ff0304fcf9fdffU, 0x200ff010302fc02U, 0xff0300ff0101feffU,
  0x3fffffdfe04fe02U, 0xfd03fffc0301fb00U, 0xfb00ff000000fcU, 0x20100fa02fe0601U,
  0xe2f502fb0402f512U, 0xf4f0f411ff180fecU, 0xeff9e2f1e309fafdU, 0x23e708d7eadbeaffU,
  0xcdefafaf302f7f9U, 0x4f7f50400e8f30cU, 0xf600f0f70a0cf8f0U, 0xf0fceffa16010708U,
  0xf5e6e40dfdf0fbe8U, 0x3f70bee0fee1011U, 0xae10deceefcece4U, 0xf812ff05f2faf0eeU,
  0x9f8f4f211df04f1U, 0x181f05f5e8f908fbU, 0xfe16f3e4f706f209U, 0xf214f8f3f6e1f800U,
  0x3fffdf91fec0dedU, 0xf2fceb14fc0904f5U, 0xf5f0010afa11f105U, 0xf005fcf7ed0afb12U,
  0xd0701ede914f2ffU, 0xe6f603070306ec1bU, 0xfe15f115f4e00913U, 0xfceffaeefcf7080aU,
  0xd5f5fa0800faf201U, 0xf4fae50df1fd10e5U, 0xfefafff2ef0803e6U, 0xfa0bebfa01ee02f6U,
  0xf8ecedfaeffefefcU, 0xf402e90dfbf80303U, 0xafdee16f5f2ff03U, 0xfffc0404f6fe08fdU,
  0xf3e3f7fef5e6f90aU, 0xeff7e2f804f3f3f2U, 0xf8e9e2fc1401df1dU, 0x7f801f3f3fd05eeU,
  0xed0ce8080c020fedU, 0xf2f30ffcf7f30204U, 0xfbf508ec02f5fff5U, 0x1701e5fae6fd0606U,
  0xf2ef04ff0404ed09U, 0xceff3efffed11eeU, 0xf2fffafc000802f7U, 0x20bf6f8f9100506U,
  0x7fa05f8fef4ea01U, 0xf918fc0ef103ff07U, 0xec00f6050202ebf0U, 0xedf4fe0e041002faU,
  0xf0fa18fb0bffe603U, 0xfdf7f9fb0af5f9faU, 0xfcdc0105fa06fe10U, 0xfcf804e50bf6eeebU,
  0xf9e902f80dfff8e8U, 0xf20cf80b0b0502feU, 0x1f810f80a081301U, 0xeeedf1fe0502eef8U,
  0xee01ffeeeff5f808U, 0xe1150410fdf5f506U, 0xfafe0cf7e0e6f107U, 0xfd0c06f5f401f702U,
  0xfaf3dc0ef6011005U, 0xfc02d6040102f5feU, 0xe6f2040bf7ecff10U, 0xe30e05f4f8f8f9e6U,
  0xea0eee140f03deeeU, 0x10721d914fb12e6U, 0xf702f8e801f7fefcU, 0x16f5fa2001fdf509U,
  0xaf2fd080305e201U, 0x5fcefebfae6ebd5U, 0xf21bf4e9ec18eee7U, 0xeffb09f20fd6031fU,
  0x7e3fb0c00e21614U, 0xf9d40a04f9ffecdbU, 0xe6f6f6ff08de1901U, 0xeafaf90e09eaff06U,
  0xf9fcf2050a09f504U, 0x2d9f127f2d8f823U, 0xfff5e9fbf605fb04U, 0x1eecfd04ed09fffcU,
  0xf014fd03d7ee09ffU, 0xfb11fd01ff0ef1eaU, 0xfff5fdee11f1ebffU, 0x6f8defcee09f9f1U,
  0xf302eb2506dcf0d7U, 0xf910d509ffe6fcfaU, 0xfdf90f00eaddffeeU, 0xf3ea0c0008d2f207U,
  0x8eef3e3f4fdef06U, 0xdc00f2fce4100402U, 0xf406ed15f011f418U, 0xff01d5f5f3ecd20bU,
  0x30207f0230d25f7U, 0xe4fef9f115e5f9fbU, 0xf60609dcecfef202U, 0xe7da05f6e9f1f20aU,
  0xf30af5f0fee7eaefU, 0xaeb021606ee1f01U, 0xebe703f7f100f7U, 0xe9edf8f9d8f5f006U,
  0xf612fbfd1adf16eaU, 0xf9e802fbddf71debU, 0x100eaf215fde8f1U, 0xe7fc01ea1a0cfb07U,
  0xe9f9fdfef7fd0401U, 0xe01f41a0c18faefU, 0xff120911e3eed91aU, 0xe9e90be2e91400fcU,
  0x14dcd60beff0fdfaU, 0x201000f18f018feU, 0xee0408fb0eecf106U, 0xede01610ebf1eb06U,
  0xaf403e711f5edf6U, 0xdad910e9fbe501fcU, 0x9e91400f600ec07U, 0xe2f1dafef7f5f0f2U,
  0xdf304fdf0f205edU, 0xfc1b17f1f9f8ea15U, 0xe718fcfbf01af20eU, 0x612fa1be2e9fa03U,
  0xf01af30d1320010fU, 0xe204d006eee8f6efU, 0xf70602100f10f10cU, 0xf0e80714faf6ecU,
  0xc8f8f60cf8def6e6U, 0x817f6f10aed1c01U, 0xfadd12dffef5ec07U, 0xf6e31818e903f501U,
  0xfc04fc0dd9e7d7eeU, 0x10faf9e6fee6d3f0U, 0x8f6c70ff9e3f005U, 0x140218f2fef507dbU,
  0x2aecfa150306e101U, 0xefbdf8f8f2f4d815U, 0xd7faf71315ed01eeU, 0x90312dff8000500U,
  0xd4efe1f8eeee1e11U, 0xf0030d17d6f40605U, 0xfde30bf4f0dfdee3U, 0xf8fdf0efd8080409U,
  0xf6fff8f0cd1b04f7U, 0xfdcd03e70a08e5f5U, 0xeb0ff40ffc07e9e1U, 0xf705fedffdffe1fcU,
  0xcae7e6ea1b16e9e2U, 0x1703f01207e103d7U, 0xfaf00f1309f810faU, 0x140307dafbf300feU,
  0x1913f403f5fffaU, 0x1ef60cfe30dae60eU, 0x108f5f6f7fa1afeU, 0xf93706ede00a02fdU,
  0xfcfefdf9e7f6131cU, 0x27e4291005fcff17U, 0xdbd10bfd12fbf7ecU, 0x17ff09f500dfe0f7U,
  0xeae4e408e1ef20e1U, 0x6eafcf2d6f6f9eeU, 0x1c1e0403e8fb1002U, 0xeafde3f2f30ded0aU,
  0x141ef6ddfefaf1eeU, 0xc31500f8f3130527U, 0xf3f5d2d6f92607fdU, 0xfe1110e9f1e6c9f1U,
  0x14f0fbf113df05ebU, 0xe50b232bfa05ea10U, 0xf9f80afd26e703e5U, 0xe51ae609260ff1fbU,
  0xefcf0feee903f8d0U, 0xfe190af5dd06f0e8U, 0x1be9f20dff01e3e9U, 0xeecbeaf30edde501U,
  0xef0513f6ea18e709U, 0xf9ddf1020706e500U, 0x1ef3fbebe8ff1b19U, 0x2d0df9f42514dc18U,
  0xfef505ee07170aeeU, 0xaf0f11f1cfe27e2U, 0x6e20200fe03fc15U, 0x90dff1df6090a1fU,
  0xe741fed9090cfbf6U, 0xe905162afafff3e7U, 0x1500fae9f6fe0e1eU, 0xec11e2f7c7e4e201U,
  0xaf6090fd3f1e406U, 0xfbfa02220107f814U, 0xe9d5110beedfd0f5U, 0xe9f1f511e4d92ccdU,
  0x300e80cfb01e8ebU, 0x2aff06f7daf80600U, 0xe60505d8fa06e605U, 0xe9df14f913e62919U,
  0xfa06fef603faf8feU, 0x6fafcfe0704f9fdU, 0xf9fb020004fffff6U, 0xf3fef7feff08fe02U,
  0xff00f800fcff01feU, 0xfef6f9fcf6fa05fbU, 0x10500fffcff01ffU, 0x3fc0304fcfe0d12U,
  0xf8f904fc05fefeU, 0xf7fd02faf70201feU, 0xfefbfff70703fc0bU, 0xfdf9fbfc05feffU,
  0x1f902fb03fefef5U, 0xfcfcf800f6ff05U, 0xfffafb04fdfd0001U, 0xfffdfc000402fcffU,
  0x1fd02fe09f603U, 0x208fd09fafd0100U, 0x4fbfdfe0a02feffU, 0x5fb01fefb01fefbU,
  0x8fcfb07fff9fbU, 0xf902fb00f8fd01f6U, 0xf9f601fb00ff01f6U, 0x10301fdff04fdfdU,
  0xfdfc02fe040401U, 0xfc00fffdfbfcfd0aU, 0x2f8fffa0402fefdU, 0x302fe04030000fcU,
  0x3f8fdfe0003fe00U, 0xfefc02fdf7ff00fcU, 0xf9f802fb00f9fefcU, 0xfdf7fffafdf8fafeU,
  0xfcfdf7fd00f9ff06U, 0xcfe03ff01fcff01U, 0x8030204fcfbfafeU, 0x2fbfc00fcfa0203U,
  0xfb04fd06fcfffd03U, 0x2fefc02010107ffU, 0xf8fcfbf9fd0400fcU, 0xfbfbfdf7fdfafdfdU,
  0x1fef602fcfbfa04U, 0xfd07000101fdfe06U, 0xfb0200fefefafafdU, 0xf9fdfbfefdf808ffU,
  0x3fef802f901fbf8U, 0x50804fffefb01faU, 0xfd02fffafffdfd02U, 0x1fdffff01fc0104U,
  0x2fcfdfaf401f9f8U, 0xfa01fff8f700fdfbU, 0xfbff05fefa06fdfeU, 0xfb00fdfcfdf8fcfeU,
  0xfcf901fefc0100fbU, 0xfc0101020304fa01U, 0xfe0104fef901fcfcU, 0xf8fc06f8fffd01ffU,
  0xfbfcfb0204fffb01U, 0xfe01ff02fdfcfef9U, 0xfefff805fbfefd06U, 0xfffbfb02fffdfeffU,
  0xfdf7fd00fefd01fcU, 0x300f6fffafefffeU, 0x1020803fa00faU, 0x604070402fbf6ffU,
  0xf8e02d20e6d60ef6U, 0x219d8fc0209e5eeU, 0xece2f312eefafbb9U, 0x2a11e2120021fc0dU,
  0xf8efd0ec0726daf9U, 0xf5f814db1c0df0fcU, 0xfbc61c2cd410f91cU, 0xf4ea0efaef0311e9U,
  0xf9ec1823e404ec05U, 0x120ce21e08ef0427U, 0xfdde18e3f4fff406U, 0xf5f5eafcf5fefa21U,
  0xf604e2e620c20b0dU, 0xfbd702011ae6f4d2U, 0xfb3306f70109c1fdU, 0x6fff736caeffa08U,
  0xb0a18fb05f8f603U, 0xff0001070cf7f437U, 0x2113082e05f6cd0cU, 0x9fdf8f803200500U,
  0x8e60aef29e416f7U, 0x13dec9fef6fa11fcU, 0x4edd9e71a131907U, 0xef180d033026f8f2U,
  0xeddf25a9131df0e9U, 0xc7f8fb0b03ee220eU, 0x4fd0bf8241ce90fU, 0x312fafbe304042aU,
  0x34ece0ece70cfefdU, 0x27091d0fd83cfde8U, 0x5edfd1d120026f6U, 0xf5e31c1c06f01307U,
  0x130ff9071901f3faU, 0x17fb1ef30cfd040cU, 0x1af3b7f5ff1214fbU, 0xd625dbfde1e2f1f4U,
  0xff25dd19171d09fbU, 0xfff5fe22f734e706U, 0x1101f61405fd19ecU, 0x8ffda1103e8f9faU,
  0xf90d08f5131607U, 0x1f05ffecf21bf7e7U, 0xd8fb0f1ad8d0d305U, 0xc7f6f9ebebfbfe07U,
  0x2cdb0bfdec32fffaU, 0xf31c0f23e11af4f4U, 0xf8f809daecf803f6U, 0x1b02100c08eceaf4U,
  0x2eff00502f2eae4U, 0xedfceff2fef4dde8U, 0xe51afc09f00c19eeU, 0xe409fbf60be109faU,
  0x26dc1801fd2f04f7U, 0xf2edfd09ed2d0915U, 0x16f8f5db1718f231U, 0xf7f3dfeaf012d9e0U,
  0xffdfd508e21b0929U, 0xed15d411ece40dedU, 0xf208f2e9ff06080eU, 0x260001d8effff826U,
  0xd41100020cddf4f3U, 0xe0ebebefde190f35U, 0xf23200212fccffeU, 0xe5f2fce6f3140318U,
  0xf80ff90c04f1faefU, 0x2f50103eef9fcf8U, 0xf7f8f9fdf9fbf8faU, 0xfe09ecfb00fd09feU,
  0xfcf3f910fbe9faf9U, 0xfc010001fcfefbf3U, 0xfef7fdf8e4f0f5f5U, 0xff15f505e90100f5U,
  0x110009fa04f4f415U, 0x8fc0903fbfc0aU, 0xfa050bf9eff4f202U, 0xfff8f0ff0ff006faU,
  0xfa0b02fff619edfcU, 0x40200f5f5fcfc05U, 0xf9e8f0fa03ffebf8U, 0xfaf2000ceaf6f9fcU,
  0x20ffa07f00507ffU, 0xf3020afffc00fef2U, 0x8f709fafc01f0f6U, 0x8f6f6040800ffU,
  0xf3fd11f6fbfaf3f3U, 0x30b06f61905ff0eU, 0xf6ee18020ef6fbfaU, 0x8f7f711efebf704U,
  0xfe03f5f8f6f90bffU, 0xf9fff902f70b03f4U, 0x1f4ed0506eff700U, 0xf601ebff02f308f2U,
  0x5ee0e03fdf0fffaU, 0xf1fb04f70301f1f5U, 0x3f7f801fb02fa02U, 0xf0080410f0f10502U,
  0xf404f9fef1f9f6ffU, 0xeefff30108fff402U, 0xfd01f9f302ff07f7U, 0xfdfe0d10fb00fdfcU,
  0xf8f9faf8f203eb09U, 0xfe05f9fa08f9f9fbU, 0xf810f8070b0df6f0U, 0xe7fdfcf4f6f901feU,
  0xf4f90503fe0000f6U, 0xfaf4ea040c0201ffU, 0x801f901e9ed0403U, 0xfbf7fcf7f6fbf4f7U,
  0xeef10502fa08ecebU, 0xfd00eceffee8f8ffU, 0xe3edffeef10000fbU, 0x7ecf500f30608f0U,
  0xfa01030dfefb00fcU, 0xf803fd01f8fafa02U, 0xfdfdfcfbfff2fbf2U, 0xf70603070502fd1dU,
  0xf08f6ec0301f8f5U, 0xffef04fa0cf7f903U, 0xfbf9f6f919f001f6U, 0x405fafff3f6fdf8U,
  0xf4f5fbfaf6fffffbU, 0x504f3fefefcffe8U, 0xf9f91401f0fafa0fU, 0xf8fef706fef60109U,
  0xf3f505faf1fffafcU, 0x4e5ee0efd00eaf5U, 0x4fd05f4f10701faU, 0xf303f701fcfbfeffU,
  0xf6fefa06faf30014U, 0xff07fd0bf7ef03fbU, 0xf5f40ff903f300U, 0x5fd0404fd03effbU,
  0x10f0607f7fef6ffU, 0xff7fc0bf3f40dU, 0xf0f80ff101fb0df8U, 0xfd00f9f5060bf6fdU,
  0xfdeef8f40801fd01U, 0xfdf10efc0df7faffU, 0xfef606fafbf4fbf5U, 0xfef207fbf7ed0af6U,
  0xfafc00f8f200f8efU, 0xf9fff5fffdf6f6f9U, 0xfbff04f5fbf703efU, 0xf304fcf8f8fafeffU,
  0xf6f10bf5fbfdf2faU, 0xfb06fdf6f6f2f6U, 0xf6f7f7fc0d0500f2U, 0xfc050200f6fcf6feU,
  0x3fafcf1fbf6f6f7U, 0xfa0302f007fefdfbU, 0xf809fbfef9f7fd04U, 0xfdf7f9fff3fcf1f2U,
  0xf80afdfffb11f7ffU, 0xfb00f50a03fa03f5U, 0x4f3f9f3fff901fdU, 0x1ee00fbf7fcf7fbU,
  0xf80a01f9f6fa02ffU, 0xf70600fef8f5faf8U, 0xf6faf202f5f7fc01U, 0xfcf9fcfeffeef5fdU,
  0xfff8f6fcf9fa03faU, 0xf401fe03fe0206fcU, 0x3fef60016f6f8fcU, 0xf8fdfc020006f9fcU,
  0xfafcf703f0f804fdU, 0x207f1f402f8fd01U, 0xdf20efbfc0604ffU, 0xfaf31102fefe0befU,
  0x130afb00fffb0301U, 0xf7feff0714eefbfcU, 0xf802fffef8fdfffbU, 0xfafcf9f9f30af7f5U,
  0xf2f5fa0000fcf2fdU, 0xfc02f50800f7fcffU, 0xfef8f904fcff05fcU, 0xfaf8f9fbee0204f9U,
  0xf6f6fef8fd0609U, 0xfdecf8f8f410faf3U, 0xfbfd08fff7eff4faU, 0xfefe040beff4fdfbU,
  0xf4f7f5f3f0eff7U, 0xff01f70800fa00f7U, 0x10bfcf4f90bf0feU, 0xfefcf4ef0300f60cU,
  0x5f4f7f5fcf8fdfdU, 0xf61307fcfef9f9fbU, 0xf6f9f9fff500f112U, 0xf3f606f7fafaedf9U,
  0x406ff03fffe0cf9U, 0xf8fbf6eff604f7f8U, 0xfdf502f3f502f80bU, 0xfd05fbfdfefbe9f5U,
  0x90304f807f9fbffU, 0xfdfd06fcfafdfdf9U, 0xfd0201f8f6f60002U, 0x705fc06fc06fafaU,
  0x2fafff7fbf9fa03U, 0xfa0ef9f7fffb0a07U, 0xfdfe04faf6fe0508U, 0xfcfffdfc02fdfafbU,
  0x1fa00f9f7fbfc03U, 0xf8faf7fdfbfaf8ffU, 0xfa01fcf7f6fef5f6U, 0xf6fffa0107f8fd00U,
  0x2fef8f401fafbfaU, 0xf9fcfcfc04fc02f9U, 0xf103fafafb03fdf5U, 0x1fe0003f8fcfc02U,
  0xfe03fd02fdfdfbf3U, 0xf60200f4fb0202fcU, 0xfefdf906f8010301U, 0x702fcf7fbfd02fdU,
  0xfafd00fb0404fef3U, 0xfa00ff0002f2fffeU, 0x5f9fff8fb060605U, 0xfef70000fbf5fafeU,
  0xfff4fff9fdf601faU, 0xfe01f6fbfe0005f8U, 0xfc0404f9fefff6f6U, 0x107fe03fd02fefeU,
  0xfefd000404fefb11U, 0xff06fb0400fe02f9U, 0x1f8fcfd000000f5U, 0xfc0003f8fdfc00f8U,
  0x100fafbf802fafaU, 0xf9fdfcf7fbfbfbfeU, 0xfef4fa02f3fdff00U, 0xf2fb03fffefe0a00U,
  0x4fdfa01fcfbf9f5U, 0xfbf7fafbfd03f605U, 0xfff3fbf6fffc00fbU, 0x3fffefa01f9fbU,
  0xfbfa02fd09ff06fbU, 0xfd0508fdfefcffffU, 0xfc01fd06fafcfaffU, 0x4fbfaf8f9f6fff9U,
  0xfaf7030003fb0806U, 0x1f8f70300f7fafdU, 0xf7fcfcfefd0005f7U, 0x2fdfff3fcfdfcfdU,
  0x1fcfcfa00fdfb03U, 0xf601fefc06fef6U, 0xfcf905fcfefafd02U, 0xfe00f603f9fdfff9U,
  0xfbfbfcfefff906fcU, 0xf9fe04f706fefff8U, 0xfe000005f5f90209U, 0x2f9f70603fef8f9U,
  0xf700fb03fdff01ffU, 0xfffff7fcfef6fe0bU, 0xfcfefe04f9fff7faU, 0x4fe0003fd01fefeU,
  0xf5fdfbff02f8f9ffU, 0xfffdf6fef9010601U, 0xfa00f300f9fe0103U, 0x2ff02fffdfbfbfeU,
  0xf202f4fb0c01fe17U, 0xfc04f2f3f706f3ffU, 0xf914e908f204fb0aU, 0xeef2ed0cf8fdfaf5U,
  0xf108f2edf508ef08U, 0xfd03f0fa02f802f3U, 0xd02f9f2f10008U, 0xf5fafafcfb0feefdU,
  0xa06f8f3f20df807U, 0xf9f6fbea040301U, 0xf50303f2f7f8f7feU, 0x10705f40803fffcU,
  0xf4f1f70001fe0607U, 0x14f70ff5fc050bf1U, 0x2fd08ea0afff709U, 0xd1001f9fbfcfff6U,
  0x8e70a07f9fc08f8U, 0xf200fdf7f9f9f60cU, 0xdfd06eef7f607e4U, 0xed07fde7040d1aebU,
  0xf4f808efff00ee07U, 0x1fef703f2fd00feU, 0xf5fdef0d04e3fcU, 0xedeaf30108f5ffU,
  0x12f5f7f5f5f3f9f9U, 0xfbeff3f401060af6U, 0xf1ff0705f718feU, 0xfb0a0303f1fb08f9U,
  0xf5fcf1f0ece308e7U, 0xf7fd0408fbed060aU, 0x1fdf804e6fe0805U, 0xf7fdffff0103faf0U,
  0xf6fd06f4eff3f9feU, 0xfaf9fb03fdf8e9f3U, 0xecf2fde9fc05e902U, 0xfe0e05f5ffed1021U,
  0x13071404fffaf108U, 0x7fc1bf40407ff05U, 0x9f9ff1c0aebf4f1U, 0xffe07f7f4f8ecf2U,
  0xfef90309fd02f6ecU, 0xebf9ea0af4f4f8faU, 0xf7f207f50bfbf219U, 0xefff50709f713ecU,
  0xedf801ee01ff0cf7U, 0x1303fb0e0800fefcU, 0xd0a03fd06eb05f1U, 0xe8f2f8f40703fb02U,
  0xd0e0df903f8ee07U, 0x12f0f5f51404f40cU, 0xbf710faf8eaf2ffU, 0x602faf117eeed01U,
  0x3fff5fd08f6fcf5U, 0xe3040c0cf8fa00fdU, 0xf4e60515080e0f00U, 0x3f7faf90afcfcf2U,
  0x6fbfff6fd13fbfeU, 0xf405f3f1fa00f904U, 0x8f3001802f7fefaU, 0x314f1e30710faf8U,
  0xfd0604faf0e7fdffU, 0x10ea0902f4edfc0aU, 0xfee8f1fb12f80b12U, 0x7f5effa0407fc02U,
  0xd809dbf5221904b8U, 0xd011c05f5f5e3e6U, 0xe5211403d7dd03e9U, 0x7c610d30f1bd9e3U,
  0xd42110f3091ff3e0U, 0xf5da09070606fbf5U, 0xe6f7fcf7e40bfae9U, 0xfef5fcd52619cd1aU,
  0xe0030904da09fb06U, 0x4f30a0fe514f3fdU, 0xef15ecdc07bcefffU, 0x9e3f7f6dab51b00U,
  0xe008c6d9dafff407U, 0xdd04f1f43ef02e0fU, 0xfddcf4f822f6f7f8U, 0x51bb51ed602fcfeU,
  0x2f9e301fdf2fd00U, 0x20f4f0f20328c8f8U, 0x4f600ee02cb28ddU, 0xf2e50aef01f2ff0eU,
  0xef3d8ec080c0104U, 0x17fc08e909d704f1U, 0x6f428d50af103fbU, 0xef25191212e1d9f0U,
  0xe5f803e6fa2d09f6U, 0xfefe020d1b0d13f6U, 0xeef4ec17f8e2fe13U, 0xfde4260d222de712U,
  0x10f2deeaf106f5f2U, 0xffd5e8c6fcea0107U, 0xd90b360bd82001f8U, 0xeb150ad4ed0bebfcU,
  0x200110439f4cfU, 0xdfe5d609dbebd313U, 0xf316d8ff05d60ce9U, 0xf71fe1e1da031ae8U,
  0x220f4ebf9f1f511U, 0x18e1230301ff17fdU, 0xbdd3f908dbfadc0bU, 0xfde33818f6e3fd13U,
  0xd9f41017f4d712efU, 0x1d02e6fdf8f7de1eU, 0x1c16f8fbf2071f00U, 0xe1b8f7f70e2cee08U,
  0xfbff09f2ecf2fe19U, 0xf8e2ff09040fc918U, 0x1a14f7fae109fe11U, 0xffe31ac70de01500U,
  0x10e21927d5000f2bU, 0xd9c008d7180cfc25U, 0xfbdde1e9071b1a00U, 0xe90e04f20ceacd03U,
  0x2ff0ddd1a23e323U, 0xd0302eb16e4e5c3U, 0x7cbf20310f1e322U, 0xe0ddb05f3eae200U,
  0x4e3dc04e6fc2111U, 0xe9fdec07e723f7e2U, 0x120306040100fe22U, 0x404f1ff17faf6e6U,
  0xfe09fd15d81c013bU, 0xf3f5ff04dcf73202U, 0xf213f301eecd07f2U, 0x93decfefed1bfee0U,
  0x1fcfbf2fdf8000bU, 0x3f8fdf803fdf3ffU, 0x3fa00f0f608fdf6U, 0x902fff1f0f10209U,
  0xfbf50400fa12f3feU, 0xf301f211fafe03f4U, 0xfdf9fef7f4f805fcU, 0xfbfffa0e08f7ee05U,
  0xfdfaf9f4f9fafe02U, 0xfef902fbefff0905U, 0xfc08fcf0fdf5edfeU, 0xf5f8f90209fffef1U,
  0x1102fef6faf9fef8U, 0xfcf6f6f6030a03feU, 0xfa070800f3f0fe00U, 0x5ff01faf3fdfdf4U,
  0xf8f5f6fdfff5fdfaU, 0xfef906f8fdf70000U, 0xbfc1b00f7fe0510U, 0xf3f701f4fafc0dfeU,
  0xf4fa000af700f606U, 0x3f8f6f30001fdfcU, 0xfdf6fbfe06f60a06U, 0xfcf5f20bf9ed090bU,
  0xf2ebf6fc03f0f8f7U, 0xf301fc080a04fef9U, 0xfd08fef1f9fceefaU, 0xf7fc00fef4f403U,
  0xf20dfeff09f5ebfeU, 0x902080bf302fef4U, 0xfbfbf4f50302010cU, 0xfcfaf702f5f0f1f4U,
  0xff0801ff00fef7fdU, 0xf8fdf9faeffff4f4U, 0xf7fe06fbecf402faU, 0x160404faf4fafd04U,
  0xf8030601f60d0111U, 0xf6f5f8fbfaf9f6f9U, 0x30e000ef603fef9U, 0xa1000f8f505fbfbU,
  0x2f8f60a04f6ffffU, 0xfefc0e0af7f4fefaU, 0x105fbf8ee06fefcU, 0xfe04ff0afcf8fa00U,
  0xf70200f90205fe02U, 0x1f1fceff7f1f90eU, 0xf6f7f106f0f50efaU, 0xfbf7fbfaff01f904U,
  0xfe01f7f5f4f3fcffU, 0x70807fa00fa0ef8U, 0xf4fafef8fd02fdfdU, 0xffef0def0901fe05U,
  0xfefefb09fd0e0305U, 0xfef9ff02f4fdeffcU, 0xf0fc0ff8f2f0fe12U, 0xf8fe0604eef9f4fcU,
  0xfa07f1f7fff9ffffU, 0xfafcfceffaf6fcfbU, 0xfbfa19fafdfbfcf9U, 0xff08fcf8fefaff08U,
  0xf4f2f709f6f600eeU, 0x2faf7f3f90cf8fcU, 0xf3f800fdf4f00dfdU, 0x40c0403020202ffU,
  0xec0605f0fefef0e4U, 0xffec04ef080ef0fdU, 0xf90a1ef203f9f8f5U, 0xfd1af0fd11ed23d2U,
  0xe80339f4eef01afcU, 0x205f9faeef5f1fdU, 0xef04140ddb03190aU, 0xfbfbee060a0000f1U,
  0xf305f113d800f7f9U, 0x1bf91efcf002dff4U, 0xdfe4f00bfaf60ecfU, 0xefeef9f2f3fb0814U,
  0xf9f2fb0f0400ed11U, 0xe00eebf3d9f8f802U, 0xf7f502f6efe407f0U, 0xfbf4fee1f502fe0fU,
  0xf9fff9e201e6e61eU, 0xfc02dfe60a040b0aU, 0x204e808e106fc18U, 0xe8dfeaf6090e11eaU,
  0x24e9eee1e1eb1d0eU, 0xf3050aec08f3e5f2U, 0xf5ebf7faea0cce16U, 0xf5e7fd00f80f1202U,
  0x3ea1a1afe07fbd7U, 0x624f4ececf4f600U, 0xf008d2f314e7fff2U, 0x28031de8ee0a0ef1U,
  0x80b21faf8e30ef9U, 0xe9e6fbfffe02fce1U, 0xe01dfbf912e8f8ebU, 0xeafbf2d1f2f4d1d7U,
  0xfdfcfafb25f9f3ffU, 0xfe03f90006e0fdf2U, 0xee070aff07fef50cU, 0x1faeeee23e4f7f0U,
  0x6f3ffecfdeeebe9U, 0x204f8090605fee1U, 0x7efe2f1d6f6f8f9U, 0xebfe0b08f5f3fc05U,
  0xd0700eafdf61402U, 0x10e50cc202edf5d6U, 0xa09fb16f8d907f7U, 0xfbcbf8f412fae703U,
  0x3ee07f50df10a28U, 0xe1e3fbf908f93304U, 0x1de00d0113f5e7e0U, 0xf30cea0e04e005e4U,
  0x8f7e710d208ff1dU, 0x6040af7dde4f7e8U, 0x400ed0debe209f0U, 0xe4e81809f7fdddecU,
  0xe7fa100ee6eefa0fU, 0xf3f112040c0edc07U, 0x7ede808fed72ae6U, 0xf3ff2afae90a0aecU,
  0xfbf6eef100d4fbdcU, 0xe0ef0cf6f3dde600U, 0xf010fa1af20bf2e1U, 0xdff10803f0f301f4U,
  0xee6ff07f4faecebU, 0xe5fefa06fdddf6f7U, 0xeefff607e1d007e6U, 0xf2fdf7f9fc0608fdU,
  0xea15fcfc05e609fcU, 0xffe310f0e70df7feU, 0xe8fb021cd4fef207U, 0xfedde9f8efeecee1U,
  0xdfe17fdea00dd00U, 0xcef9f60504e401ecU, 0xf4f1cbfdd40b07ecU, 0x4fac416f822f7feU,
  0x15ec0ffd1ac8fef8U, 0xddeb12ffeecef506U, 0xde050c182901e3d1U, 0x91d10ef13fbe7f7U,
  0xff9ea1315cc0804U, 0xb0df5f3d505e914U, 0xec0109fa0412effcU, 0xeb00f413f3f306eaU,
  0xf615f406fb17ec05U, 0xd2a05e6e7db06ecU, 0x30203e10eece6f9U, 0xd4fc1715c4f204f1U,
  0x1b28f0e3f6fae2f4U, 0xfef70eff020bdeeaU, 0x1fbf0040f0117efU, 0xf0e01225edce151eU,
  0xdee4f9ff08e0e9daU, 0x12606f3f7fc00ecU, 0xfdf8c3f9deffec02U, 0xfdfac9f5fbedc7f8U,
  0xfee3f117d404f5e7U, 0xf6eafd07f3ce13f2U, 0xb090b0ae206f104U, 0xfa0a1408c5e301f9U,
  0xfd0c08f4eafc080cU, 0xfbe1bc04fc16e4dcU, 0xfc0803f5f3f3f80eU, 0xdf9021603faf1f2U,
  0xfbfcf602fdebd6fcU, 0x6e6e1fb1eebf0e9U, 0x5e21ff743d904fdU, 0xfd10bbedfe0afbeeU,
  0xf9c218ffe9e4fc3cU, 0xf0faf30c2ae90ad3U, 0x7edf102e1f1000cU, 0xf9fd1306f1010b0cU,
  0xf0d2efda0908faf5U, 0xe1130300e0dc0f0dU, 0xf3012afbf3cfeaf7U, 0xfd001314f1fd230fU,
  0xfced27ebf7e10cd9U, 0x306f4f0080901c3U, 0xf9ef0129131cfd16U, 0xff1917cf17e91918U,
  0x70a0721f6db010bU, 0xf5e8012b061006e9U, 0xfdfaca1b060100e5U, 0x40ffcf1f0dfea27U,
  0xf4f7d905e602f8deU, 0xafe09e0211810e5U, 0x14f9f4f310e8fdeaU, 0xfcd2f71205eef605U,
  0x21091612f6ee05d2U, 0xfbffeaecf5f209ffU, 0x4e9f8ef08ebf017U, 0x607f6000afafddeU,
  0xf802e51117fd0409U, 0xfa0f049de906fef5U, 0x221f7e3f9f5cde0U, 0x13e11810fafc1302U,
  0xdf12f6fae3feec23U, 0xe9e7ff10e8211af2U, 0xfbe7fbdd02120914U, 0x2afbc8e9f50f0fe7U,
  0xf6fd06e4d9ce00e6U, 0xd9f306d100f7e01bU, 0xeb0c12fedfe8f8e8U, 0xfd09dd010a1cec08U,
  0xc7e7dd1224f7f8f5U, 0x19030df71df9df10U, 0xdcfb0deefa22231bU, 0xffd2120a03f71b06U,
  0xed061600f90e30f4U, 0xf22df71ae7e804e9U, 0xcda01fd07f30313U, 0x111123e20f0ef7f0U,
  0xf222f4e910cff210U, 0xe9faffec0dcc05e0U, 0xeafee9ee0ae2050cU, 0xbfea0c042718fd10U,
  0xf724ff0b11e5e6f5U, 0x23fced06090e2710U, 0xea180b14030af2f7U, 0xe3f2f2e1021ab90eU,
  0xafc19f122ff0700U, 0x1505e3cbe6f42ff7U, 0xeb2409f10fea19f8U, 0xfb0110f4fdff09f2U,
  0x14f50bd9fbec0625U, 0x81af6d8f5f0fcefU, 0xe7f9db04c7fde902U, 0x1e05dbe5cf060d2eU,
  0xce29f31cfd2d0ee5U, 0xf3e9150930e5fc02U, 0x310202faf6fce207U, 0xfe22e10bf6eef7feU,
  0xdfb23f2ddd7d70aU, 0x2009e9f8df171e00U, 0x901dddace050afeU, 0x29eef81ccb130b16U,
  0xf8dd2ac01fd82203U, 0x1924f213ef2101dcU, 0x310801170924dff9U, 0x30b25f733dc1df1U,
  0xfbe219eccff2df27U, 0x421090a42fc0fd4U, 0xfbda00f8c6010606U, 0xcd1fffcef1ea210eU,
  0x1bf1080fd313f302U, 0xeaf4f5f1faf9bd06U, 0xe5f2f41516170d0cU, 0xfcfe11e6fdfa01faU,
  0xeb10eb1217e5dddeU, 0xfc0af60e270cc6ffU, 0x1b051a1d1aebfffcU, 0xec0f04f011fa25eaU,
  0xd206db0cf80be701U, 0xfcfb01fa12ef101bU, 0x7fdb6fafa17ebU, 0x905e72805f0fcf9U,
  0xf1f200031915e6fcU, 0xf60df4f10afaf2feU, 0xd90109f207f6fcf2U, 0x7feedf0f9fb23faU,
  0x2ee09edfa02ef04U, 0x4e9fce6e604f6fdU, 0xdc06e7e91af9040bU, 0xe90604fe09ecee2aU,
  0x13f41af8f7fdfd0eU, 0xf71cfff8f5f0fdf4U, 0xf00d00f1fe02e5fcU, 0xedf6eff6f2fce908U,
  0x70903fee102dff4U, 0xf1f118ec0bfffbf2U, 0xee0d0105f80304dcU, 0x2f9fd07e41201e6U,
  0xfd0000051d100cf5U, 0xfcf511f710f703f1U, 0xe3f7dfed10f10c01U, 0xf2e4faf3f3ecf908U,
  0xf8e602eff4f6f0f9U, 0xf6fe03e5f6f6fc05U, 0xfb17eeefd7f8f7U, 0xf3eff304f6f8f902U,
  0x2f3f9f7f4f6ed10U, 0xff0901dddef8f0edU, 0x1e2f6f9e006ee0cU, 0xf1f5f032ea0afcedU,
  0xf1e8fef0e70ceaf8U, 0x1ffedef5f90af9f4U, 0x1f6fc0002fcf200U, 0x8f40411f4ece5e7U,
  0xbeae1f3e503efedU, 0x100601fc0001f60bU, 0xf6e7eefff713ef0cU, 0xf7fceff9ed08f7edU,
  0x16fdece304fbfb03U, 0xf4ea07e418e90207U, 0xf9e9f50817f0f708U, 0xf30cf31205f702faU,
  0xfce6f2dbecf6f107U, 0x1cfefdf4080bf1ddU, 0xf002f3e80401f711U, 0xe7edfcfff309f0f9U,
  0x7f1f4f4eef0121dU, 0xafa04f6ef15f80aU, 0xe90cfbf6fbe5fbf2U, 0xedf91801dcf70de3U,
  0xf5ffef0b03e4f5U, 0xf602faf200e90bf4U, 0xf8f6fb0401ebf508U, 0xf9edfa0ef3ea1305U,
  0x12070df6f4f2fbfeU, 0xfd2811e9e9ea08eaU, 0xebf6fff90afafce9U, 0xdec00f1f2fa0108U,
  0xf6f30be201ff0a0dU, 0xe8fc09031ff6ef0aU, 0x160b19f60409fff4U, 0xf101ee0bfee9faeeU,
  0xe07de01edfd0efdU, 0xf3fd00f402dffef2U, 0xf109f2f4d7fbf8eeU, 0xf2080c1101f2eeebU,
  0xff0a03fc03fff30eU, 0xf6fcfffa03f8f40eU, 0x60b0ddcfdf205ffU, 0xf22e410e9110bfaU,
  0x1000fffefffcf9f5U, 0x3ebf5f606fa0b0aU, 0xcfafcf503040af4U, 0xf702f6ff00eef5fdU,
  0xea0707f21fedf4fbU, 0x20fe04f701f40bf2U, 0x5ecffe6f30b06f5U, 0xf907fd08fbebea07U,
  0xf902f40310fbf608U, 0xf301e4fdfd15fe02U, 0xf8f908faee14021bU, 0x1fd0cf809fcf6faU,
  0x2efe9feebfbfe04U, 0xf1fe07ff04f80be7U, 0xe9fb07f30616fcf2U, 0xfd040602faf2ecf6U,
  0xebfc00e5fcf30004U, 0xf8e90be907fcf4ebU, 0xfd03e5f6fc0718f8U, 0x600e50af1f3f6f2U,
  0xdcf8f700f8fb0afcU, 0xf00a0804e8fa00ecU, 0xf40ce6f4f6f003feU, 0xfb0df10afefe19e7U,
  0x4e9faf4e6f1f7f2U, 0xf9061a00f2ed1811U, 0xf2f30804fafe0305U, 0xfb1bff01fdff06ebU,
  0xf500f8f9fbfafbf8U, 0x16f400faf2fff010U, 0xb0608f71404efe9U, 0xebfaf91ff0fbf7f1U,
  0xffeaeefae8f2fef4U, 0xec00fd0ce907f5ffU, 0x507eef7fffff006U, 0xea031f0400fff2fdU,
  0x1f5ef07040301efU, 0x800f5fe07fc01f6U, 0xff0f000b0211fb01U, 0xfcf1ed060502f6eaU,
  0xd0b0e010824f402U, 0xfb0bf2ea1007fb00U, 0xe20302fbfe0de9f0U, 0xf8fafbf6f4ea0700U,
  0x160901f8f5f6f8fbU, 0xfc0a1208f100fff2U, 0xebfd03f9ee0ce9f5U, 0x2fb03f2eb0cf60aU,
  0xf7fff3fcf30609ffU, 0xf7f50b05fe0e020eU, 0x61100000307f60bU, 0x702ee061405f506U,
  0xe6f216ec0308ef0aU, 0x8fceefe07edfafdU, 0xf0fdf1e8f9ff07f6U, 0xf50105fbecf9ff0eU,
  0xf9f1eff40002fc04U, 0x8fceef2fd08f3edU, 0xae8fb030801f710U, 0xd1609ec02fbf4edU,
  0xe18e7f609e5f1f7U, 0xfc21e827fa001c0bU, 0xfd0eec12fb1b01e5U, 0xe1de0919f4e9da04U,
  0xf0de0b18ff18df20U, 0xebfcf51a07ed0704U, 0xe512defcfae2e8dfU, 0x1ce80909190713fcU,
  0x3d8f7f4260015f6U, 0xe6e6ede6fa040deeU, 0x12dd05f1ebf00409U, 0xee06f10bf7ee03f3U,
  0xf9f5edf6ecd90cf3U, 0xe9efe7fa14f6290dU, 0xc02feefd811f41cU, 0xee0111e80ed806e5U,
  0x22fed91301f5e1d4U, 0x1f06281ef4ff17ddU, 0x5e7f305e51df7e6U, 0x7f70fe3f1fa0604U,
  0xbd0f30f13e9e7e6U, 0x1103fd25fd07f1edU, 0xfc01eff3f7190bddU, 0xf01705f6dee91bffU,
  0xcb01f6f617fef30aU, 0xf7fef5090f12ee20U, 0xf3f9120002e8e0feU, 0xeddbe627df09ceb9U,
  0xf3ffeef0f20bf9caU, 0xf2d312e5f910d209U, 0xf6f5e211f0e4081bU, 0x141424e5fbeffad7U,
  0xdde0eaf81ee500f3U, 0x12f6f40df3fdfedaU, 0x13d6e5faf7eed8d3U, 0xf02f0e0ebf900f6U,
  0x14091fe40015f8c8U, 0xeff10ce31c28f4f7U, 0x2b100afa060df301U, 0x12fbee0aded7cdf0U,
  0xf7ecf10cf713f8e8U, 0x3000bf12506f432U, 0x1e2f107fae80b24U, 0xfdfc0706f70ed1U,
  0xe1f9ece1e4f605d1U, 0x16dafd000501c3fbU, 0x4ff090ffff3fd08U, 0xedf605e9f00809cbU,
  0x260626fee803e8f8U, 0x71d17dae615d604U, 0xd9f4ed18f401ff0bU, 0xfc16031ef5f2eff2U,
  0xfe10eafa1f1aeef4U, 0xddd4edd3ffe105f6U, 0xdc1d00eb0a0831d6U, 0x140c1626f10302e8U,
  0xc0aeddd02e2102fU, 0x1309ece904f81defU, 0xf3f2f9f70a1cecdeU, 0xdc2d04fef812e6d9U,
  0xbffdeed00fafd1aU, 0x18fcefeb0ff7ecd2U, 0xd3fccc0a11f3e5ecU, 0xe80bf61c16fce810U,
  0xf803f411080efbf5U, 0x10cf2090306f3f9U, 0xeefe0823fdf10205U, 0xf4ddea03ff01ee0bU,
  0xeef40e0ff1efebfaU, 0x2e9200a01ee0fffU, 0xdf0af3fc0aeb02fbU, 0x5fff709f81e040bU,
  0xfbf717f2e907090fU, 0xfcf1f2f600f2fbe9U, 0xfaff0c14f9f0f503U, 0xf4f715f90ffefaffU,
  0xf300fbf200010509U, 0xfc02f4eefbfc0b06U, 0xefff003f406e501U, 0xf8f4ee05f9fa040bU,
  0x40003fdf5f7e813U, 0xfee8f70105eee4f4U, 0xf5fdf3010604e322U, 0xd9f90afdf7f3ef04U,
  0xecf7ec0507f3e6e2U, 0xf0ffd9f2fcf900ecU, 0xf4fbef0b0504f8f9U, 0xef00eef10815f5eaU,
  0x5e80ef8f6f0fce9U, 0xfaf700f4f2fef6f5U, 0xe8ffe7f5040003f9U, 0xf9fb110efd0c020dU,
  0xeff6f203ff03f2edU, 0xfe02f20ef2eef2f7U, 0xf8fb020ee40dfd0dU, 0x16f9fff6f80d1405U,
  0x903f60af1f9f308U, 0xf510010103f9f205U, 0x3ebfe0cfeee03f2U, 0x4fff31be6ee10eaU,
  0x407fe04f0040df4U, 0xeef9f20feb020702U, 0xf4f4f7e1f2030afdU, 0xbfdf101f610fd02U,
  0xf9eee7f1f1f3f0edU, 0xfbe8f90af9fa0f19U, 0x301f1e1fdf7eaf8U, 0x3fcefff04fbf00aU,
  0x130a09ffeef503f7U, 0x1fb06ecf008f204U, 0xebf304f2f2f6faf6U, 0xfe0c0603f7f7fefeU,
  0xfbfaeaf3fdef00feU, 0xd3e00df8fc03f7dcU, 0xf0e818f80410fb07U, 0xf7fa00e0f8e113e1U,
  0x6f50e01efddf204U, 0xf1e9ebef03f8f9faU, 0xebf6ebf8fe04f8efU, 0x21f7defdfefcdefcU,
  0x11f4f2f3e7f6fbU, 0x5f8fa02faed01faU, 0x10f8f5e9fd00fef8U, 0xe5efeefff6effffcU,
  0xe6eefc140ff0ebfaU, 0x1102e9f4fce400efU, 0xf0f504fbeef00df9U, 0xf8f70419f30eea0dU,
  0xfa00f5fefafdf909U, 0xfefaf9000403f8fdU, 0xfdf8f503f902fffeU, 0xfd0202fdfe01f70cU,
  0xfa020a0700f6fcffU, 0xfffbf80bfbfafefaU, 0x4f802fdfdfd0402U, 0x209fff701f80000U,
  0xfd0003fbfafffefbU, 0x4fdfdfb00100601U, 0x201fcfb00fb01fdU, 0xf9f7fa040206ff00U,
  0x1fdfefc0102f8ffU, 0xfbfc00f7fdfd00f8U, 0xfafcfbfb00fef8f6U, 0x404fbf9fd01fc01U,
  0xf80002fa03fbfb05U, 0xfdf6fcf9fbfef9ffU, 0x10401faffff0001U, 0x20bf9f900fd00faU,
  0x8fbfd0103fa01feU, 0x2fff7fe050601ffU, 0xfa00fbfb02fffffdU, 0x4fafe03fe01fefcU,
  0xfafefcfb01fbfffeU, 0xf902ff04fe0501faU, 0x5f9ff07fc04fef8U, 0xfbfd01fcfff701f7U,
  0x107fc00fc01f8feU, 0xfa00fe03fbfcfff5U, 0x402020308fa020fU, 0xfc01f90301f903f8U,
  0x2000400fcfc00f8U, 0x2fffdf50102faf7U, 0xfefc02fe02fc0401U, 0x1020601fd01f7f9U,
  0x2f6fd00fc0200faU, 0x9fcf9f8fef9f8feU, 0x8fcfb0303fefefaU, 0xfbf70a06f8fef9fbU,
  0xfa01fc03fafc00fcU, 0xfa07fe0bfc020102U, 0xfd0efdfff901fbf8U, 0x607f8f9fb000000U,
  0xfc03fb030001f601U, 0xfff6fbfbf9fb0201U, 0xfcfefd02fbfc05fbU, 0x3f4f9fbfb030000U,
  0xf4f6fbfcfff8020aU, 0xfe02fefe0102f9fcU, 0xf9f705fa02f8fbfeU, 0x5fafefe00fd0302U,
  0xf9fff8fe00fffb02U, 0xfcfefc04fef8f7f6U, 0xfe010ffb06fe00fbU, 0xfb00fbf703fbfaffU,
  0xfc00f6fcf8fbfa01U, 0xfcfe03fc040306f3U, 0x2020205fcfffcf8U, 0xfdf805fefafefe02U,
  0x1fcf9020100f9ffU, 0xf7f9fffa06f702U, 0xfcfef9fdff0601fcU, 0xfd0006fa0303U,
  0x8f00508f000ed1eU, 0xf505fd22e3e1f4bcU, 0x1512e72d06ee1ecdU, 0x4fbf20ed805e502U,
  0xcd06fd1bfbc41f01U, 0xfe1fecfe1613d23dU, 0xfaf90a17af01cdecU, 0xeff9ea1e0ef70fdcU,
  0xfeded60217eaf60aU, 0xf2beeaf5f9e6f40cU, 0xedd7dd110320e9d1U, 0x17e600aa1e011705U,
  0x180b060d1611f1faU, 0xfaf3fef71609f1dcU, 0xf816d739e127e003U, 0x821f60b47f0e1ffU,
  0xf7b510d320ebbbf3U, 0xfe05e6f30ff9fceaU, 0x23f736feff26db0aU, 0xbf11fdf3de2207deU,
  0xf0eaf90e00f4f7f1U, 0x28fff90921f800e6U, 0x36e50ef6f904d40eU, 0xebfc09eae1f32c13U,
  0xf5edfe12131601c4U, 0xfbc0effc05eb30f8U, 0xec190b15e3e41d08U, 0xfdfddbf5edbe0105U,
  0xf4ecf9e90f33e9d2U, 0x2e3eb0af40bed1bU, 0x2ee6def3bce513eaU, 0xfd25c0de1c2bebffU,
  0xf5f0e4f20515e702U, 0xc00c7ddcafd06d0U, 0x2c12db070002e105U, 0x19e602cc051c0301U,
  0xfacf22f0f4bf06edU, 0x70df412131aed20U, 0xf9fb08d72004ecdeU, 0x14ea0ff621fef109U,
  0xe818e608e4d6f3bcU, 0x1914f2fa0513edd6U, 0x27f5041cef15eef8U, 0x80d04c7f0e5eee4U,
  0xe7fd15ef1615d8d1U, 0xd2fad7faffe708f4U, 0x12db1212fa0ef2f7U, 0xe910f2d4011023e6U,
  0x1edbea1cff18f4f3U, 0x1cf5dc20fdfd3105U, 0xf4d807e4f60dfdeeU, 0xea06ca1be5c8cfd7U,
  0xe70eedd4e2f8e6cbU, 0x17d115fc0fed1d3dU, 0x5ddf610c916dcf3U, 0xee00f5c714020cd9U,
  0xe7f60c1208fe19d5U, 0xd6d8f800162801f5U, 0xd00dd1f701f7f8edU, 0xf709090410da0fefU,
  0xf80d06d709f3d3eeU, 0x1215f308e7fde4f7U, 0xe90b1cf215f400f0U, 0x4f0dbf0e2e8e404U,
  0x133de107eaf7fbf6U, 0xe305eff109e519U, 0xf90acf2bf613f7d9U, 0xcf06151125e42808U,
  0xf7defb152902b218U, 0x41d160e0e0912eeU, 0x35f10205cd1609f4U, 0xe1f40cdf13e508f2U,
  0xcf06fbfdfd0a1ff7U, 0x23f3f9f2f215c616U, 0x80900e8e7e0f10dU, 0xe3d9eaede62afc23U,
  0xcf1803fd0506f115U, 0xfbf9102b1ce6e7e9U, 0x2ede08fbe9eb03d1U, 0xdbe4e602c91a0729U,
  0xf1f613dfffcbc4ecU, 0xfdf51203fd18cfeeU, 0xc803f703eef6d3e4U, 0xf0fd0d0fef0e11f8U,
  0xfef0ed2f0ec50807U, 0xe3e3fd2506f815e3U, 0x10110bf4bbd80004U, 0xef4d005f8f7e0U,
  0xfbef11ff010932f2U, 0x26fcc9c8f3e60122U, 0xe10b20f0fed44624U, 0xfb060ac913c6faebU,
  0xf4fb15c50d0522f5U, 0xcd35181dfef202eeU, 0xf60de7f8e6e10edeU, 0xff11fff50d162124U,
  0x16dc03f6e007d006U, 0xe2182107dbee3513U, 0x32b920f0d6e20d18U, 0xb1eeedb1cd9U,
  0x34ed08252fd9d1c4U, 0xf4e8f437e1e50a0dU, 0xd3e4fdcdfe021e1bU, 0x1e1e150a0e0cf301U,
  0x4f9c9ee07e02aedU, 0xf918c9f90efbe6eeU, 0x1c07040240e6ef11U, 0xe50cb2f2f90db08eU,
  0xcf13fa0621f3fc08U, 0xdfeb172fe34404fdU, 0xfbff0b1207f626e9U, 0xe1e605e20f0309daU,
  0xf9ebc0f4ecf3f1f4U, 0x7f817032ef50f0dU, 0x2cfd040c021313d5U, 0xf30806001912eaefU,
  0x10fbf5f6bf0b0705U, 0x1ea1827e8ce02d8U, 0x1223ebd7f620e8dfU, 0x1e0812ef03f4f20eU,
  0xf6f2fdeec9e6c2U, 0xf6f3f8f3dac7fcf5U, 0x21fb292b11162ef2U, 0xc100f101e7d40816U,
  0xf03dfa0def10fbdeU, 0x4217350d0aedbb01U, 0x1c02f2ff0f26f21aU, 0xe804db17efc8dde9U,
  0x1dfdfa0bf2080c0dU, 0xe0fcf20a09f80c14U, 0x5e7030e080cf0deU, 0x1d50e0d070605efU,
  0x9e5ee38f11adbf5U, 0x7e5d9fa1bfcfe07U, 0x7f70806fd0d0fe3U, 0xed13fa020ee605f6U,
  0xf91316e3f5d0edf4U, 0xfdf714f4ddee0f0aU, 0xf0cfdae413ce13f5U, 0xfe1efcf20d1ce7e6U,
  0xf7f00f0ee5f9d711U, 0x1706f80001fcfb03U, 0xf40a23fd12f61bf4U, 0xfe8f8e6f51bf9dbU,
  0xfdf8ff22d90bd70fU, 0xbbf60cfdcaecee0fU, 0xe0ed1318f5faf2e2U, 0x131ff6fdfef2f22fU,
  0xf9fcf701f4c6f918U, 0xf002f418fbd1f80aU, 0xe9f2e508eef6fd10U, 0x14d620e8de1018f2U,
  0xf705f5c605edf20eU, 0x192cf3041ad3f0f3U, 0xeb15dafdcef8d709U, 0x4f2db0709fc0c06U,
  0x1405ec0101faecf5U, 0xebfae2f30d0a0703U, 0xf30aeffaf21107faU, 0xf10f00fffe18d5U,
  0xeaeb04fe02ff00faU, 0xefe3f0dae5e000d8U, 0xe91102ebf8ecfdf9U, 0xeffde40009d810eaU,
  0xee2f30aeef5f81fU, 0x1bef07000b06f2edU, 0x80febe0f810de0bU, 0xea16eff1ec0cebe3U,
  0xe20700e917edeae2U, 0x14d9f1f32ef9ed0bU, 0x1d3e8f70eefe303U, 0xfef707f60aeb030cU,
  0xf8cae7f0fa0af6f8U, 0xf4dc1cd3fd0d1cf6U, 0xf9fa011f0905ee0fU, 0xe604d8213b14ffe2U,
  0xf3f51c0c02e502c7U, 0xe5f4010ceb0e24U, 0xf50bf00ff00601c2U, 0xd11224ee060ded00U,
  0xee0cecfe0be8020aU, 0xf2f3ee29f209dadeU, 0xc1cf91af70902c4U, 0xe0caecd8d30118fbU,
  0xdbe9f9f7f2e4fbe4U, 0xf8fb1bfa0b00ed15U, 0xfdf6e41c1f2b0ffdU, 0xc0ef5f5f1fdfb0bU,
  0xe825faf3ecca0fe4U, 0x15ddf6fce20af503U, 0xefec0013e5e800ffU, 0x607221d1d05fcd2U,
  0xf71bfdc6211d11c1U, 0x161d22e001d7dff9U, 0xf1040d2aeaf2f0e7U, 0x290d15f621230213U,
  0xe2d2e5e9dd032026U, 0xedee6030521c602U, 0xbd6e90bfd1401e9U, 0xe5dedbd804f92cefU,
  0xfcd119e612ed3f04U, 0x1009f6021dfdf0e5U, 0x1713e9ee18f30530U, 0xdce2cdf3dc03f9faU,
  0xd1f795ee14e0fe08U, 0xefcec92305f6e21eU, 0x13e1e8d8082deff2U, 0xfee6010511071210U,
  0xfa02f4edf43219f2U, 0xfa17fd18e6f32402U, 0x18f80ee817fd0f14U, 0xe903fcf8e1cbf819U,
  0xfc38f3c6181ee4d0U, 0xb070c15f21926fdU, 0x13de1924f0fe0600U, 0xc3f3190214060f01U,
  0x101d172f3005e710U, 0xeb03ed02d0fbff26U, 0xb60a02d2d418272eU, 0xf7adedc811f6e716U,
  0xd20e13d70202d505U, 0x27e9101221c4f327U, 0x3f6efdb0fe42bb9U, 0xcfeff12a02b91cebU,
  0x2a1be5fdd6d1d7d5U, 0xfdf8c8e2012004ecU, 0xf7dcd71eedfa0522U, 0xeddcd3c20b0bbdccU,
  0xc90cdb0c27fcfaffU, 0xd7b428e6e1e9ffd6U, 0xe3f4ebf2dfff0111U, 0xef13e8b51902e700U,
  0xed91be4f6f9eb03U, 0x1bfc1a1317f6d502U, 0x6fe29df17f0ef14U, 0xd72002e1cd18db29U,
  0x218d4e2dd25eec7U, 0xe9d7d9e70a112049U, 0xc9020ad8e7e1ecfbU, 0xf7cd3e0b04c60ff5U,
  0xf5dc02f816fe0924U, 0xfe13fefbee130d0fU, 0x160a460601eff5edU, 0xc79e13c50e02fdecU,
  0x1b2c2014fcddba11U, 0x310d915fff2a5edU, 0xf5ecc3e1cee9cffeU, 0xdf011e03fa2802e9U,
  0x142ac610fa02e5e6U, 0xdcff02e4f6f8f8e4U, 0xd3e8ecd31c0511faU, 0xf7dcfc1824cccfefU,
  0xfa1a030e15fe1ef7U, 0xf51b30bb15ec3cf1U, 0xcdfc39080216dff3U, 0xf31716041bccfe1dU,
  0x2bdf9e2d6fc07daU, 0xf104f9fcfce2dae1U, 0xa02291000f0fdfaU, 0xeb0c181ed900ed0aU,
  0xd4aa172c03ead4caU, 0xfaf6020fece1fc35U, 0xfbeb2c06250f10f0U, 0xd3df220b2f0fec0cU,
  0x5ea25d5f3eeece7U, 0x6280c1e01f5fe00U, 0xcef8020f150ee426U, 0xdb1016e305e72806U,
  0xeaedeb080b01ebe8U, 0xfc0efddbcecc0bf0U, 0xf5fadc02fc03dcf6U, 0xe0fc0aece9f00a17U,
  0xb03f2ebff180511U, 0x23f5241beb0addd0U, 0x44fe4413fc0f2102U, 0x28e4f0dafbd2ceeaU,
  0xdf4dffb02cbfa26U, 0x9c9c6b7fefc121cU, 0xf102eaf713ef0bf6U, 0xc5fb0b2e1503fbd2U,
  0xce02fde40ff1efe3U, 0xd90af91004051ce3U, 0x4f1d9eeff01ea06U, 0x5140f00ccf2defaU,
  0xe0e31117eef51524U, 0x1c36f4cdf7e8ef12U, 0x80614f02917ed26U, 0x11afce00c02f7c6U,
  0xf7202cefffff0501U, 0xfad035fd1315e9daU, 0xd8e3fafdd5faf80eU, 0xe5cef51914dcfd0cU,
  0x18100401f9e40210U, 0xcbec10de1907e015U, 0xfb04dd251e16eae8U, 0xf727fee508f1080fU,
  0x4ee12f60a0d04e8U, 0x435fcd9030b0bf9U, 0xeef212d9f10ef7efU, 0xf1d9dfca25d6e60aU,
  0x117ffffe221f0f5U, 0xc601fdfdfd1bf609U, 0xfdd00405db16e0dfU, 0x1604fbebbfefe2a8U,
  0xd4d201e9fa15fd12U, 0xf50a0f1627e32ffbU, 0x32f9f11616bdec11U, 0x100debcd03ea04daU,
  0x7e8d831e9000cbeU, 0xc815220005eff2f5U, 0xd8e4e9d7d4ec10f4U, 0x1ae3e722f4e9f8f1U,
  0x1ef0d7dbeeef0f02U, 0xfdd1dd11dd12d21fU, 0x108f1e6020413f9U, 0xe728181715e21ee1U,
  0x131601042de7f1b5U, 0x2e2df0e2ddfbee25U, 0x51afb2c0008e3cfU, 0xfbad0ee41de5f3f6U,
  0x8e1083addf8fa01U, 0xfc0c1ffedf28d8fcU, 0xf5f7f5f3f7e400f4U, 0x22e7fef9041801c7U,
  0xc12f3e0d605f803U, 0xe61cfa0d0505f307U, 0xe713fdecdff800e6U, 0xe2f2c1f7e0fdffe5U,
  0xfbf2f009050af8e1U, 0x70720ed02022114U, 0xf112eef605060ab3U, 0x152dd115120e1df0U,
  0x114e9070207f5f8U, 0xf13d17d5dd27f908U, 0xe1f022e71be0f9f1U, 0xd9e8d6d3ddfee6ecU,
  0x1da190d18ebeb27U, 0xfe09f4071810eff2U, 0xe4eaf91cf5ea13cbU, 0x221228dffb0314e0U,
  0xee5ea111d1a0b0aU, 0xf8c6f91613fc05edU, 0xedeae4c3fab004dfU, 0xfcf00ef6fef915cdU,
  0x1c06fc19f61001e0U, 0x1e0201e6e0fffb1eU, 0xeb0511d9e820f8e9U, 0xeebf6efe2df1003U,
  0x31e3ede034df1dU, 0xecf30d1cf2eef3f1U, 0xeadaf1f8e9f60102U, 0xe6ef013123f6f522U,
  0xe60a01edf90c02ccU, 0x10ae6eeedfed60aU, 0xf707fd0aef02fa26U, 0x12fd080207f4f905U,
  0xf4122212fcfdef0fU, 0x1af1ffeb18e6f7fcU, 0xd6e810d6edf207e9U, 0x80ce9f01a14fcebU,
  0x236f6f506f7fe0dU, 0xf00e0fddfef2f9f8U, 0xeaf601fcd7fc0ed7U, 0xd00ffcf0dfe0de4U,
  0xeae6f1f30d10ef08U, 0xe9e9f0fcf1c7fefbU, 0x8fe07020be205f6U, 0xf6e8dff90305f200U,
  0xfaf5031d01e9edfeU, 0xf4b6fc02fd07e9e4U, 0xd902e71decf8dfe7U, 0xafae2f4e9f6f30eU,
  0xf2dfe606f7fee8caU, 0xd6f8ec011514fbf2U, 0x1d6100700f8fde5U, 0xf2f3ffe0f5f3f1fdU,
  0xfaedf91110ff07f3U, 0xdf806edf2f405eeU, 0xcdf505f2cbf9f9c5U, 0xe5031efe01f8f703U,
  0xdf21ffff15f70223U, 0xf102f318cbe53402U, 0x60ded1619f9f5e7U, 0xe111ea0211f002f5U,
  0xffe0e502a617efffU, 0xf32ec8fc0608f7ceU, 0xf009ede735fd04e3U, 0x1d16f91310ef1827U,
  0x14240921e8cc1e09U, 0xea20cc0e23141d10U, 0x1041723e401c202U, 0x37f04414ef1721e6U,
  0xcdd4c4030d03e4d8U, 0xfe91109f808e3f6U, 0x17f3cefceef5eef4U, 0x311decfadd0a0c26U,
  0xeaf73101021cfffdU, 0x3e70f25fa0adbfaU, 0x12ebfa1415ece208U, 0xedee0d000a21ece7U,
  0x11032bc60217e00eU, 0x6000c050af6feedU, 0xfbfcec2ae508fdf9U, 0xf51020fa0d09ffbeU,
  0x2506df0623ee04caU, 0x70825ec01bd1a0cU, 0xfff0ef012e00244U, 0xfe05dcd7b3210308U,
  0x19edc2f1f23e0c0aU, 0x7f21ed7ef10fd24U, 0xe10206f728fcba0eU, 0x6edef26fbbff00fU,
  0x424f8f10fd101faU, 0xfcc305e5edfc32d2U, 0xfd070505de222afeU, 0x201da3f7fbc8e2fcU,
  0xcdeab9eefc3b09faU, 0xec1c0a10242d0cfaU, 0x62f09e7f6f01315U, 0x1434fa34f9e2e0e3U,
  0xbfc00e61411d419U, 0xf5ef04edf8f4e104U, 0xe1fbd4e514e7f6e5U, 0x112efec2e7e018f4U,
  0xfadc0e0ce711f629U, 0xe30916de151b1fcaU, 0x19e4041307ed0eU, 0x331609d0eeebe0f7U,
  0x8f60ef63f2709f3U, 0xdbf0e4f0f905dd16U, 0xdac3e3ff24ec1d09U, 0x270afe071012dacdU,
  0xc2cf00ec250127fbU, 0x15f3df1015001ffeU, 0x205e918fbcdddU, 0xf519201e13f8f302U,
  0x2010fbe9b6151e1dU, 0xddecd5c60ee319f5U, 0xeef6d1fdf7fe10e8U, 0xd5e6c011f1fef004U,
  0xfd14f9faccdbf5eaU, 0x330409d814e70df4U, 0xe6d6ca18dce5fd13U, 0x38160f08dfe30de7U,
  0x2110cdfb00000dd9U, 0x2802ec17c11204eaU, 0xd007fe1606ef0c24U, 0xf9df0818fd20f710U,
  0xadfeafa0ae8f9f8U, 0xfdffcafc00e400ecU, 0xde08effce9f1ea04U, 0x12010fd71dd9f216U,
  0xe8d9d4f6dd1609eaU, 0x6130e030c0efdfdU, 0x80017f008081cdeU, 0xd10dce1fdeffb01U,
  0xfc0212f707e60f12U, 0x2f5c600eb05f7d3U, 0xfc1de8f70be4e411U, 0xd2d5f2f7e60c06ffU,
  0xf61de40ce30cef0bU, 0xf1cfead70ddff1fcU, 0xd81a0ceeece3eaf2U, 0xf3e1fcefeafee2e2U,
  0xefd8f605fc14fcebU, 0x1f805f616f8fdecU, 0xfb0be0f209f420f4U, 0x5ee04f7eb030003U,
  0xd7fb0df3ffe6e8edU, 0xefe7f3e3dee51106U, 0xcafbf9f8f10b04dbU, 0xef1b06ebf4f9ee12U,
  0xf7fe02f6e800fc10U, 0x18f6e2d4e8ef0f06U, 0xf8f809edf504e1e2U, 0x16fceafaeee5eafcU,
  0xe319fef6f8fdf4f5U, 0xf0bf3d511f1faf3U, 0xe7fad3fbfdef0c0bU, 0xbf3f11b05e8fdf4U,
  0xf00fe3f9e8f304faU, 0xa11e5f800ddecf2U, 0xec10f1eee02204f7U, 0xe9f4f406eb04e01dU,
  0xe4fbece5eb0efbfcU, 0xf5e6201cf5ededf5U, 0xfbeee20d2111eb0aU, 0xf30aef2d100d1911U,
  0xdf1ebf716f9feedU, 0xf1f20bf6f6f0f5ebU, 0xeee8e7faf0d0ee18U, 0xf3eb1ceef4110001U,
  0x5e803ffeaf1f801U, 0xf50e030011072400U, 0xe41bd2edfadee811U, 0xe3f20e1104f70aedU,
  0x1fff0f00211fd09U, 0x13ece9f6ebea1105U, 0xe0eb03f4ecfbe8f7U, 0xfce9110be704180aU,
  0xd01eae5f80ddbd1U, 0x4f9e1fff105f707U, 0xfde17f012f5ebeeU, 0xff14ffece3e904daU,
  0xfc160a0df1e705ffU, 0xfe0ef802edf8e815U, 0x41527e4f403e8f9U, 0xfef5ee1d0021021aU,
  0xfcf6f5fdee2013f2U, 0xf5f8090ff807f4d9U, 0x100307f90b04f013U, 0x6fdeff0e9eceaeeU,
  0x19dbedf9ebf4fadcU, 0x120ff402f5e1cbf7U, 0xf13fe04f903fde3U, 0xdaf213f2f3fffaf4U,
  0xcec15f41d12f3eaU, 0xb0eededf20beff9U, 0xcdf830e40f2dfd05U, 0xc9e4ecebfaf1f3dbU,
  0xffee0ffd020015efU, 0x3e1e6190500020bU, 0xf9010318011d2519U, 0xfcef1d090dfa0b06U,
  0xccddf3f305f8f8f2U, 0x1d609f0e40ae90bU, 0xef702f8f2e8ed09U, 0xdfed1b08ece2e0edU,
  0xed19f8faeafffb0cU, 0xe9170d01e71af2fcU, 0xf50be512f000fdf3U, 0xece0def7f5f0070cU,
  0xd81ae902f4ebf6feU, 0xfdf6f405021a150bU, 0xfedc0205051218f0U, 0xfe01ef1004f7f9ebU,
  0xff01e7e6d9fdfdeeU, 0xf20609f4f11ee9ecU, 0xebebeaf2f8e5eb20U, 0xf8fbecebf5031515U,
  0xe218e8f8f810dfdaU, 0x30fe8f1eefb1412U, 0xfaf222efefece5faU, 0x14eaedfbf810ef01U,
  0xdfea0805ff000d0fU, 0xfafb17fbe813e6ffU, 0xf30b2e2a08ebf314U, 0xfdf40e0f20fa0cc3U,
  0xfddaf51ad9d701f5U, 0xf2dcf4eaed0cfe08U, 0xeeee1004fa01d9e4U, 0x18f1fdfb12f9f2ffU,
  0xe3f719ddf403060fU, 0xfd180a0102e8e2eaU, 0xfff9fff714f401d8U, 0xfe04d3eb03ff24e4U,
  0xfd0901f0e6f9f7e9U, 0x1afefeed04eedee9U, 0x8fa03e1dff5ebf5U, 0xd8121807f2f7fdf9U,
  0xdf50a03e1f4e8fbU, 0x15e4ed09cd04e6f8U, 0x2d20e812ec05fff7U, 0x13e7fdf5e9f0e7U,
  0xf009ebf3fff9dcfaU, 0xffe2f2fefb2afd09U, 0xd08001228f3c009U, 0xda0c001b03e8e821U,
  0xeeeff912fefbeddaU, 0xfdbfee9ff0903ffU, 0xfeb06eb0ef1e5fbU, 0x1fddd0419fef8e9U,
  0xf4e0e0eb0c12fed7U, 0xf7f6fa0901e1fafcU, 0xf5f6deeff2fcffeeU, 0xfbf6e7f0e7fbf4d9U,
  0x2e6f9d0f9dcfaecU, 0xf9cd1500e82601f3U, 0xe2f0e1f704fbdef9U, 0x203f1f1f7dc1603U,
  0xd090dd2f420ebf8U, 0x2302cd060002ea0aU, 0x121c11ca1bf215e0U, 0xe6f6fdf5f2df10e8U,
  0x1229f910fdff070fU, 0xdce517f31b0701f2U, 0x3fcfdf6f7f9f304U, 0x190ae7e6f601cfe4U,
  0xfede12f52deddcf7U, 0xfb140ae5e4e20dcdU, 0x10f7fcfde1f8f2e8U, 0xe8d7f2fdd30fde26U,
  0x1cf050211fbec0eU, 0x1f10ef1110f0ac3U, 0xdff9e3eef9f4fd07U, 0xce7f326ea1df3eaU,
  0xe09effce1e70f21U, 0xfbfdd2eed120f0f8U, 0xeef7ede6fbdd17faU, 0x3f4dbf506ebe3ecU,
  0x251707ef0cd8182aU, 0xf7d3feceee0cdb0bU, 0xe30dd204eaf0fc03U, 0x11f9f3f305dbdafeU,
  0xd91cd012040b1c21U, 0xf303fe09f81ee907U, 0xf0eb23ee060b2309U, 0xfee7f809e7191efaU,
  0xf7f4151022f1e1f3U, 0xff051cf8e9e504daU, 0xffec2df8fc041223U, 0xfbfff815f512e622U,
  0x15100317e6f11a06U, 0x2fe9e129f40bf7e1U, 0x704231d11f9eef0U, 0x40714e8df0b0d0eU,
  0xf51b04241d020e11U, 0xc7e506f1d7e5f0fcU, 0xfacddbe1fe001324U, 0x907dc21e1f7f115U,
  0xdd0efef809de08f2U, 0xecf50903ddf4fcddU, 0x250df902e910dde8U, 0xe104f6000d0fec19U,
  0xc7defa1110dafc00U, 0x22f107e310e8f9f0U, 0xd0df00df01cb1316U, 0xf202f80802d510e6U,
  0xe01ffbdaf6fe2813U, 0x1f0f3130206161aU, 0xc12eef61be0b807U, 0xfafbfde1dcf3efeeU,
  0x10ebecf5122410ffU, 0xe80812d60bf6cd0eU, 0xd7f6fbe403060ee1U, 0xfd619f5e90507e3U,
  0x240be8f7f00402e3U, 0x9ea1001f4ff0b03U, 0xffeefdf41f1dee1bU, 0xfff00610eef3f4e7U,
  0x61309e3effef724U, 0xf61003f9e6d90a08U, 0xfa0ef8e3fafe2002U, 0xf4f7e525dbfcf916U,
  0xf31ceaf8efebfa0bU, 0xc1cfafae714100eU, 0x1601190a04efe6feU, 0xedeffde31304e402U,
  0x90bf6f20301f4deU, 0xcbedeaf7e516f7f7U, 0xfafefef2edf7ee17U, 0x2dcd1eed1cef07f6U,
  0xaee1301f4e6fd13U, 0xf2eff9fd09e7df05U, 0x1fe5270c02171e02U, 0xf4f927050001ee03U,
  0xe3e6f7e2dd080301U, 0xe403e4e8e1dd0523U, 0xf9070cf4f3e5f517U, 0xff04ec0cdf07db0aU,
  0x1cfc0e07f619f3f1U, 0x5f117f7e6ecfd09U, 0xeb01fbf9f1e0faf2U, 0x150605e900d40cffU,
  0xaec0100fb15d1f2U, 0xe0fde8fee102dee9U, 0xfd14d5f7081afa07U, 0x1f0bf7ecdd1ae1U,
  0x5e8f5d0f2f5dcecU, 0x17ee16f31111e317U, 0xeaf50bfc0f03f8e8U, 0xec03f606ff0adb0bU,
  0x111eef723e0ff05U, 0xe2171b05e2eee40fU, 0xe0f1fd0808f1d91aU, 0xeaf0edede1f6f522U,
  0xe902ddfffb08f1e3U, 0xe7f5f6f6fdf213d2U, 0xcfadf21012324ecU, 0xe1f40a03e203e6ddU,
  0x6e7dde0e0fdf9f0U, 0xe20300f30fefe906U, 0xe7d7f1e6e8f0fccaU, 0xf8f81007f1ef0cf4U,
  0x3e7ebf1f8e1e7eaU, 0x14f8fcf70c14f0fcU, 0xe9f3f8fd16e90008U, 0x2f4f90bffd00700U,
  0x1ef3eafd10d9dfd4U, 0x3e0d6fafbf8ea06U, 0xf9e7f5f302f601d9U, 0xeb141dffdbe2fdU,
  0xef05040ce2f3ee00U, 0xe1300ae1ef0b0101U, 0xbfc1217f4e912f2U, 0xfefd18d8e9e10b0bU,
  0x13fdf913080d0c08U, 0xf6f913fe1325effeU, 0xf312d6f20310fbe3U, 0xfc0f03e1d206d8ffU,
  0xd7f3fa04d4e9f221U, 0x11ccdbf50de2e6deU, 0xc0afaf513111fe7U, 0xdff6e8f515f2fe0aU,
  0xf9fffd00fcfa05faU, 0xf9fbfcff04030201U, 0x105ff04fd0503fcU, 0x3fd0601fd04fffeU,
  0xff0600fffbfbfefcU, 0xf902fffcfafdf903U, 0xfe03fc01fafcfefeU, 0x50100fef80104U,
  0xfcffff0202fcfe00U, 0x8fbfefe00040501U, 0x100fcfcff00feU, 0xf804fefd00fc00U,
  0x301fbff02fe0703U, 0xfbfd0303fbff01f9U, 0xfd0202fafb00fe05U, 0xfe02fdfefd010300U,
  0xfd02fffffef9feU, 0xfb04010400fcfe06U, 0x4f9fefbfcfefdfcU, 0x3fc0002fe01U,
  0xfe06fd05fafe00fbU, 0xfefefd0101fdf900U, 0xfffffd0203fb03ffU, 0xfe0003fd01fbfe03U,
  0xfb0503040301ffU, 0x1ff010303fefc04U, 0xfe02fdfc04fe06ffU, 0xfdfbfd04fa0500f9U,
  0xfb00fa0200fd04f9U, 0xfefdfdf90209fbU, 0x200fdfefc0008U, 0xfa0201fe00fafa03U,
  0x5fef8fcfa01fa06U, 0xfa0101fbfb010506U, 0x2010001fe0400fcU, 0x904fb01fcfbfb00U,
  0xf800fe0005fbfcf9U, 0xfefffc02fff903fdU, 0x200fffdfffe01ffU, 0xf801fefc010000U,
  0x2040000fbfd01ffU, 0x400fe04fdfbfe06U, 0xfcf9f901fa02feU, 0xfe02fa02fdfa00f9U,
  0xfcfdf90107f9f8faU, 0xfcfefd00f8fc0300U, 0xfe05fc0502060504U, 0xfdfe00fcf9faf8feU,
  0xfc03fb0005010208U, 0x1fb07fcfafdfbffU, 0xfe0505fefbfff8ffU, 0xfbfcf803ff03ff01U,
  0xfefe00ff00fc0904U, 0xfcfbfafa00fc02ffU, 0xfcfd06fb0506fd00U, 0xfc010300fefffffbU,
  0xfdf9fa02fb02fe02U, 0xfc01fdff05fe00faU, 0xffff0103fdfe06U, 0xfd01000205ff0001U,
  0xfcfdfffefdfefdffU, 0x2fb02f901fa02U, 0xfb06fdfef90204U, 0x1ff01fe00fd0001U,
  0xbe5092509f1e7f3U, 0xfe040518ff1aefe1U, 0xfbeff2190411f80dU, 0xde50f17f61aeeedU,
  0xf4e1061701bf0aecU, 0x10a13f71ee4adf4U, 0xf009f923f01e04deU, 0xeaf3050ce726d506U,
  0xfafc09eaf5f2f0U, 0xedf1ef00120e1de2U, 0xee0d06f8f6fd06f3U, 0x10fbf4e8e8dc05feU,
  0xf64910efdef90606U, 0xd4c71a050df613ffU, 0xf20a1f0bf1ecf1fcU, 0xf5c4ed01edfbef1bU,
  0xee0606e217ecfbbcU, 0xf1df000a00f3dfebU, 0xdfd0d030fe702f8U, 0xedfcf70af4f0fcf6U,
  0xef0ce4f0fee111dcU, 0x23dee2f2e8060000U, 0xff110e2b1afffffeU, 0xe3feece800fefef9U,
  0xf9fc0d1005fbced8U, 0xec0702fff1e708f5U, 0xdffc1afeeb120b01U, 0x3fdf4e6fcefea21U,
  0xedc9e2e00503dee2U, 0xebebf9e50117f131U, 0xdbea06fc0ef6f738U, 0x1d15eeed0d19c511U,
  0x12f007dc0be2f818U, 0xfde301f1ff0c16ffU, 0xe619fd0bf6e6feceU, 0x322f90b04d4f5fdU,
  0x7f7fa060cdd1debU, 0xf8fbf5f6f603f0fdU, 0xffdf9f6eceaf023U, 0x12f7d41007fc16f5U,
  0xed06f6fee12610ffU, 0x1b0bc5f807e503e0U, 0xede3171302e2dbe6U, 0xf0b141504f10909U,
  0xfcfc0cf10906b10aU, 0xe2021006041af500U, 0x29e3fbeef2ddeb0cU, 0xfb0e001af4f5def4U,
  0xf2e7060fcc22e2efU, 0xfde9f302d7f10cffU, 0x110bf4d4e0ef000cU, 0xfdf8edf50f171410U,
  0xf7e4ed0607cefbefU, 0x903d6be04fdf506U, 0xe8e91601f4f317faU, 0xaca0809ea00f009U,
  0x2f4faf9f60ef513U, 0xfadeeafffefeed06U, 0x30910f8f7f8180eU, 0x6f9ef1b2bedf3deU,
  0xef08f2f921dff4c7U, 0xc7edee17e414d1f6U, 0xede0ebf8e010dfdcU, 0xfe1eeef70fca0a15U,
  0x1603b61c00d405deU, 0xe5f4fde1d915f23bU, 0xdb0bfaddceec0adbU, 0x2be70cff18b8d606U,
  0xecfbdff7c30017edU, 0xc1e604e9f1f7e8c7U, 0x240dede7f8f6030fU, 0xd03f1f5f72608d1U,
  0xb3eda0c15bedd34U, 0xf5fa12ce17e3ff19U, 0xedfaf2070bdaecf7U, 0x1a0afbcb21103ecdU,
  0xfdedeede12071092U, 0x143309e8fae9fadcU, 0x6ef2502ef1fd32bU, 0xfe14fe0e380c0216U,
  0x1723ebe84f0b190cU, 0xe40206f6fcd1bf00U, 0xe2f5e1e5e1db3718U, 0xcee2e7f1f4efef32U,
  0xf7d5ff10f60313d9U, 0x152a0dec1b1cc7e3U, 0xf8ef300605f53102U, 0xb2819f615f110fbU,
  0xfff9de2204fef1f6U, 0x17d80613d310ef35U, 0x20020c0b01f21db1U, 0xf8daabe702eaee0dU,
  0xdada1b0fda260ef0U, 0x202de1ee007e531U, 0xad20f50a100ff7fdU, 0xf9d0030313ffc113U,
  0x1ef50afb2efcf4caU, 0x704f825f4e404f8U, 0x331ce112c222eb08U, 0xf6f108c51f001cd8U,
  0xe80427e9fddcfe09U, 0xfb29ec160ef2e0f2U, 0xfe032218e7e5fa21U, 0xb3ffe108c7140a08U,
  0xe8d6ff40e5211becU, 0x1317dff418fd0fafU, 0xecdfedebc3fff3f6U, 0x1ddbf1f81ad31d21U,
  0xddf624b6fef117ffU, 0xef0be311c9fafb09U, 0x11beee4ec06f5d8U, 0x815bffdffc208ffU,
  0xd0a0f01ef0300e9U, 0x15271fbdcc00d4f1U, 0xf3a3dad713e31526U, 0xf6270be4f5110121U,
  0xe7fe01e417fef74bU, 0x7d6010a250ff6bdU, 0x2f3c6110ad53c0fU, 0xcedaecedf70d1804U,
  0x1d060bedfe08001dU, 0xe0e30addceece5e4U, 0xf6330031e60608f1U, 0xecbd14251d0204fbU,
  0x1cea2bf10efa03f3U, 0xff339371b11ede1U, 0x7fc0cdf1df5f703U, 0x1f600d91af820ddU,
  0xe513ddfffc06e4fdU, 0xe1128160504f305U, 0xea0d071602dae1dcU, 0xf705ff04edf7e1e4U,
  0x10ed01fef4ff0610U, 0xee11012105300014U, 0xe61af70df6f8e1e2U, 0x10ae6fad54314e8U,
  0x1a1af9ed07f8f301U, 0xedf6f70edf09cef2U, 0xfc2715e8eef5e3f3U, 0x70cef12e8f9e1deU,
  0xff17f6ffeb1ae5cbU, 0x1515f00f2104f8f8U, 0x15d8e8f405ff24e5U, 0x12e1d7f001ef0ffdU,
  0xe10a07cbeaf8d3U, 0xfdea07fef903e6d8U, 0xe8f9e8caeff0d0ebU, 0x1af90af8fdf809f1U,
  0xe8d8fee2fdee05e9U, 0x1200f2effd131f27U, 0x60e0efc0f06ed18U, 0xe107d7f7cbffd6d9U,
  0xe0eb00f1e5bf0211U, 0xeeeffbf3ff12ec15U, 0x21f904d6f8f6ea2fU, 0x1dfc01f307faeeefU,
  0x1a10ea15e100fe1eU, 0xfb0f1607f9dd0710U, 0xecff0ef520ee1f02U, 0xffe2e0fe0b04efeaU,
  0x13090ed1d0080916U, 0xd01312daeeff2004U, 0xe5f1ebf6bbf700e8U, 0xed0eebf414d2eaefU,
  0x5e3081ef8dae4ddU, 0xee2f5ff1de512efU, 0x13fb0dc7f8f0f7f5U, 0xfa1519e0dc1f0f20U,
  0xfe12fed81b0104f3U, 0xefe80a0fe628f6d3U, 0xe02ed411e9edecc9U, 0xff00fd18f40607deU,
  0xe9f8ec08cc18e6f8U, 0xe9fc0422d803fae7U, 0xbcdc06001711e302U, 0xd8f3f0dcf918f617U,
  0xfb00f51305000feaU, 0xfe12edf4f8f1f5edU, 0xfd0e250cef0815f3U, 0xde0313cdeb05f200U,
  0xfae5ca02f6160439U, 0x1c010805180205e0U, 0x1409eed90708d1ecU, 0xde0ee1ddaf0eae4U,
  0xf40ee9040d1bf604U, 0xe808ed05e202cfe0U, 0xf410e108ecfe091bU, 0x21fcf50d14ec2300U,
  0xeb18142304ec13d7U, 0xde11e00f801f409U, 0xafdd7fee0d9f80bU, 0xff71f0cfeece618U,
  0xf60a0ff80bddf3fdU, 0x20fedb2fe0f71913U, 0xfc12f0e3cf02f70eU, 0xf1e8fae70900ffe6U,
  0xe5fc3bf8e9f9f804U, 0x3603e0020a00e908U, 0xc8e5e5e709e40ff2U, 0xf90cfb09e5df0807U,
  0xe3ec020b02e8fdffU, 0x9dc11eeef0bf1U, 0xeafbe8f502e3e3d4U, 0xf5f4fbfaef1d15eeU,
  0xf1500f0ec18fafdU, 0x105f90ff619f9e7U, 0xee1309d8ef14edf3U, 0xfbeefb0806f4e9cfU,
  0xf40a0bf701f228f5U, 0xfa0ff3ea1ffa13ebU, 0x1828fd0df3fad50aU, 0xe8fae007d905f7feU,
  0xf82519fe1004fef2U, 0xfa0aceded3e507efU, 0xf1f8f3eff7030505U, 0xfdf210eff1e90508U,
  0xe50be6f70802f1ecU, 0x900e9f71c0501e6U, 0xeeeff6fcea03f003U, 0xef04f2f8f00f0cdcU,
  0x171e1afbefef07e0U, 0xf2fc0afdedf30fe2U, 0xf70edacc1801e614U, 0xbf707e8fafbcebfU,
  0xd30110f9ec150fecU, 0xdb00f1e2fbfbd9f6U, 0xdc1303f408e4e9f8U, 0x19f012ea0afefa1aU,
  0xe5f8fef9f50c07U, 0xf9f8f511eaef15f9U, 0xfb23edfbe30900f5U, 0x28fe0400ebdb0cfcU,
  0x426f6f5f3f9021cU, 0xecf9ecf411f8fe07U, 0xf5f200f3f8fcda33U, 0x1f1f4edecf3ef03U,
  0xf0f014e51af9e7faU, 0xfa05ebf1e3d4f501U, 0x1d15f1fb04f5f6edU, 0x9fcdddf0a04f80cU,
  0xfdf2f81af9f6f0fdU, 0xf80af2f407fc0af9U, 0x10e6fdf3f20a05fdU, 0xfb07f9f60108fdf5U,
  0xb00fff9e80cecf6U, 0xee17f208f3e208faU, 0xebece4f1e0e90900U, 0xf00806000beaedf9U,
  0xec0ef2dce6f3f7e0U, 0x21faf4f0f01412eeU, 0xb03d9eafafadb27U, 0x14020ff6fad72aU,
  0xef090b03070411e7U, 0x27f904f90af8d5ffU, 0xf7f403f1fc00f600U, 0xfee8f20502fb0e14U,
  0xf9bd00feb31119f8U, 0x6f5f41efd21dfdaU, 0xf31a2c0ce7180af1U, 0xe24140d03fd1b0bU,
  0xfdee260803affb09U, 0x1b28efe90d1b1a0dU, 0xfeeb1d112fea0019U, 0x504ee05051ded05U,
  0xf10a41ed231d00b3U, 0xe1faeb22fe0505deU, 0xe1f406f31217fee4U, 0x220ffdfb0d041f04U,
  0xeb1de6f416f21b0fU, 0xf7e700ff140d13ecU, 0xd5f3fd101325cf0aU, 0xcb181b00d8ec11f1U,
  0x2c06fd041b0b0519U, 0xaf8f812f613f8e4U, 0xeef5f7f4f308d912U, 0xfee112e81ff80f0dU,
  0xf1fcce06e6ce0cebU, 0xbd7f30d020d080aU, 0x161cd104e20adff7U, 0x1d01e9fb1bf0e8d7U,
  0xec18e9dd0cfdfdd9U, 0xe1ed0e14ffdb08feU, 0x191ce605ff270dfeU, 0x13ec1bebdbe9f5fcU,
  0xe001131421e0e3f0U, 0xfde9e205eb160225U, 0x7cb100c020ad116U, 0x170604f4eefb14f4U,
  0x150ae315161efd20U, 0xdbe917d51509e60aU, 0xfec010d0609e9d9U, 0xf9eaed19f6f603f6U,
  0x17e2cf0002f2ced8U, 0x6e3ea0f33fddce8U, 0xeb0bfbf6200df6e4U, 0x3eb17f2fd07fdf3U,
  0x7e606031b061afeU, 0xf6eef9e82b0914e0U, 0xc1f0eb18efe023c0U, 0x9f9f904edecea07U,
  0x32e32f0bed1ef308U, 0x2604eee0d3e2e706U, 0xfe0b10fb0919d1f2U, 0x14ff0bdae7150bc8U,
  0x3f3ff020ce010f7U, 0xf009c216dcdcdc09U, 0xf8ed141df7fa0108U, 0x211f91c00fd02e6U,
  0xe50702041f0dfcfaU, 0xe93efae6eb2ef523U, 0xe91118fafb1ad4ecU, 0xe2bdd31d060de51aU,
  0x207fbe2081ddb1cU, 0xadf4bbf1c706fd19U, 0xe43507db29daee0eU, 0xced1d50316fbec0dU,
  0xc2d1a0b24d0ef0eU, 0x12f2d20814e9f1d2U, 0x13dfe60a14252225U, 0x7ff0bf8280fdf0dU,
  0x1fbfdfafafffdfbU, 0xfffcfafcfffdfeU, 0xfef905fefb01fc05U, 0xfffc010003fefafeU,
  0x10200feffffffffU, 0x10001fbfffdfefeU, 0x5fffdfcfff9fbfcU, 0x102fb0001000100U,
  0xf8fc05fa0202f801U, 0xfd05fb010001fb00U, 0xfbfb03faff00fb03U, 0xfffdfefe05fe04fdU,
  0xfbfefe0400feff00U, 0xfdfc0400fe020100U, 0xfc01fb0003fafdfdU, 0xff00000304fcf9fdU,
  0x1ff00f9fa04fc00U, 0x403fe040004fffbU, 0xfc0103fcfd0004faU, 0xfb020301feff0501U,
  0xff020300fa000001U, 0xff03fefb00f900ffU, 0xfefafefb00fc0102U, 0xfa03ff04fe02U,
  0x3fbfefe01f803feU, 0x2fe01fd02fcfdfdU, 0xfcfbfdfc0003fffbU, 0x20203f7fcfbfd02U,
  0xfdfe0004ff03fd03U, 0xfd00f902ff01f7fcU, 0xfbf9010105f90003U, 0xf805faffff00fffcU,
  0xfefa000104faf8fbU, 0xf9fffe07fc040301U, 0x50004fcfbfafffaU, 0xfd03fefa00fd02U,
  0xfb00fffc00fb02ffU, 0xfbfcfef902020403U, 0xfd0101fb02020400U, 0x202ff010100f9U,
  0xfffb0003ff04f9faU, 0xfe00fbf7fcfbffU, 0x40201fd01fa0102U, 0x306fafcfafdfcfeU,
  0x3fffdf804fc01fbU, 0xfe00fdfffffb01fcU, 0x3000103fd06fff9U, 0xfff9fbfffcfcfcU,
  0xf9fa0405fe0502U, 0xfe01fffafef9fdfbU, 0x6fdfffb01fbf905U, 0xf7020000ff04feffU,
  0x2fcfdfbff02ffU, 0xfb0200ff0401ffffU, 0x102fe0504fefcf7U, 0xff000300f80202U,
  0xf90004fffdfe00ffU, 0xfb00fdf9fe04fc00U, 0xf8fd00fffe03ff06U, 0x1fa05fdff04fffdU,
  0x1fcfcfa00040502U, 0xfdfcfcfffefdffffU, 0xff05fefffffbfdfcU, 0xfbfe00000002fc01U,
  0xf602f703fa02f2f5U, 0x1f1fb06f4fdf803U, 0xf3ef0709f2fee5f2U, 0x14fc04f81509f310U,
  0x30320fcf518fef7U, 0xf2f1f20f10f406f1U, 0xe7f8e2f30dff0807U, 0x20f00df2faedebfeU,
  0x50b1426f6f30a08U, 0xf090907fcfaeefbU, 0xae0f3f60eeb0202U, 0xf9f3fdfc03131cefU,
  0xfc1ee0e50ceffdf3U, 0xe9fae10514eb0df4U, 0x13ed0afa1c03f2f6U, 0xfe00fb03eaf7fcfcU,
  0xf7f1faebfbf9fbfcU, 0x1806f4f2faf4e90bU, 0x30ced0a02f905e9U, 0xe902f7e90501eff1U,
  0x7f2eff8fd03ebf9U, 0x14f0f400fb13dff3U, 0xe6030800f8120610U, 0xf009fb010501ebfcU,
  0xfe1400f00b0800fbU, 0x608f205f5f50009U, 0xfe030df4e203f3e7U, 0xfdebeefff506fc07U,
  0xf2ffe5f0f81405eaU, 0xebfcea0cfcf7f001U, 0xf10af3eaecf11315U, 0xf0f403eff8ea01feU,
  0x2ec0c19f5e70df1U, 0xfaf5ebfef50313fcU, 0xfde8f9f9ecfa0b0dU, 0xfb03f3edfe10f6faU,
  0xe3f30df4f30e06f5U, 0xfffbf106ff02f910U, 0x3011ef7e3ef0cffU, 0xfcf9e1f8150103fbU,
  0x7e8faf3f7ddfb10U, 0xee1b11f4eb04eef4U, 0xeeee01fef6031109U, 0xedf709fcfa090003U,
  0xf5fa0af2f7e30af3U, 0xebe4ede3e906fe00U, 0x7070701e4fafdf8U, 0xefe3020502f7f3feU,
  0x9edf60ced03f2f0U, 0xfe04090807f8f6ffU, 0x10aecf300effcefU, 0xfc0d04ecfbf313f4U,
  0xe9f903fff1f4def9U, 0x7f5f504f601e1eaU, 0xfefa18f9d9f2fe17U, 0xece3f4ef1ef2f011U,
  0xe0b0f0a09f90afaU, 0xf09fe03f3ff19fdU, 0x13f708f4f90e09e8U, 0xeb0af4f503ef08U,
  0xf0f0fa09f20deeU, 0xaf407fafe050ef8U, 0xfd04fefff2f4f8f8U, 0xe50ffaf5fff60606U,
  0xfeef03221a0ceceeU, 0xfcf2f70604fb15f2U, 0x29e2fed80a06f8f9U, 0x1706051512e40bf3U,
  0x2102de0fe0d80ef3U, 0xfb1aedee1c0311f8U, 0x224f71103eefd0aU, 0xdd00f00806e1e11aU,
  0x6f803030bf40901U, 0xfae302feffeef713U, 0x6dfe111fbf3f6e9U, 0xf717e5fd1409fb04U,
  0x9e61b1ce0e8fdU, 0xfc0308f90be90de7U, 0x91dffe006f21305U, 0x604030df9f4fa18U,
  0xcecfffcfbf5f013U, 0xf10bf4f70fd7f0e9U, 0x50d09e5fe1bf1f6U, 0x1403f40ef3f6d2ebU,
  0xdb02f806f8e90deaU, 0xe700ebdaf3da0addU, 0xfaecf1f9f0fe0cdfU, 0xe5e702fff01111faU,
  0xf4eae8f7f8edf8dbU, 0xf5ece4e316dcfa01U, 0xafd10cef705f3faU, 0x6fc112801fc03edU,
  0x100aeef3f90beb09U, 0xebef03f6f8f9fbf2U, 0x21fefae209f8e6f3U, 0xeeeffeffe1d6ff01U,
  0xf5e606fee00200f8U, 0x1a0604f00311f4f2U, 0xf5e5d6fde3e4f7e7U, 0x20e8f7f8fbf6e5fbU,
  0xeaffed01e008eddeU, 0xf321f310ec00e800U, 0xbf6d809f10adc12U, 0xfe0bf6fe05ff0c03U,
  0x1ddf18f7ff0924U, 0xdeef2f4e3130deaU, 0x412f9e6f2f3f812U, 0xae6f70be5ebddecU,
  0xed04ed0201f80102U, 0xff1203f5edebeb03U, 0xe1f3e9faf6070df9U, 0xfe2307ecd4e9e5efU,
  0xfbf5031226e2dafdU, 0x14fcfafc00f2efedU, 0xf3ef00dcf3041beeU, 0xed0301fe07031ff3U,
  0xf204f5f5ea050c11U, 0xe9f725caf925f7U, 0xc1af2fb001101e8U, 0xe50b00ee0f03fb02U,
  0x4e1fce7f6edf62fU, 0xf6f111fdf1e3f9e5U, 0x801cfe90501dd07U, 0xf0f1f4f7fa01fa11U,
  0x2706e10a030011f7U, 0x2f8f00715f4efffU, 0xf10c07ede419eef2U, 0x11e819eef1f10100U,
  0x9e8e8c9f9ea0aU, 0xe30544030a27231fU, 0xe7f2150b1a0403ffU, 0xf4c2ea0e160aece7U,
  0xedf4243418f7fd0bU, 0xc808cebd1e080c0eU, 0xf803d5fde7fce709U, 0xf4120deec9d5dcd3U,
  0xcd0ef7e809fa08f4U, 0x1fcff0405190af1U, 0x1b3e7ecf723def9U, 0x160205e3ebf9d901U,
  0x40afadcfacf1e05U, 0xb2435fff40c1de6U, 0x1e122b06e707efedU, 0xe413e00a21f3e1fcU,
  0x5f022e209f0ec03U, 0x1de7d6ee08071e11U, 0xb92df611dffbf8f9U, 0x515fa0027f22d0eU,
  0xea0afa1f32e216feU, 0xaedf71ce4ec03f2U, 0xfe1006ffe5f214ecU, 0xf810f30006ebd2f4U,
  0x101c06eb04dc0b10U, 0x73f08fc1b28d00fU, 0xe80ae8f320ecce15U, 0x1de5f30ee9d31615U,
  0xe002081bf9011926U, 0xe91b0f02ff0c0401U, 0xdbfdebe9d1e5f708U, 0xf1fce1e7e0ec1414U,
  0xf3f6f1de0516f6d6U, 0xd715f30009fb11e8U, 0x1f1c319e0d905daU, 0x1417e425f3e12d01U,
  0xf2e4ff3efd07b0e1U, 0xc3f3fefbbef7b5d5U, 0xd9e006f7d20bf11eU, 0x2b0701fd0f010126U,
  0xddffbe113fff706U, 0x3e032115050ff0eaU, 0xdc291a100a08ed13U, 0xfacd160f03b20012U,
  0xff2029ff13142721U, 0xe6fe0e1125d116ceU, 0xf7021e09240ff5f3U, 0xfbf004f31cee0ff4U,
  0xd201d320c6f3d819U, 0xe617f114100d2608U, 0x1131f18fb25f8f2U, 0x11dedde31416ceecU,
  0xfc0e061aebece00cU, 0xc29caf6f502d805U, 0xf80ef8d702f319d6U, 0xc50710e8f6ecfb13U,
  0xcbe4fe040cc9fef6U, 0x4646ccffdfc2ece3U, 0xfcf5fb02f4e11afeU, 0xe6fc281deb1a1b26U,
  0x516c60de9eded22U, 0xdf2fb05fbedee0cU, 0xedffdf12e2e701eeU, 0x52910fa0fda0afaU,
  0xfa071c100253ecefU, 0xfd13ef060e1ee010U, 0xe6eac1dc10ecf009U, 0x1ad10af605e4e1bbU,
  0xf10ef8fb300a01f2U, 0x351503e5ec1d2ddeU, 0x91110f203ee02faU, 0x81b00f31d02fc08U,
  0xebc30608ea1ada00U, 0xcefff503e0f2e381U, 0xe6f50612df3c0dbdU, 0x173ef8f6cff9ce01U,
  0xfc171ede21410410U, 0xf5f006120107000bU, 0xe2f40ce0efe600dbU, 0x13241608e8fecedcU,
  0xf009ff10d71301f6U, 0xf4b7f7c8fcba0109U, 0x7fecdeffee0fb02U, 0xc7e51df00e4e050eU,
  0xf6032ce6d63bfdf5U, 0xc511e8fc1cf7e6f5U, 0x4afbeffefc1803edU, 0xd4d81626e62e1e2cU,
  0xfff4f6f4d1fb3815U, 0xf419e3eef91cf4f2U, 0x12d0cd0debea2e14U, 0xc1001b41f825f0e2U,
  0xd415f128fa01e7faU, 0xfdd4f704de35d7f1U, 0x1106ff1212ffd7e9U, 0xe31513fd1826d4ddU,
  0xe1e314061afe0912U, 0x4e4f7ece21614f2U, 0x2f0230ab5292ccaU, 0x7060a02cc2ccd42U,
  0xe8fb1e03ea080606U, 0xd071827e303090fU, 0xe100cf1f8ffe1f3U, 0xed25e41fed05ff1dU,
  0x13f5fa1006d5f611U, 0xdee808e3eee60c12U, 0x10ddff051de6180fU, 0xec02d4f6f5fad426U,
  0xc3c9ebfb2de2d70cU, 0xef2d0ce9e7f5fbdcU, 0xe9de002508e8bbf5U, 0x42031b09eeff072dU,
  0xa351914fd0c0406U, 0xe31224f4d7ce06f9U, 0x1f107f6fbf708f9U, 0xc08eff0f3020819U,
  0xed05ee0215c81210U, 0xcfdfa1d02f3f004U, 0xcf900f9f0030b23U, 0x1101e8f0ffe5eb02U,
  0xb3ef1ef1e9f324f1U, 0x10f209f014f40ffaU, 0x212421e20bdef2fcU, 0x620ddefe80607d8U,
  0xf62afc10efeb0d0bU, 0x29faede51b0ee91dU, 0x181af5eef0e526cbU, 0x215071d110f2018U,
  0xf7f5e7120908f00eU, 0x5f9ef08f3ffefeeU, 0x1f9db0a03fef3fbU, 0xea0efcfefb060ae9U,
  0xedf82afb0af0fcU, 0xbf6f9cefd08ecf5U, 0xd4fbf8f3f80beff4U, 0x305fc1cff0af0f5U,
  0x11ef03f5e80fff03U, 0x8eee80ff0fdeaU, 0xfe06ed2afe05fde9U, 0xfa11090bd3f8000bU,
  0x202f5f7f5f3fb05U, 0xf3e803fdeffa00f2U, 0xfffcf5f9dbfceaecU, 0x13f101f5fafdece3U,
  0xf6fcf60008f3f9feU, 0xf1f6fbf1eddd13f9U, 0x9fff5e7fafd0700U, 0x6f0e0000d10feedU,
  0xeeebf5fffdf8fe15U, 0xed0cee06f213f400U, 0xf5f2021d03eeefefU, 0xe3001af1fffaf809U,
  0xfce401e70a0ae8e9U, 0xf9f7f611f8fffaf3U, 0x5f7e1eef7e7f408U, 0x2eaedeae60f1223U,
  0x3010004f3effc00U, 0x11dfe3f8fa00ecf0U, 0xeeebf10004e5f2f8U, 0xfeeffdfd0e01def7U,
  0xf7f3f2fe270206f7U, 0xfbe100ee0901f9f4U, 0xebcbedf5021101fbU, 0xf80a12fde8edea0aU,
  0xf2fdddf2f9e1fefdU, 0xfee7fdf6deecf8feU, 0xfaf706e8f0f8ec13U, 0xfef1fb0bf2fd1606U,
  0xf3e9f6e7f70605faU, 0x160318e4f7fcff05U, 0x1ff19ff04f1fc0eU, 0xef0ee3faece6ee08U,
  0xee0e06fdf705e1f8U, 0x7f8f3f40600fff7U, 0xffe7fcfdf6f0f004U, 0xfaf2f7f916f3eefcU,
