/**
  ******************************************************************************
  * @file    twoline_data_params.c
  * @author  AST Embedded Analytics Research Platform
  * @date    Tue Nov 14 01:45:17 2023
  * @brief   AI Tool Automatic Code Generator for Embedded NN computing
  ******************************************************************************
  * Copyright (c) 2023 STMicroelectronics.
  * All rights reserved.
  *
  * This software is licensed under terms that can be found in the LICENSE file
  * in the root directory of this software component.
  * If no LICENSE file comes with this software, it is provided AS-IS.
  ******************************************************************************
  */

#include "twoline_data_params.h"


/**  Activations Section  ****************************************************/
ai_handle g_twoline_activations_table[1 + 2] = {
  AI_HANDLE_PTR(AI_MAGIC_MARKER),
  AI_HANDLE_PTR(NULL),
  AI_HANDLE_PTR(AI_MAGIC_MARKER),
};




/**  Weights Section  ********************************************************/
AI_ALIGNED(32)
const ai_u64 s_twoline_weights_array_u64[41890] = {
  0xbe830f2d3e0c593eU, 0x3ef662eb3e49e8daU, 0xbe135fb2bf451944U, 0xbd4ef2923ef80d47U,
  0x3ec9a73d3fbb11e7U, 0x3ec623463e2565e1U, 0xbe97998f3e23b4caU, 0x3f2120963f3e4594U,
  0x3fa9e556bf0bb186U, 0x3fc6567ebfa39c7aU, 0x3e7a92c9be2f9711U, 0xbf15f48a3fd7f6c8U,
  0xbf515fd43e0911d0U, 0x3e790f243fe7eb38U, 0xbeca38593f82184dU, 0xbf1f0810beee7498U,
  0xbed1cf8abf2873fbU, 0x3f059a88bfd4c19fU, 0xbf8542c23f325abaU, 0xbc4e83013f44044dU,
  0x3e7738e03ebd8b32U, 0x3f03390fbf701b78U, 0x3eca6fe43ef22262U, 0xbf01c05fbdb5f4bfU,
  0xbf0d3306beeac02dU, 0xbf7c5132bf0470f9U, 0x3e89022fbea4b597U, 0xbe74151bbf9073b9U,
  0x3e348f293f8a2126U, 0x3f4fb8263f1012cfU, 0xbccea566bec6ff66U, 0xbef97a6bbf8f2fbbU,
  0x3fb62c83bf5a3b50U, 0xbed0728abf959684U, 0xbf272773be76d83eU, 0xbf19a19c3f6aaee0U,
  0x3ed9b7ab3d130227U, 0xbf66764abea742b9U, 0xbf9927463d2319bdU, 0xbd4406cdbf0cb183U,
  0xbf591f3f3f9a8c33U, 0xbf2c25a9bf56203bU, 0xbd9ea8923fb0e648U, 0xbeb9c90a3fb5db4dU,
  0x3ef18bfb3f6b2677U, 0xbdfb6a6ebeb942a3U, 0x3e43ed5ebd8fda48U, 0x3e4612a9bfa6ce97U,
  0x3e1e5e403f015276U, 0x3eb5b801bf2c54ebU, 0xbf1ab36cbeea098eU, 0x3cec71363f12c9fbU,
  0x3f73b4dbbf136e6bU, 0xbde70b78bf82dd5cU, 0xbee8ca2dbe5e04a2U, 0x3f2fcaaf3fb46b2cU,
  0xbf0a2f893f3c60dcU, 0x3f2d9c6fbf1424b5U, 0xbbb345503e32e21cU, 0x3f868824bd1d63beU,
  0xbfc1489a3ed4677bU, 0xbe09720c3d7470e7U, 0xbfdd96a63f17efceU, 0xbe3e7a27bf854f60U,
  0x3dcdb2253ed1cb26U, 0x3fd22ca73e0cca39U, 0x3f47b55e3fbb508cU, 0x3ec7071b3f24170dU,
  0xbf1b0a713efeeb39U, 0xbfcdae873d80cf1dU, 0xbf0c7b643fc8057fU, 0xbf0825c93dce1024U,
  0xbf8875593e834a26U, 0xbeeb796dbf40b905U, 0xbdf2ac7dbec1ca84U, 0xbe7b478b3e6ff274U,
  0xbed2d4523f6743c9U, 0xbe158b77bf31a13bU, 0x3f5a20c53e4d5366U, 0xbd87b43640169316U,
  0xbc9ae1f93efa9cf1U, 0x3dd29f0a3f819087U, 0x3f86127e3efcb04cU, 0xbe89f8403ef00d35U,
  0x3dd6df61be9ce9aeU, 0x3fb292c4bcd76b2fU, 0xbf6b6f25be042c05U, 0xbd857e423d2cf0e6U,
  0x3e94f1a2be35b50bU, 0xbf1fab093d327565U, 0xbcee0ebfbe778ecaU, 0x3f1c78e1bfd66e61U,
  0x3eb12338bef63c75U, 0xbf8bc9c43f2af778U, 0x3eb9c5013fa9384cU, 0xbf8032ee3d9cfc97U,
  0x3fbb7345be8fb04cU, 0x3e5791c13f0017d7U, 0x3e371a0dbe45d813U, 0xbd8945083f052c8fU,
  0xbf33d33c3eebee13U, 0xbf6b64553f4e3605U, 0xbd464425be94c1d7U, 0x3f8f94cfbeeb069fU,
  0xbf2a5b62bf17dbdcU, 0xbf701134bece956fU, 0x3f1ed3b23e0dc693U, 0xbe40d0d6bde15315U,
  0xbec025153ecc0de8U, 0x3e1514e1bdfcc482U, 0x3f40970a3f3eacebU, 0x3f083acabf9c96b1U,
  0xbe546cf03f0cb1adU, 0xbe1bac6bbeeafa26U, 0xbee1cf38bf46af48U, 0x3f12a9d53f3fcc9eU,
  0x3fbab02abf15a25eU, 0x3f40e72dbf435af4U, 0x3f7080b63dadb489U, 0xbe65127cbf382894U,
  0xbded2289be92c9e2U, 0xbf04a276be69c043U, 0xbebcbdc13e2d7dc0U, 0xbe8201233f0c7eb1U,
  0x3e85247dbf6207d2U, 0xbecfffb43f30b4abU, 0xbfe41a194017c05dU, 0xbeda2f9c3efa4be7U,
  0xbee5dfad3f63b1bcU, 0x3f0abf3ebf531fa5U, 0xbb3b3839bf1292d9U, 0x3eaf56fdbe959181U,
  0x3d7446a73ec9366dU, 0x3f709f3abf0b18b9U, 0xbfd0f6993e90e0eeU, 0x3e2a88a33fba4237U,
  0x3f09e977bf1069aaU, 0xbe75680a3f4d6a4dU, 0x3f0b958d3f0b543aU, 0xbede93843ed8a276U,
  0xbe4b88f03e9ea172U, 0x3daf414f3f6631fcU, 0x3f3b4f763eba318fU, 0xbe4d5fa5bee2e47fU,
  0x3be45b54bfa016a0U, 0x3eed0b203f540c08U, 0xbd62b0043f43e007U, 0x3db5a9ab3f1306c7U,
  0xbe37993bbe50f79bU, 0xbe477eee3fc2764fU, 0x3e9090a03d2d7263U, 0xbdfdf4dabefd4142U,
  0x3f30f83ebe52dbe3U, 0x3ebd702c3f49cc5aU, 0x3edf70223f6b3affU, 0xbf448754bf285185U,
  0x3f5b14c8bf001c67U, 0xbf17f1203f9f3ab0U, 0xbe5ea5b4bf48cc31U, 0xbea4085c3f5a5d06U,
  0xbe9bcbc0bebcb7cdU, 0xbf01570a3e1ab6ceU, 0xbf2164eb3eb15be4U, 0x3eab41e7bdf09943U,
  0x3ca0fde83f21326dU, 0xbe94db95bfefffddU, 0x3d9034e5bf1f673aU, 0x3f483e0fbe1d5c03U,
  0x3ea9cbcdbec4ab59U, 0x3f6184f13e5679feU, 0x3cafdeb13f094f53U, 0xbfa93e13bc858ef0U,
  0xbf36eefa3f7be5f7U, 0x3f2f333a3e2a929eU, 0xbe21be16bfb36722U, 0xbcf80892bdfdfaebU,
  0x3f0b1d813e8b54ddU, 0xbe511740bc675decU, 0x3f1978ddbecff235U, 0xbf4f2d57bfa3096cU,
  0xbf85d832bdd2d7d9U, 0xbe992ec7beec041bU, 0x3fb2d1e93fa9ae1dU, 0xbf8537873dc69015U,
  0x3f7b967b3f7d7b67U, 0x3f1a417ebf7657c4U, 0x3f57f754beb49b4bU, 0xbed1b7333c95b928U,
  0x3d01ce40beb535bfU, 0xbfc0c2203f86e9fdU, 0xbd70ba28bdfb3a6eU, 0x3f11f2ff3d8dabb0U,
  0x3f3bd85abebfbdf3U, 0xbecfe3ac3f8fd678U, 0xbf076079bfd7f6a5U, 0x3f0ee400bf8841a2U,
  0xbf15a5203f91e1ecU, 0x3e3fc45f3dd70f73U, 0xbf05824c3ec64f4dU, 0x3f28fe46be1cc3d5U,
  0xbf8daa833f28491bU, 0x3cebd9c03d4f2bf7U, 0xbf2f9f1e3f5b4e96U, 0xbed174cc3f13c943U,
  0x3e6d29dcbf4ee60fU, 0x3e2820a93eb7e6daU, 0xbd744a863f56c88fU, 0x3f3b284abf87f1fdU,
  0xbee10d1cbea0929cU, 0xbfdb3f3bbf41c0b9U, 0x3e8a66f0bf4395ebU, 0x3ea7f1f23fa57e5fU,
  0xbecc92613f85f3aeU, 0x3f077e853f5a064cU, 0x3eef3868be89bbecU, 0x3db027af3f69c5d3U,
  0x3ee7990c3f2fea0fU, 0xbe0983083eb12932U, 0xbf1c54df3f1f7576U, 0xc004a327bf5ad652U,
  0x3e874844bf58fac4U, 0xbf14835abce87172U, 0xbf2f5cb4bf0fcf36U, 0xbf1e2d163e371fb1U,
  0x3f48714fbf75bb58U, 0x3e82fe283fb0106bU, 0x3e89f8c13f58222bU, 0x3eaa869bbf13aaadU,
  0xbe91a485bf3e59a7U, 0xbf0e60733ea06319U, 0x3e730900bea81246U, 0xbf85c0a43f9b7bb7U,
  0x3ecf6f973f5c87b4U, 0x3c46683abe4d0233U, 0xbddfbbb0bdb79240U, 0x3f87c2a13f5fc92dU,
  0xbf7e21e1bf396135U, 0xbeda065f3f518344U, 0x3d8e51cebf1f62c0U, 0x3f76938dbe9744ebU,
  0xbf2fdee2bff81ef8U, 0xbeee63f23f12badcU, 0xbefecd973c792a78U, 0xbdf4d58d3ea8053aU,
  0xbe91a1dc3ede7385U, 0x3c702251be3e5b11U, 0xbe39c37a3e78f2bbU, 0x3ebea0853e170799U,
  0x3e43950d3dc5a1b5U, 0x3f0669833d75c9ffU, 0xc01f4d883e2bce06U, 0xbda98cf0be83a131U,
  0xbf61c22b3fd5bd24U, 0xbe7b284cbea66f5fU, 0x3f2985ea3ead159dU, 0x3df87aa43f722f5cU,
  0x3e780d013e91cb0bU, 0xbf92c03b3eab5a58U, 0x3e2f60a83e3303b2U, 0xbda86a5c3ecb9cadU,
  0x3f4fff9ebe312070U, 0x3f6b35483f64acc1U, 0x3e5bdeae3d8c96acU, 0x3ecab64e3f04ccacU,
  0xbf19ecdabe394045U, 0x3f02566d3dfaaf96U, 0x3f0ae3093ee868a8U, 0xbe9ddb953e0474ebU,
  0x3e5daf173f948357U, 0x3d478fdc3c00c964U, 0xbe9b1a1b3e766c60U, 0xbf338df3bf20a6acU,
  0xbe510fa0bee2a55dU, 0xbf32756dbf1b9535U, 0xbfc1dc6e3fc7fd2aU, 0xbf6d95a63e9102bbU,
  0x3e369a27bf64bce6U, 0x3ef1d068bedc1703U, 0x3ecbc6a03e04bb91U, 0xbcd2cb9abeee9cb0U,
  0x3ec69e803e1c5fb5U, 0xbf68c712bea62331U, 0xbe123eeebf072d2fU, 0x3f19fa7f3f20568dU,
  0xbd26a3233f000d09U, 0x3fcd77983f89ebeaU, 0x3f2910f4c01420b1U, 0xbf731b9bbebf3121U,
  0x3f8a8edbbde24280U, 0xbe8e4a91bf4686efU, 0xbdcd04833f432e51U, 0xbdc67e3abff2f901U,
  0xbee6b0453f99d1c9U, 0xbe806ec83f794ee5U, 0x3f42e7d2be8c06feU, 0xbf38010c3cc3d4a9U,
  0xbf89f0e83e775488U, 0x3f2bb5373f3123ebU, 0xbf1050a7be6f0b90U, 0x3e32753d3fb68987U,
  0xbec5404fbf3fd600U, 0xbec108f4be806989U, 0xbf290a3fbf691809U, 0xbf8527313ff55306U,
  0xbe61786bbd849101U, 0xbf6d41493f22d3deU, 0x3ea03d93bed4363fU, 0x3edb37a2bedf5599U,
  0x3f8e0842bbf881f6U, 0x3fa15f1c3efd9cc0U, 0x3ea4f9febf4fe168U, 0xbd387a923f94e6a9U,
  0xbf242c623f1f1878U, 0xbf3906bd3f862125U, 0x3f878f2cbf74a860U, 0xbefc24793f864d1fU,
  0x3f59ef5fbf06d3f7U, 0x3ecb42cd3fa6fc1dU, 0xbf9302123ef7740dU, 0x3e02d4e2bf3aa180U,
  0x3f6372933e51a089U, 0x3e98ec043fac7be5U, 0xbeb03d593f180b03U, 0xbf3915a6bf055d95U,
  0xbfd1ee473f54068cU, 0x3ea310273bf20c52U, 0x4005ddfdbdf42f39U, 0x3f292753bf2150ffU,
  0xbeb8a0c5be45e688U, 0xbe8868243ba7102aU, 0x3f9674ecbf310622U, 0x3f9714b03ea57fc1U,
  0xbf1ddd8dbedcb3bbU, 0x3f1bfbce3f732adbU, 0x3e9e1928bf1fd264U, 0x3f6897b53dd46681U,
  0xbebae5d33ef5f0baU, 0x3edf9bba3eb785a0U, 0xbee39e1c3fbbe647U, 0x3eb28b88be5bd85eU,
  0xbf4e5b903eb02b7cU, 0x3efb18d83f519fa2U, 0xbcdf2e72bfb75b68U, 0xbeb5d0693dc407c7U,
  0xbf611b6d3f74174bU, 0xbfcb5176bece9d36U, 0x3f356c94bf16ad15U, 0xbd86b0963f14aedcU,
  0xbf1b35c83f88ee2cU, 0x3f8ed716be7a481aU, 0x3e08b82ebfd1d5e3U, 0xbed9fa1fbd99627bU,
  0xbf7bfc053f5e6facU, 0x3f830050bf3a013dU, 0x3f12773cbe8d937eU, 0xbfabc8c33f9cc001U,
  0x3e490b813f5f1533U, 0x3e885127bd86cacfU, 0x3f42985ebefc316eU, 0xbe2d10943f4ebba0U,
  0x3ec72b2abef81d46U, 0x3e6b6aaebf99f962U, 0xbd47aee1bded28cdU, 0xbe5562483ed6e9b2U,
  0x3e6f9cdbbf03f216U, 0xbee3daa83fc4528cU, 0x3c6257343fa19afbU, 0xbe81b97cbd9d4a72U,
  0x3ee6aac5bd93bb08U, 0x3eb2f2dcbf360093U, 0xbfa1e8143f10fd4fU, 0xbeea1de1bf36021bU,
  0xbf34d749bd409246U, 0x3d44a7503c427df0U, 0xbf8b8e6bbdb5c0e3U, 0x401b011abf9ec8cbU,
  0xbeacabc03f4071eeU, 0x3ef3b4493ed8497bU, 0xbe2f54e73f25ca89U, 0xbf28c20dbecd266dU,
  0xbe923ef8bd56dc2fU, 0xbf098a89bf71682dU, 0x3f85f3d5bfb92648U, 0x3e69c3a1bf621e73U,
  0xbf09b3743fae6934U, 0x3d07ce9b3e72a8a9U, 0xbf9e9a763f2b7168U, 0x3f4f3c313d439df5U,
  0xbe05f5f63e8a2b41U, 0x3f8764173eb5a606U, 0xbc625d7c3e355834U, 0x3eab39dc3f66f3f8U,
  0x3ed423fdbe2ef6afU, 0x3e65ace13d9f5fe4U, 0xbd12de1abe0ccd4dU, 0x3f948edbbefef9bfU,
  0x3cb893c63f2b13fcU, 0xbe8372a13f7bc7e7U, 0xbf1adce1bf995fa9U, 0xbe5b30f73f0432f7U,
  0xbe91ba75bef04c2aU, 0xbf47adab3f249daeU, 0xbfaf66173f331498U, 0xbf9ab865bdb76957U,
  0x3f8a63523e633bc1U, 0x3f7f77d6bf2c8174U, 0xbed00a0f3fc306cdU, 0xbf6a85763ec8f2deU,
  0x3eca8d37bea2b8faU, 0xbf2402c3be7b15f1U, 0xbe2b2e4a3eb41f6cU, 0x3e1139e7bf3d301cU,
  0xbe2c579ebed7c1f7U, 0x3f27b187bf0d6b07U, 0x3f4b42bd3f47fe16U, 0xbcb801c73e354510U,
  0xbf39af993f29725cU, 0xbf4b42b3bddc058dU, 0x3f69a16b3fbe7629U, 0x3f1836593f63f4b0U,
  0xbeec00f0bf15a9b9U, 0xbf582535beff1edcU, 0xbfb5e8e33f1658bbU, 0x3bee170ebec8fe77U,
  0x3ed9bf893e9940beU, 0x3d0de0fdbfb8e153U, 0x3e8283c73ee77894U, 0xbf512cae3f7a813fU,
  0xbf230ece3e898939U, 0xbfd3451dbe73e2a0U, 0xbf6b9b0f3f758625U, 0x3fcd01bb3f550639U,
  0xbf6dd9ba3cdeb4c5U, 0xbd095d353d9979cfU, 0x3ee31465bdc106e1U, 0x3ec1ba95bf8658fcU,
  0x3e9de371bf90e0c1U, 0x3e229fecbe825d3fU, 0xbe9d7458bf164cc3U, 0x3f93a8e23eef5411U,
  0x3ea1a298bde5e4a8U, 0x3e849a843f803d54U, 0x3f715767bfbaf2d1U, 0xbe0e06113f4ce9a5U,
  0x3dc44bb3be140128U, 0x3fb1d9d2bfc23c43U, 0xbf1cd58abf23c455U, 0xbe508732bed106f8U,
  0x3e1bfe6abf1a1a6aU, 0xbe2d54383d4febb0U, 0xbe7f5802bea9d7b9U, 0x3e1ca389bef0cca9U,
  0x3e8f964bbe87a07cU, 0x3f46b7da3f0d42e4U, 0xbf3e98843e419fd2U, 0x3e8c80cbbe959b17U,
  0xbe5e3229be0140feU, 0xbfc85a77bf70d689U, 0x3f3259b93eb1b9a0U, 0xbe2d6f283dab8a0eU,
  0x3f391fe3bf6a3ae0U, 0x3f3819313dfb89aaU, 0xbf6fdc9a3f9c0614U, 0x3f6477253e15392dU,
  0x3f3d5dfbbf11d292U, 0x3f2b3c3c3f69df44U, 0x3fb222443b47d258U, 0x3e4ca935bf7f2129U,
  0xbfa4d9663ea1a261U, 0x3da9374a3f3f1ff6U, 0x3ecfd8de3fbcd4caU, 0xbfda72083f30a38bU,
  0xbf093009be0f7e6aU, 0x3ef32c3b3e8df8a0U, 0x3ce255f0befba9ccU, 0xbd7aa24c3f1aa307U,
  0x3f1a22de3eec22d4U, 0x3fc3fe07bfb329f3U, 0x3f8fa0ffbe8a442aU, 0xbf61df153faa3ab0U,
  0xbf89690b3ed6483cU, 0xbee082313f6e3ccdU, 0x3ccd93f33ca82628U, 0xbe67a207bfb119dcU,
  0xbf5c504f3e547a56U, 0xbea37a073e1c2cf2U, 0x3f9b6bf9bf938af8U, 0x3f5486f03f363c61U,
  0xbd5730683e3238e3U, 0x3e0d5063be670b0fU, 0xbd5fb3593e9c466fU, 0xbdcdc62dbe987c67U,
  0x3f3d8ecdbef1847aU, 0xbee1ffb1bf07b116U, 0x3f27e006bf1a1446U, 0x3f026f37bfb1a963U,
  0x3f2230ad3f5bd839U, 0x3f000d54bea68f85U, 0x3ed767f23dedb79aU, 0xbede4a85bec823a9U,
  0xbddd6d07beaf046fU, 0x3ef793d7bff176c2U, 0x3eedc2153fab6c21U, 0x3e427f7c3edc59f6U,
  0x3f763021bf9055feU, 0x3dae0905bee2a9fcU, 0xbfa581483f7c9fdfU, 0x3d8a3bee3f25b600U,
  0x3f256d6bbfae517eU, 0x3dd782553e902f9cU, 0x3e33e44fbf60de03U, 0xbed7edd4beb0622dU,
  0x3fa079953e60d0d0U, 0x3f12e0eabfa84729U, 0xbf5579ad3eb36d51U, 0x3eb6a9e23e17d0aeU,
  0x3d3fabadbde8bd85U, 0x3cd1a759bf503ce5U, 0xbd90cad3bf9fbd86U, 0x3b505348bf1db168U,
  0xbdb8f542bf0dd246U, 0x3fa60a363f5d034bU, 0x3f3d13143c35a22fU, 0x3e3988f0bf381927U,
  0x3eeb0deabe0480b1U, 0xbfc398d03f458baeU, 0x3e806b043e06a87fU, 0xbfa54fccbf5ebc5eU,
  0xbefd96c33ef116d0U, 0xbe8fb8c3bee35a36U, 0xbf8c9882bfa3e72eU, 0x3f784b1ebe5b255bU,
  0xbea7d7743f908488U, 0x3ea974d73f2486cfU, 0x3f0aaa803ebc8260U, 0x3f5e4e593f361765U,
  0x3fe633223f67b2a1U, 0xbf498d51be54ab5dU, 0xbfcb12a6bf34ffddU, 0x3f983c363e2b8372U,
  0x3d1b0afd3eb62d1bU, 0xbe602b4b3e99ec5aU, 0x3f9b916fbf1f8047U, 0xbf8472273ee5c062U,
  0x3d26b0a64009e6b6U, 0xbecc47853f5e9eefU, 0xbf16d3babf5d4aa2U, 0x3f679f4b3d9de482U,
  0x3f96e7f13ee864d8U, 0xbf769d713fa5d695U, 0x3f102beebeeea83bU, 0xbed9ed9c3e0f5913U,
  0xbe8ea0c5be752eb7U, 0xbf3b9ddebb3a2b4eU, 0xbc3dacb63f38b64aU, 0x3f4971a33f49e12aU,
  0xbefb83603f1057daU, 0xbe916598bf4550e2U, 0xbf45a54e3ef2e329U, 0x3e2f168c3ed77f08U,
  0x3f1f66a3bfad43d4U, 0x3d8f1d57bfaf6232U, 0xc0084aae3e80bff1U, 0x3f0bc771be2b1f0cU,
  0xbe123c503d00825cU, 0xbdc55234bed83252U, 0x3d1af866bf9fa842U, 0xbea2939abe20d317U,
  0xbd56c32ebf4e7ce9U, 0x3ca25c523e25bba6U, 0x3e4fa2ba3c59af64U, 0x3f76e9fb3f2761d6U,
  0x3e0c3fe43f2fc3d2U, 0x3f1466f23f0885aaU, 0xbe944a873d91e04bU, 0x3e3f1fd93f4ba48dU,
  0xbe62e2863fa89451U, 0xbf82d1e3bcd2ecc7U, 0x3e53f04b3f22a2d1U, 0xbf13bdbfbd1241a8U,
  0xbeb01942be856fe6U, 0x3cb9f8febe9a08deU, 0x3d935005bf0a0fd9U, 0xbd5ed7b8bc65f5b2U,
  0xbc1316f63e779947U, 0xbeb1e1f2bf6ce6adU, 0xbf094401bf9eed3bU, 0xbf403b193f861532U,
  0xbe7ccb35bdbb955cU, 0x3f05d9b83f538ef4U, 0xbe3e2c2d3f3c1edcU, 0xbe304a21bfa58107U,
  0xbf13614fbf72499eU, 0xbe303e80bdb7217fU, 0x3f2194753dca2b5bU, 0x3e617778be30aff7U,
  0xbfc6998b3f19f3bdU, 0x3f91d2fbbfecf12fU, 0xbf590156bf9ead85U, 0x3e0737f03d00478eU,
  0xbe4395a4bef41a80U, 0xbdbbeb2040085462U, 0x3f0990333d6a37a2U, 0x3e8caad53e72ee17U,
  0xbec32b33bdeddf94U, 0xbed8589bbf1c20eaU, 0xbfa66d86bfab9abfU, 0xbe88d2273e662869U,
  0xbf485bb73ee4051eU, 0x3f96a2273e263457U, 0xbf11e00b3e68d793U, 0x3f81785c3ee069d5U,
  0xbe5af621bea3b0f5U, 0x3d5caa1fbebf9c6bU, 0xbeb7a660beea5ed3U, 0x3dab9bb23e923cfbU,
  0x3f07d7babe6ff762U, 0xbdad2cffbf305fc0U, 0x3e80c7663ff53103U, 0xbd9b42493f15333bU,
  0xbef7b4793c189953U, 0xbf0082b73ed3bda6U, 0x3f503a17bf2f9870U, 0xbf3267373fb0b296U,
  0x3ec7d850be638900U, 0xbe8c028fbf374a7bU, 0xbf4925343eebefc8U, 0xbf13aa05bd3305c7U,
  0x3eabf902be3a4341U, 0x3ea888843fe6dacbU, 0x3fcbd93a3ebb495bU, 0xbd95dad33e4bf49eU,
  0x3d8d48a8bd866e1cU, 0x3f2837bebee0d88dU, 0x3faed7fbbe29aa35U, 0x3f54619abc3ab0eeU,
  0x3e17674fbe8bfb0fU, 0xbe73c044beaa7cf4U, 0x3f6d9921bf055033U, 0x3eb2c15c3dcad0a5U,
  0xbf296610bea1475dU, 0xbed56e27bec785d0U, 0x3e5e5fc33de9c0c0U, 0xbfa49149be8c35e4U,
  0xbf22061b3e631c24U, 0x3e6456633ea36203U, 0x3f89d578bf0ee3dbU, 0xbdd6a0f6bf3cb703U,
  0x3d69ff25bec1b8d9U, 0x400418fdbe232620U, 0x3e98281e3ff3f456U, 0xbf06755d3ebf6ad1U,
  0x3f6d37dc3e1d025fU, 0xbe537293bf0f38e7U, 0xbf368308bf5fa6c3U, 0x3f18fe44beabca24U,
  0xbeccdfe23d376d04U, 0xbf6b9b0a3f0ce56cU, 0xbe09f83c3f4f2785U, 0x3edfe2293edd587fU,
  0xbed04c3abe3c9b21U, 0x3f78b6a33f0f3f31U, 0xbf5afc6c3d53002bU, 0xbe4fe46cbe48fa90U,
  0x3ea76eca3f876898U, 0xbf3e14b0bf59481eU, 0x3df5cc7bbf18092aU, 0x3f956abc3fb44874U,
  0xbd455e21bd3327d6U, 0x3eedec1abfadbd2cU, 0xbf282aaebf337f90U, 0x3f7daa98bf3613acU,
  0xbf032117bf4a1131U, 0x3de94575bee9cc91U, 0x3f933846bf33c3e8U, 0xbf5fa4de3e9e7ca8U,
  0x3e8aabe3be57b85eU, 0xbf0039123e71cbd4U, 0x3e917812bf278c07U, 0xbe9fca7a3f574c90U,
  0x3f46ae513d68a019U, 0x3efab78bbf240facU, 0xbe92cd60be046a07U, 0x3d95637ebf6ae926U,
  0x3d4688753dd37544U, 0xbf75addd3eaabccaU, 0x3f6470453f7f6750U, 0xbf2f4bf23cbf9f54U,
  0xbf33a14ebf220eacU, 0x3f1c175d3f415a82U, 0x3f06a001bf8d115bU, 0xbef580f4be82ec45U,
  0xbdc1980fbdd44697U, 0x3f8474da3f9f2af4U, 0xbe5d6901be4596ccU, 0xbfa01eeb3f2fa96cU,
  0xbfa1d2263fa13715U, 0x3daa598bbda8e53eU, 0xbf208fb2be3590a2U, 0x3f04dd733f4142baU,
  0x3d9a6414bf55a2a4U, 0x3e8208bc3f77c7f9U, 0xbe37455b3e193ee2U, 0x3e54aa84bf165a6bU,
  0xbd71c3e6be253881U, 0xbf851273bf455125U, 0xbf657037beb6f613U, 0x3ede1fec3f037021U,
  0xbedf56b3bd958813U, 0xbf9eff7b3f3a9de3U, 0x3ee11d7bbf16edb5U, 0xbf03fe97bf5e176bU,
  0xbf9db633be7026beU, 0xbfc0dc5b3f697923U, 0x3f0b6d723f9a5dd5U, 0x3fa281523f009ed2U,
  0x3f767fb93e3789d0U, 0x3fbad74d3f563498U, 0x3c8ef1133cd93a62U, 0x3f2ca077bef50669U,
  0xbf979f2bbf1420a4U, 0xbcb85046bdfb7810U, 0xbf6c80a43ff557aeU, 0x3f5e12d1bed3144dU,
  0x3f3b39ea3ef639d8U, 0x3f1be4463fc8fed8U, 0x3e0e1b47beff7eb0U, 0xbe9c54b03e68ee54U,
  0x3f5c944ebf35b995U, 0xbf0e9b763f1d82deU, 0xbfda80fc3f157a3bU, 0x3f8728d53f478aa5U,
  0x3eb766f63dbfe8ebU, 0x3f18affbbf86a2e3U, 0x3fc480c9bd5d3580U, 0xbef19f4cbeb3ac10U,
  0xbf063859bfa3aeedU, 0x3e284ba83f2e3af3U, 0x3ddc61493ea3b22aU, 0xbeb8cf25be6e1fadU,
  0xbe97d9c9bdcc94aaU, 0x3f0a62673fc20edaU, 0x3f28134ebe8badd9U, 0x3df73324bf10221aU,
  0xbf7690c9be924cf8U, 0x3f243c513e9d8226U, 0xbf212c00bf67a8edU, 0x3f5c1fcfbeff48e0U,
  0x3e35f3b73f0d913cU, 0xbef0682d3f9de347U, 0x3f67b49c3d838c59U, 0x3d273b74bcb28a39U,
  0x3f27f3a83f172106U, 0xbf0650ebbf84e5f7U, 0x3f72fe9bbf229f39U, 0x3d3f6de33e9d098bU,
  0x3f07717e3fab9047U, 0xbedcf39dbf98fe8dU, 0xbf81f48bbe458fd6U, 0x3f0ab42ebe1e338fU,
  0x3edb724abe7912a0U, 0x3f26469a3f525170U, 0x3dedc62cbf8b8a97U, 0x3e5534fe3ed8dc08U,
  0x3f8d25893f78ab18U, 0xbf5c2019be7522faU, 0x3e9c80733e95e491U, 0xbec46f27bf1d5c07U,
  0xbf6442203d3e7529U, 0xbe2643a3bf4757d4U, 0x3e137a9fbe4d4e76U, 0x3f618e813e933425U,
  0xbe22a9a4bf113ed9U, 0x3f5868e43f164670U, 0x3e4963fc3f10fc21U, 0xbe235540bf0133b3U,
  0xbf8ee9d33ee1c490U, 0x3fde2b9e3f8374e5U, 0x3ea9331ebf6c9722U, 0x3e6e4a683ce46854U,
  0x3eba1c50bd323edfU, 0x3e6ccdc9be9287f2U, 0x3f367236bf8ccaf5U, 0xbee8ae83be597649U,
  0x3e7ef6193e1231c1U, 0xbf9ee5e03df41465U, 0xbe1e7d9abf4446dfU, 0x3f8fded43dbcd275U,
  0x3ed9f7c6bf40b89eU, 0xbf297fb4bfa34da0U, 0x3d9366b93f4f81bcU, 0xbee8b065beacab92U,
  0x3d866c62be94f5e3U, 0x3f2b3cc4bf1102bfU, 0xbf367cb1bee6a78dU, 0xbecc19c33f07b562U,
  0xbdc2df8e3e265dd0U, 0x3f073a843e71d464U, 0x3f32fabdbf8877cfU, 0xbe8ede9d3e6939d8U,
  0xbe63cd62bf812aaaU, 0xbf5fb1bc3ee12efeU, 0xbe2567ffbf8081a9U, 0x4000fedb3fbd5a64U,
  0xbff05d93be434f27U, 0xbfd0c8443f4418a3U, 0xbf0a84c2bf457104U, 0xbf3b08c9bf3e40feU,
  0x3f4726823ee229f0U, 0x3e3ae016bebd71a2U, 0xbe0260663f2871edU, 0x3ce4c805bf3d66fcU,
  0x3f9308f0be9c8f14U, 0x3f9eb3453deb5255U, 0xbe1b04f23ebc723bU, 0x3f81c6da3ee0f0dfU,
  0xbeeb2c44bc196ff0U, 0x3e3b40e93e9935f6U, 0x3f2357b3bdbfcd2eU, 0x3efba0ffbf198cf6U,
  0x3e2f70c0bf17e9efU, 0x3e302334bf56353cU, 0xbef46ab8bf3be6beU, 0x3f018947bd1937fcU,
  0x3e697728bf86a563U, 0xbfda5b9bbc657c25U, 0x3fc9c59b3e3b5e16U, 0x3f0452ac3f11a1a4U,
  0xbf14b5053eec46d9U, 0x3e48ab3cbb9655c8U, 0x3e102b2dbf99db0fU, 0xbe641e383fb3ba5eU,
  0x3ea07b27bf17927aU, 0x3f140267bf12a5fcU, 0x3f056ea7bfd1825eU, 0x3bfac5b53f40a609U,
  0x3fd36a163e8f70c0U, 0x3e91c32ebe50abc3U, 0x3c65bc9bbf563381U, 0x3d5e567d3f513026U,
  0xbf40b7d2beb11c7bU, 0xbdc3d55fbee38f63U, 0x3f780af0bf2acc67U, 0xbeea340a3f5eb0c3U,
  0x3f14633e3e8c8cf3U, 0xbd2604a03a8d4e06U, 0x3ecd88e5bf6a1470U, 0x3f458d24bf57fc91U,
  0xbe960ac0bfbc917eU, 0x3f5745223ef81f73U, 0xbf02b87abf50bd68U, 0x3f77dbf3bed44b14U,
  0x4004fdd2bf80e94aU, 0x3f0a8d33bee27483U, 0xbfdc53853f0d312eU, 0x3dc8c590bf025561U,
  0x3f198384bcc1e4acU, 0x3ef11fe9bf205f22U, 0xbe7b58b33ea78733U, 0x3faa57f2beb84236U,
  0x3f849c57bec65e69U, 0xbf95ce6ebf61e7c0U, 0x3b02b0ef3e665199U, 0xbe11fcadbcfd1a07U,
  0xbdb48284bd12391aU, 0x3ee591b0bcfd9cf1U, 0xbef174f73e8879baU, 0xbf0fa8ae3e8b2b0bU,
  0xbac94657bf13bed7U, 0xbdd3c82e3f24b978U, 0x3eae6a663f3c0796U, 0xbd30b614beddf618U,
  0xbf91e1cdbfc4d5ceU, 0xbedc2909be52130cU, 0xbe75803ebeef2a1fU, 0x3c2bf1473f1e6936U,
  0xbf52dc0abf28f88dU, 0xbfca93ac3e048b09U, 0xbd4394cd3f1b10ebU, 0x3f6f4269bf8ce992U,
  0xbe3fda4fbedb00a5U, 0xbd51af343e3b9ba6U, 0x3f1ba0c8bf4f5c22U, 0xbde20a613d67bcb1U,
  0x3fe40161bf074f13U, 0x3ea21dc0bfcad192U, 0x3f7178993f61e7abU, 0x3c42709cbe16c711U,
  0xbd3a790cbe079a4cU, 0x3cf2c813beefd922U, 0xbf88b6b2bdeb51ffU, 0x3f22a5453e1d1936U,
  0xbdf66ac4be0d17abU, 0x3c7d9684bde5b88aU, 0xbf288e484003f5f2U, 0xbd957e6e3f8676d6U,
  0x3da83a893f032efdU, 0x4021d94cbf7ad9d0U, 0xbf03b3e13e07d936U, 0xbf3c532b3e265e52U,
  0x3f8104c13eaa85a2U, 0x3f53fb1bbcb90ab8U, 0x3ebf59febfd8c7f9U, 0x3d2270023e4dcf75U,
  0x3e7a93623df0f5dbU, 0x3e7ba7cc3e8e2c8dU, 0xbf44bd1e3e2c036dU, 0xbe8c3395bf7b3d7dU,
  0x3fa5200abe3a022bU, 0xbf217c223f469f44U, 0xbfa908c1bf8898c2U, 0x3dbb36933df6955dU,
  0x3f6c0accbf64e66dU, 0x3f05527fbefe3e3fU, 0xbe68417f3e826500U, 0xbf1cb0b2bed00d2eU,
  0xbf305d193f4d5b72U, 0x3e26a040bdf5d427U, 0xbee1a026bd913445U, 0x3c7a98fa3f08193cU,
  0x3e283f89bfa7d8ffU, 0xbe93d91d3f1f87a9U, 0x3fa1dc5bbf2ccb69U, 0xbe698b883f804cdeU,
  0xbe32666bbfac0d6dU, 0x3d925bb43db5da89U, 0xbeecf1503cd299f6U, 0x3eea69263ead08f3U,
  0x3e9481acbf3861acU, 0xbf4bade13f7d59c2U, 0xbd2f93ea3e5442f7U, 0x3d171efbbf3e0880U,
  0xbc40e46f3f5623a8U, 0xbe9ae103bf50c064U, 0x3c9a03b43edf19b2U, 0x3ca26df53f51627fU,
  0x3efa112c3e149992U, 0x3f03597abe921491U, 0xbf88bfce3f0754a2U, 0xbf2f7d49be4fa77eU,
  0xbe223286be6955e6U, 0xbe1735ba3ea28647U, 0x3ddd2a0c3e7d057dU, 0x3dda00d23e7d8729U,
  0xbf89d3fdbf009930U, 0xc00619d03f82ac08U, 0x3f754152be436827U, 0xbee81f16bd8f781fU,
  0x3e8d79ff3e3bc094U, 0xbea06c1e3f9a8e27U, 0xbfa21d433f5cdf20U, 0xbe41dd81bf8e63a9U,
  0xbfafab3fbf842c84U, 0x3e899cbebfb1766cU, 0xbbf1aa8f3ee8c74eU, 0x3e7c11053e9f9d1fU,
  0x3f080a1e3e7891d9U, 0xbf7406d4be0715caU, 0x3d18ed08bf74dbf5U, 0xbe2a7b803f36246fU,
  0xbe80c9863f133b16U, 0x3f47710d3f15d34fU, 0xbf499d21bf8187e4U, 0x3dc48f5b3fbc0e1bU,
  0xbebfe337be35c25dU, 0x3ea692e63f43b47fU, 0x3ed27da7bfb9ac16U, 0xbf1e41d0bf236bfcU,
  0x3f1fcb8f3de50a74U, 0xbf2cac3a3f53c92cU, 0x3f03302bbe8446bbU, 0x3f6518f53ebd0596U,
  0x3f5fd1153dd8a3aaU, 0x3f0e60d4be847f16U, 0x3fb4fb023ee2e1beU, 0x3f89081fbf00710eU,
  0x3b637b343d25ff15U, 0xbd751f8abf0a9e14U, 0x3e5ebd0b3fa853ebU, 0x3f3775c33ee34995U,
  0x3fec21a9bce6a576U, 0x3e8da9a0bf00bd19U, 0x3f3f41993b6519d8U, 0x3f79b5f53f966698U,
  0x3f76ce54bf03af61U, 0x3f7ec56fbfd8956dU, 0x3fc181d3bf66fa42U, 0xbf99fc58bfc0981dU,
  0xbe4338c0bec24b15U, 0x3dd301f8be6e97e3U, 0x3d2c9db33f5b6e79U, 0xbf5336393d039468U,
  0xbf647946be872629U, 0x3f37b882be7a5ad5U, 0x3ef1c6833f3fcbd8U, 0xbd90a737bef82cdbU,
  0x3f0ada253f16ec56U, 0x3d31445cbd26977cU, 0xbf2b1cd4bf406daeU, 0xbd2e95653ee4a411U,
  0xbea23825bf99c884U, 0x3f8a4f5ebf8ce53cU, 0xbf81a8b2be949bb0U, 0xbe1a7b5abf87aac9U,
  0xbcf90ad4bd959d31U, 0xbfa998164007a4deU, 0x3ebc5a813e34455eU, 0x3dd5b79f3d129e90U,
  0x3ed7576abe38669dU, 0xbd605f4cbe93ef93U, 0x3cea8216bf2dde81U, 0xbf086d3e3cc93063U,
  0xbf1ef725bf9591b8U, 0x3ef80978bee866f6U, 0x3f52b5b2bf851d13U, 0xbf809a66be344db0U,
  0xbe94ccf33e3a80a7U, 0x3fc9b6b13fdc3479U, 0x3ec2f08f3f3fa901U, 0xbeb9bcafbec4e870U,
  0xbe93cd93beb25303U, 0x3f0b1cf9bdec86ffU, 0x3f2ff5033f1f192fU, 0xbee191543eb54a89U,
  0xbefde4fe3d724ee6U, 0xbe0c6083bf2794ebU, 0xbd04acae3e2e17f7U, 0xbe0ad57ebf20912dU,
  0x3ee3d0153e2b65f4U, 0xbec0f670bdd41ba6U, 0xbebe27efbecd7fa7U, 0xbf76bc653fd4b1adU,
  0xbe7ab6fabf04030eU, 0xbf0f63fabf455e1fU, 0x3eb29af43f87a43dU, 0x3e8dca51bec69658U,
  0xbe1b5938bf0ad81bU, 0xbefb75a43ef551c5U, 0x3e3069c3bee22604U, 0x3f70df523f8d1751U,
  0xbdd7ed543f2df58fU, 0x3faaff68be2ce137U, 0x3f2ec5da3f72e0d7U, 0xbfba1bf6be8569b3U,
  0x3eb0b1c4bce5f411U, 0x3f8ae7f6bf0ee6cbU, 0x3fffb113be9bad53U, 0xbd978432bf2a85f8U,
  0xbf4c1481bf4cd594U, 0x3d8c1fde3fd13fadU, 0xbeb2cb53beb6a1b7U, 0xbe2c4d773ecaa975U,
  0x3eb92a9e3dba0493U, 0x3ff0e4cabe8f85a5U, 0xbe62b89d3f364686U, 0xbfbb9dae3f1f288fU,
  0xbd0aee13bece283eU, 0xbf508df83eaff0faU, 0x3f45eb59bdaa1036U, 0x3f434854bf77dc75U,
  0x3f58f44b3ea253bcU, 0xbe1b96fbbe843fa8U, 0x3d6a91b33f8cac59U, 0x3f73e1a7bfa5e084U,
  0x3f60de8d3e65c11cU, 0xbece35043f9a95bbU, 0x3f5f0c3c3e105becU, 0x3e67dbd1bd4aa48aU,
  0x3ead3482bf2da132U, 0xbfa455733f3739b2U, 0x3fc370413f81ef6fU, 0x3f4c78abbf853ecbU,
  0xbd16d0d23ebaebbeU, 0x3f5712c2bf218a91U, 0xbba6bcf2becb810bU, 0xbeb49c273ed31230U,
  0x3fb1edd43ee79618U, 0xbde42f6abf07f266U, 0x3e2226c53e89406cU, 0x3d8508053f3e0a57U,
  0x3d6b5c313eb6669fU, 0xbf4214fc3eedf2fbU, 0x3d7544d0beb3baf2U, 0x3eeffd5e3f88cc81U,
  0x3e2b3beebe6b1b7cU, 0x3da9ee9fbed3b72dU, 0x3f002ecebf2df042U, 0xbf7cb15c3f436adaU,
  0x3e9a35e7bf4b8384U, 0xbe27561e3ce226e3U, 0xbf27b68cbec850a9U, 0x3f27d768bf3d956aU,
  0xbdfed4a43f829a42U, 0x3ed89ceb3ef91fbaU, 0xbee09c29bf2984cdU, 0x3e1c58313fbc0c75U,
  0xbed872dbbf5ca096U, 0x3e35aad43f398f30U, 0x3df3a0353ee187a9U, 0xbf5d56323ec593fbU,
  0x3f56b2a1be27beaeU, 0x3f3b10bebd8ac153U, 0x3ef6fa763fc66e48U, 0x3f2428183edd30a2U,
  0xbe400434bf6e67bcU, 0x3f98e9113f0eb340U, 0xbef00badbf0fcad3U, 0x3f45d44c3f3f6e5fU,
  0x3f5f5fda3f4bf950U, 0x3f390cdfbf3168b6U, 0xbfe01e2f3e6392d6U, 0x3c87452a3ea6819bU,
  0x3f9b555cbeef1f7cU, 0x3cb368853ee0da04U, 0x3e21a2393f16fdb0U, 0x3ecc779cbe45b4e8U,
  0xbfa92fbd3f02b563U, 0xbe040ac8bd52d0d7U, 0xbf0dfd09be43844aU, 0xbf1dc959be15f9d4U,
  0x3f1a4b53bf505453U, 0xbeef976c3ed1567dU, 0xbe875e933ee2d069U, 0xbeb10b15be9ad2ccU,
  0xbf7a51d3bec7081eU, 0xbca179163f99ed83U, 0xbf578368be999f30U, 0x3f04b3023dd329a6U,
  0x3ecec552bec88f2bU, 0x3d075b75bedf053dU, 0x3fae3751bd7a7ebaU, 0x3f3ff073bf94606cU,
  0xbdf62ea4bf1f437eU, 0xbf98a3bb3e7c34d3U, 0xbe3f30383d25dfdbU, 0xbe98578ebc6a65f6U,
  0xbf7048643e071d70U, 0x3f9207ebc01252c5U, 0x3f15d8e43e738ad8U, 0x3d50cc603e7b422fU,
  0x3f895349be2e03a0U, 0xbfb139aa3d9dd8f1U, 0xbf49228bbd5a729eU, 0xbde773783f738bafU,
  0xbf42d3d3bd105261U, 0x3d9d12173f1a9068U, 0x3ec20ce53ec24006U, 0xbd25adb33db91db5U,
  0x3ebfa8ed3f1c3588U, 0xbf8c973dbf8f1400U, 0xbf661e123f0df336U, 0x3ec3be8d3eb33c24U,
  0x3eaed5cf3eab8929U, 0x3f9378ea3eb7220aU, 0x3f7ea5f9bd83370aU, 0x3f6f72dabf128cd6U,
  0x3e3990943e0c1145U, 0x3de1e1eabf32f874U, 0xbedd4d473f33d6e5U, 0xbec4efe1bc375c54U,
  0xbfaeeb50be1b75caU, 0xbf7f854bbd8b171cU, 0xbf30536940003535U, 0x3ed95ccf3f0116c4U,
  0xc0140691bfbfdbc0U, 0x3ea24794bf1382e9U, 0xbeb75cb13f71462eU, 0xbf286d2cbf4d0f3eU,
  0xbf92dda2be896f8dU, 0x3d9f5da33d7ae83bU, 0xbf63377e3d857182U, 0xbd5796f83e537d38U,
  0xbe927d113edb56c7U, 0x3f5e24c23de403e3U, 0x3e24353bbf179952U, 0x3f8913213f51b0d8U,
  0x3d8d9e77bf992513U, 0xbdc3380f3ea57be0U, 0x3ff7d2ff3eaf295eU, 0x3f7c728fbd38f803U,
  0xbfb4d265bebd9cdcU, 0x3f3358e83f0a864fU, 0xbf0038a53eb7c1d3U, 0x3f251427bf302d47U,
  0x3f85c445bdab93caU, 0x3f810af13fbf5d0dU, 0x3deff68d3eaf6cb5U, 0x3e472910bf14805aU,
  0xbed429a83f29b67aU, 0xbe55dcb8bf0d81f6U, 0x3f9c01e0befdc59fU, 0xbf2148813fca6be7U,
  0xbf44bb7d3fb13f23U, 0x3e1939d83eab004dU, 0x3cac65f4beb3d321U, 0xbf0c9f5f3f4b83e6U,
  0x3f5af75fbe94354bU, 0xbea51179bfa97af1U, 0x3f01f11bbea6c898U, 0x3f54eb1bbeaa86b1U,
  0xbf93ea4bbe7c5abaU, 0x3ec3d6383ec710daU, 0xbf39153bbdd209cfU, 0x3d89dfef3f885f0eU,
  0xbe1722febf4493c1U, 0x3f2016743da47e79U, 0xbd57b3323eb7390aU, 0x3e486f22bf43ede3U,
  0x3f8737d93f8a362fU, 0xbfc72c9d3dd18370U, 0xbece5150bf349de7U, 0x3f7db13f3f960c3cU,
  0xbdc561f83fb1332dU, 0xbecd8bc93eb6c001U, 0x3fc2cf153e095599U, 0x3f12b214bec5d503U,
  0xbfacc5cb3fb76160U, 0x3f39e1fabf03d703U, 0xbec4ce293f2566a7U, 0xbe98ae99bf20f191U,
  0x3f401bae3f3079b4U, 0xbf4271ba3f507281U, 0x3e4ae7653f8e53c9U, 0x3f11fd6bbb7942f7U,
  0x3f7dc731bf04b7c7U, 0xbf5edd1dbf5761b9U, 0xbefe8f043e9ae931U, 0xbe8a3daebeeaf5b2U,
  0xbeb8768d3f3ad6f1U, 0x3eb283353e77c62bU, 0x3f38a7bf3f06fe17U, 0xbf544fea3e9381feU,
  0x3e2a934a3f3a0914U, 0xbf5715de3fbf6d12U, 0xbf91b429bde3cd30U, 0x3e449119bf2916abU,
  0xbd9f4e1c3eb4753dU, 0x3d9da87d3e1c70d3U, 0xbeae8e49bf1e0f77U, 0xbeec393dbf18bf0eU,
  0x3f0a5089be10cc5eU, 0xbf8eeb40bf9fc126U, 0xbf13d3fc3fafacc0U, 0x3f702bcb3e88c88eU,
  0x3eca1ca6bf5d9808U, 0xbf8e5af7bf6a9d8bU, 0x3f112c333f59552aU, 0x3efa4bdebe960d87U,
  0x3f0fb4c33f7a8a89U, 0xbf6440bc3f126d2cU, 0x3fca10683ea686a8U, 0x3ee0b63ebeca349dU,
  0xbf66cca73f113f27U, 0xbfa87b88bf8f41cdU, 0xbf34014abea17aecU, 0x3f0c02cdbf4543a3U,
  0xbd70147f3f10618cU, 0x3f33edb43e56a644U, 0xbf55b666bf6b3e39U, 0x3d45befabd8544c8U,
  0x3da01b6d3de21191U, 0x3db5591abf863acaU, 0x3ef52336befdd8eeU, 0xbd03b6b43f14abdbU,
  0xbf0c556d3f55a92fU, 0xbe9e81253ed10b56U, 0xbd96f1e13f34c9e5U, 0x3fd97daa3dbdae8aU,
  0x3f08f46b3f3190edU, 0xbe56a397bebf9596U, 0x3fbce61ebf12709aU, 0xbf1b5db9bf6c32adU,
  0x3f0c623bbf455e7cU, 0xbfc8caa6be4ef077U, 0xbefb7ff53eea87f0U, 0xbf0f51163df5b8e9U,
  0xbdc358c2bf8f83fcU, 0x3ea173f93e235faeU, 0x3f805b4e3e54d564U, 0x3e5939bbbee055fbU,
  0xbd3bf363be411b13U, 0xbf5e5a22bf015c34U, 0x3e21e921bf0243f6U, 0x3e74a376be8a2467U,
  0x3eb8253a3f2f75deU, 0x3fd542ab3e8f8d97U, 0x3f0a65ed3df83f72U, 0x3dd26d3ebe84714fU,
  0xbf21f00f3efe11f7U, 0x3efe6a053f7059dcU, 0xbb0c6ed4bf5cd90fU, 0xbe985798bf44aad6U,
  0x3bfd8c65bf499c4cU, 0x3e426e5ebf2cfedeU, 0x3fccb2363ed8c1afU, 0x3ed3d9bc3e2ec7bbU,
  0xbf0313fc3e4061e3U, 0xbef54da6bf24e8b2U, 0x3e710af9be93af4eU, 0x3d7ef7043fc18132U,
  0xbead535f3fabdbd4U, 0xbe597bc53f08d2feU, 0xbed1fd803f09d53fU, 0x3f154c013efe0151U,
  0xbea3910a3f01b2bcU, 0xbec28476bf5e4289U, 0x3f9b51b03d5b3727U, 0x3edb587d3fa8475cU,
  0xbf3a6d3cbd0c72c5U, 0xbe9333633ea0bbc2U, 0x3f7c31dcbe8799d6U, 0xbf1f379ebddd5d11U,
  0x3fa0e69dbf63b0b0U, 0xbf72c4f23d70e128U, 0x3d265de6bed346fcU, 0x3f04b39e3f4762d4U,
  0xbf9cb1ecbdaf4a79U, 0x3f462d3a3f36833eU, 0x3f847405bea47c32U, 0xbed71b043ec1da08U,
  0x3f6d6e863e7eee35U, 0x3f81a6e63f22787dU, 0xbf980b963f28a02aU, 0x3ee146b2bf329150U,
  0xbf229aff3e6efc05U, 0xbf069adebef49709U, 0x3f123b8ebeee9524U, 0xbf2ae4fe3e507ac0U,
  0xbf1754d8be63dd6dU, 0x3decf2e2bf1372d8U, 0xbf1987803ffa1aacU, 0xbede4c34beca73abU,
  0xbe4f6922becc5701U, 0x3f0cdc02bde9f3b2U, 0x3f12bc80be692c76U, 0xbf0b95e4bf726845U,
  0x3e518ec3be7ed934U, 0x3f679fc13f3dc670U, 0x3eb8360dbf153552U, 0x3e1d88603f296853U,
  0xbe70fe693f3ffff1U, 0xbf0668cbbe716946U, 0xbfe497bc3f04f207U, 0xbfb0afa33f702efaU,
  0x3dfdfdc83f26957eU, 0xbe556d9ebbf51362U, 0xbf351f043f39d134U, 0x3f037c9dbf848358U,
  0x3f7f9405bef4d4ebU, 0x3e28395e3ecebd9eU, 0x3e3938a13f302360U, 0xbeb510e83e92d2a1U,
  0x3f1e7f7dbf312e85U, 0x3f5e4269bea11c37U, 0x3f62d8a93d87ab96U, 0x3db8426e3f9b6a95U,
  0x3ec615abbdb3078dU, 0xbf03aab93edee672U, 0x3f2a704bbf291809U, 0xbd626948bf0a9af2U,
  0x3f1a4f38bf2ed64eU, 0xbf89568abf758f0eU, 0xbed3ece2bedfb759U, 0xbf4ef1f2bccf5b32U,
  0x3e8503943f1dec29U, 0x3fbe3e003f59027dU, 0xbf3661764019700cU, 0xbf80f6ddbdd43a29U,
  0x3f1ef1c8beb1c9ccU, 0xbebea028bf4315ceU, 0xbe98152fbdfe83e0U, 0x3f515b5cbeb6dabfU,
  0xbf80c6e23f30b1a3U, 0xbf2bc67b3f9d0b5bU, 0xbe99a0b0bf913d65U, 0xbd9e4a973e983e78U,
  0xbe273ea93e647a3fU, 0x3f38ac10bf409097U, 0xbdf6491fbf1d76fdU, 0x3dcd947d3e61adfaU,
  0xbee989c5bf13696dU, 0x3f8ce4e6be86f1aeU, 0x3ec4d1c63f85d85fU, 0xbf72ccb0bf6bc0a4U,
  0xbdb579953d81e298U, 0x3ecf0163bf56d3daU, 0xbbc0fbd63ecf60c1U, 0xbe04619c3eea3711U,
  0xbe62b6b43d44c2ffU, 0xbf8d3074bf8bd449U, 0x3f2ac3423ec5ac1aU, 0x3e4993013f460c93U,
  0xbee5ef8cbe1b7b4aU, 0x3e2c00aebf0e351eU, 0x3fd04f36bfb6c585U, 0x3f5793e3bf230731U,
  0xbdb4f85bbd1b26faU, 0x3f5c66dbbec1deb0U, 0x3dce54c93f220e3eU, 0xbf28506cbe731cc1U,
  0xbe4c9ca03e302e10U, 0x3fb63baa3ef6c281U, 0xbe1869903f9c9045U, 0xbf1538bdbd85343bU,
  0xbf3c4082bd97c3f1U, 0x3f62c2b1be75c26aU, 0xbeb569523e19eb17U, 0xbf1dd3d2bdc2fad7U,
  0xbf927a77bf077a14U, 0xbf003c3abd32af35U, 0xbf564a07be9507b8U, 0x3fa2a5973e20a0a0U,
  0x3fadcb323e853e54U, 0xbfaaa779be51fe2cU, 0xbe33f6a4bd5d8677U, 0xbd5ce6a63f0cebb0U,
  0x3ce529313f687bf8U, 0x3f9a6945bf5fb062U, 0xbf1a6299bdac7063U, 0x3e94a751bece93efU,
  0xbea8ed7fbfddb5c5U, 0xbf94d506bed253a0U, 0x3ebca7b6be06618cU, 0x3f0a3b293c0d5156U,
  0xbf75f02a3f29c3fcU, 0xbd17b51d3f2ca8e6U, 0x3e00203f3ddce641U, 0x3eeab7513ef3c605U,
  0x3e025743bcf2036dU, 0xbf06d58ebe146b4fU, 0x3daf16ae3e95052dU, 0xbeacdf473eefd4d2U,
  0xbe19be54bf8385caU, 0x3e297799befae5deU, 0x3fab7130bf091aceU, 0xbfa41c49be14e556U,
  0x3e72f1493f646481U, 0xbee29468bf07f220U, 0xbf8e85533f282196U, 0x3f3c5c9c3f74250bU,
  0xbf462f8f3e1615adU, 0x3efe7e663e0d4736U, 0x3f8a0dc2bec1a8c5U, 0xbdba1eb6be92bd49U,
  0x394112d03eaff022U, 0x3e936bbebd50c44dU, 0x3eafdee83f0eca7eU, 0xbd9de4563bfe7862U,
  0x4022b05f3f3e4f77U, 0xbebef6e8bf78b5cfU, 0x3e3541adbed4bd4cU, 0x3ebd014b3e0bd626U,
  0xbc5fae11bf0dd6b7U, 0x3e9864adbf02fb0fU, 0x3ee4b83e3e4225b2U, 0x3ed37e40bfb266aaU,
  0xbece80ebbe9d50acU, 0x3e19ee4a3f24a88dU, 0xbe078161bfcf8ff7U, 0xbecbe8ec3f3f3325U,
  0xbe2622553e83f721U, 0xbf2e99723e8f51a9U, 0xbec2489f3f09a995U, 0x3f930d8e3f3404f3U,
  0x3fa47a4cbebf7d95U, 0xbf883ce7bf563902U, 0x3e85cb003e3b8dc6U, 0x3e8023ed3e84928cU,
  0x3e26cf843f2cff4aU, 0x3f3e761e3f4acbccU, 0xbc1aa3e7be7e7a90U, 0xbf8689683f508af6U,
  0xbf83f1043df055e8U, 0x3f5936173f244bfdU, 0xbe7b38753ddd645bU, 0xbfae3e5dbeae161dU,
  0xbeecf9c03fa4e7c9U, 0xbf2d3c20bf4aec45U, 0xbe853a69bd0a7162U, 0xbe1faf4bbf84230fU,
  0x3f06d7f33efd5fbeU, 0xbe4072c53e33e25bU, 0x3f3a7dc5bd747f38U, 0xbeecb9e43f2734a8U,
  0xbe74cd66bf285055U, 0xbf630633be638085U, 0xbf04248c3f1480a9U, 0x3e904138bd458a80U,
  0xbddba2883f050318U, 0xbef20889bf88667fU, 0x3f9436453f539c36U, 0xbe95adeabf0689e4U,
  0x3f85e00cbf990b1fU, 0x3f83bc7bbf3b929fU, 0x3d99e03c3dbe74a9U, 0x3d943d843f63dcd1U,
  0xbf4c0ca63e15f98fU, 0x3e9e200dbeb1f7e9U, 0xbf5bef993f0ecf37U, 0x3f14cc7abdd6e71bU,
  0xbd4affc6be93dcc7U, 0x3f83ddcc3f2f9425U, 0xbf5b40f93f952774U, 0xbe8e6b95be5bfddeU,
  0xbd3ab03dbea8ab78U, 0xbf99b2723d920cfbU, 0x3fa7263dbf2f20b2U, 0xbd9200d7bec57716U,
  0x3f90453d3f01ab78U, 0xbf50d5dcbf838461U, 0xbeb3430f3e73c834U, 0xbeb41e7fbebc29a4U,
  0xbf492990bd05ed23U, 0x3ddbb990bf5b5f2aU, 0xbecaa3d0be5ffc66U, 0x3f44debe3e4d278dU,
  0xbf3986043eae38a4U, 0xbeb605d6be5a75e9U, 0xbef2ad0d3f9bc15aU, 0x3e47b971beff31e5U,
  0x3f008c27bf21b469U, 0x3f17fe323e71356fU, 0xbf28a0b9bfabafcfU, 0x4025ee2ebf5672a5U,
  0x3fa14de5be8a6df1U, 0xbf66cf553f4f8417U, 0xbf46e7a6bf44ee6bU, 0x3f505b80be23df90U,
  0x3f05a48a3f944c87U, 0xbeae838cbf92922fU, 0xbf4d06b13e1108a2U, 0xbf91e662be1df2f2U,
  0xbd300f633e2294c4U, 0x3f816c083fb06e2cU, 0xbf79008a3dd74370U, 0x3fdef4db3cdf3f7aU,
  0x3f0717e3be8f023fU, 0xbc2bfa123d090b3bU, 0x3f65b36d3f2689a1U, 0xbedb78023eaffe9aU,
  0xbd53bc263f97a0c1U, 0x3f317ea63fbcf764U, 0x3ee3a6d9bf8c67d9U, 0xbd8c28513ebb1d59U,
  0xbf196ecfbef4c35aU, 0xbf2813df3f26ff44U, 0x3e91e6403f7278f4U, 0x3ef70b9ebd248cd8U,
  0x3e762726bd5c80dcU, 0x3f159e98be13e495U, 0x3edb70ffbe838c02U, 0x3fb6ee713eff965aU,
  0x3f13945d3d216ec6U, 0x3e8b843b3f49bbbbU, 0x3f1e15bfbf62c8dbU, 0x3ecf92e1bf01f559U,
  0xbf91ddb9bea6f8beU, 0xbeaa6d34bf288bacU, 0x3f23093f3f749055U, 0x3f03e27b3f8ece4aU,
  0xbe0561df3f8a03ffU, 0xbf3893b4bf2870fcU, 0xbf772149bdf72d32U, 0x3f3d90bd3ed7c301U,
  0x3e3885163ec2366aU, 0x3eab0206bf1990d8U, 0xbf764414bf247164U, 0xbf1e8c6e3f995921U,
  0x3f52be3fbf2645f9U, 0xbf505b2f3f944030U, 0x3ef0e7683efcb038U, 0x3ea8117540291ee6U,
  0xbf1d913dbfcbdadeU, 0x3f0e5489bf8f1ba5U, 0xbd6436b6bf266a06U, 0x3e5bad243f00e0c2U,
  0x3f488a51bf8ab18eU, 0xbf478bb13f19aeaaU, 0x3dc797803f5c17ffU, 0xbe9c6b0a3f26d08fU,
  0x3ea1aefc3f718666U, 0xbe5c8fa23fb3fd67U, 0xbf8e29f5bf1481dfU, 0x3f39d1563f86151fU,
  0x3fa725883fbd7991U, 0x3f104681bf080bbaU, 0xbe9ce1a5bd62abd2U, 0x3f1bac4ebec0befdU,
  0x3f248e5c3ecbf1a1U, 0x3f2e636f3faa4998U, 0xbf519097be0aa9e5U, 0x3e39590d3edb482eU,
  0xbdcbce123e49fe92U, 0x3f320890bf82abb0U, 0xbdd58c0bbf03c92dU, 0xbfb34460be8bffbcU,
  0xbef9ff683d9de1e4U, 0xbdef311cbf7f833cU, 0xbe18400c3f2cd100U, 0xbec1d1e73ef58c9bU,
  0xbee72e0fbef7f043U, 0xbf9adf273f84e154U, 0xbf16e0833a42e9e4U, 0xbea96a08bdeecfafU,
  0x401bf6423f0d29e9U, 0x3e905edb3f1424beU, 0x3ea8e884bc3eb148U, 0x3d5a4955bdfb9743U,
  0x3e7551f43f178f4dU, 0xbfaea49b3eafe36dU, 0x3fc034553ea21d16U, 0xbf8a41e93dd05f82U,
  0xbf06d087bc187342U, 0x3f7f8d373f216ab1U, 0xbefd57a53f03acb7U, 0x3f56d920bdb3b32cU,
  0xbe9921ed3c4b1b76U, 0xbc7adb5abe9ca6f8U, 0xbe47e2c6be9400d4U, 0xbf7e6d2d3dab26b1U,
  0xbf29842a3f67ac56U, 0xbdea3c703f00bd82U, 0xbee258663f47ffe3U, 0x3fd14cae3f96b2c4U,
  0xbf366e343c6b6a10U, 0xbc3786193f8a496fU, 0x3e9451d83f228adfU, 0x3f16982b3deed6e3U,
  0xbeaad0eebf14f7a5U, 0x3f577916be16ccd3U, 0x40262819bf2fe022U, 0x3e31063f3ec15ae6U,
  0xbc9aa2633f032b0cU, 0x3f7cbf3dbd68613bU, 0xbf192806bf72d7daU, 0xbf7dcfdfbe749ec9U,
  0xbf0d23243f8aad1dU, 0x3e3232cabe745413U, 0xbe3464483e09337fU, 0xbf0cc7b13e7b6529U,
  0xbeb4340d3ed369e8U, 0x3f3b58eebec1f4acU, 0xbf07922dbf282bc5U, 0xbf2044043d76a6f3U,
  0xbe53e926bce76c52U, 0x3d5ea7e73e0a7761U, 0xbed698363faeaaf6U, 0xbf51d5debf1cb559U,
  0x3e2bde2f3ea7ff5aU, 0xbf52cacfbe495557U, 0x3eb70387400c7106U, 0x3ed304d13f607ec9U,
  0xbea1ea90bf35bfbbU, 0x3fa46db7bf1555e3U, 0x3e13c47f3f079875U, 0x3e4cfd733cb4c725U,
  0xbd2ee0b7bf217dfbU, 0x3fb3edb8bf06a509U, 0xbefd6abd3fad4123U, 0x3fc342bcbf7e16d9U,
  0xbf8549e73f9be245U, 0x3f11758d3d4c2b88U, 0xbed083cb3f6c4d16U, 0x3f1f784f3f828577U,
  0x3ee097a5bf6799a5U, 0x3eb0d83ebdd4e117U, 0x3e67894fbe08fe40U, 0x3e509febbec8cf41U,
  0xbf1e3ba33f05574eU, 0xbebcc745bf258319U, 0x3ec209463e6b5463U, 0x3eff789bbf778c0aU,
  0x3f465f493fbb384bU, 0xbcaf799bbe3dc382U, 0x3f7dda0d3f349c40U, 0xbf38d518be63c448U,
  0xbe882c5c3e673d94U, 0x3eb37948bf819610U, 0xbecc0bc7bd2978efU, 0xbf587a22bf54f285U,
  0x3e76728bbe943f8eU, 0xbf621bd03ec32972U, 0x3edff6dfbeef3dcaU, 0xbf0640683f31fe41U,
  0xbdabde983f2df33aU, 0x3d0cf1903f62f660U, 0xbdcf4751bd372470U, 0xbf42c1693e8a709fU,
  0x3f0dc2ebbe4dc170U, 0x3f1d3fbf4006edf1U, 0xbdc102a43e71bf4dU, 0x3d827bc7bf811647U,
  0x3dad5217bf85651cU, 0xbe0bcd27bf339affU, 0xbcfb2ae73f2b6cd0U, 0x3f9d55693f83f6eeU,
  0x3e766c6a3f24b648U, 0xbee4b46e3dd12697U, 0xbe13bfa23f2f2100U, 0x3f3da21f3f84230dU,
  0x3e7bd72e3f1e2477U, 0x3fc2ac253f84382dU, 0x3e543392bf45d536U, 0xbe5027433ef3c32eU,
  0xbed96b7b3f9353cbU, 0x3ea070733c859cb0U, 0xbf07473c3e2969d4U, 0xbc0dfa51be157e2eU,
  0x3d53ab373f670c57U, 0xbf9b20463f95fd54U, 0x3e888ac13f303dc3U, 0xbd6ba1f23f2528d5U,
  0x3f30187dbee3a8faU, 0x3da1d5dcbfb39b39U, 0x3dae423ebef92e66U, 0xbd36a380be882f50U,
  0xbf9dcf3e3f811244U, 0x3dfefb413f89cbafU, 0x3f11a9913e0591efU, 0xbf577beb3f24f52eU,
  0xbc19facabe90b578U, 0xbf384346bdc6207eU, 0x3eccb465bf40d86cU, 0xbe5aa52e3e190c3dU,
  0xbe0e26c6bea857b8U, 0x3fa820553fb65f87U, 0xbeb593403f672c8cU, 0x3caa5ecc3dbb9526U,
  0x3f4f03303faec765U, 0x3fd9ace1be2ffde1U, 0xbf65af13bf516e47U, 0x3f109be7be3850e5U,
  0xbc41842dbf946cb1U, 0xbf6d776cbf25ae99U, 0xbe9ebe7c3f8579a4U, 0xbf23b6103f602dcfU,
  0x3eb66cad3e39c506U, 0xbe89fcc03f7c9d7cU, 0x3fb5b07b3e5f4addU, 0xbeb67dd63dfcf97fU,
  0xbf4c554bbf30c09bU, 0x3e8db43bbf631775U, 0x3f810e9f3f3c35f9U, 0x3d9f718fbf1d9cbcU,
  0xbf09b07a3f0e76f5U, 0x3f07b5473f393fc3U, 0xbc4bbe283fba43c9U, 0xbee261cb3f63385dU,
  0x3e0378fd3e020f1fU, 0xbf1b64fa3db675bbU, 0xbeb0bc74bfd3d962U, 0xbe45d4a13ece42ccU,
  0xbbcc039a3f0b3396U, 0xbefd75f03eee9154U, 0x3f9380d0bf14b934U, 0xbf4ed660bf1fa31eU,
  0x3f68d8b63f8d6f93U, 0xbedda88ebf3c6330U, 0xbf9f28de3d9b6dacU, 0x3ea40e1e3fa7e731U,
  0x3eedcc2c3f22471cU, 0xbe91ab1a3f114f72U, 0x3e1f5ddfbfe2ad5bU, 0x3fbb7fcbbe7a7f76U,
  0x3ed01ca73ebbf96eU, 0xbf84b870bed2fa23U, 0x3da198b0bd48c73aU, 0x3f6289c4bf5922c4U,
  0x3f33bb3d3f65ad21U, 0x3cfbd0f63f09c6deU, 0x3f883d31bea6c7e2U, 0x3ef609ca3f93224fU,
  0xbe21478b3e54f3b4U, 0xbea0605b3eb1e5b1U, 0x3e7a80e93eb1e19aU, 0xbf0bd1903f132361U,
  0x3f4751973ea64b98U, 0x3ec9047e3db4c9b7U, 0x3dadce96bf773fc3U, 0xbf5258ff3e4f3fbcU,
  0xbf696edb3eb3fb8bU, 0x3ebf4226bf2fd114U, 0x3fe7a3cfbf82d315U, 0xbebacefc3ea2e492U,
  0xbfb1c751bee39c90U, 0x3e9979e4be96bef4U, 0x3f815fdd3fa22422U, 0x3f6863223f142443U,
  0xbd0173143f15b83eU, 0xbecd404b3edb9360U, 0xbcebeb9a3f303a3dU, 0xbd99690e3fb767c5U,
  0x3e0dd9ec3cccc9c0U, 0x3f197f2d3cefca73U, 0xbea93992be416b9bU, 0xbe3dc0b0beb6a8b8U,
  0x3e0598073f19a61eU, 0xbeb6bb793cbcd74aU, 0x3e81ab35bcfe2568U, 0xbf609b603f36cdacU,
  0xbf281b6cbdfdbe2aU, 0xbf8c021b3f86c091U, 0x3f09ff633f607830U, 0xbf1281d03e37fd7bU,
  0xbfabbb71bc459603U, 0x3f0f00a9bf64f9dcU, 0xbbe3bdf63e1e8113U, 0xbfae659cbf0229a9U,
  0x3f9408dfbe704512U, 0x3e400a423e9b113fU, 0x3f1e46243de1aae7U, 0x3f57b5e4bd5d9852U,
  0xbd1414893f796a74U, 0xbfa2aa6e3f37cbc8U, 0xbf135be8bf171ba1U, 0xbfb51b31bef5455fU,
  0x3e835c4fbda9410eU, 0x3f427cf6bef9cf19U, 0x3f0d811d3e9a446eU, 0xbdf34f11be56d2d1U,
  0x3e1114afbf88edfeU, 0xbe91b7a53f99c873U, 0x3d91deddbee2a980U, 0xbf4bec61bf01ce4fU,
  0x3facea17be4b9532U, 0xbf3c4c1b3ed24f57U, 0xbeed84263f00b62bU, 0xbf308e15be9e6bd7U,
  0x3dc41d9d3f57994aU, 0x3ce92381bd5c7f9eU, 0xbfabbc3b3f0eaf17U, 0x3f44b220bf0379baU,
  0xbf049a7f3e91d588U, 0xbf12f077bd11cb4bU, 0xbeecfb15be36339fU, 0xbf5c6f8f3f61812cU,
  0x3e8f8765becfbf8bU, 0x3f1db362bdc2bb65U, 0x3f891030bf34505bU, 0x3f83dd3dbedb7f09U,
  0xbf6212563fede491U, 0xbf2c4b5c3e0d62cbU, 0xbe2c18573d31aa07U, 0x3ed2d3a0beb6dcf7U,
  0x3f3138223f7fc33bU, 0xbf07cf8e3f2451f4U, 0xbe9326293f7ed102U, 0xbf5350473f272010U,
  0x3fa15a13bf85725cU, 0xbf5a5c423ecfd8b8U, 0x3ea32ab23fbd0395U, 0x3e029c1cbe9df6ccU,
  0xbe2f893dbfba933eU, 0xbf39861cbed6af2bU, 0xbf2dcd5b3f569f62U, 0xbee1ceba3f93f72dU,
  0x3eb86c5c3ee4b1f8U, 0x3f5687bdbf1698e9U, 0xbe852027bf5010f9U, 0xbe799930bcf00d7cU,
  0x3e9f4bacbeb2b310U, 0xbf1172c6bf1b739aU, 0x3eacf8333f047ae2U, 0xbf3c79d13f232483U,
  0x3ea6dbe53e28bfa4U, 0xbe535836bea458daU, 0x3e372a7ebf22a425U, 0x3f06b09dbee2679aU,
  0x3fb9996b3f63dd63U, 0x40043020be4832e7U, 0xbf8106d8bf3049e3U, 0x3f2084183ee22f39U,
  0x3fa68e8c3ec4b73cU, 0x3f1375cebef65739U, 0xbf173a3bbf922524U, 0xbec84212bf157790U,
  0x3ed418f9be36a670U, 0x3e7399aabf507214U, 0x3f09cfb4bf1b5e78U, 0x3e533142bf417ae0U,
  0xbea745df3f81afd9U, 0x3f0c7461be398e6bU, 0xbfe588babeea5118U, 0x3f0782abbc4e3d0fU,
  0x3f830df8bf56f7fdU, 0x3f3e9b2ebf05f6d0U, 0xbfa90829bf7e2d11U, 0x3f56aec63f71d297U,
  0x3e83342fbd30e8f1U, 0xbf02b700bfb666abU, 0xbed03e7f3e199e97U, 0xbe158b23bf037668U,
  0x3f1fc9a23f453dd2U, 0xbd5532373f0a5ea9U, 0xbe65c5aabf94085eU, 0x3e03b5ec3ef09d51U,
  0xbf32714cbe12c4c3U, 0x3e3bed01be49bd9cU, 0x3e879f07bc5b1cc7U, 0x3efce5bc3e6cebdaU,
  0x3e8d32763f34e34fU, 0x3d69a664bfb058e5U, 0x3e47438a3fd1e4b5U, 0xbebadb75bf9af016U,
  0x3ea1bf12bf1d16d9U, 0x3f296acebf2eeef7U, 0x3f0b0acebf9b5a81U, 0xbfa3f6ca3e69ffc0U,
  0xbb96008c3f00251dU, 0xbf5138ab3ca422c9U, 0x3ee4df5f3cb8df8dU, 0xbfc457d9bee809a8U,
  0x3ec7ab893eb0e3acU, 0x3ebb0d09bf278225U, 0x3eb02e763f90ae1fU, 0xbe2f07733ebce3aeU,
  0x3fc8392b3f49cfc5U, 0xbe9858aebcc52f5cU, 0x3f2cfab83f33cff3U, 0x3d27a77e3f641cadU,
  0xbf80183f3d5f0772U, 0x3fc4db953e50f341U, 0x3ed4d6de3e402967U, 0xbe8d77ffbf9f25deU,
  0xbfcc6d1e3e9bec2eU, 0x3dc8b6eebe7b7cfbU, 0xbef6edecbecae969U, 0xbf72f2d33f03abafU,
  0x3f9c21cabe11d282U, 0xbf632d86bfb35fd7U, 0x3e528b8cbef295ebU, 0xbc81a0ba3efc687bU,
  0xbf8fbbe03f07957eU, 0x3ec484733eeeccf8U, 0x3d606cf2be5e9be5U, 0xbf10c20e3f345da3U,
  0x3e917bfcbe90677eU, 0x3f9eab5ebf8cb2f3U, 0x3f74c2aa3f5ee3cbU, 0xbec045013e659746U,
  0x3e4d3f23bf3642aaU, 0xbeda98763eddebd6U, 0x3e85c8183fb81bdeU, 0x3fadcd6dbf56acb7U,
  0xbf4aa623be96fb69U, 0x3e8cf1943e3a3e28U, 0x3f6125c5be72a6edU, 0x3f05bb01bff027ecU,
  0xbe2d9d7b3e966648U, 0x3e02b7c73f40600bU, 0xbe50b5b2bf869bb8U, 0xbf402c10bf0b4245U,
  0x3fd76b1ebe9f291dU, 0x3f1f2d55bf009939U, 0x3d8f28f9bec86efeU, 0xbd48beed3ed89c5aU,
  0x3ecbbf2fbecb21e0U, 0xbee25fdb3ede1c7dU, 0xbf60b946bf8a9ba9U, 0xbfafff9cbe2d9832U,
  0xbf037bfa3f9bc92fU, 0x3f4e4628bdd99807U, 0xbfae9705bf0108e7U, 0xbda850453f6f5850U,
  0x3f1231903e9cf4b6U, 0x3f0754c63fc63402U, 0x3ff3c170bea981a7U, 0xbc8b5e30bdb12fa5U,
  0x3e2ac03abebb14dbU, 0xbf5666d8bf51fcbfU, 0x3f2b0084bef614d9U, 0x3ee754db3f980bb6U,
  0x3e6a27b3be8774beU, 0xbed24d8b3fd40a49U, 0xbec6ff20be88aa29U, 0x3ec4b09cbf0a6202U,
  0x3f097c49be410e62U, 0xbf800675be9ce685U, 0x3f8ff3c23ecff33dU, 0x3f536fe6bdfa2aa1U,
  0x3e8e9d653ead5c1cU, 0x3ec7ef8c3ed12ac5U, 0x400839203f18cfafU, 0xbe828f303e948db3U,
  0x3ee16672bee72c0eU, 0xbf8180893f47e97dU, 0x3ea505bd3e4b0850U, 0xbf15dd14bda0f346U,
  0xbecc119e3e64505aU, 0x3eeb36d0be91da70U, 0x3eb522dabd724a2aU, 0xbeb3c6cc3e1000e9U,
  0x3f8623973f62a7e4U, 0xbeff1244be817c26U, 0x3ebc36efbe8ae70cU, 0xbfbb92dfbf200b9dU,
  0x3e978aaa3ede6208U, 0xbea1d8a33d921a01U, 0x3e410bffbf17ced1U, 0x3b7f31b83f266a92U,
  0x3dc5bd843f6b4da8U, 0xbf67d39fbe38fa63U, 0x3f713e19bdcd6170U, 0xbf4ec79d3e7014c7U,
  0x3f7bd6a1bf51d93dU, 0x3f1307f33daf16b4U, 0x3d9e91c83e676d95U, 0xbf1bfa0abf80b4f0U,
  0xbf7f9311be4199f7U, 0x3f1fe0f0bf8241f1U, 0xbf4a9cdcbf8855d6U, 0x3eaf04f03eff582dU,
  0xbf32f918bf6655c0U, 0x3e832f14bf69a51eU, 0x3de73a2a3f2d4c5aU, 0x3fa5f49c401f9ffcU,
  0x3e551bd7be59e67eU, 0xbf0945fc3d31d185U, 0x3f767cb13dc2fae5U, 0xbede89d7bd99cd00U,
  0xbf311c3b3e2259d3U, 0x3e5c67fd3ed8dfedU, 0x3f5e619b3f09b1caU, 0xbedec22c3e7889abU,
  0xbec381423e617c7bU, 0xbedac8513dfdbefdU, 0xbf8735abbf40c900U, 0x3e4b6b16bef8b137U,
  0xbeb788643e857a74U, 0xbf6b510abeab4fa9U, 0x3fac6f79bf9640e9U, 0x3e6d55b03e813dcfU,
  0x3edf9257beeff4b3U, 0x3f2cbb1c3e942101U, 0x3d183d01bebcd963U, 0x3f3e6fb83f576bf2U,
  0x3f2a3ce93dd7f08bU, 0xc009b4e43ed8ff29U, 0xbe91b578bf78b7d3U, 0xbf28f5df3d9115f6U,
  0x3dc03107bf338be8U, 0x3f5e17513f00f0a0U, 0x3db073624009a0afU, 0x3ea6b9583f42c144U,
  0xbea5c744bf665a98U, 0x3efe00923f1801c2U, 0xbf518a6b3e41addfU, 0xbd962437bcafe698U,
  0x3e0c5599bf715167U, 0xbf7b66dcbfd7b3a9U, 0xbcaddf3f4002198bU, 0xbe7d90093f336b7bU,
  0xbf87207cbf9580ccU, 0xbf0daba1bee7ac2dU, 0xbffba2dfbeada3a0U, 0x3f699b653d2703bfU,
  0xbead4a9abfa2120cU, 0x3eec58063f067f54U, 0x3ef434bf3faecc34U, 0x3e8c3ed73f908a83U,
  0xbee8847bbf4afaa1U, 0xbf238b1e3f0c9c76U, 0x3d27ae10be89c9beU, 0x3f21c9073e4aff0dU,
  0x3e307faf3d6317c6U, 0x3dd201953eaa8349U, 0xbefc74fe3ee9dbf4U, 0xbeb03edebe15200eU,
  0x3e896afabf42c2daU, 0x3c68c5a53fa0c7fbU, 0x3f7118ea3fbc7c5dU, 0xbe21d990bde92c08U,
  0x3dcf77c3be8517f3U, 0xbd9e401fbe05997aU, 0xbf03067dbefd1ae1U, 0x3f0464b0bf4317a7U,
  0x3e6d0ad83c0b29b8U, 0x3e6345f9bf10bf19U, 0x3fb18c283d413febU, 0x3f0c5b63bfd0593eU,
  0xbf24cc3d3e15e30bU, 0xbf764ed63f9d40ddU, 0xbd32c5e23f012dafU, 0xbba844fdbce858c4U,
  0xbf92926abf42ad98U, 0xbff43b4c3d888904U, 0xbd57ee14bec13d39U, 0x3e3565833f51c658U,
  0xbe41c27abdbfbe57U, 0x3d5f55943eae5c74U, 0x3e8d45a0beeccce4U, 0x3ec37f0f3df11989U,
  0xbf3df89f3eea5d04U, 0xbe8e9e4dbfa1f692U, 0x3f528753be73105fU, 0x3c6cf2b03ca38f2fU,
  0x3fb7be20bf8e015fU, 0xbf2a5e80be3a4f81U, 0xbeff988c3f535791U, 0x3eeb216b3ec187ebU,
  0xbec6db0fbeb107a5U, 0x3d85a0c9bec8a0e5U, 0xbd8375043ea87437U, 0xc012b7e43e7af3c1U,
  0xbe64c83a3f1f52eeU, 0x3d9292b4bf3c77b8U, 0x3e92a601bf610223U, 0xbf8b4376bea6ce56U,
  0xbe60fad83e259d10U, 0x3f101869be816c5aU, 0x3e51c938be0de25eU, 0x3eace8483ea90ad2U,
  0x3e6d621fbf06630aU, 0xbe55100abec10c13U, 0xbfa63259bee8d7aeU, 0xbf58a472bfdcff23U,
  0xbf85f1b5bf5f94aaU, 0xbf7518303edb7834U, 0x3e048f2e3fb59a0cU, 0x3f1aaddd3f296cecU,
  0x3fd04d1abf203817U, 0xbf27bc9e3ecba388U, 0xbf76c733bbc76714U, 0xbf657ca63e5b05edU,
  0x3fa1de113db9b1cdU, 0x3f1d15273b613816U, 0xbfa703ce3f32d67fU, 0xbfb686293f5870a5U,
  0xbf3d3e95bf691d82U, 0x3f703c9abfa2a5c0U, 0x3ee4f8103e95107aU, 0xbec516b83f820519U,
  0x3d548f303f470b34U, 0xbfa6c2153e63c373U, 0x3c910a40bf3ebd07U, 0x3f55e2b83e878d2cU,
  0xbe08fbc2bf028903U, 0xbf01695c3e2edff4U, 0x3e8f6cb3be996512U, 0x3f1e2dee3f6aed21U,
  0xbf8d1ff53eed521aU, 0xbc59fc943f37e7f3U, 0x3fb240943df36c90U, 0x3f185b0bbf0aebddU,
  0xbe68c8173e1474aaU, 0xbf828a6e3f57b4d1U, 0x3ea19c30bf92326cU, 0xbe0f360fbf850f51U,
  0xbefbe5493e984adaU, 0x3edb88863f2645e5U, 0x3fcd10a33f898281U, 0x3ea10502bf893decU,
  0x3f17f23cbead4612U, 0x3f1387adbd33f5adU, 0x3ee4f484bdac63a8U, 0xbe73d5503dbdfc0cU,
  0x3e0bfa5d3e4dc858U, 0x3f706ed6beae477cU, 0x3f2237b0bee8387fU, 0xbf24700c3e8d2bb2U,
  0xbfea2599be84b0c0U, 0x3f5c93f6becbb137U, 0x3edd2eb33f96ea8eU, 0x3e93039fbf34f563U,
  0xbea48dbd3ea23b9bU, 0xbe88da9dbf57e73eU, 0x3e5f8a00bf4e4369U, 0x3c5ab3873f31225bU,
  0xbf572604beda7c7dU, 0xbfc6c4493fc09f60U, 0x3e3b9d263f1b500cU, 0x3d83a099bdee0395U,
  0x3ea62f94bec582b8U, 0xbe677a8b3d83d44cU, 0x3c572efd3f9a5f59U, 0xbeb8880fbf3f0d75U,
  0xbebccdcfbc70fd63U, 0x3e802175bf587cabU, 0xbe188c233fd7f4d2U, 0xbf2fc7ddbe437e89U,
  0x3f24549bbd68d672U, 0xbfcd0bbe3f319178U, 0x3abdbb8cbee0d07fU, 0xbf15c2233ee16540U,
  0x3e663e70bec3a8daU, 0x3e04661c3d8d65cfU, 0x3e93d05dbfaa9ed7U, 0xbf88f6e9be0df451U,
  0xbf3832dd3f740424U, 0xbe5202b33fdb6228U, 0xbecb38ee3f45aa80U, 0xbe076a763f2f5540U,
  0xbf51715d3f15b739U, 0xbef9acfb3ee27c11U, 0x3f1b0b233debd207U, 0xbf69fc363d9c0b07U,
  0xbf6790423f3b4d47U, 0x3e157714bf957dc8U, 0x3f9d97a73f3aedb5U, 0xbdb3b9733ccf7ce0U,
  0xbf08c4e7bf1b3254U, 0x3eb2063fbedcebceU, 0xbf263850bf6e294aU, 0x3e8fabe83f9bfb64U,
  0x3e1ebf93bf8173b0U, 0xbcf3dca7be38cf0fU, 0x3fdd589fbe0a85d0U, 0x3ea5eff53f762567U,
  0x3f4fed78bea0f25dU, 0x3fa364833e3a9312U, 0xbf6dc8debf5ee8e1U, 0xbc6e3ace3d8349ddU,
  0x3f2a27c0bf3e7201U, 0x3d9177f23f249323U, 0xbe2e19f53faedf4fU, 0xbecf0d33be8b92e0U,
  0xbf76d4f9bea7b12aU, 0xbf0da224be3c65b9U, 0xbed9dc6fbe695e5eU, 0x3f758ade3ff5cf37U,
  0x3f88bc00beca43eeU, 0x3f3fdffe3f807f39U, 0x3e1082323e3f2b28U, 0x3bb03a1abeb49a6cU,
  0xbd191b87bec2a552U, 0xbca9763ebc8a0852U, 0xbf6a41d6bfb72376U, 0xbe593f133dd7ac35U,
  0x3e9bd729bdac3b90U, 0xbfdbf6bd3f23f4fcU, 0x3ea14f463e1ed9a2U, 0xbe950ba73f2189c7U,
  0x3e6a6675bf4ae77bU, 0xbe4eaae13f23f842U, 0xbe086b1a3f0b9adfU, 0x3f19232e3e0cd526U,
  0xbf3081ca3e3f51c2U, 0xbc768e98be68c8ccU, 0x3f4e51b63e93a6ffU, 0x3f9c0240bf336d0fU,
  0xbf9b1cdbbfa21d48U, 0x3e806f59bedcc0afU, 0xbf33dea93f46214fU, 0xbf552dc03df90953U,
  0xbf93c959be10c6b8U, 0x3e96d8e0be9e76c5U, 0x3f819d023da48ddaU, 0x3f311aa43f52bb90U,
  0x3f49fae13deb0a9eU, 0xbf5a6e9abf7a394fU, 0x3f57bd183d1acd2eU, 0xbf46a99cbed46521U,
  0x3e0b9f5b3e0255f3U, 0xbf3d9d133f26907bU, 0xbf83fc6a3e8b1f6eU, 0x3f29bc693e2165e6U,
  0xbe9f77a1bf2150e2U, 0x3e843cbbbf05d339U, 0x3f85c317bece30eeU, 0x3f568c2abdd29f22U,
  0x3facc6773f6234e7U, 0x3c2e7f093f032df7U, 0xbe0b1f01be9f3aa2U, 0x3e301275bf492b7dU,
  0x3f86d8c03f879ed7U, 0xbd125ec8bf0d1b6bU, 0x3e8984733d91b288U, 0x3f1a12533e8ac78fU,
  0xbe73fd28bdc99a58U, 0x3fc90403bea6d12fU, 0xbe5cc348bfba9c3dU, 0x3f48724b3e5b800cU,
  0xbe4e4c44bea91e5aU, 0x3f8323ebbf0ccf1fU, 0xbe81103c3f301c99U, 0x3e8d4931bf5e8a22U,
  0xbf2ca52cbe94a0a3U, 0x3e3909d33d2b3349U, 0x3f4496f5bf7e316dU, 0xbd91d1d93ed15b46U,
  0x3e450ef53e3e25d6U, 0x3d4e7189bf02ada3U, 0xbe782474bea6bf99U, 0xbfa07e523f7e2c40U,
  0xbea5d62b3f4da1dbU, 0x3dcb1d1f3e13e01fU, 0x3e6837763dd49c2aU, 0xbf3e6df23d88de80U,
  0xbd745b383f287759U, 0x3f50bea6bcaf40a2U, 0xbeb8104d3f06479dU, 0x3f759c8c3e3102e8U,
  0xbe40e996bf71424bU, 0x3f56b2d43e967d47U, 0xbf352afbbf944a99U, 0xbf2159f4bea2302fU,
  0x3db4414fbe5fb3a4U, 0xbe2ae99e3f9e40ffU, 0xbcd889b63f226274U, 0xbf42bf1a3f8338d9U,
  0x3f162697bf0cd40bU, 0xbf481872bf38626bU, 0xbdf65f013e289501U, 0xbefbdd073ef52b72U,
  0xbf8e30953ef99b4eU, 0xbf0ac50b3f29097dU, 0xbeb96d123f7cb3daU, 0x3fbac42440183fc0U,
  0xbf3e71afbf93a9d4U, 0xbf3f6665beae9084U, 0x3ec1728ebe087c4dU, 0xbf28bc0abec88d13U,
  0xbf72744d3f1fb2bcU, 0x3f7d5589bf57a31cU, 0xbeceeff3bda92f0cU, 0x3f71dae73f5d5a84U,
  0xbf98b1eb3f276496U, 0x3fbcc33e3f2c4878U, 0xbf619f3b3ea7b074U, 0x3e346c20beb9b67cU,
  0xbecc2b6abd908c61U, 0x3eecba28bf4f718bU, 0x3f45f1b53d785ed0U, 0xbee444c6bd9c77c8U,
  0xbda037b8bf2939f1U, 0x3f729113bd53e69aU, 0xbe9494eebf72fd60U, 0xbc3213103d3d8771U,
  0x3f4b08b23da7f1c9U, 0x3fb5d816bfa425b5U, 0x3eb310ac3f1106beU, 0x3faa5808bed3ecfdU,
  0xbe520308be3bf821U, 0x3f4b25f93e1fa104U, 0xbef18f313f865701U, 0xbcd3d1c03f678933U,
  0xbf4113fa3f0660a7U, 0x3f38168c3f861684U, 0x3ec725c83fc74db7U, 0x3f881a543f4cd95dU,
  0x3f9f16d8bf62df10U, 0xbc5ded4e3c504612U, 0x3f3577debf199fafU, 0x3c9f12c73eefe31cU,
  0xbf8796bc3f3f9848U, 0xbf63db4e3e14176eU, 0x3d8964c33ee359c1U, 0xbea21b86bb38aec4U,
  0x3eb5338f3f9d1618U, 0x3ed209a2bf8c49b5U, 0xbede0c99bea8c458U, 0xbec223373d0e2802U,
  0xbdbaf4c83d8539a2U, 0xbf04edbd3e68e71bU, 0x3f7bdcafbe819daeU, 0x3def63b1bed7abdaU,
  0x3e1e51903fcd0adaU, 0xbf3d32d23f474b07U, 0xbf8a4b48bed21420U, 0x3e62a13fbc968064U,
  0x3fdfadb5bfa57ae2U, 0xbf3555173f0a09d5U, 0xbf2efb213caa25caU, 0x3f09e328bf6b9e4aU,
  0xbef2e88f3e864e62U, 0xbe3c80ff3f1357a9U, 0x3ed606bebea5bb7dU, 0x3cc150753d9f94ceU,
  0xbfc87bdbbdbd7dc8U, 0x3f41e848beb2115bU, 0xbf6bf557beca2777U, 0x3efdd3113f3b238aU,
  0x3f91d7c13e16bbc4U, 0xbf1a841c3e505424U, 0xbf7e5d183f01b63cU, 0xbf8125bb3e822b7bU,
  0xbed72615bf80488cU, 0x3f7aa8fbbe45e223U, 0xbf17a2283f780939U, 0x3f813f69be1cd3e4U,
  0xbea082393f966f34U, 0xbef2a4acbf4b4f25U, 0xbf2be55f3da56558U, 0x3acb58f2bf91442cU,
  0xbe3d522ebea77557U, 0x3f4877a13ebeebe8U, 0xbf46e60cbf8d5e2eU, 0x3d9f03dcbf4824ddU,
  0xbebe746d3e162594U, 0xbe8ce3bebeb92bc4U, 0x3fac9b993f524434U, 0xbed74e0dbd864ceeU,
  0xbec83c4d3d78ed37U, 0xbf10bf333ecd4d1aU, 0xbecc3b9e3f714208U, 0x3f0ab760be9fc354U,
  0xbf439da93ec58867U, 0xbf326ef4bebde4a9U, 0xbe9370e33f223d22U, 0x3dcb05e93ef98106U,
  0x3eb949ab3efa4148U, 0x3e9ec99dbfdfcd52U, 0x3fa578973e486a3cU, 0x3f5ca0f03f0231d8U,
  0x3f0a78e9bf963a54U, 0x3be58afebe7284e4U, 0x3f24c2ef3f2b4ec8U, 0x3f37bba23e76a392U,
  0xbe404570bf230cafU, 0xbe9791253fc99f5cU, 0xbe4faf4abe522846U, 0xbee94f70be9511ebU,
  0x3e8e1d3b3e133aadU, 0xbfccdf19bf34d845U, 0xbf61b09f3d9a9843U, 0xbe90c8d0bea6f5d9U,
  0x3e8e9d9d3f232111U, 0x3d7306f73e9ccbfbU, 0x3db93ce9bf5aef72U, 0x3f94c9263f707e12U,
  0x3dee299d3f427efeU, 0xbf2bf6173f1e57a7U, 0x3ec4f4433d5c689eU, 0x3e0aa3533eaf6202U,
  0x3e84e0dbbbf01c6bU, 0x3fa87fc23e9134b3U, 0x3ffbf370bf71106aU, 0xbe6201bcbea7ed92U,
  0x3eeb9c303e6fb00dU, 0xbf31449fbf11e056U, 0x3f3f014bbcca7982U, 0x3f7d7b16bf675d6fU,
  0x3fc706493c5e8297U, 0x3cfd9e9cbed9023fU, 0xbca15a99be88064aU, 0x3f6e17a43f606f3dU,
  0x3d0c043cbf550a5fU, 0xbee9d05ebccfad77U, 0xbde04a253e11a399U, 0xbd35d18bbfcc791aU,
  0x3f43b4953fa8dfcdU, 0xbebf1bddbf110973U, 0xbdfeb4bbbddee3cdU, 0xbf2f2172be0e27c1U,
  0xbf3816f3bdfac04cU, 0x3fd931f9bec1d8faU, 0x3f9207ec3ee10d37U, 0xbf97e0f6bed2a74eU,
  0x3eb8f176be916e38U, 0x3ee211953c280562U, 0xbe642614bf3f8a78U, 0xbe121c98befe6a46U,
  0x3ebae3743f9de484U, 0x3e32723cbf4c025fU, 0xbf7c1e5cbd31321fU, 0xbf719a0ebdfbcdf1U,
  0x3e01d747bf4ad66eU, 0xbee747203ea9f5daU, 0x3f6e95c63ec57fe0U, 0x3ff6fa32be4b0524U,
  0x3f146477bed27398U, 0xbf113c6fbef72b96U, 0x3f3075793e10af06U, 0x3f7fd85abf7051b3U,
  0xbcdcc40f3f2e854eU, 0x3d7d9b3dbf6c6614U, 0xbe748d6f3f180407U, 0x3f66034abfd43667U,
  0xbf57f7cbbd93ce45U, 0xbf63ffc7be511518U, 0xbe3f91fd3ea53293U, 0x3f065eff3ee2bdd3U,
  0x3eaf1a133e9f55bdU, 0xbe7640a2bea8744cU, 0xbe542e673fd0a235U, 0xbdadb57f3f79a824U,
  0x3ddf25343eae3ac9U, 0xbf56860cbdea95d8U, 0x3e84734f3dac63a4U, 0x3f507fb7bf153188U,
  0x3ef7cf4bbe31ba1bU, 0xbdcac40cbf03d327U, 0xbf054572bf51c1feU, 0x3fbc4d563fa562c9U,
  0xbe60999ebf926f2dU, 0x3ea127fa3ece40a8U, 0x3f99a073be8126b7U, 0xbf64dd523f668982U,
  0x3f3e481d3eeeb038U, 0xbd7710d43e30a4f6U, 0x3ee18acb3f37e7eeU, 0x3ede22c5bc742425U,
  0xbf788b6b3ebbdf19U, 0xbee72e39bdfd17e0U, 0x3e01ff98be796cdfU, 0xbfc9623a3e5029f3U,
  0x3ee17540becdfeebU, 0xbec3d86a3ec1b894U, 0x3fb300b0bf0ac919U, 0x3e61c293bf96148aU,
  0x3f11c00f3e600607U, 0x3edaba943f1cdda4U, 0x3f016875bf07644eU, 0xbcae103dbf26119cU,
  0xbeb33cefbe9fa9f3U, 0xbf6374733ee0747aU, 0x3e8579dbbfb40da5U, 0xbe786e56bef7eb85U,
  0x3f5ce0903ee63d29U, 0xbf0122033f093a4fU, 0xbefad916bf836fd1U, 0xbd9d73da3f0fc25bU,
  0xbf9e7d423f183d73U, 0x3f15de7f3d363daaU, 0xbd905cf5bfa9db4dU, 0x3f12fe7e3e880513U,
  0xbf5c6cb3bf8400b9U, 0xbe4cd7ab3e9a0471U, 0x3f1818843ef9eb27U, 0xbd9976993e8a8cf1U,
  0xbdb49832bf6de020U, 0xbd0c58c9bf03205eU, 0xbe66cbeabcbacbafU, 0xbf49c67dbe8b85c0U,
  0xbf2364a33f260558U, 0xbf533441bf6b5c41U, 0xbed4bb323f67a372U, 0xbf15ff0c3ef1ec0eU,
  0x3e8d762dbf974c42U, 0x3fbec5ddbd43f669U, 0x3e97415cbe364f46U, 0x3f5924e0bcb3e2c2U,
  0xbb65b625bec2ae5aU, 0x3e82d55dbdb936e2U, 0x3fca67ddbf5e86c4U, 0x3ee286d13ccba115U,
  0xbf91bfe4bf0d92daU, 0xbc861f473e22a4b2U, 0x3f18c1503f226e64U, 0x3c4906093f9adbf6U,
  0x3ed4707a3c51e0a3U, 0xbf0b8b693e16db16U, 0xbf965736bfb77178U, 0xbf129aec3f40c634U,
  0x3f3beddb3eb2f71fU, 0x3c9699ef3f8b8c7cU, 0xbee164fc3ee1bcfaU, 0x3fb152923e58cb32U,
  0x3f1e287f3ed16289U, 0xbf9158f43f27e515U, 0xbf04e9513f34aeceU, 0xbe6805e33ee9c50dU,
  0xbee563823e2158bfU, 0xbf9156c33f8f12ccU, 0x3f10c6df3f877ab8U, 0x3e08f4df3e9ab2b4U,
  0x3e1b21b4bee01eecU, 0xbf77ea163ed4588fU, 0x3f71be733f74bdb7U, 0xbf129da03eb044b3U,
  0xbdc080943f83fabeU, 0x3ed584a43ed25d88U, 0x3c5859f03e8eac7fU, 0xbd32e15fbd9451c5U,
  0x3de8e7d0bfa03deeU, 0x3cf510e03f2bd8cbU, 0x3d76d638bfe61d4bU, 0x3e2076b93f452e8aU,
  0xbf1f67aebebc772eU, 0xbc6d74c23e9cb1c7U, 0x3ebebe4e3ece44feU, 0x3fa0a4f63c9e1103U,
  0xbfb24d413f8ba4e9U, 0x3dff652bbee247f0U, 0x3e6041e33ddfda8bU, 0xbfa40c583ca0b6fbU,
  0x3fb7e3db3fb53a18U, 0xbfa1ec813e37e3a4U, 0x3f41e8f9bef43708U, 0xbfa8e3e23d1be5c0U,
  0xbe7e4986bf055c5aU, 0xbe8e93603f511f7aU, 0x3f0299703f588719U, 0x3e9e3e563ea27fe0U,
  0xbf18e85dbf3aacf7U, 0xbeb866ef3d52dec0U, 0x3ebd95df3f2b3d3dU, 0xbf3e2f85bd368b72U,
  0xbed8a0e2bf28a566U, 0xbedd1b243f728980U, 0xbf02dd2c3f24fc93U, 0xbf0502e93f10cb98U,
  0xc00e97643dcc9a1bU, 0x3f3827ef3f44052cU, 0xbf337aec3e3f6d97U, 0xbf23f59d3eb69c9dU,
  0x3f498c07be893f3eU, 0x3eacf42dbdf69b3aU, 0x3f1ad7a9be5ef754U, 0xbf78adfcbf23a596U,
  0x3f7bbcef3ebb6429U, 0xbf126d65bf129a22U, 0xbf38e1d83fef024dU, 0xbe5322693f62b8bcU,
  0x3deb3adabe5e0ff4U, 0x3eec3b643fab365aU, 0x3e3bf5993fa1292eU, 0x3edcc18ebed7c16cU,
  0xbf940bb8bea7be2aU, 0xbd7e0ada3fa0bed5U, 0xbe96670e3e267273U, 0x3f35c05bbda72790U,
  0xbeede857bf5ce903U, 0x3de5f9723eab99e5U, 0x3df1ad55be74da02U, 0x3fc527cdbf4284e0U,
  0x3d532a913ebe9898U, 0xbf266b493ecd63feU, 0x3ec0c73d3f4786fdU, 0x3c9972313f9896cfU,
  0x3f8f1a75bf7606f7U, 0x3dc1cd0bbf76d68dU, 0x3d702ed2be5e35e9U, 0x3e06ab30bf26dd91U,
  0x3ee92ba6be172c3cU, 0x3eb67513be89b1b0U, 0x3ff40cf4bf57c2a2U, 0x3e453893bf87e47aU,
  0x3f1e42ce3ebda5adU, 0x3f171bb6be944036U, 0xbf753b263f85c0f9U, 0xbdd9892cc006e7d8U,
  0xbdfbb7463eb19436U, 0xbdf919b73e3d8c30U, 0xbf1987d13de8cad4U, 0xbf218510bf0f24a2U,
  0x3f589777bd0387e5U, 0x3f5813cb3fa9b592U, 0xbd35b5043f1b7fd0U, 0xbd5b08603ed1d0cdU,
  0xbf042c94bf84d461U, 0x3f9a3ddabf7a5991U, 0x3df60c573faf52e6U, 0x3f1d3fee3ed07652U,
  0x3e382df13f2a1af5U, 0xbf0b35c0be8caab1U, 0x3f0d100b3dbd6ebdU, 0x3e2d49e73e9f31e6U,
  0xbfc1f84dbfa217faU, 0x3edfdf4b3e03a127U, 0x3ee37becbf4f9565U, 0xbfafa1ecbe8fec6dU,
  0xbed632c5be714842U, 0xbe98c206bf18c753U, 0x3f4efa46bfc6c8e3U, 0x3e8484153f1ebf85U,
  0xbf89ff48bf97ae28U, 0x3f5298edbe4d4d56U, 0xbe8525103e641f63U, 0x3e9bb9c5bea052afU,
  0x3e0c0c2dbed4ae6fU, 0xbf8371d3bf1678a1U, 0x3f7f88133f26492dU, 0x3f190b823e2585a1U,
  0xbee8e8183edeb407U, 0x3f0cc4263e9ef542U, 0x3eceb5b0bf9e5b1eU, 0x3f60dc353eb4531aU,
  0x3f976053bc87c6faU, 0xbeaff54abf306127U, 0x3f307b583f5fc488U, 0x3f291fd33e862c1eU,
  0x3fb5b8143cf2db44U, 0xbedacbbfbf25681aU, 0xbebcc6bf3edc9553U, 0xbe67b094bd5274b6U,
  0x3f88c7fbbd8657d0U, 0x3e8632e73c94f899U, 0x3f7461043e87070eU, 0xbf92bf913e797366U,
  0xbe12f385becea2f3U, 0xbf6442303e8d5c7aU, 0x3efdefd6bf3bb6b3U, 0xbe6ab337be3389e2U,
  0xbf1648e3beafe741U, 0x3efcc549be99a666U, 0x3e896dcfbfc74b35U, 0x3f58de17be048573U,
  0xbed211debeedd9c5U, 0xbf202b743f41a944U, 0x3efde237bf1a8100U, 0x3db08a21be8a3a0dU,
  0x3ea9201a3fb8b2a9U, 0xc00bb88d3f5ba6b6U, 0xbeb921933dfa3df3U, 0x3ea2d702bef95629U,
  0xbf4b0d593f23bf5aU, 0x3d8019dc3e723efaU, 0xbe2f96f0bf059b67U, 0x3f5666683e8b97b0U,
  0x3fa7de7b3fcbb959U, 0x3e7de9cfbf0026caU, 0xbf9a3a133f3814a9U, 0x3e21a96cc0037723U,
  0xbea6b5b83f1bd4eaU, 0x3ef174f7bf63850fU, 0x3f5194a7bf3fb8f2U, 0xbeed7fb9bf9ec832U,
  0xbf7f7d88be97f21aU, 0x3f223ce23f4c5687U, 0x3e40c9c7bf5fb566U, 0xbe0e3a1d3da7434eU,
  0x3db802343f4d0a86U, 0xbe2ff4b0bfaba867U, 0x3fe28d50bee87c8dU, 0x3fb3ccc23f2b0caeU,
  0x3d50b27dbf3f4069U, 0xbf255fcb3f163f1dU, 0x3e1a80f6be1e465cU, 0x3f579fba3ed92553U,
  0xbf0caa0ebf1604c5U, 0x3f85b3e9beb3342eU, 0xbe4cfb29becbf053U, 0xbdaa43a8beb3228bU,
  0x3ef2ebf1bf7bdf22U, 0x3e86d9c83f58bd49U, 0xbf2e3cc0bf2ba1a8U, 0xbf78f0d2be9b8f8bU,
  0xbf834fd33f663d4eU, 0xbdfd68543f78f860U, 0x3f1f3e423f39edd0U, 0x3ec4c3ee3dac4fcaU,
  0xbd6ab6d83f2e5b72U, 0x3ee34c46bef74b13U, 0xbdc955e9be64f7f3U, 0x3e94f37fbe223b80U,
  0xbf5520b83ec00ecbU, 0xbe5b0f9b3f52071cU, 0xbe6d405a3e9177d7U, 0x3f7ef9b43e5ba32eU,
  0x3ede56893f0119e4U, 0xbf286d593ea61d64U, 0x3eb081b33f13b32aU, 0xbfb0f8cabee6471eU,
  0xbf0951213f4695dbU, 0xbf5e07d73f6f5b80U, 0x3eea4e77bf2ef3b8U, 0xbe3390f2bdc492a3U,
  0xbf3edffbbf59c4cdU, 0x3e6bec7fbf9fe113U, 0x3e5b9d013f27ea1eU, 0x3dce87d33ef1af7dU,
  0x3e590eca3d26808cU, 0xbe2dee753f98c038U, 0x3fb4d7193f2d9e96U, 0x3d8da8923f52bd24U,
  0xbf7098d1be9ba8cfU, 0x3ee12987bf60c388U, 0xbef0a6303da1535dU, 0x3e8fb5563ec2078fU,
  0xbe906397bdefb002U, 0xbeca7b913f08d952U, 0x4026a450bf85f161U, 0x3ef0ed6abf4a74a3U,
  0x3f87b7c2bf1df2f5U, 0xbf53107d3db8bdb3U, 0xbe4422b23e877b25U, 0xbedbed9ebe2990bbU,
  0x3eac7724bf30726eU, 0xbeefa34abf92306aU, 0x3e375b02be52024aU, 0x3eb5b618bdc5b9cfU,
  0xbe58cfd6401a3c90U, 0x3f36473e3f0004b6U, 0xbf21981abd2bcbbcU, 0xbed80ed9befc90d1U,
  0x3cf911b43dbd8a06U, 0x3fa3fd693df7e944U, 0x3f12477c3e42d2acU, 0x3f00e5a4bf1603caU,
  0xbec1fb853f65f75cU, 0xbee93c76bf06fc4bU, 0x3dbc8d833e8fd2c6U, 0xbe80078b3f14ae98U,
  0x3f28e7b1be99813fU, 0xbecb325c3e9d5c30U, 0x3c0719143f082e30U, 0x3d94a522bf4527f7U,
  0x3db2fda7bf9eea5cU, 0x3fe0dbb33f206a43U, 0x3e78e2ddbe0ed29eU, 0x3e281ac4bb913c00U,
  0xbff7e07fbf8558dcU, 0xbeaa6f8c3e819ad5U, 0x3ed57952bed0f9abU, 0x3eefeb9d3f030e02U,
  0x3f1fc6adbea59e9bU, 0x3d5227693e3df32dU, 0x3cd694e1bde3d5b0U, 0x3f73016cbf0033a1U,
  0x3eec1e203e944be1U, 0x3e0c85dd3e0cecdaU, 0xbe37ee53bf52a52dU, 0xbeb4d3fd3e186154U,
  0xbe66ad6bbf2bd2ceU, 0xbfa425753f20ab9eU, 0xbe9dec7cbf1d15b8U, 0x3f2c738c3d7a9bdbU,
  0xbe4dc9833f9f7bc7U, 0x3f589a23be1a3591U, 0x3f0572a7bd53f149U, 0xbe4726be3fac69cfU,
  0x3ed3e1b3be4f393bU, 0xbf8ca2a73f1a911aU, 0xbf442b98beb5835cU, 0xbf3115a23ef018f6U,
  0xbd49fea1bee60b63U, 0x3e23ac1bbe516a84U, 0x3fefe8103ef663f2U, 0xbf39e3adbee7b905U,
  0xbda68c2bbf851be7U, 0xbdd7819a3d976297U, 0x3f9a9228bd78d6e8U, 0x3f4d2c1f3faa3fd3U,
  0xbeb7f756bee09545U, 0x3d8686e3be9563faU, 0x3ef76912be0b87c7U, 0xbe873114bf5b2563U,
  0x3f960b8cbe0a279fU, 0x3f45fd4fbe63b2dfU, 0x3fc596a23e112ab3U, 0x3e14a8a33f558ea2U,
  0xbe90f062bd16cc9cU, 0x3e22ce55bf1b3947U, 0xbc4b132d3f1e48cbU, 0xbe86a2ddbf5b4d11U,
  0xbf6996adbe62fe33U, 0x3f6bd07bbe0f8ae8U, 0xbf78f8123f0b8f0aU, 0x3f3817c6bf1a18b0U,
  0x3f0eea57bf3794c9U, 0x4024fc41c0062d3cU, 0x3e473f50bf1e03b6U, 0x3dc673023da37cf5U,
  0xbf19b0a5be458f8cU, 0xbe2273ed3ecf3898U, 0xbf197a65bf905ceeU, 0x3ea045e53fab09bcU,
  0xbe7a2053becabd2eU, 0xbfac5f793f20667cU, 0x3f14574abf1988ecU, 0x3ddbad97be78c7b9U,
  0xbf557ab7bef1516fU, 0x3eff66a8bf311d83U, 0xbff7bd213eb03c90U, 0x3fb2284cbf5b2097U,
  0x3e70c998bed1cf9fU, 0x3ef5f825bf954f10U, 0xbe87ba73be3a2644U, 0xbec542bdbea296e5U,
  0xbf13e85dbf2bc94aU, 0x3e0dc0113fb998e2U, 0xbe4e337dbfc2df54U, 0x3e87e43e3e1da240U,
  0x3e596a3c3f023d22U, 0x3f8bf7ecbce93c74U, 0xbf67108c3f9c913bU, 0xbf4f83b73e427116U,
  0x3edfcb01bf0357dbU, 0xbee66a30bf890101U, 0x3f84902fbf9bf435U, 0xbde8ab623f1480f9U,
  0x3d668ce43f866cc7U, 0x3da3d8f43e81408aU, 0x3f160945bf50ce0dU, 0xbda9d4be3f31f97aU,
  0x3fe3f1c4be079c7cU, 0xbdc4deecbf5059a5U, 0x3e710980bf7b525eU, 0xbebebf8fbed87492U,
  0xbf2f16bbbe7fdcaeU, 0x3f109ab63f01c1d4U, 0xbe8a3c203ec8717dU, 0x3e9185273f434bc8U,
  0x3f4e4fe5beb6cf2aU, 0x3ebd56b9be6cc262U, 0xbc462fc0be587061U, 0xbfa972053fa45f44U,
  0xbf3b7b853d740edaU, 0xbe73cc3cbf5786c3U, 0xbea83d123ea74553U, 0xbf01dff6bf42e79fU,
  0xbeae41b83e0d0117U, 0x3d78df5abebd8213U, 0x3eb41b863dc19c7bU, 0x3ea49eb13fce8308U,
  0xbf135997bf888304U, 0x3f0722233f0e4b63U, 0xbe98bc3abe8d7e3eU, 0xbf9bd6d03d0b8bf1U,
  0xbf8c829cbc1663c8U, 0xbf87780ebf8fb9a6U, 0x3cce86213f3873baU, 0x3f4a35a43e64edb9U,
  0x3f4659d2bf219fe8U, 0xbf773204bec7ed1dU, 0xbf1a905f3e553369U, 0x3e090a8f3eea8eb5U,
  0x3f405bad3f9b40f6U, 0xbe94c8ca3dd77802U, 0x3f1d0d8a3f0830c0U, 0x3ebdc4febe93f4b4U,
  0x3fbb03743db19340U, 0xbf262f143eadf33eU, 0xbe3e6bb5bf32fdcaU, 0xbf0ec6f8be6180eeU,
  0xbe98e2a33f180c85U, 0x3ee8131cbe01b114U, 0x3f442653bf5a43f6U, 0xbfa41d91bde2ce04U,
  0x3ebe409dbf1dfe59U, 0xbd0b5ef13f2c2677U, 0x3ef8a78d3e9b3b88U, 0x3dacebb23b24915aU,
  0x3ed11c62bf4fd42cU, 0xbf541630bf7cdc93U, 0xbe17c973bc485843U, 0x3f63f4a03ef52297U,
  0xbfd0c070bf22fc26U, 0x3f120520bf5eb971U, 0x3e57bc053e249013U, 0xbd6cbab83ee3eafbU,
  0x3dd7402cbe0e85c6U, 0x3f1db0e53fc3d4e2U, 0x3ad44d083f17beaeU, 0xbf4ff20ebf895d87U,
  0x3f59d0353fa5a08fU, 0x3e279d9e3eeb5dc5U, 0x3f74dc5abf064662U, 0xbf54805a3e21574aU,
  0xbe9a6e1c3ea075d7U, 0xbf32218cbf55b0dcU, 0xbf794e8fbda65424U, 0x3fd4a6a33f927716U,
  0xbf7ea5d03f308fc8U, 0xbd05b410bfa808afU, 0xbea08c00be9870feU, 0xbee816e1bf2928d4U,
  0xbea01a8cbf4ee970U, 0x3f9a513b3f91e110U, 0x3f53ba073f27e5faU, 0xbf1604c5be806947U,
  0x3f529ed63eda351bU, 0x3efb0947bfe5fdbdU, 0x3ea422e5bf08fc65U, 0x3e4028fd3f33d56cU,
  0xbec8dada3edb8125U, 0xbf9014723f3a06cfU, 0x3ee14ca63f0fbd38U, 0x3f86cfbe3f01bef8U,
  0xbeb7c8053f25b593U, 0x402ca7543f62ab0dU, 0xbecff5a23f38ebe3U, 0x3fa58bfebebd03bcU,
  0xbecd39033e2f9aefU, 0x3d587d59bec636e7U, 0x3f2deb0b3e1ce811U, 0xbf79d062be22ed41U,
  0xbf93b9293ec47373U, 0xbe1c4a0a3eb24616U, 0xbd646783be786131U, 0xbe88c595bdb9f697U,
  0xbf1fc6d03e04b8b9U, 0x3f11a2903de61f20U, 0xbf230762be6dbf25U, 0x3f1faccdc008ca78U,
  0x3fa6f5ed3e41665dU, 0xbd467bc73e87541eU, 0xbdba89733ed3ce20U, 0x3e97c0253f051884U,
  0x3f47543abe35f386U, 0x3efb1a9f3f80426fU, 0xbfb636f83ebc65c4U, 0xbe3d3d553dcf848cU,
  0xbf1a33e53e879767U, 0xbf27a2d2bf50cb6bU, 0xbf3affecbd05c52aU, 0x3f832cefbe92e4e6U,
  0xbe88645dbee1640aU, 0xbde848a6bec0f912U, 0xbc03e5623f349f70U, 0x3fc36058bf051405U,
  0xbed38bf63d711ea9U, 0x3f806b243ea30c43U, 0x3e92a7143e1dc4c2U, 0xbf0254bcbe4a2a39U,
  0x3f0f0780be91f2e4U, 0x3ecb9b56bf644e78U, 0x3f833c0c3d4f3f70U, 0xbd6996733da86280U,
  0xbeff309cbef5f52aU, 0x3f26253ebeecf876U, 0x3d5773bbbf1861a3U, 0x3cdb9f30be1a777cU,
  0xbcb00516be31fcacU, 0xbec08e463dff2817U, 0xbf3256b83f053732U, 0xbf7d7e993f624680U,
  0xbf4f44b53f4830f4U, 0x3f9b000bbd58a8ccU, 0x3eaf6b39bcc47264U, 0xbf6609fb3ffd797dU,
  0x3cee58323f1ac970U, 0xbf03c46ebb9f7cc6U, 0x3f0b7cb23efafa45U, 0xbed75f583f85af40U,
  0x3f889301be9b11a1U, 0xbec830403f21ab5cU, 0xbea29cf63e5e2364U, 0x3e546eaabfb61ce1U,
  0x3f3ddf99bda44b4cU, 0xbf18dcd13f8d07a9U, 0x3f86b3febfa4cb1eU, 0x3e8c92033ecbed0bU,
  0xbf6976dd3f321adeU, 0x3f08de243f3fd391U, 0x3f102e703f294c6fU, 0x3eb6c2d6be923cb6U,
  0xbea4fe4bbe95c8e9U, 0x3db437fc3f5925d6U, 0x3eade7223f3a826aU, 0x3f5d0c76be35d72aU,
  0x3f916df7bf78b7b6U, 0xbea1f10fbb43acc4U, 0xbf056c6e3f97a473U, 0xbf547d483e4f8c02U,
  0x3fcd3f8fbcb377a5U, 0xbe21a8ebbe871ec5U, 0xbfdda186bedc49b7U, 0xbf6bd68bbdde8dc6U,
  0x3eafa033be07f44eU, 0x3e84f5163f07f190U, 0x3e22767c3f3ed74fU, 0x3eadbd7bbf27b98cU,
  0xbf28e28e3e377a81U, 0xbf24da7fbfb90346U, 0x3f519dd5bf4d0540U, 0x3f3edb31bfd81068U,
  0x3dc1ae973f816b78U, 0xbe41b2623dc7da0fU, 0xbe8de9943e8d8d2aU, 0xbeb9322bbf6d6c1eU,
  0x3ee6b0a9becdf16dU, 0xbea009763dde7572U, 0x3fc17994bf660fd5U, 0xbf10ce4bbeac5993U,
  0x3e91c8d8be1c6172U, 0x3fc99fd6be4cd078U, 0xbb1568efbf3708f7U, 0xbf9247a1bf87e034U,
  0x3b8dd93a3faa191eU, 0x3ec689773ed3f6edU, 0xbf23ca323d24cdd4U, 0xbf13836b3f0ab0f2U,
  0xbece35843f3b2932U, 0xbcc7637dbf52890fU, 0x3e89e8183f2b3c10U, 0xbf24c794bcefb68dU,
  0x40072b923e82487bU, 0xbf6f23eb3ed3ec13U, 0xbfb1a17c3e333da6U, 0x3ed353a53eaf1743U,
  0x3f8514e03f415123U, 0x3f1b489b3eedc93fU, 0x3e8383c1bf2ac58eU, 0x3bb964573d180841U,
  0xbe9f93b23ed1ea49U, 0xbf4beb9a3e9f82a9U, 0x3e7a283d3f954e20U, 0x3f1ee01f3e56f193U,
  0x3f9ab354bf20fd11U, 0x3edd451cbf34f5e2U, 0xbde91a203f64a356U, 0x3ff69c4ebf8603d4U,
  0xbf5cfc423e9106c2U, 0xbf0d987ebe231552U, 0x3e6c6565bf2a9266U, 0xbcd2d7a93f669dbcU,
  0x3e6bab57bf27f2fbU, 0xbcff991fbeb446fdU, 0x3e71c5863e45dddcU, 0xbe5f63a1bed89a00U,
  0xbe9a86783f479e69U, 0xbf6f3d1e3ed10d23U, 0x3fab20543ff896d1U, 0xbf3f07503f0906f0U,
  0x3f051ea13cbf284eU, 0x3dec1af33f189bc6U, 0x3fab73ecbf9ad2a1U, 0xbe58e9203e8c2574U,
  0xbec6d828bf5b1707U, 0x3f8656b1be9b6cc2U, 0xbe2634a3bdbdea37U, 0x3f0a75f2bf0e5b98U,
  0x3f73f2183f8f5a2aU, 0xbee201b6beabcc71U, 0xbdb9d3113e27fd09U, 0xbe0bef853f3a12ddU,
  0x3e7a56f73f36143cU, 0xbf05e6093e1031b4U, 0xbfb5cd26bf6a637bU, 0xbfb9f8bc3ef646e8U,
  0xbdad30cc3f889c75U, 0xbeabeee63fd32b8dU, 0x3f6c642a3f1ddb7eU, 0xbf8fc32a3e974ac2U,
  0xbf7174b23e5b9986U, 0xbe81acedbbe5f5adU, 0x3d80df6a3e951d75U, 0xbe92adbd3e8d31d8U,
  0xbf4b1a93bf180bd3U, 0x3ef83da8be792173U, 0x3e67ffbebdd9fa35U, 0xbf8c35fabf817ae3U,
  0xbe5cf6233f8bae4eU, 0xbea6c55dbebdfdf4U, 0x3f0af9413f9b4467U, 0xbd019220beb2e5d3U,
  0x3f38e7b63f0dd40bU, 0x3cd694a73fe21d87U, 0xbefdf2f23da30699U, 0xbe617acbbdcf4469U,
  0x3f7a9fd73ed7e02aU, 0x3fef381bbf22d8deU, 0x3ddcb1c3bf8798d1U, 0xbdece39ebf9662baU,
  0x3f284ed33f8bb868U, 0xbeecb2f8be6838fcU, 0xbf827745bf819013U, 0xbe8731eebebea8c2U,
  0x3ef2810fbe9db711U, 0xbefcc09f3f7ae77bU, 0x3e6f8843be213446U, 0x3f2099bf3f7ebd94U,
  0x3f25d5c93f18aef1U, 0xbf95976cbf1c98c1U, 0x3e749a7fbf3225a9U, 0x3ead58733f39108bU,
  0xbe471202be542d01U, 0x3f2d1df33df29f24U, 0x3cbe12293e5b7730U, 0x3ea6b37c3f75750eU,
  0x3ead044cbef0b72bU, 0xbe5a28a3bf3c8ae1U, 0xbf6dab623eba54d6U, 0xbfce8d093c3a7782U,
  0x3e5b8bcebeae994eU, 0xbf0255103f665c6dU, 0xbf6d2733bf11296aU, 0xbf4d62c0bfc44420U,
  0x3eed6c9c3f92cacdU, 0x3ee8d818bf1d117cU, 0x3f8653373e6125b6U, 0xbf1e625c3f85572aU,
  0x3e78230b3c54cd02U, 0x3f0a893e3fdbb5fdU, 0xbedc4dd53fa98440U, 0xbf4612eabf44d704U,
  0x3d2db36abfad19baU, 0xbe0f21453fb1529eU, 0xbeed3d973f81d6e5U, 0x3f11970abf04292dU,
  0x3f3af2acbee6ec93U, 0xbf38e86ebe885553U, 0xbe9f9aab3ddf781cU, 0xbec6467ebee83064U,
  0xbf2f27013e90b73eU, 0xbf9d97d03def78a3U, 0xbdc3a6cc3f407be6U, 0xbf7791ddbddd215cU,
  0x3e51a8abbf38296fU, 0xbf3863f0be11a062U, 0xbf97619f3d63b9fdU, 0x3cd680c03e33a9f2U,
  0x3e24e79c3d820c90U, 0x3bd76ac83f25044cU, 0x3f4b0efebe8b30b0U, 0xbf8dc2ee3c41cdf4U,
  0xbf9b23753eef485fU, 0x3f47add3bff078aeU, 0xbf3a0ab2bf6c6c4eU, 0x3c22e3913f9520aeU,
  0x3dfa833c3e1fc404U, 0x3d2600fbbda07875U, 0x3eb72fed3e40a592U, 0x3fba030abf4a68a8U,
  0x3f12c0823f6e8163U, 0xbe6fc148bf3cf9d1U, 0xbf1afd6abe8c189cU, 0x3f75b6743e308e19U,
  0xbeb082e7be672098U, 0x3e3051f0be3b5e71U, 0xbfc26a9fbb3d6f28U, 0xbf00ab80bf308f2bU,
  0x3f817257be364dd6U, 0x3e868c6cbeed927bU, 0x3f363f9c3ec311c7U, 0xbf9368db3f06edd9U,
  0x3f179b1ebf14e116U, 0xbf1430093f551608U, 0x3e27e30c3e5869e7U, 0xbdbfaa32bec0ea7aU,
  0xbf9a9c30bed6e493U, 0xbe4cf90e3f368009U, 0x3f9ddc593f0049f1U, 0x3fc81a4c3f1ca040U,
  0x3fc856823f90630fU, 0xbe86db12bf4ab8d6U, 0x3c4b7ede3e9fb514U, 0x3f0894cb3dae3bd6U,
  0x3f76c268bf1041efU, 0x3e04a6e8bf6d64dbU, 0xbe492fe13eca262dU, 0xbed0185b3e92296cU,
  0x3f3dd341be7aa1afU, 0xbfa39985bdf0989aU, 0x3efff13fbe8aa654U, 0xbefce72e3e89f945U,
  0xbf9078b6bf4d7d6aU, 0x3c7718763d314ed4U, 0x3ebd07493e882a79U, 0xbfa4a4d73fdb9c9fU,
  0x3f7df9f2bfc246f0U, 0x3da621603f06b6e2U, 0xbf4ca0c73d5e2299U, 0x3d3096b93ddf6346U,
  0xbdad8c27becacb2eU, 0xbf8fb3be3f3edf1cU, 0x3e341b5f3d78340aU, 0x3e626e223f88b25fU,
  0xbf5eb86d3f7b6d0bU, 0xbe207e853ece6f7fU, 0x3f6f717e3f0bc38cU, 0x3e51f6a33f1bb6baU,
  0xbe336be33f87a157U, 0xbf956f7b3f8da7afU, 0x3e1dc2b2bf75304bU, 0x3ea9bf84bea719d1U,
  0xbdaff4b03f0099b0U, 0x3e964a02bfae0cbaU, 0xbf563e053f0b149aU, 0xbe8e5d1fbdc010f1U,
  0xbefd994ebf01f483U, 0xbf121dd93e618d7bU, 0xbe1ba1cfbe04161dU, 0x3eceb6943e3cdfccU,
  0xbe5a9f4bbe803f3eU, 0xbf21b3bb3e309568U, 0xbcedfecf3fa96029U, 0x3e1e54dc3f8e4c4eU,
  0xbe8b1776bea42cc3U, 0xbe7f32823fc2fa59U, 0xbf82712d3e2fa17cU, 0x3fca53bd3ec41005U,
  0x3e965589bf504b62U, 0x3bc79c05bf30f369U, 0x3f225c81be13cc43U, 0xbd78f5763ec1269fU,
  0x3da662bf3f0fcfa6U, 0x3e8e9ff63e3bb211U, 0x3fdcb51ebfb06ef4U, 0xbeba2730bda03db3U,
  0xbf4259ef3e557eadU, 0xbe02b2f1bfb7e9efU, 0x3e1bbdba3dabbedbU, 0xbf29d6f4bf25dc93U,
  0xbdb16799bd075bc0U, 0xbf64aa9fbe68ed82U, 0x3f18c3ea3ec01f09U, 0x3e2f1b35becff9cdU,
  0x3e45464abfa10de5U, 0xbf214f963e20e590U, 0xbe39f0313f06338bU, 0xbe871b1e3d010180U,
  0x3f05b88dbe5c69deU, 0x3f5ad393bf40c27fU, 0xbf4c91823e4561b4U, 0x3e9d7331be9436a8U,
  0x3feb3ee73e317f86U, 0xbf56b3043e801567U, 0xbeb2061fbd8bcf50U, 0x3e9254a83f11e7abU,
  0x3e565abc3f1d0eafU, 0xbf3c6a90bf137705U, 0xbe94e7babc60937aU, 0xbf5e10853ec03511U,
  0x3f25cc8a3e81d7baU, 0x3e613ea3bf22d560U, 0xbeef889f3e8b9123U, 0x3f22c0ab3f750f3dU,
  0xbf7c7e35beb74f54U, 0xbe424ee8bf20129dU, 0xbec0bf51bf9bedffU, 0xbd01d707bf4cdec2U,
  0xbe47cf47be21521dU, 0xbf0971153e81d567U, 0xbe184b943f080aceU, 0xbe459b17be7f6277U,
  0xbe4795e53eb9e3acU, 0x400abaf83ed4c551U, 0x3f3ee8803f46eb8aU, 0x3ed0862e3e2a1805U,
  0xbf79681bbfa8af35U, 0x3f00a1af3d64fbf6U, 0xbfb68b063df1bd49U, 0xbe4cdca5be20d14fU,
  0xbd6a927ebe90db45U, 0xbf09b32ebe74c22aU, 0x3e303d02bb9cd7d7U, 0xbf59630cbe2e91beU,
  0xbdc7c5c23f188584U, 0x3f43b5053f27532aU, 0x3f179fa7bef3c362U, 0x3f72e0733fb65b2dU,
  0x3f4d364d3e884f09U, 0x3fd972aa3f13b4eeU, 0x3f4256c6bffc746fU, 0x3efdba5f3dc9c7c2U,
  0xbecdad1a3f8b0d6bU, 0x3f92e7b9bebc88b9U, 0x3d8c49d53e8d0a75U, 0xbe33782abef41c47U,
  0x3f47beb5be8fba14U, 0xbde59771bec797c2U, 0x3f2305aa3ea0d5a0U, 0xbf938628bf497d67U,
  0xbd8eb1e0bd84214fU, 0xbf3cf9e03f28aac5U, 0x3fccf74abe9d340bU, 0xbeb472fe3eeb55c8U,
  0xbf1aef1b3f79e7ceU, 0xbe8c00d4bf8e2084U, 0xbe14e9b23f62073dU, 0xbee04cd53f3a4c22U,
  0x3eb557773f3a9487U, 0x3e169831bdb1866cU, 0xbe1ea79c3f19fc76U, 0xbd204272bd23242dU,
  0x3ee1e419bef75f2fU, 0x3f70cb1c3c154e62U, 0xbccf98c9bf8b9dbeU, 0x3efc7271bd574638U,
  0xbe97f78dbea6aa8dU, 0xbe82b5b5be8bb28eU, 0x3ed0f5a53f2c7117U, 0xbe7653db3e046378U,
  0xbdcf72bb3eb843c4U, 0xbf0860f3be74c214U, 0x3f5767e83f89f259U, 0xbf3f22b93fdfc362U,
  0x3ccfcd88be97d46bU, 0xbea6a16f3f2dde24U, 0x3e172e983f1cad38U, 0x3b90dc603fa61416U,
  0x3f0e13e4bb705d91U, 0x3e6e82643fabb92eU, 0xbe4ae5623fa37f48U, 0x3e4bd21bbea9d6a1U,
  0x3f04e5523e6d621cU, 0x3f99de11be2ef52eU, 0xbf6194d23ebeade3U, 0xbf40ec573fa64864U,
  0xbf46fb15bdc4b378U, 0x3eb2096b3e1def07U, 0x3f6762103f922323U, 0x3eb998e4bcfecebdU,
  0xbf3eb457be98d850U, 0x3d154bb4bec2b24fU, 0xbe23b6533dc8a76cU, 0xbea8a7debeb323b8U,
  0x3dff5f1e3f63349aU, 0x3ee93c663f556e70U, 0xbfe4ae5e3e856566U, 0x3f6f95eabf7561b9U,
  0xbf69b1143f6a8248U, 0x3dbd7215bea6b076U, 0x3fc71ea6bfa5224dU, 0xbeb43f403e89d241U,
  0x3dfd1f84bfffd32eU, 0xbd231ef73eb5175eU, 0x3d81d3cfbeff52f0U, 0xbf9140d13e856220U,
  0x3f0883e5bd8b1889U, 0x3f03e5b03f25bde8U, 0xbe5157de3ec9c54dU, 0x3d15d4d3be8e0fdaU,
  0xbf069910be77c1fbU, 0xbee52a74bf113459U, 0xbee4ce743f35b400U, 0x3f88181ebec453cbU,
  0x3f9df7873e9b27ffU, 0x3de374b93e12a48eU, 0xbef8dbc6be880901U, 0xbf17df6ebdba8fddU,
  0x3e5c11763ee0dc41U, 0x3f8d77a8bf34397dU, 0xbf0d337abfb6a1c0U, 0x3f62e45abf80e018U,
  0xbf12f2e4bea00897U, 0x3e22c646bf31bddaU, 0x3f6de165be2f8a65U, 0x3e31be263eddbdcbU,
  0xbf7acf933f8a48e1U, 0x3f8869fa3ee86ecdU, 0x3ed25db73f77600aU, 0x3e88a53ebe2dfa37U,
  0x3ecc6f05be8e84fdU, 0x3f69eba73e81d277U, 0xbf44979b3e8f26d6U, 0x3f4d17b1bf24d9caU,
  0xbf27ef95be6a7d17U, 0x3de31570bf4255fdU, 0x3fbd66e3be24a0e6U, 0x3f44aa1d3fd04d34U,
  0xbef93364bf258d71U, 0x3d8ea81bbe154367U, 0xbebb9b34bebbd449U, 0xbece45e33e5f2a27U,
  0xbf1204853f138c98U, 0x3e9bc04fbf023694U, 0x3e46ced73e9b2dbdU, 0xbee14d6e3f43b91bU,
  0xbe25e746bf7b54b9U, 0x3f1eef103f921734U, 0xbf31e5023ed63610U, 0xbf1f8ee5bed6bb98U,
  0xbf9d18adbdb132d7U, 0x3dbc90713ea8f2ebU, 0xbe9f8e42bfb16e86U, 0x3fc7e9d4be875ccaU,
  0x3f7b4108bf5e0c52U, 0x3fe57968bf96202fU, 0x3f099713bd03993dU, 0xbe85e3093f01e49dU,
  0xbf25995dbe58ff23U, 0xbdd06348be577b3dU, 0xbf8ba0d5bd53fc37U, 0xbe3071e63e66b54fU,
  0xbe933ecdbf4977f1U, 0xbea425e9bef21ef4U, 0x3e882835beef87f1U, 0xbd97ed0b3e826f3cU,
  0x405e4c3cbfa27496U, 0xbe13acd43feeb0d2U, 0xbe881cb83ee74599U, 0xbf46bc2dbe7a8a06U,
  0x3f1bfdc23e3e85ecU, 0xbfb371283f7fe32cU, 0xbfaa9cb3bf5c9e88U, 0x3efda476bdb1c6ebU,
  0xbf9000f13f0b36d8U, 0xbfbcc8b63f824850U, 0x3f3eb7b73f9ef4c4U, 0xbdbc1fd13ef306b2U,
  0x3f6d093ebe4686b3U, 0x3c7c3623befd8b50U, 0x3e7abdb3beeea91eU, 0x3f9979bdbdcf3f67U,
  0x3ee78a203f04f708U, 0x3f6424c0be3503e8U, 0x3f68db4cbfc809bfU, 0xbe281089bf5f0a05U,
  0x3e585a1b3f388197U, 0x3d0456703ef29bbaU, 0xbe351e803e4c9301U, 0xbf01e9ae3de8ae2fU,
  0x3b10c7d73e1a34dcU, 0x3e8def923f865ea7U, 0xbea464673f69ce89U, 0xbf459b45bee944f9U,
  0xbf225c5fbe881673U, 0xbf7516783f9507d5U, 0xbd23c51dbeafdfa1U, 0xbf62fbf53fe61823U,
  0xbf0b92f13efa704bU, 0x3ee172b7bd6407b5U, 0x3f1864d13f675439U, 0x3ef12d48bf345f79U,
  0xbe33fd2f3efeee7eU, 0x3e56cae6bf7b0892U, 0x3e9543d83e134f55U, 0xbe3efd17bf860b3aU,
  0x3ef9b14c3f9d7a1fU, 0xbe973214bfda4d5bU, 0xbf39ebe3be802609U, 0xbf2bcea3beb37546U,
  0x3f6b1a62be15c596U, 0x3efc326f3f9e2243U, 0x3f1d9c0c3d8e1112U, 0xbf2525a8bea6db3bU,
  0x3f263f0f3df04d94U, 0xbf1752173cecc2aaU, 0x3d0835403cbff727U, 0x3f81858c3f2b5050U,
  0x3e5a9a843e3a1d03U, 0x3d32d7f7bf1cc421U, 0xbf8a5f9e3ef36ae3U, 0xbf74a326bf28f0bbU,
  0x3edb29ec3eebfee5U, 0x3e90b8bebf16f88dU, 0xc00f16ae3d895f3aU, 0x3f223c253d87474fU,
  0x3f09610d3f390c3eU, 0xbef1698d3eb9eb1dU, 0xbcb94dd83ee6f851U, 0xbf2a6ccb3ee78dd1U,
  0x3f08073d3f57c429U, 0xbf9fea113fa17659U, 0xbfa61868be096c32U, 0x3fdbbc06be7b4432U,
  0x3e801eb73f4b26bdU, 0x3ea808e5be844649U, 0x3f19aaa13f2acbedU, 0x3e499f0ebdd43ef6U,
  0x3e9230a03f5334e5U, 0x3f0b06483e9a886cU, 0x3e66ee7d3e893687U, 0x3e9665953e58bb77U,
  0x3e9d03ecbf66d163U, 0xbf784857bcd91d0fU, 0xbe39284c3f4632f9U, 0xbeceed133fd2c5c5U,
  0xbf5575bb3f14bce6U, 0x3d04a8c03f6819fcU, 0xbe726c703f3a016cU, 0x3e452f45bf22f5ffU,
  0x3fd38ab5bf70c296U, 0x3f245f1dbeb594b0U, 0x3e9d8e89bf8a1906U, 0xbf47c66c3f97753cU,
  0x3f8a2322be9dfba8U, 0xbf728be63e80df5dU, 0xbfa211133f407764U, 0x3f0475d2bfde337fU,
  0x3ec818b23f10b472U, 0xbf00704a3e4414ecU, 0x3e2c0567bf86accaU, 0x3fa5ee193eb3f743U,
  0x3f7f36af3f0bd26aU, 0xbd4c42063e83f86eU, 0xbdfa0f9ebf49df6dU, 0xbf28a87cbe673ce1U,
  0xbe98868f3efa7d33U, 0xbefdf1e7bcc03a27U, 0xbf9d20da3f01994dU, 0xbdaf22353fd0b5d6U,
  0xbd3fb6603f123767U, 0x3ef408f43f810d7eU, 0x3e9f20ab3e0dd3ffU, 0x3e3ad0d73e5f6863U,
  0x3f4be237bf1d63f2U, 0x3ef587b5bf4a370dU, 0x3f61c381be265404U, 0xbf3715d5bf0b21ccU,
  0x3f7c58a1bdc95c4aU, 0xbe58fd2b3eb21e28U, 0x3f27b8ad3d5a0855U, 0x3ec6d6f23fd81166U,
  0xbde3e05fbede6da9U, 0x3f739e7a3f11c966U, 0xbf8c372e3e3e159bU, 0xbef680783da88627U,
  0x3eae23f23eac4322U, 0x3ed50ed83d763243U, 0x3f2fc6013ec0b01cU, 0xbe943ceabfa2929bU,
  0x3efa7064bf405ee0U, 0xbee8b031bf8c4355U, 0x3e1243a53f048509U, 0x3f4958313f0c6d45U,
  0xbdae4f143fcd480cU, 0xbe34b404bee7e5ccU, 0x3dc1554ebded5f06U, 0x3e945642be814b54U,
  0x3ee7a75c3e7ecca8U, 0xbecc9dce3ec917d9U, 0x3d223c363fdb59b5U, 0xbe4c7dd5bea6efbeU,
  0x3df09fe73e81a694U, 0xbe1573c4bf159e0fU, 0x3f3363293f0d1162U, 0xbd3397c3bf2ba4f6U,
  0x3d20bb07bfb8510dU, 0x3f02c62abd9fe713U, 0x3f6a7956bf87cec3U, 0x3fab82aa3eaee1f8U,
  0xbeb697eabe804894U, 0x3fbbcfea3ead5b52U, 0xbfa5ad9f3f539b6fU, 0xbe9a0233bf3fbf05U,
  0xbd9d5c553ea4d738U, 0xbede694d3f3ab07bU, 0xbed34bad3f199e79U, 0xbf3c7d2dbf43f518U,
  0xbed8c236bd9b1d64U, 0x3e6e93a13dec8208U, 0xbfac79d93f8aed49U, 0xbf3ff2b7bf7b4ec7U,
  0xbdae793d3d8a469dU, 0xbf9a8f17bf88a62bU, 0x3e2aeb253e8387c6U, 0x3f78c65b3f1c051aU,
  0x3f21d83abf06d5ebU, 0xbf0756dbbf478f8bU, 0xbf07929fbd95a45cU, 0x3f9ea9103f308b4aU,
  0x3e34e9df3d46ac3eU, 0x3e793030bf46d582U, 0xbf22ac2abf21fce2U, 0x3ed58b77bd2d3e5eU,
  0xbe96dd133e5a83f8U, 0xbef761b43ef63888U, 0x3fe75ce1bf445405U, 0x3f75acc43ecde33aU,
  0xbe2d53ffbf8b3473U, 0xbfc03943befb264bU, 0x3e7a63fb3ea1ceccU, 0xbf63ddb2be8f5aa2U,
  0x3ed2f9363d0cc4a1U, 0x3f39c1543c16b42cU, 0xbef0850fbdb90e79U, 0x3e0a9c77bedf5d83U,
  0x3f9bd631bf7d28f9U, 0x3e5cadf03f29c2b5U, 0x3ef823d63eb0bfe8U, 0x3e42757d3e8af018U,
  0x3f9a864cbe746afbU, 0x3e8787353f29f8b4U, 0x3e1f5dbd3f5f346bU, 0xbf6ca01c3e81e10fU,
  0x3ee4e2d8bf169faeU, 0x3f8623913dffb6e1U, 0x3eba6857bef4346cU, 0x3e745b05bd043a20U,
  0xbe96c958bea2cbd7U, 0xbf8a0c4fbec32f39U, 0xbea41e60bf43082bU, 0x3f8c33133e7cc654U,
  0x3f402b9f3eb8e99fU, 0xbf9794b63de072d8U, 0x3e144be93e3fd403U, 0xbe01c27fbec574ecU,
  0xbf13510ebf5d2cb5U, 0x3fb0a86ebf0530a1U, 0x3c01110f3ed26935U, 0x3e3f2df2bf2647cfU,
  0xbf0e7651bd4a44c2U, 0x3f38686dbf682f25U, 0xbe3ac7a1bfa9aff5U, 0x3fcfd778bea7324dU,
  0xbf8fb1b5be82db5dU, 0x3f025ccf3e95eb56U, 0xbe9904003ea6a2feU, 0xbf764ea9bfbb93cfU,
  0xbf64377ebe9c18b6U, 0x3ee2b50cbee83567U, 0xbe0782723f8931c3U, 0x3ef75bdcbf960e00U,
  0xbf485b16bdbbb72eU, 0x3fcff3673f9c0206U, 0xbe1c0c5f3d1f2572U, 0xbf42a563bf1e2d76U,
  0xbf2cd77fbed0dcc3U, 0x3ef82f09beadedd0U, 0xbdb5f9063ebcc6b0U, 0xbe905fc23fae839cU,
  0xbf6e4b043fc77b8cU, 0xbf2321af3f915186U, 0x3ee27bc6bfb2f033U, 0xbe02e526be09834bU,
  0x3f0bbac4baa6cd2fU, 0x3e8ec3343f6a5449U, 0xbe92f7cfbf852106U, 0x3f2a69553ea3ab91U,
  0x3ff206033e3243d5U, 0xbe43cb69bf2cf790U, 0xbf9c3e1f3f45ae22U, 0xbe9d31bd3ed3fb8aU,
  0xbef169583f5516ddU, 0x3f350ebfbf09c687U, 0x3eb011a03f06604aU, 0xbf33f268be96c5b3U,
  0x3fa2bd66be09c1e8U, 0xbfcd079a3e8603a9U, 0x3e6a60cbbd6e6310U, 0xbeb3034ebc99e578U,
  0xbf21b7833e2c1083U, 0x3f3bd651bf0a7eb6U, 0x3f92ba913f8ca6bfU, 0xbd9f70eebfcd7ef3U,
  0xbecfa0ef3f8fb5f7U, 0xbf3d66f2be852439U, 0x3ebe0f303dc64cdaU, 0xbe0aabf1be5549c1U,
  0x3f5a4e703e28e41eU, 0x3f281eb43e746d4dU, 0xbf336339beb4c9a7U, 0x3e60d2293ee8abb8U,
  0xbe95c9b2be428093U, 0x3e6f0d50bd36d9dfU, 0x3fd57e19bf9695f5U, 0x3d96e4443f305e1bU,
  0x3f153f2a3f6e8a4aU, 0x3ec60bc93d29980fU, 0xbf3de2423f7cc3ceU, 0xbd0d8db83ea99354U,
  0xbe4aec853e5f5111U, 0x3f60692cbeecb63cU, 0x3e2fde343e99d589U, 0xbf245ab23e8560adU,
  0x3f63c9a73fa6227eU, 0xbefe3798beedbcc8U, 0x3f85ae5e3f65a0a8U, 0x3e9656b83e72aaadU,
  0x3f9bc3de3ebc6513U, 0xbe2bcf43bf3d0c54U, 0xbf6f68bfbd8e92eeU, 0xbeac63613e05bb64U,
  0xbf60da1c3f492f63U, 0xbdd78df93e3e141aU, 0xbf50b979bf7525a1U, 0xbdc6cbaabf149f43U,
  0x3f52f36ebe188261U, 0xbf16e7d5bea72786U, 0x3f0e876bbe9ec616U, 0xbf655ca4c024c421U,
  0x3de9375cbede5303U, 0x3eb4642abeae8a13U, 0xbeaa55203f416a2eU, 0xbf474416be64fe8bU,
  0x3f1a8af43dce2160U, 0x3f1e84763f789b12U, 0x3e5f95a5bf805928U, 0x3f19b0b53ec93e64U,
  0x3dc945753d51a87bU, 0x3f0a4d15bf258b7aU, 0x3eaebb313f8d906cU, 0x3fd2471cbf36f26eU,
  0x3f1844ce3d565fdeU, 0xbeb57a563f37dbacU, 0xbf2f5ff73ec1f032U, 0xbe3ddcaebe782107U,
  0x3fc787073dfc22ccU, 0x3da7ef26bf6de940U, 0xbd5089fdbf0231c3U, 0xbf00ecbf3f5af951U,
  0x3fa69989bdce5271U, 0xbf1781ff3ed0bd5fU, 0xbf0a1199be393f14U, 0x3ee6afc43f76eb60U,
  0x3f43b537bf338d79U, 0x3d8a935a3e638425U, 0xbf28b9d9bf046d1cU, 0xbe466ef0bf13fb4bU,
  0x3f6285c5bfec1d18U, 0x3f028785be8775b5U, 0x3eaf5e7e3f5a4f26U, 0xbf6268f8becf861bU,
  0xbdbbeaf63f016d29U, 0xbfa7cc09bedd749aU, 0x3f8ab9543de8a1b6U, 0xbf5b4120bf55377cU,
  0x3e69fb39be7f8af6U, 0x3dbceb303d116001U, 0xbfb940873f2f0a6dU, 0x3eff3558be852e78U,
  0xbf391773be9c786aU, 0x3f1c0e803f0ea25fU, 0xbe0936793f0760c1U, 0x3f7d1553be1b9145U,
  0x3d5e75f83f9f6af9U, 0x3f014bc1bdc08adfU, 0x3f96e6e2becadd7dU, 0xbe4bb3d43e8517acU,
  0x3f11239fbf4cfadeU, 0xbf9b0d60bf83184bU, 0x3dc778293f0e4eeeU, 0xbf4124bc3f4bd8beU,
  0x3f8f20723efff7d9U, 0x3e6b388b3e1611d1U, 0x3e351c22bf0b63acU, 0x3f6f27e2be9ec3afU,
  0xbec96fe5bf5c55a0U, 0xbf204808bec82673U, 0x3f4d4253bea9866cU, 0x3f54134bbf93bd16U,
  0xbf45025dbe035735U, 0x3ea2108f3f86833eU, 0xbe906be1bd3ae12dU, 0xbef4f62b3ea7b584U,
  0xbf4e59bfbdd962d0U, 0x3f7db42c3e3cc8f7U, 0xbfcb4b93be7b3c42U, 0xbe3bab30be2104edU,
  0x3f6c1c04bf2d2894U, 0xbe36e5dcbfb1e990U, 0xbecf0aef3fdf202eU, 0x3e92ce8a3e23868aU,
  0x3f0fcf883f35718dU, 0xbf7f2c073e95e8aaU, 0x3eae10e3be2b61fcU, 0x3e51b90a3f0a66d6U,
  0xbe9038313f6d4ca5U, 0xbf59a74bbf722780U, 0xbf021ab0bdb1b87bU, 0xbe9cb59fbd2b0189U,
  0xbf1b42dcbf542fc4U, 0x3fce4163be470a86U, 0xbf4a923abf4f0a6dU, 0x3f3ec47abfada016U,
  0x3e28854bbfd6ee2aU, 0x3e961f863e89e66fU, 0x3f0c7d88be87f504U, 0xbdd2e04cbd1a8122U,
  0x3ec801bc3e35ea76U, 0x3ed85c333efc7424U, 0x3f76b52c3f3e4087U, 0xbed410e2bdcc213fU,
  0xbe807a0e3e363defU, 0xbf44c8fcbe838a77U, 0xbe31aa453d2600cfU, 0xbf051c01bdfc1982U,
  0x3f1a80a9beeb407cU, 0x3e65bcc5be6d5094U, 0x3e58f5dcbf3bf999U, 0xbdc6fd6abf272393U,
  0x3f3b8067bdf06169U, 0x3fc7b831bfabe7bdU, 0xbf8e0add3f9d57dbU, 0xbe0ba304bfacc234U,
  0x3e6402933ea9eca4U, 0x3f892f343ec62510U, 0x4012f478bfbd932eU, 0x3f8fe982be7a2125U,
  0xbf5064dbbf044906U, 0xbf5c8abbbe0e87afU, 0xbcc38f1dbfa9004aU, 0x3f023ae53ecbe8e5U,
  0x3f0b481fbf1b809bU, 0xbe552a7a3fba2bc7U, 0xbea6b09ebf1aa9aeU, 0x3e22b686bf125be8U,
  0x3e708a8c3fba61d3U, 0xbf390d2d3e5e45cbU, 0x3fa9e6d9bfa09aabU, 0xbe6b9a6ebdb66a8eU,
  0xbfb29ae53e30708bU, 0x3e836addbe9748baU, 0xbf2506c1bf78b480U, 0xbed07da73f77e663U,
  0x3f4177b9be50ee55U, 0x3f9276cbbea150eaU, 0x3ea580763f8e01dcU, 0x3f4978debf730df0U,
  0x3f129a8b3b8f7456U, 0xbd45154abf37c197U, 0x40061c7bbe4394f7U, 0xbf17a1403ea213e9U,
  0x3eae111bbf9d95a0U, 0x3eccf2a6bf3d213fU, 0xbf45f8ae3f52ab89U, 0x3efed8903eb1665bU,
  0xbe161433bea00cb2U, 0xbe4e7da8bfaa9113U, 0xbef1fc54bf9eda06U, 0x3ed152b1bf0d27aaU,
  0x3f6ff550bf5af0bfU, 0x3fb3127ebec47025U, 0x3f0f009f3ef62e0eU, 0x3debb2303e9382a0U,
  0xbe025d513f2c9982U, 0xbebf718fbe681b7bU, 0x3f7008943f0a9a69U, 0x3cf330543c545ac5U,
  0x3f72964ebe2233f9U, 0xbe9713243fd8b48dU, 0xbf9b6626bec6dd3eU, 0xbfb9ba67bf83b006U,
  0xbe369f673c862dc1U, 0xbe36812ebf82518bU, 0x3fd6c6f3be9ececdU, 0xbffb37cebeee0becU,
  0x3f085fb53e3ff9b3U, 0xbef64d363f57f214U, 0xbea262f3bf67a340U, 0x3f4cfd47be9337a3U,
  0xbf0c417bbeb0a5c7U, 0x3f672a013f535981U, 0x3e18047d3f799a90U, 0x3f129c603d6c3ca3U,
  0xbf1df5e5bf9689beU, 0x3f942b213ebe3fb1U, 0x3f53b4353eae0038U, 0xbd1828d53f9cd996U,
  0xbf317b1e3de155e2U, 0xbf845e5d3ea5f21eU, 0xbf8d9b34be1cd121U, 0x3ea27ab4bec5598bU,
  0x3f0cacf83e2c0c5eU, 0x3d84c9eb3f9efc5dU, 0x3dc5fa9c3eb9acf8U, 0xbea099a7bf8669b1U,
  0x3f4e9aaf3e69b480U, 0xbefb6c08be02e1caU, 0xbf0662c3be52adc9U, 0xbf386bc9be5330fdU,
  0xbda82c5c3fafa68aU, 0x3f884e4ebf2f2fa5U, 0x3e5db2633ee19295U, 0xbf075cf6be2f2232U,
  0xbfed2d31bfb92ac4U, 0xbf8fd71cbf29bf17U, 0x3d30d7f53f928b0eU, 0x3dc973063e6bc122U,
  0x3eddde04bf22cbf0U, 0x3f65e78a3eb7fcd2U, 0xbe2b71e0bfb87514U, 0xbe983aabbf10ad71U,
  0x3e1b9eedbf50efeeU, 0x3fc82e6ebf9dd5e3U, 0xbf6466a2bf67445eU, 0xbe765008bf1c7a66U,
  0x3f122a57bf082991U, 0x3fa1b71b3d8d4586U, 0xbec3f8b73edc21ffU, 0x3edde53b3e5ea7dfU,
  0xbf0df25ebf0dba31U, 0x3fcf1d72be4f7c5fU, 0xbf2ae579bf762529U, 0x3f4c49babf38613dU,
  0xbf9286093f9d5d58U, 0x3ed262aebf98ef32U, 0x3ea13bd73ecc8646U, 0xbeff5c6b3f176188U,
  0xbf8b4e5f3f56aba4U, 0x3f1afa9b3ead1102U, 0xbf3c7dd93f5b2becU, 0x400ba427bf3d119cU,
  0x3f1e06a63db1618fU, 0xbf6e35d93f6986a2U, 0x3f78fcb9bf3d71dfU, 0xbf35fb93bf5fee72U,
  0xbcb311c4beeea84cU, 0x3d5eefaa3fb6521eU, 0x3ec77a93bf53f139U, 0xbfb09e4ebf00de3eU,
  0xbf008ab7bc22911dU, 0x3ff2390c3d945647U, 0x3ecec0453eaf5b28U, 0xbcdfabdc3f43e067U,
  0xbf4fd72ebd95f95fU, 0xbe34b437be8d6be4U, 0x3f026055bf56a37aU, 0xbed660bbbfa423d2U,
  0xbd715020be9b1caaU, 0x3dd30656bfd7cf7fU, 0x3ec57a133ef795dbU, 0x3f24fc4f3f1e0cb0U,
  0xbe71acbebf54d8cbU, 0x3f4172de3f94d17cU, 0x3e1aa74dbfa057d7U, 0x3dec9b673f226fa3U,
  0xbfdec15bbf269eabU, 0xbed360e63d955595U, 0x3e25d8753ed6b5ecU, 0x3f728291bf177486U,
  0xbf879e1abfa61c29U, 0x3ecf29643f176018U, 0xbf03873a3f6cf44cU, 0x3e1bf5983e4e5dabU,
  0x3e8311923eec8e94U, 0x3f2f04833fb30c70U, 0xbeb02ea7be367e41U, 0x3ca7b797be95b462U,
  0xbf002ab1bc9f6b09U, 0x3f5889963e31a423U, 0x3f5b9777bf00385bU, 0x3ee42126bed4e6f5U,
  0xbe1e55f43cc78762U, 0xbf66c1bd3e742a85U, 0xbebfae7a3f1aaf4eU, 0xbe5fe7113e91b55dU,
  0xbf3b0566bf030455U, 0x3f71a4773f0701b2U, 0x3c215546bf4fb5d0U, 0x3f4eb2b43f7ade93U,
  0x3d05f1d53ea2f1d0U, 0x3eee89793d7dddfcU, 0x3fb93f74bea8b26eU, 0x3f3b38593efe694aU,
  0xbf597e853ee27e5dU, 0xbf5d2870bc6897e8U, 0xbe4db9f8be8901c9U, 0x3ef1bec23f8086b1U,
  0xbf3fd7263f2f0be3U, 0x3f868725bf2b679eU, 0xbf574251bf85317aU, 0xbc2140f03cd46f45U,
  0x3ef18023bed232c5U, 0xbeb2f09abe4c54e0U, 0x3fb2d9cfbd91b8a4U, 0xbf06927fbee6d608U,
  0xbf3ff1013e36f407U, 0x3ecbd8f9bf664e07U, 0xbf00423bbd5a546bU, 0x3f8c15333fafe812U,
  0x3ddd2b0bbf5c0e4fU, 0xbf69bf983e386e36U, 0x3ec754b13d29eba2U, 0xbfa1fa6bbf33c6dfU,
  0xbf18521cbed57fa0U, 0xbea8f61b3ec39ba0U, 0x3f5ac8aabe89e647U, 0xbf5eba123f3579f4U,
  0x3f73af7e3fefa4b3U, 0xbce4972bbf922c1eU, 0xbece56f1bfb654d8U, 0x3f8aa4903b9383aaU,
  0x3f0b0c0b3e98a66bU, 0x3f91e5463ebd8e34U, 0xbf607fb0be52b9ddU, 0x3f2ce31fbf234c32U,
  0xbf31d1b4bf2ecfd0U, 0x3e4a96163dc0331bU, 0xbeb15efc3f5897e3U, 0x3e4f7b1c3de3694bU,
  0x3f305856bee26979U, 0x3e8e5bf8bf1fb135U, 0x3f87f4d1bf26502aU, 0xbde9a7edbf826c9eU,
  0xbf44d88d3fb10c70U, 0x3e59537dbd38f9c3U, 0xbea5bc6abf21e685U, 0xbeec26f1be3ed94fU,
  0xbef07f24bd432ef4U, 0x3eeefb29befca971U, 0xbf0bc93fbf933476U, 0x3ed6aa2a3fa26e0cU,
  0xbf19039f3f286de7U, 0xbd6346e3bf460bc2U, 0x3e0887f93ec08535U, 0xbda713bfbef69bb2U,
  0xbf98198cbd643769U, 0x3ec1509dbf1f1b40U, 0xbee55e7f3fbb94d8U, 0x3c3956d8be92d0e3U,
  0x3caf839b3e236529U, 0xbd2c3a57be60d39dU, 0x3f2fe920bd36921cU, 0x3f49d402bf9e3d8bU,
  0xbe3a15ee3f807bcfU, 0xbf84ad5d3f04437cU, 0xbdd592533d3b5c7cU, 0x3f894d76bedc46b2U,
  0xbf843b3ebe8c6335U, 0xbfe8d34e3fb8639eU, 0x3d40020f3f42b024U, 0x3ef6b62cbe5f791fU,
  0x3fd8faccbeb8600fU, 0xbf9e2d573f233b08U, 0xbed5753dbf8e6d09U, 0x3f8b6d333f1d25dfU,
  0x3f050e2f3e2b0443U, 0x3faec1dfbe59aec6U, 0x3d0b8b1c3ebb7586U, 0x3f3c6a35bdd9eae3U,
  0xbf39184ebef86360U, 0x3f9343d03e9e238bU, 0xbdd554e9bf371c55U, 0xbf9b2fe33db4caadU,
  0xbec7deccbefeb4c4U, 0x3f8d43b03f44f649U, 0x3f6d3d823e850940U, 0xbf06d9513d78628bU,
  0xbe73f5123f23478cU, 0x3e9278893ec4b77aU, 0xbeac3be4bdcdd337U, 0xbd89cca33ee6a4efU,
  0xbf2fe6403e6f62bbU, 0xbe1fe4023e0f6604U, 0x3dda60b63da1e8ecU, 0x3e94cfc7bf581310U,
  0xbee4196dbe7e5464U, 0x3fb7d0a83f722b6bU, 0x3f6e8897bfa52f20U, 0x3eb6822b3f8933c2U,
  0x3ebb95c33ecf94a7U, 0xbe1696233efe702bU, 0x3f26f9eebf07b4b7U, 0x3e96ab5c3e317499U,
  0xbf3111c03e6800e2U, 0x3f4c304abd465e63U, 0xbe9a4290be5ef3ceU, 0x3f8c83ee3f15fb5eU,
  0x3f92ae56bfde5588U, 0xbd2e69b6bea1787bU, 0x3eb78155bee645aeU, 0x3de006283f0d122eU,
  0x3f599f69bdcc0eeeU, 0xbf262e963e0ec067U, 0x3f6e74323eda9e85U, 0x3ec9cc28beb7bce6U,
  0x3efbac293e47ee6cU, 0xbe1e58163ef91337U, 0x3e85ffe63cc21a3bU, 0xbe5ee5e4bdeb9274U,
  0xbf38bd0bbe21eb58U, 0xbe44154dbef4dc0fU, 0xbefb31f8bee3b8e8U, 0x3d1b6132be92c49eU,
  0xbf22f3333e860c0eU, 0x3f5b5f23bfd1ccb6U, 0x3c34d3393f75f57eU, 0x3f6c5c3b3e5b4465U,
  0x3f0a9ff1bf5c668bU, 0x3ebb3ddf3eaa98b0U, 0xbf9e2c72beb27cbcU, 0x4005f1d63f1e3b3cU,
  0xbdbf1646bf585a8eU, 0x3e4a5b3e3f662663U, 0xbf45814abd29ac8aU, 0xbe4dd341bf5e8291U,
  0x3ebe5b8abe80b4e1U, 0x3dfcca5c3f38c7f6U, 0x3d5d678a3f3553d8U, 0xbe434e753d1ab39aU,
  0xbf260e4cbf7457d0U, 0x3f66b440bf9a09eeU, 0x3e6099f4bf771431U, 0x3e9eedd6be822572U,
  0xbe3cb7f33f077c81U, 0x3ee1c2f2bd8fd842U, 0x3e408fb0beb31aa7U, 0xbf0beb843e3decdfU,
  0xbe66b2f43feeb278U, 0x3f22b4a5bf7f84d4U, 0x3e8122073faa6ac0U, 0xbf4cc30c3da04979U,
  0xbe8866943f0b3d74U, 0x3ff74e8dbd9d4230U, 0x3d8bff08bf1ab463U, 0x3e9cf084b9d74538U,
  0xbe158bf3bf753c9fU, 0xbf5bf158bc287f2bU, 0xbec18d653f338948U, 0x3e9c95ff3d8c0152U,
  0x3fbbf66c3c720eb4U, 0xbddfe6b8bf2ca24eU, 0xbdf8571d3d5e774cU, 0x3e2277a7bea0b285U,
  0x3e01b8243f2caeeaU, 0xbf4636eb3ebae851U, 0x3fb92d763fa67103U, 0xbf1b2662bf9e6d85U,
  0xbe0f34f7bfc6f800U, 0xbeb30e7e3dd93f56U, 0xbe800e7cbfae923eU, 0x3e41c6403eacee63U,
  0x3ebca3763f5ba9feU, 0x3f8a4e233fa2a865U, 0x3e0e3d7abdef0fc5U, 0xbf8f3f3ebe3cbfc5U,
  0x3f730c0fbd55bdcfU, 0x3f0a5f72bf8c81aaU, 0xbdd54a503f85fbc8U, 0x3f219dc2bf30f87cU,
  0x3ce241f43ef40350U, 0x3f615be6bf56f4a1U, 0x3e52300e3f98a5cdU, 0x3ef3dbe5be7b0aefU,
  0x3fb8305d3edf111eU, 0xbec404b2bee03945U, 0xbe34a76ebec55ff1U, 0xbf1127cd3f31ec54U,
  0xbfa87e063f13e178U, 0x3fcc9ff83f01a01eU, 0xbe0cadb3bec8cd2dU, 0x3d471ae83f1a4a9aU,
  0x3f173c2bbe0080a9U, 0xbfc19fc0bda31bd0U, 0x3ecfd65b3f41488dU, 0x3e1ef5dbbfc7555dU,
  0x3e044fbb3fd0c4fdU, 0xbf1af1ff3f20bfdaU, 0x3e741f5d3f39b211U, 0x3dbb85c0bf86683cU,
  0x3f3151193db4134bU, 0xbfe6c0803ed8624aU, 0x3c8349ad3fb50218U, 0xbf5907c9bf726c02U,
  0xbe06bc26be3579b0U, 0xbf716c5d3eb8407eU, 0x3f8423b13ecc121aU, 0x3f0356e9bff5d2caU,
  0xbea59e923ee93cdbU, 0xbe65c55e3ed22ab3U, 0xbe752c1fbeaa2015U, 0x3d48bab63ba68387U,
  0xbf13204a3f424bc1U, 0x405402e03eae4d93U, 0xbf6212233ea41a8fU, 0x3ec6b98fbef6b2e6U,
  0x3f889ae13f02cf92U, 0x3da3340d3f25b023U, 0x3eb107553fa0440dU, 0xbf3084b9bef95878U,
  0x3f9fa25b3f60b95dU, 0x3ee37e053ebae886U, 0xbe9908f83d380ba5U, 0x3d8c2fe0bf439857U,
  0x3d692edabe31f617U, 0x3fdff94fbcfa41a4U, 0xbdee818a3fa160ccU, 0x3fbdd3583e7b7852U,
  0xbf0ae6bcbd501aacU, 0xbead805bbedf9868U, 0x3fdebf61bebcf9e1U, 0x3f667c903f4a6c71U,
  0xbe4d72713f5e8affU, 0x3d5c63d0be43200bU, 0x3f1934c7be9f74f6U, 0x3f87617d3de7ec55U,
  0x3d8bc20e3e197035U, 0x3f6e33d9bf9e48f2U, 0x3de23d93bfe7e2d7U, 0x3f2be1083f15ffcdU,
  0xbe8b2d1f3f8db2b4U, 0x3f63f0f6bed0ccdfU, 0x3f80bd793f1de510U, 0x3fa8d1e23e8181f0U,
  0x3ef840ebbf29360dU, 0x3e0698403c4c6e51U, 0x3f886165bfa96669U, 0x3e5781a33e4ec526U,
  0x3ee676d63f10997aU, 0xbe89743a3f3ca453U, 0x3efb69c3bc1b8572U, 0x3f1e0cba3eede472U,
  0xbf8ae3453f78a980U, 0x3edf67ac3e845b28U, 0x3f3a98b03e6c118cU, 0xbfa422a8be8caf57U,
  0xbf2fa72dbec8e066U, 0xbf318b6bbf33bb92U, 0x3e97d844bf07e69dU, 0x3ed3f948be7c716fU,
  0x3e8f4926beaae4eaU, 0xbec042afbf332009U, 0x3cef7328bef9c668U, 0xbf1506733e6ea534U,
  0xbeac5e70bf16b200U, 0x3ed71c8dbee2ab45U, 0xbf53c87b3f1a2a23U, 0xbeb432ddbe91dbe7U,
  0x3dfc3b1fbeeaef30U, 0xbf41ed8ebea426a3U, 0xbea4287c3f693014U, 0xbd93fad13f333066U,
  0x3fb3ee293ead5b40U, 0xbf4252a63dec2f60U, 0xbf2a0c14bf50186bU, 0xbedea0cebde16a48U,
  0xbec9bdffbec0f30eU, 0x3ef39f643e7771e3U, 0xbdffcffa3eacc5feU, 0xbe133e443f8d8c5eU,
  0xbebd6c36bf566b4cU, 0xbe2a4ee03e61bb68U, 0x3fb634183dbd341bU, 0x3e575129be0f20d6U,
  0xbf713e7a3fe1f80aU, 0x3e6309643feffbabU, 0xbec4ff043f50d824U, 0x3de8b0653ee2eb59U,
  0x3f6867663ea83a77U, 0x3f53daf8bf7e5aaeU, 0x3f8302fbbd5dacbdU, 0x3e06da7d3f1ad9cbU,
  0xbf7416bfbf99c941U, 0x3df493973e9374f8U, 0xbf19633b3d9e5a67U, 0xbeb8bb223ee8795bU,
  0xbfb574c33f142e7aU, 0x3f7ac9573f95a708U, 0xbf03857c3f44128bU, 0xbf1cda6cbe777b81U,
  0x3e070f983e268338U, 0xbf821349bebc4e03U, 0xbeb7c2593f353debU, 0xbf70f83e3e11b530U,
  0xbf0d9fca3cec0af2U, 0x3e67c498bffefdd2U, 0xbe80446b3f3137f2U, 0xbf4292d3bf347482U,
  0xbf108cb43e2f160cU, 0x3eee173dbed530c4U, 0x3f900fa73da5f169U, 0x3f3cf507bf35e176U,
  0xbd958e5b3f2a50abU, 0xbe7309573ecf3b37U, 0x3eb8565c3efe8d1bU, 0x3e191e343c8e3a6dU,
  0xbd3247afbf5aa2a4U, 0x3ee734033fef96c4U, 0xbf0099b03ed7331fU, 0x3d6fad603ef3fcf7U,
  0x3e2378d03dc2ab91U, 0xbf90838f3ecf4303U, 0xbe25214c3eb1e013U, 0xbf1c175c3eeaf694U,
  0x3f367ef0bf457f4cU, 0xbf3f9ac03f42e645U, 0x3f3ab5943ed36cfaU, 0x3f04a8143ea478a5U,
  0x3f28d550bf38d37aU, 0xbfa06c4abed9f3f5U, 0x3f2184003db911dfU, 0x3f600b2f3f39cd8fU,
  0xbe321badbd3ecf87U, 0x3f86de57be55e69bU, 0xbe015c553f8b6d6bU, 0xbe0deec13ef975f1U,
  0x3ed801353e26cb0dU, 0xbfa15229bf1f73a6U, 0x3f1bd3ee3f085c5aU, 0x3e81f1793f08d614U,
  0xbf8fcf6dbf72fb6bU, 0xbdf35b5abf525950U, 0xbf0f4e863e82e19dU, 0x3f04fe02bf35bbc0U,
  0x3f35e0e5beae4f4cU, 0xbfbc1a5d3fbadc68U, 0xbf79bfa03f469d21U, 0x3fdcb134bdbcd60cU,
  0xbe0952b63e0e7869U, 0xbf8127f63f09f1e9U, 0xbe8ddd8b3ede8ae8U, 0xbde12b93be8a69f9U,
  0x3ede71cfbd82afeaU, 0xbdbdb7423ef83e1bU, 0xbecdc5af3f8d1055U, 0xbef502af3f8206cbU,
  0xbea167b03ef498caU, 0xbe2b0b503f2ec611U, 0x3e9b95a5bfa949f0U, 0x3fb67c113f982d22U,
  0x3db25d7e3dff3404U, 0xbed0cd283e2c1820U, 0xbeb3e423bf8bcc4bU, 0x3e92b4233f3d6e2dU,
  0xbf595d7bbf4662f0U, 0xbf2cc448be0caecaU, 0x3ee75b703f01bb9fU, 0x3f911e523f27370eU,
  0x3fa0e58fbdb3b55bU, 0x3ea935c4be2179ceU, 0x3ec4c2e5be5391e0U, 0x3d2d3fe63ec170b0U,
  0x3f2db270bf06b8c1U, 0x3e201fd13ef413a8U, 0xbf86cf283f7d7fe5U, 0x3ea4d9153e65a0beU,
  0x3dc55a8e3f56c285U, 0x3e92471c3efe1a75U, 0xbedaf04cbe8240e9U, 0x3e8574d33eeb47feU,
  0xbf32c76d3f2b4655U, 0x3ed68a21bf40bd03U, 0x3fc6c73a3ee04aa3U, 0x3f1dc3a13e9f5085U,
  0xbd4978c8bebd423fU, 0xbee03da23f17e4ddU, 0xbfc2c0aebf99645bU, 0xbe858c8a3f618062U,
  0x3e9a17383ec7eaa6U, 0x3f6bb01b3f165fd3U, 0xbc7929f6bf094e9eU, 0xbe825477bec7fc12U,
  0x3f8c01593f38729fU, 0x3f89b1543f1463d8U, 0x3eb8acdd3d2fc92fU, 0x3f167751be2f7b48U,
  0xbf5c0c433f6b2237U, 0x3dc10e5d3d163c5fU, 0xbd2764563db447ecU, 0xbeeaccebbf4ffde4U,
  0x3f9d2da33fa0710bU, 0xbf18d5ddbec0260cU, 0xbf2ab68b3d5a4a1cU, 0x3e31ba343eeca941U,
  0x3e59d1233f8f4862U, 0xbdbc4c0c3f8477ffU, 0xbeaa34e23e0d77a1U, 0x3df86db7be97db98U,
  0x3f735c293f005188U, 0xbedff2d53f2f4dd3U, 0xbf52543dbd71da07U, 0x3efaefeabeee4d26U,
  0xbed950d2bf1a047bU, 0xbe4d7be63e0261b9U, 0x3f34aa17bef7930eU, 0xbe196fc5bf8b9463U,
  0x3ee6ecdc3f7d4da4U, 0xbecc9539bf1f66c5U, 0xbea947fa3dec9908U, 0x3e599ebebe01c293U,
  0xbfefe5babd96d54fU, 0xbf2bb7d9be84090dU, 0x3d4c939cbdfc3169U, 0xbfa26f66be1103beU,
  0xbf981d3fbf2bb0b5U, 0xbf5cc9173f9c10eeU, 0x3fbd32babe3c4068U, 0xbf0078983f1f63b3U,
  0x3f6cea02bebe2699U, 0x3f88d56dbf2395e5U, 0x3ea163a83f0528dfU, 0xbe9750c23e92090cU,
  0xbf0fe039be47aac5U, 0x3fa0b5e03c52eeb1U, 0xbe86eb2bbeda5718U, 0xbf777ab0bf3b3650U,
  0x3e07d742bf1735e8U, 0xbfa1dd8cbf815bcaU, 0x3f3e71d2bef90992U, 0x3f1ec6eebee70f66U,
  0x3ee6ad583ef4085cU, 0xbd8311f1bde844c0U, 0x3e402cfa3fac1226U, 0xbed0de3b3fac6aecU,
  0xbf9aa6613efb9dc8U, 0x3dd3b732be58cbb8U, 0xbf1fb3013f2e8ccdU, 0xbe31986ebf015281U,
  0xbf815f003f64901fU, 0x3f6c5acebf9479d5U, 0xbe148630bccbff26U, 0xbf559a08bec06dcbU,
  0x3feacb2cbf31ad17U, 0x3daaa43e3e5924d5U, 0xbf494dabbe31ee03U, 0xbf85f42cbf2b1573U,
  0xbf522b60be8a6b6dU, 0xbe7d7e4ebf878ebcU, 0x3f1033473fa6ac75U, 0xbe12a1fcbeae0a11U,
  0x3d715a1cbe29994fU, 0x3de68083bf2940a1U, 0x3d5c54423fc53866U, 0xbe4187edbe8a48f3U,
  0xbd1a8c203f058069U, 0xbfce69abbd748857U, 0x3f4a86613d8e553dU, 0x3ec6b8363eddd972U,
  0xbe892ee9bf03e8c4U, 0xbd372e95be5c3f94U, 0xbe7518a2bf385b73U, 0x3fc500df3d15eb0bU,
  0x3fe442973ed91a5fU, 0xbf0fe782beb14b5aU, 0xbfc2fd433fb58b8bU, 0xbf0163ae3ef12656U,
  0x3eebd9dc3ec94780U, 0xbe7f8ab9bf03248eU, 0xbf32852abf78a8e0U, 0x3e6d12ed3f55c271U,
  0xbd83aa7dbf2cc0afU, 0xbcfed29e3f091490U, 0x3eef4a0c3ed85cb4U, 0xbeed51d93df74635U,
  0x3d195fe5bf6f63f3U, 0xbea1981c3fecba5bU, 0xbf11e0ba3e85d334U, 0xbf3d8f45bf24d57dU,
  0x3e69d26dbe21c086U, 0xbe72a0b53f7a84f8U, 0xbf0dfd91bf40d164U, 0xbdd266a6bf225b49U,
  0x3e5cf845bf668531U, 0xbed32a803f73e27dU, 0x3eab5266beb7b239U, 0x3fb87600bda7f39aU,
  0x3e3aa2803f2b9f83U, 0xbf01ce57be2301f0U, 0x3f276820bf7fbb0aU, 0xbf7c4d16bdb0a236U,
  0x3f1770593e19e0d5U, 0x3eb86ccc3ba6c2fdU, 0x3fcda23e3f48768fU, 0x3dd1e453bf4c7ddeU,
  0x3f17c8963eafd8e6U, 0xbe3f2d983e09abe7U, 0x3f43b1973f06c664U, 0x3f0c9d033f8297f4U,
  0x3f014fe4bf639e50U, 0x3f0c29e7bf00fa9dU, 0xbecf5c11bf4e8f07U, 0xbe15fbc4bdb9f2ccU,
  0x3fcb6bebbed5e41fU, 0x3fb942253e7c5000U, 0xbf00cdbbbf8f9c2dU, 0xbe57a46bbe3e807aU,
  0xbe3de9dcbf01fbc4U, 0x3f786c833ea6eecaU, 0x3bdccb15bf16be5fU, 0xbee8aaf0c00eda1aU,
  0x3f4921bb3ebaa42cU, 0x3e8433b93f522142U, 0xbf1421e9bf860f10U, 0x3f4a142a3d45f5faU,
  0x3eb463863f05a216U, 0x3edd3d0abf69c648U, 0x3f7934bbbf09f3a7U, 0xbe8ac9d33ebbddb1U,
  0x3f2708f4bdd1c7f3U, 0xbfadfd2bbd3d58fcU, 0xbfd3aac4bfa33554U, 0x3f773a59bf9f2f5aU,
  0xbf4d26053f1ad361U, 0x3fac2a69beda80ffU, 0x3fa2bc473f17d24cU, 0x3f21ca9dbf66a032U,
  0xbf2ffc533f9e0567U, 0x3f3c7b1fbfa75566U, 0x3f9aa8cc3f4ccdfcU, 0xbf412e223ed03a96U,
  0xbf8592d8befc39d3U, 0x3f3c92983e75febbU, 0x3fe747083f949aceU, 0xbe1f9b8ebf59e6beU,
  0x3edf7fdc3e5e8477U, 0x3f6e43b5bf9501bfU, 0xbead992cbe01577aU, 0x3f83b7303eddedc1U,
  0x3c8659e13e71d202U, 0xbf6f9b4fbf53daa7U, 0xbf0b59c53f18f2feU, 0x3eb2db6fbec7c749U,
  0x3f63d6a23f9007a6U, 0x3e2bc756bf25731cU, 0xbf52aca63f59302dU, 0x3f073b31c0136935U,
  0xbef27cb4bf8c2ae8U, 0xbf648c77bf8a64bbU, 0xbf8fb9193ebc0c2fU, 0x3e75c43dbf9f5a6fU,
  0xbdbf26c7be32da6eU, 0x3d1e60c3bf06c5b6U, 0xbdf2e4723d6d33b7U, 0x3f32aef63e281ab7U,
  0xbf0f85fd3e9f2563U, 0x4002ea76bf0a2e7dU, 0xbdc487313f1f698cU, 0xbe09539a3e7c6dd3U,
  0xbeb8da793ff6df89U, 0xbf8ad1b8bf230b61U, 0xbdc647b33e5222e5U, 0xbe7f00c43f23d0ddU,
  0x3ee1fa0f3f5e53feU, 0xbf1fa05f3cc17f9bU, 0xbf27b989bf4e99a9U, 0xbe45eb783d0a7387U,
  0xbfa94d573e791e10U, 0xbf593cf23f28b819U, 0x3eefd83c3cc18009U, 0xbf1c92ebbee111e1U,
  0xbfda1309bf01de32U, 0x3e9f34933f68f4e0U, 0x3f951fa73f46b160U, 0xbf853bd63e981f16U,
  0x3ec29d7d3f18ca26U, 0xbf39c634bcc561d5U, 0xbf386a41bf7a8075U, 0xbe95f7cf3f476a76U,
  0xbf596610bea6d5bbU, 0x3ec2fd02befc0e56U, 0xbf8687093ef0396aU, 0xbe96f7f3bec84e58U,
  0x3f5a353cbe84b8c6U, 0xbc693ccf3eac455eU, 0x3f0dea26bce5ac7aU, 0x3fd4df7abc2db383U,
  0x3f75ad553f24feceU, 0x3fc3c4b23e4b9c2fU, 0xbf3e57e6bf2a8553U, 0xbf250b75bef243d6U,
