#include "sine_model_data.h"

ai_handle ai_sine_model_data_weights_get(void)
{

  AI_ALIGNED(4)
  static const ai_u8 s_sine_model_weights[ 2372 ] = {
    0x0f, 0x63, 0x6c, 0x3e, 0x00, 0x4c, 0x06, 0xba, 0x30, 0x61,
    0x87, 0xbd, 0x64, 0xf1, 0x3c, 0xbe, 0x94, 0xbf, 0xfb, 0xbe,
    0xf2, 0x12, 0xfd, 0x3e, 0xf9, 0x5b, 0xf6, 0x3e, 0xb5, 0xc5,
    0x92, 0xbe, 0x6b, 0xd4, 0xba, 0xbe, 0x2e, 0xe0, 0x12, 0xbf,
    0x76, 0x07, 0x05, 0xbe, 0x90, 0x97, 0xdb, 0xbd, 0xb4, 0x6a,
    0xfe, 0x3e, 0x2e, 0xbe, 0x94, 0x3e, 0xc6, 0x91, 0x73, 0x3e,
    0x6a, 0xef, 0xb4, 0xbe, 0x12, 0x16, 0x12, 0xbf, 0x00, 0x00,
    0x00, 0x00, 0x00, 0x00, 0x00, 0x00, 0x00, 0x00, 0x00, 0x00,
    0x00, 0x00, 0x00, 0x00, 0x56, 0x49, 0xb7, 0xbb, 0x79, 0xc9,
    0x31, 0xbd, 0x00, 0x00, 0x00, 0x00, 0x00, 0x00, 0x00, 0x00,
    0x00, 0x00, 0x00, 0x00, 0x00, 0x00, 0x00, 0x00, 0x00, 0x00,
    0x00, 0x00, 0x41, 0x85, 0x50, 0xbf, 0x2a, 0xd0, 0x4c, 0xbb,
    0x6a, 0xb9, 0x23, 0x3f, 0x00, 0x00, 0x00, 0x00, 0x2b, 0x26,
    0xad, 0x3e, 0x26, 0xbd, 0xd5, 0xbe, 0x8a, 0x57, 0x24, 0x3e,
    0x16, 0x00, 0x3a, 0x3e, 0x2d, 0x22, 0xad, 0x3e, 0x0e, 0x9f,
    0x9b, 0xbe, 0x2a, 0xb2, 0xdc, 0x3e, 0xfc, 0x96, 0xa3, 0xbe,
    0xcd, 0x6b, 0xa0, 0x3e, 0xc7, 0x57, 0xd9, 0xbe, 0xc0, 0xe2,
    0xb0, 0xbb, 0x2c, 0xc4, 0x82, 0xbe, 0x87, 0x0e, 0x94, 0xbe,
    0xde, 0xec, 0xc3, 0xbe, 0x2b, 0x96, 0x10, 0x3e, 0x3d, 0xc6,
    0xdc, 0x3e, 0xe5, 0x59, 0x8a, 0x3e, 0xb0, 0x3c, 0xc1, 0xbc,
    0xe0, 0xda, 0xb8, 0x3c, 0xa2, 0x92, 0x22, 0xbe, 0xb2, 0x76,
    0x88, 0xbe, 0x3f, 0x3d, 0x4d, 0xbe, 0x3d, 0x34, 0x3c, 0xbe,
    0x15, 0x29, 0xb8, 0x3e, 0x54, 0x45, 0xcf, 0x3d, 0xad, 0x1b,
    0x62, 0xbe, 0x62, 0x73, 0x14, 0xbe, 0xb8, 0xeb, 0x96, 0xbe,
    0x86, 0xaa, 0x44, 0x3e, 0x98, 0xe5, 0x0d, 0xbe, 0xe0, 0xc6,
    0x53, 0xbc, 0xc0, 0x99, 0x46, 0x3c, 0xf0, 0xce, 0x9e, 0x3c,
    0x36, 0x11, 0x7f, 0x3e, 0x78, 0xeb, 0x34, 0x3d, 0x83, 0xdd,
    0xd1, 0x3e, 0x88, 0x1b, 0xc9, 0xbd, 0x1d, 0x86, 0xd7, 0x3e,
    0x4c, 0xc3, 0x9a, 0xbe, 0x48, 0x54, 0x6a, 0xbe, 0x3e, 0xa0,
    0xae, 0xbe, 0x9c, 0x28, 0xea, 0x3d, 0xa4, 0xe4, 0x9d, 0xbe,
    0x02, 0x6f, 0xce, 0xbe, 0x24, 0xe1, 0x96, 0xbe, 0xb3, 0x4e,
    0x94, 0x3e, 0xaa, 0x1b, 0xbe, 0xbe, 0x23, 0x72, 0x81, 0x3e,
    0x5c, 0x1d, 0x33, 0x3e, 0xe6, 0x66, 0x33, 0xbe, 0x5b, 0x35,
    0x6c, 0xbe, 0xe2, 0x8e, 0x99, 0xbe, 0x79, 0xa4, 0xdb, 0x3e,
    0x64, 0x5d, 0x05, 0x3e, 0x78, 0x13, 0xab, 0x3e, 0x70, 0xc6,
    0x45, 0xbd, 0x0a, 0xce, 0x4c, 0x3e, 0x4c, 0x53, 0xd5, 0xbd,
    0x1c, 0xa4, 0xd5, 0x3d, 0x57, 0xe0, 0xc7, 0x3e, 0xd6, 0xc4,
    0x91, 0x3e, 0x9b, 0xe9, 0x87, 0xbe, 0x96, 0x18, 0x02, 0xbe,
    0x4e, 0x67, 0xbe, 0xbe, 0x43, 0x5d, 0x1d, 0x3f, 0x9c, 0x95,
    0xa8, 0x3d, 0x21, 0x20, 0x92, 0x3e, 0xcb, 0xcd, 0xab, 0x3e,
    0xd0, 0x77, 0x94, 0xbe, 0x6f, 0x28, 0xac, 0xbd, 0x27, 0xc0,
    0xca, 0x3e, 0x7b, 0x38, 0xbf, 0x3e, 0xd8, 0xb8, 0xbb, 0xbe,
    0x35, 0xb5, 0xa6, 0x3e, 0x92, 0x0e, 0x70, 0x3e, 0xe4, 0x6d,
    0x8e, 0xbd, 0x22, 0x6e, 0x4c, 0xbe, 0xf6, 0xed, 0x4f, 0xbe,
    0xb2, 0x93, 0xed, 0xbd, 0xf3, 0x8f, 0xca, 0x3e, 0xe4, 0x76,
    0x89, 0xbd, 0x52, 0x0e, 0x29, 0x3e, 0x94, 0x53, 0x9f, 0xbe,
    0xca, 0xba, 0x78, 0xbe, 0x85, 0x6b, 0xd4, 0xbe, 0xbb, 0x3c,
    0xa0, 0x3e, 0xee, 0xbf, 0x20, 0xbe, 0x94, 0x01, 0xb2, 0xbe,
    0xc9, 0xa9, 0xae, 0xbe, 0xe2, 0x55, 0x60, 0x3e, 0x33, 0xde,
    0xc6, 0x3e, 0x28, 0x31, 0x7d, 0xbe, 0x48, 0x70, 0x1d, 0xbe,
    0x20, 0x8c, 0xb5, 0xbd, 0xb5, 0x02, 0x57, 0xbe, 0x10, 0x62,
    0x91, 0x3c, 0x64, 0x63, 0x82, 0xbe, 0x48, 0x58, 0xfb, 0xbd,
    0xab, 0xb7, 0x8a, 0x3e, 0xcf, 0x35, 0xaf, 0x3e, 0x40, 0x4f,
    0xd5, 0xbb, 0x98, 0xb9, 0xaa, 0xbd, 0xb0, 0x8e, 0xcc, 0xbe,
    0xdc, 0x6f, 0xcc, 0xbd, 0x38, 0x27, 0xa7, 0xbe, 0x42, 0xbf,
    0x91, 0xbe, 0x2e, 0xf0, 0xc9, 0xbe, 0x18, 0x9f, 0x5f, 0xbd,
    0xc6, 0x88, 0xba, 0xbe, 0xeb, 0x0f, 0xb9, 0xbe, 0x80, 0xaa,
    0xb3, 0xbe, 0x6f, 0x7a, 0xc2, 0xbe, 0x4e, 0xf8, 0x30, 0x3e,
    0x23, 0xda, 0xd6, 0x3e, 0xf0, 0x5b, 0xc0, 0xbc, 0x64, 0xb4,
    0x79, 0xbe, 0x24, 0x92, 0x99, 0xbd, 0x22, 0x54, 0x30, 0x3e,
    0x03, 0xc2, 0x4e, 0xbe, 0x79, 0x29, 0xd7, 0xbe, 0x5a, 0x14,
    0x15, 0x3e, 0x74, 0x39, 0xf4, 0xbd, 0x66, 0x53, 0x59, 0x3e,
    0xcb, 0x6e, 0x91, 0x3e, 0xd8, 0xcb, 0x9f, 0xbe, 0xd4, 0x7b,
    0xfb, 0x3d, 0x90, 0x43, 0xa6, 0xbe, 0xa0, 0xf6, 0x80, 0x3c,
    0x9e, 0xd2, 0x39, 0x3e, 0xf2, 0xd3, 0xa3, 0xbe, 0xed, 0x81,
    0xaa, 0x3e, 0x30, 0x21, 0x82, 0x3c, 0x7a, 0x02, 0x07, 0xbe,
    0xe0, 0x86, 0xc4, 0xbd, 0x58, 0x1c, 0x43, 0x3d, 0x82, 0x1c,
    0x36, 0x3e, 0xc6, 0x31, 0x59, 0x3e, 0x4e, 0xa1, 0x9d, 0xbe,
    0x04, 0xee, 0x3a, 0xbe, 0xc7, 0x51, 0xc6, 0xbe, 0x52, 0x5a,
    0xcc, 0xbe, 0x30, 0xe3, 0x85, 0xbe, 0xc0, 0x2b, 0x1d, 0xbd,
    0x00, 0xf3, 0x73, 0x3b, 0xae, 0xf2, 0x81, 0xbf, 0x80, 0xa1,
    0x7e, 0x3b, 0xe9, 0x66, 0xb3, 0x3e, 0xb4, 0x00, 0x99, 0xbd,
    0xa0, 0x81, 0x2c, 0xbc, 0xa4, 0xff, 0xcd, 0x3e, 0x06, 0x83,
    0xbc, 0x3e, 0xe7, 0x53, 0xc4, 0x3e, 0x53, 0x34, 0x89, 0x3e,
    0x4a, 0x19, 0x22, 0x3e, 0xd7, 0x4b, 0x8e, 0x3e, 0x84, 0x26,
    0x29, 0xbe, 0x45, 0x5f, 0x68, 0xbf, 0x2b, 0xc4, 0xd5, 0x3e,
    0x53, 0x9b, 0xad, 0x3e, 0x94, 0x41, 0xa3, 0x3d, 0xdc, 0xed,
    0x47, 0x3f, 0x16, 0x9f, 0x18, 0xbe, 0xd0, 0x7d, 0x23, 0x3d,
    0x5b, 0xad, 0xc5, 0xbe, 0x6f, 0x9c, 0xc1, 0xbe, 0x70, 0x2b,
    0x6b, 0xbe, 0x44, 0xb2, 0x59, 0x3e, 0xfc, 0x8b, 0xe5, 0xbd,
    0x64, 0x0d, 0xaf, 0x3d, 0x83, 0x97, 0x8b, 0x3e, 0x3c, 0xef,
    0xa2, 0xbe, 0x73, 0x48, 0xd7, 0xbe, 0x49, 0x29, 0x0f, 0x3f,
    0xcd, 0x99, 0x5b, 0x3d, 0x25, 0x14, 0xd9, 0xbe, 0xa0, 0x93,
    0x96, 0x3c, 0xe5, 0x2f, 0x8d, 0xbe, 0xa4, 0xc5, 0xba, 0x3d,
    0x60, 0x92, 0x7f, 0xbd, 0x33, 0x90, 0x92, 0x3e, 0x28, 0x45,
    0x92, 0xbd, 0xfc, 0x53, 0xa6, 0xbd, 0x55, 0xfc, 0xce, 0x3e,
    0x95, 0xca, 0x5c, 0xbe, 0xb7, 0x94, 0x99, 0x3e, 0x71, 0xe1,
    0x9a, 0x3e, 0x0f, 0xbe, 0xd6, 0x3e, 0xd1, 0xcd, 0xda, 0x3e,
    0x5a, 0x91, 0x1a, 0x3e, 0xc6, 0xc2, 0x9b, 0xbe, 0xb4, 0xe9,
    0xa0, 0xbe, 0x10, 0x67, 0x27, 0xbd, 0xdb, 0xd4, 0x5f, 0x3e,
    0xca, 0xb1, 0xd4, 0xbe, 0x04, 0x06, 0x9f, 0xbd, 0x70, 0xcb,
    0x81, 0x3c, 0xf4, 0x91, 0x92, 0xbd, 0x60, 0xb8, 0x85, 0x3e,
    0xc7, 0xe9, 0xd9, 0x3d, 0x71, 0x68, 0xaf, 0x3e, 0x00, 0x52,
    0x5d, 0x3c, 0xff, 0xf6, 0x97, 0x3e, 0x54, 0xdd, 0x8b, 0xbd,
    0xa4, 0x78, 0xfd, 0x3d, 0x8f, 0xd9, 0x04, 0xbd, 0xb0, 0x33,
    0xd1, 0x3e, 0x07, 0xc6, 0x48, 0xbe, 0xfc, 0x76, 0xa3, 0x3d,
    0x94, 0x2a, 0x8f, 0x3d, 0x1a, 0x96, 0x4c, 0xbe, 0x27, 0xf0,
    0xa4, 0x3e, 0x52, 0x7d, 0xc3, 0xbe, 0xe2, 0x03, 0x7f, 0x3e,
    0xaa, 0xf4, 0xb0, 0xbe, 0x83, 0x78, 0xb4, 0xbe, 0x12, 0x3b,
    0x8d, 0xbe, 0x15, 0x21, 0xc2, 0xbe, 0x90, 0x4a, 0xe0, 0xbc,
    0x98, 0x80, 0x1c, 0xbd, 0x30, 0x94, 0x2c, 0x3d, 0xe9, 0xb5,
    0x92, 0x3e, 0x0a, 0x05, 0xe9, 0x3c, 0xd2, 0x2a, 0xd9, 0x3c,
    0x4c, 0x00, 0x54, 0xbe, 0xec, 0x63, 0x24, 0xbf, 0x8c, 0x03,
    0x71, 0xbe, 0x5c, 0xa6, 0xb3, 0xbe, 0x0f, 0x5f, 0xba, 0x3e,
    0x17, 0xc2, 0xd6, 0x3e, 0xb2, 0x15, 0x20, 0xbe, 0x0d, 0x73,
    0x15, 0x3e, 0xdc, 0x7e, 0x82, 0xbe, 0x8d, 0x73, 0xda, 0x3e,
    0xcc, 0x0d, 0x8d, 0xbe, 0x82, 0x31, 0x04, 0x3e, 0x48, 0x23,
    0xe1, 0xbd, 0xa0, 0x67, 0xb6, 0xbe, 0x46, 0x8b, 0x50, 0x3e,
    0x8c, 0x75, 0x41, 0x3d, 0x56, 0x17, 0x5a, 0x3e, 0x92, 0xe2,
    0xd9, 0xbe, 0xe9, 0xa0, 0x87, 0x3e, 0x60, 0x7f, 0x3c, 0x3d,
    0xd6, 0xa1, 0x5d, 0x3e, 0x80, 0xcc, 0x9f, 0x3b, 0x98, 0x05,
    0x92, 0xbe, 0x24, 0xcc, 0xb7, 0xbd, 0xf4, 0x9e, 0x4c, 0xbe,
    0xf0, 0xfe, 0xda, 0xbe, 0xfd, 0x34, 0x89, 0xbe, 0xbe, 0x53,
    0x0b, 0x3e, 0x80, 0x8a, 0xe3, 0xbb, 0x37, 0x79, 0xcc, 0xbe,
    0xef, 0x84, 0xc2, 0xbe, 0x14, 0xee, 0x92, 0xbe, 0x2f, 0xc5,
    0xc7, 0x3e, 0xaa, 0x5c, 0xbe, 0xbd, 0x00, 0x00, 0x00, 0x00,
    0x00, 0x00, 0x00, 0x00, 0x57, 0x05, 0x81, 0xbd, 0x85, 0x30,
    0xd4, 0xbe, 0x00, 0x00, 0x00, 0x00, 0x00, 0x00, 0x00, 0x00,
    0x00, 0x00, 0x00, 0x00, 0x00, 0x00, 0x00, 0x00, 0x2d, 0x7b,
    0xc2, 0xbd, 0xf2, 0x84, 0x20, 0xbf, 0x00, 0x00, 0x00, 0x00,
    0x17, 0x75, 0xb3, 0xbe, 0x57, 0x8f, 0x90, 0xbc, 0xf4, 0xb9,
    0xfb, 0x3e, 0x00, 0x00, 0x00, 0x00, 0x77, 0x6d, 0x5f, 0xbe,
    0x17, 0x73, 0xd3, 0x3e, 0x6b, 0x4b, 0x8a, 0x3e, 0x18, 0x64,
    0x94, 0xbc, 0xe9, 0x7d, 0x82, 0x3d, 0x61, 0xe7, 0xab, 0x3e,
    0x84, 0x7e, 0xa6, 0x3d, 0x04, 0x1c, 0xb5, 0x3d, 0x1c, 0xca,
    0xb9, 0x3d, 0xa4, 0x6d, 0x8a, 0xbd, 0x1e, 0xf5, 0xa4, 0x3d,
    0x20, 0xc8, 0x24, 0x3c, 0xb3, 0xc5, 0x67, 0xbf, 0x85, 0x86,
    0xbe, 0x3d, 0x4c, 0xac, 0x38, 0x3f, 0x4a, 0x60, 0x19, 0x3e,
    0x9c, 0xf6, 0x05, 0x3e, 0x70, 0xa7, 0x31, 0xbd, 0x04, 0x40,
    0x35, 0xbe, 0x96, 0x31, 0x46, 0x3e, 0x79, 0xfa, 0xbd, 0x3d,
    0xc4, 0x36, 0xcb, 0xbe, 0x7d, 0xef, 0xac, 0x3e, 0x4c, 0x82,
    0xbf, 0x3d, 0x50, 0x5c, 0x06, 0xbe, 0xfd, 0x85, 0x0a, 0x3e,
    0xed, 0x04, 0x92, 0xbf, 0xf2, 0x25, 0x50, 0xbe, 0xa4, 0xb1,
    0x49, 0xbe, 0xda, 0x0d, 0x4d, 0x3e, 0xaf, 0x51, 0x51, 0xbf,
    0xcf, 0xc1, 0x6d, 0xbe, 0xbe, 0x4b, 0x3e, 0x3e, 0xc9, 0xd5,
    0xc5, 0x3e, 0x0e, 0x37, 0x07, 0x3e, 0xbe, 0x2f, 0xc8, 0xbe,
    0xa0, 0x01, 0x28, 0xbd, 0xc3, 0xae, 0xd7, 0xbe, 0xc8, 0x6c,
    0xa7, 0xbd, 0x84, 0x48, 0x89, 0x3d, 0x08, 0x89, 0x3f, 0xbe,
    0x18, 0x22, 0x1a, 0xbe, 0x00, 0x77, 0xba, 0x3a, 0xbc, 0xbc,
    0xa5, 0xbe, 0x6e, 0xe5, 0x7d, 0x3e, 0x4d, 0x1e, 0xce, 0x3e,
    0xf8, 0x4a, 0x30, 0xbd, 0x53, 0xf4, 0xc1, 0x3e, 0xbe, 0xa5,
    0x49, 0xbe, 0xcb, 0xf4, 0xd5, 0x3e, 0xd4, 0x61, 0xa0, 0x3d,
    0xb5, 0xe6, 0xf4, 0x3d, 0x00, 0xa0, 0x36, 0xbe, 0x5b, 0xdc,
    0x8a, 0x3e, 0xb8, 0x07, 0xf1, 0xbd, 0x43, 0x5d, 0x97, 0x3e,
    0x94, 0xb6, 0x22, 0xbe, 0xcb, 0xf2, 0x37, 0x3e, 0x6a, 0xad,
    0xd2, 0xbf, 0x00, 0x0c, 0xc4, 0x3a, 0x03, 0xd4, 0x8b, 0x3c,
    0xae, 0xa0, 0x1f, 0xbe, 0x47, 0xc1, 0x60, 0xbf, 0xfd, 0x16,
    0x86, 0x3e, 0x3c, 0x7d, 0xa4, 0xbd, 0xd0, 0x1d, 0xa9, 0xbe,
    0xe2, 0x06, 0x48, 0x3e, 0x58, 0x7a, 0xac, 0xbe, 0x22, 0x51,
    0x74, 0x3e, 0x94, 0x2e, 0xd7, 0x3d, 0x40, 0x8c, 0x02, 0xbd,
    0x44, 0x1f, 0xce, 0xbe, 0x96, 0x03, 0x4c, 0x3e, 0x83, 0xc7,
    0xb3, 0xbe, 0x5b, 0x46, 0x48, 0xbe, 0x19, 0x78, 0x85, 0xbe,
    0x10, 0xc3, 0x1c, 0xbd, 0xc4, 0x74, 0x97, 0x3d, 0x4a, 0x7a,
    0x55, 0xbe, 0xac, 0x5b, 0xb2, 0x3d, 0x62, 0x45, 0xa8, 0x3e,
    0x1d, 0x80, 0xce, 0x3e, 0x2f, 0x1e, 0x49, 0xbe, 0x9b, 0x67,
    0xbc, 0xbd, 0x91, 0xf4, 0xbc, 0x3e, 0xf0, 0x46, 0xaa, 0x3c,
    0xe5, 0x2f, 0x58, 0xbe, 0xb8, 0xd8, 0x8d, 0xbd, 0x92, 0x7d,
    0x44, 0x3e, 0x8a, 0x6c, 0x9e, 0x3e, 0x87, 0x38, 0xbb, 0x3f,
    0x78, 0xfa, 0xc3, 0xbd, 0x93, 0x4f, 0xe5, 0xbd, 0x70, 0xbb,
    0x9a, 0xbd, 0xec, 0x90, 0x11, 0x3f, 0x10, 0xa8, 0xf1, 0x3c,
    0x5d, 0xa8, 0x82, 0xbe, 0x94, 0x02, 0x08, 0xbe, 0x3a, 0x59,
    0x57, 0x3e, 0x18, 0x66, 0xa0, 0x3e, 0xa2, 0x14, 0xc7, 0xbb,
    0x57, 0xe1, 0xd6, 0x3e, 0xc1, 0x2b, 0xdd, 0xbe, 0x58, 0xca,
    0xff, 0xbd, 0x3d, 0xe3, 0x84, 0x3e, 0x51, 0x6f, 0x8b, 0xbe,
    0xb9, 0x7e, 0xba, 0x3e, 0x80, 0xda, 0x35, 0xbc, 0xb7, 0x65,
    0x98, 0xbe, 0x90, 0xbf, 0x19, 0xbd, 0x60, 0x20, 0x04, 0xbc,
    0x84, 0xf9, 0xec, 0xbd, 0xfd, 0xa8, 0xd3, 0xbe, 0x71, 0xe4,
    0xcd, 0xbe, 0x71, 0x01, 0xd9, 0x3e, 0x78, 0xa6, 0x87, 0x3e,
    0x2c, 0xd6, 0xb2, 0xbe, 0x46, 0x4b, 0x32, 0xbe, 0x12, 0x2a,
    0x21, 0xbe, 0x68, 0x85, 0x6f, 0xbd, 0xdc, 0xad, 0xf2, 0x3d,
    0x6d, 0xd4, 0x1f, 0xbe, 0xc8, 0xfa, 0xf0, 0xbd, 0x82, 0x73,
    0x6d, 0x3e, 0x91, 0xe3, 0x41, 0xbe, 0x89, 0xab, 0xa2, 0x3e,
    0xd2, 0xc9, 0x32, 0xbe, 0xda, 0x42, 0x0f, 0xbe, 0xc6, 0xd0,
    0x60, 0xbd, 0x87, 0x8c, 0x97, 0x3e, 0x86, 0xda, 0x28, 0x3e,
    0x03, 0x41, 0x50, 0x3d, 0x5f, 0x6f, 0x74, 0xbd, 0x95, 0x71,
    0xbd, 0x3e, 0x8a, 0x4e, 0x15, 0x3e, 0xfa, 0xfb, 0x10, 0x3e,
    0xf0, 0x77, 0xf2, 0xbd, 0x8e, 0x6f, 0xb9, 0x3e, 0x23, 0xcf,
    0x89, 0xbf, 0x93, 0xbd, 0x81, 0x3e, 0x92, 0xa5, 0x35, 0xbe,
    0xae, 0xa9, 0x5e, 0x3e, 0x32, 0x57, 0x7c, 0xbf, 0x1a, 0x65,
    0xc6, 0xbe, 0xcb, 0xbb, 0xb5, 0x3d, 0xc3, 0x06, 0xa5, 0x3e,
    0xa2, 0x41, 0xa7, 0xbe, 0xb2, 0x21, 0x47, 0x3e, 0x2d, 0x87,
    0x78, 0x3e, 0x5d, 0xd1, 0xb3, 0xbe, 0x2c, 0x95, 0x99, 0xbe,
    0x41, 0x9c, 0xc6, 0x3e, 0x44, 0x27, 0x80, 0xbd, 0xc6, 0x0a,
    0x33, 0xbf, 0x4d, 0x34, 0xc7, 0x3e, 0x53, 0x18, 0xb4, 0xbe,
    0xb5, 0x12, 0xa7, 0xbe, 0x82, 0xa6, 0x9c, 0xbe, 0xeb, 0x0c,
    0x4f, 0x3e, 0x51, 0xb8, 0xb1, 0x3e, 0xb2, 0x15, 0xff, 0xbd,
    0x60, 0xee, 0x79, 0x3c, 0x3e, 0x79, 0x02, 0xbe, 0x83, 0xd5,
    0x85, 0x3e, 0x90, 0xf0, 0x6e, 0xbe, 0xc0, 0x39, 0x4a, 0xbc,
    0x90, 0x0f, 0x0f, 0x3d, 0x3a, 0x41, 0x53, 0x3e, 0x9b, 0xe8,
    0xa5, 0x3e, 0x80, 0xfc, 0xbd, 0xbe, 0x20, 0x9b, 0x81, 0xbd,
    0x51, 0xf1, 0xc8, 0x3e, 0xc3, 0x37, 0x10, 0x3e, 0x4a, 0x3b,
    0x23, 0x3e, 0x8f, 0x20, 0x1b, 0x3e, 0xba, 0x9c, 0x8f, 0xbe,
    0x68, 0x12, 0xb5, 0x3e, 0xdf, 0x2e, 0x83, 0x3e, 0x00, 0x54,
    0x62, 0xba, 0x82, 0xe5, 0xc5, 0xbe, 0xfb, 0xd7, 0x06, 0x3e,
    0x38, 0xef, 0xcf, 0xbd, 0xb0, 0x6c, 0xa2, 0x3c, 0xf7, 0xdc,
    0x3e, 0xbe, 0x98, 0x86, 0x58, 0xbd, 0x41, 0xd7, 0x5e, 0x3e,
    0x31, 0xa7, 0x43, 0xbd, 0x82, 0x34, 0x36, 0xbe, 0xc0, 0xf8,
    0x19, 0xbf, 0xf0, 0x15, 0xdc, 0x3e, 0x1e, 0xdb, 0x48, 0x3f,
    0x9c, 0x2b, 0xd2, 0x3d, 0xcc, 0x6b, 0xf4, 0xbd, 0x9c, 0xf5,
    0xa7, 0x3d, 0x22, 0x71, 0x7d, 0x3e, 0x98, 0xe7, 0xcf, 0xbd,
    0xe1, 0x68, 0xd4, 0x3e, 0x00, 0xed, 0x35, 0xbb, 0xcc, 0x5f,
    0xe0, 0x3d, 0x7e, 0x7b, 0x1f, 0x3e, 0x42, 0x35, 0x5a, 0x3e,
    0xf2, 0x85, 0xb2, 0xbe, 0xb7, 0x33, 0xb0, 0x3e, 0xe8, 0x0b,
    0x1b, 0xbd, 0x80, 0x5e, 0x2d, 0xbd, 0x11, 0xd0, 0xda, 0xbe,
    0x1c, 0x00, 0x93, 0xbd, 0x20, 0xab, 0x15, 0xbd, 0x7e, 0xb0,
    0x32, 0x3e, 0x64, 0xd1, 0xc8, 0x3d, 0x8c, 0xde, 0xeb, 0x3d,
    0x21, 0x90, 0x7c, 0xbe, 0x26, 0xc8, 0x0a, 0x3e, 0x5d, 0xb0,
    0x41, 0xbe, 0x39, 0x59, 0x9f, 0x3e, 0x2b, 0x29, 0xda, 0x3e,
    0xc7, 0x7a, 0xc6, 0xbe, 0x4a, 0x5a, 0xdd, 0xbe, 0x1a, 0x40,
    0x5f, 0x3e, 0xf0, 0x2a, 0x08, 0x3d, 0x60, 0xb9, 0x58, 0xbe,
    0x38, 0xea, 0x6a, 0x3d, 0x00, 0x8d, 0x93, 0xba, 0x64, 0x4b,
    0xd8, 0xbd, 0xfd, 0xe6, 0xac, 0x3c, 0x54, 0x3d, 0xb6, 0xbd,
    0xc4, 0xcb, 0xce, 0xbe, 0xe6, 0x0b, 0x99, 0xbe, 0x97, 0x32,
    0x61, 0xbc, 0x4c, 0xe6, 0x9e, 0x3d, 0xbb, 0x5e, 0x8d, 0x3e,
    0x90, 0x33, 0xf4, 0x3c, 0x85, 0x62, 0xb0, 0x3e, 0x71, 0x8d,
    0x5d, 0xbf, 0x52, 0xfb, 0x35, 0x3e, 0x27, 0xda, 0xbf, 0xbe,
    0x85, 0xe3, 0xb5, 0x3e, 0x6c, 0xc4, 0x96, 0x3d, 0x7c, 0xe7,
    0x22, 0x3f, 0xc0, 0x2b, 0xd0, 0xbb, 0xd8, 0xa2, 0x94, 0xbe,
    0x95, 0xef, 0x8a, 0x3e, 0xa9, 0x29, 0x8b, 0x3e, 0x2d, 0xbd,
    0xf3, 0xbd, 0xf8, 0x01, 0x6a, 0x3e, 0x8c, 0x87, 0x99, 0xbe,
    0x1c, 0x73, 0xc1, 0x3d, 0x6f, 0x01, 0xcf, 0xbe, 0x48, 0xa5,
    0xc3, 0xbd, 0x29, 0xdd, 0x91, 0xbe, 0xc1, 0x14, 0x2d, 0x3e,
    0xad, 0x0d, 0xb7, 0xbe, 0xe1, 0x5e, 0x96, 0x3e, 0xf6, 0xc7,
    0x4e, 0x3e, 0x20, 0xd2, 0x1f, 0xbc, 0xde, 0x13, 0x49, 0x3e,
    0x98, 0x78, 0x88, 0x3e, 0x2c, 0x2b, 0x9e, 0x3e, 0x00, 0x00,
    0x00, 0x00, 0xbf, 0x70, 0x98, 0x3e, 0x00, 0x00, 0x00, 0x00,
    0x43, 0x34, 0x81, 0xbe, 0x72, 0x20, 0xfe, 0xbc, 0x6c, 0x17,
    0x99, 0xbc, 0x67, 0xf1, 0x8c, 0x3e, 0x9f, 0xbe, 0x07, 0x3e,
    0xf8, 0xc5, 0xf0, 0xbd, 0x2a, 0x57, 0xb0, 0x3e, 0x00, 0x00,
    0x00, 0x00, 0x00, 0x00, 0x00, 0x00, 0xfd, 0x83, 0x83, 0x3e,
    0x85, 0xd5, 0x91, 0xbd, 0xd1, 0x2f, 0xb0, 0x3e, 0xcc,
    0xd4, 0x9e, 0xbe, 0x40, 0xc4, 0xc9, 0xbe, 0xd2, 0x3d,
    0xec, 0xbe, 0xba, 0x88, 0xba, 0xbe, 0xac, 0x05, 0x03,
    0x3f, 0x9c, 0x8e, 0xaf, 0xbc, 0xd1, 0xe8, 0x0f, 0xbf,
    0x4f, 0xa0, 0x08, 0xbf, 0x34, 0xf6, 0x7c, 0xbf, 0x48,
    0x3b, 0xe9, 0x3e, 0xac, 0xf7, 0x50, 0x3f, 0x50, 0x77,
    0x6b, 0x3e, 0x00, 0x29, 0xea, 0xbc, 0xc6, 0xb4, 0x70,
    0xbf, 0x17, 0x95, 0xae, 0x3e, 0x88, 0x2e, 0x8f, 0xbe
  };

  return AI_HANDLE_PTR(s_sine_model_weights);

}

