#include "sine_model2_data.h"

ai_handle ai_sine_model2_data_weights_get(void)
{

  AI_ALIGNED(4)
  static const ai_u8 s_sine_model2_weights[ 740 ] = {
    0x33, 0x00, 0xf1, 0xd7, 0x93, 0x6d, 0x6b, 0xc1, 0xaf, 0x81,
    0xe3, 0xe8, 0x6e, 0x40, 0x35, 0xb2, 0xef, 0xeb, 0xff, 0xff,
    0x00, 0x00, 0x00, 0x00, 0x00, 0x00, 0x00, 0x00, 0x00, 0x00,
    0x00, 0x00, 0x00, 0x00, 0x00, 0x00, 0xce, 0xff, 0xff, 0xff,
    0x79, 0xfe, 0xff, 0xff, 0x00, 0x00, 0x00, 0x00, 0x00, 0x00,
    0x00, 0x00, 0x00, 0x00, 0x00, 0x00, 0x00, 0x00, 0x00, 0x00,
    0x00, 0x00, 0x00, 0x00, 0x5c, 0xe3, 0xff, 0xff, 0xe4, 0xff,
    0xff, 0xff, 0x7d, 0x16, 0x00, 0x00, 0x00, 0x00, 0x00, 0x00,
    0x2a, 0xcc, 0x14, 0x17, 0x2a, 0xda, 0x36, 0xd8, 0x27, 0xcb,
    0xff, 0xe0, 0xdc, 0xd0, 0x12, 0x36, 0x22, 0xfd, 0x03, 0xec,
    0xdf, 0xe7, 0xe9, 0x2d, 0x0d, 0xe4, 0xee, 0xdb, 0x18, 0xef,
    0xfe, 0x02, 0x02, 0x1f, 0x06, 0x33, 0xf4, 0x35, 0xda, 0xe3,
    0xd5, 0x0e, 0xd9, 0xce, 0xdb, 0x24, 0xd2, 0x20, 0x16, 0xea,
    0xe3, 0xda, 0x36, 0x10, 0x2a, 0xfa, 0x19, 0xf3, 0x0d, 0x31,
    0x24, 0xdf, 0xf0, 0xd1, 0x4d, 0x0a, 0x24, 0x2a, 0xdc, 0xf5,
    0x32, 0x2f, 0xd2, 0x29, 0x1d, 0xf7, 0xe7, 0xe7, 0xf1, 0x31,
    0xf8, 0x15, 0xd9, 0xe2, 0xcc, 0x27, 0xec, 0xd5, 0xd5, 0x1b,
    0x31, 0xe1, 0xed, 0xf5, 0xe6, 0x02, 0xe0, 0xf1, 0x22, 0x2b,
    0xff, 0xf6, 0xce, 0xf4, 0xd7, 0xdc, 0xcf, 0xf9, 0xd2, 0xd3,
    0xd4, 0xd0, 0x16, 0x34, 0xfd, 0xe1, 0xf7, 0x16, 0xe7, 0xcb,
    0x12, 0xf1, 0x1b, 0x24, 0xd9, 0x0f, 0xd7, 0x02, 0x17, 0xd8,
    0x2a, 0x02, 0xf0, 0xf4, 0x06, 0x16, 0x1b, 0xd9, 0xe9, 0xd0,
    0xce, 0xdf, 0xfb, 0x00, 0x81, 0x00, 0x2c, 0xf7, 0xff, 0x32,
    0x2e, 0x30, 0x22, 0x14, 0x23, 0xeb, 0x8e, 0x34, 0x2a, 0x0a,
    0x62, 0xed, 0x05, 0xd0, 0xd1, 0xe3, 0x1b, 0xf2, 0x0b, 0x22,
    0xd8, 0xcb, 0x46, 0x07, 0xcb, 0x02, 0xde, 0x0b, 0xf8, 0x24,
    0xf7, 0xf6, 0x33, 0xe5, 0x26, 0x26, 0x34, 0x35, 0x13, 0xda,
    0xd9, 0xfb, 0x1b, 0xcc, 0xf6, 0x02, 0xf7, 0x21, 0x0d, 0x2b,
    0x02, 0x25, 0xf7, 0x0f, 0xfc, 0x33, 0xe7, 0x0a, 0x09, 0xe7,
    0x28, 0xd0, 0x1f, 0xd5, 0xd4, 0xdd, 0xd1, 0xfd, 0xfb, 0x05,
    0x24, 0x04, 0x03, 0xe6, 0xb0, 0xe3, 0xd4, 0x2e, 0x34, 0xec,
    0x12, 0xe0, 0x35, 0xde, 0x10, 0xf2, 0xd3, 0x19, 0x06, 0x1b,
    0xcb, 0x21, 0x06, 0x1b, 0x01, 0xdc, 0xf5, 0xe7, 0xca, 0xde,
    0x11, 0xff, 0xce, 0xd0, 0xdc, 0x31, 0x42, 0xfc, 0xff, 0xff,
    0x00, 0x00, 0x00, 0x00, 0x00, 0x00, 0x00, 0x00, 0x76, 0xfd,
    0xff, 0xff, 0x4f, 0xef, 0xff, 0xff, 0x00, 0x00, 0x00, 0x00,
    0x00, 0x00, 0x00, 0x00, 0x00, 0x00, 0x00, 0x00, 0x00, 0x00,
    0x00, 0x00, 0x2d, 0xfc, 0xff, 0xff, 0xbf, 0xe6, 0xff, 0xff,
    0x00, 0x00, 0x00, 0x00, 0xe2, 0xf1, 0xff, 0xff, 0x4a, 0xff,
    0xff, 0xff, 0xcd, 0x13, 0x00, 0x00, 0x00, 0x00, 0x00, 0x00,
    0xef, 0x20, 0x15, 0xff, 0x05, 0x1a, 0x06, 0x07, 0x07, 0xfb,
    0x06, 0x01, 0xba, 0x07, 0x38, 0x0c, 0x0a, 0xfd, 0xf2, 0x0f,
    0x07, 0xe1, 0x1a, 0x07, 0xf6, 0x0a, 0xa8, 0xf0, 0xf1, 0x0f,
    0xc1, 0xee, 0x0e, 0x1e, 0x0a, 0xe2, 0xfd, 0xdf, 0xfa, 0x05,
    0xf2, 0xf4, 0x00, 0xe7, 0x13, 0x1f, 0xfd, 0x1d, 0xf1, 0x20,
    0x06, 0x09, 0xf2, 0x15, 0xf7, 0x17, 0xf4, 0x0e, 0x81, 0x00,
    0x01, 0xf4, 0xbc, 0x14, 0xfa, 0xe7, 0x0f, 0xe6, 0x12, 0x08,
    0xfe, 0xe1, 0x0f, 0xe5, 0xf1, 0xec, 0xfd, 0x06, 0xf0, 0x07,
    0x19, 0x1f, 0xf1, 0xf9, 0x1c, 0x02, 0xf0, 0xfb, 0x0f, 0x18,
    0x71, 0xf9, 0xf7, 0xfa, 0x2c, 0x02, 0xec, 0xf6, 0x10, 0x18,
    0x00, 0x20, 0xdf, 0xf6, 0x14, 0xeb, 0x1c, 0xff, 0xe9, 0xfd,
    0xff, 0xf7, 0xe0, 0xe1, 0x21, 0x14, 0xe5, 0xf3, 0xf4, 0xfb,
    0x09, 0xf4, 0xf7, 0x12, 0xf1, 0x19, 0xf3, 0xf5, 0xfc, 0x17,
    0x0d, 0x04, 0xfb, 0x1d, 0x0b, 0x0b, 0xf7, 0x1c, 0xad, 0x14,
    0xf2, 0x11, 0xb4, 0xe2, 0x07, 0x19, 0xe7, 0x0f, 0x13, 0xe5,
    0xe9, 0x1e, 0xfb, 0xca, 0x1e, 0xe5, 0xe7, 0xe8, 0x10, 0x1b,
    0xf6, 0x01, 0xf6, 0x14, 0xee, 0xff, 0x03, 0x10, 0x19, 0xe3,
    0xfb, 0x1e, 0x0b, 0x0c, 0x0c, 0xea, 0x1b, 0x14, 0x00, 0xe2,
    0x0a, 0xf8, 0x02, 0xf2, 0xfc, 0x11, 0xfc, 0xf2, 0xd2, 0x21,
    0x3d, 0x08, 0xf7, 0x06, 0x13, 0xf8, 0x20, 0x00, 0x08, 0x0c,
    0x10, 0xe5, 0x1b, 0xfd, 0xfd, 0xdf, 0xfa, 0xfd, 0x0d, 0x08,
    0x09, 0xed, 0x0a, 0xf1, 0x18, 0x21, 0xe2, 0xdf, 0x11, 0x03,
    0xf0, 0x04, 0x00, 0xf8, 0x02, 0xf9, 0xe1, 0xe9, 0xff, 0x06,
    0x15, 0x02, 0x1b, 0xbd, 0x0e, 0xe3, 0x1b, 0x06, 0x31, 0x00,
    0xea, 0x15, 0x15, 0xf7, 0x12, 0xe9, 0x07, 0xe1, 0xf9, 0xea,
    0x0d, 0xe4, 0x17, 0x10, 0xff, 0x0f, 0xc0, 0x0e, 0x00, 0x00,
    0x19, 0x11, 0x00, 0x00, 0x00, 0x00, 0x00, 0x00, 0x7a, 0x10,
    0x00, 0x00, 0x00, 0x00, 0x00, 0x00, 0x09, 0xf2, 0xff, 0xff,
    0x48, 0xfe, 0xff, 0xff, 0xf7, 0xfe, 0xff, 0xff, 0x3c, 0x0f,
    0x00, 0x00, 0x56, 0x07, 0x00, 0x00, 0x7e, 0xf9, 0xff, 0xff,
    0x10, 0x13, 0x00, 0x00, 0x00, 0x00, 0x00, 0x00, 0x00, 0x00,
    0x00, 0x00, 0x37, 0x0e, 0x00, 0x00, 0x0f, 0xfc, 0xff, 0xff,
    0x2c, 0xd8, 0xcd, 0xc5, 0xd1, 0x42, 0xfd, 0xb8, 0xbb, 0x81,
    0x3b, 0x69, 0x1e, 0xfc, 0x87, 0x2c, 0xbc, 0xdd, 0xff, 0xff
  };

  return AI_HANDLE_PTR(s_sine_model2_weights);

}

