
// This is a TensorFlow Lite model file that has been converted into a C data
// array using the tensorflow.lite.util.convert_bytes_to_c_source() function.
// This form is useful for compiling into a binary for devices that don't have a
// file system.

#include "sine_model.h"

// We need to keep the data array aligned on some architectures.
#ifdef __has_attribute
#define HAVE_ATTRIBUTE(x) __has_attribute(x)
#else
#define HAVE_ATTRIBUTE(x) 0
#endif
#if HAVE_ATTRIBUTE(aligned) || (defined(__GNUC__) && !defined(__clang__))
#define DATA_ALIGN_ATTRIBUTE __attribute__((aligned(4)))
#else
#define DATA_ALIGN_ATTRIBUTE
#endif

const unsigned char sine_model[] DATA_ALIGN_ATTRIBUTE = {
    0x1c, 0x00, 0x00, 0x00, 0x54, 0x46, 0x4c, 0x33, 0x14, 0x00, 0x20, 0x00, 0x1c,
    0x00, 0x18, 0x00, 0x14, 0x00, 0x10, 0x00, 0x0c, 0x00, 0x00, 0x00, 0x08, 0x00,
    0x04, 0x00, 0x14, 0x00, 0x00, 0x00, 0x1c, 0x00, 0x00, 0x00, 0x98, 0x00, 0x00,
    0x00, 0xf0, 0x00, 0x00, 0x00, 0x74, 0x0b, 0x00, 0x00, 0x84, 0x0b, 0x00, 0x00,
    0x24, 0x12, 0x00, 0x00, 0x03, 0x00, 0x00, 0x00, 0x01, 0x00, 0x00, 0x00, 0x10,
    0x00, 0x00, 0x00, 0x00, 0x00, 0x0a, 0x00, 0x10, 0x00, 0x0c, 0x00, 0x08, 0x00,
    0x04, 0x00, 0x0a, 0x00, 0x00, 0x00, 0x0c, 0x00, 0x00, 0x00, 0x1c, 0x00, 0x00,
    0x00, 0x3c, 0x00, 0x00, 0x00, 0x0f, 0x00, 0x00, 0x00, 0x73, 0x65, 0x72, 0x76,
    0x69, 0x6e, 0x67, 0x5f, 0x64, 0x65, 0x66, 0x61, 0x75, 0x6c, 0x74, 0x00, 0x01,
    0x00, 0x00, 0x00, 0x04, 0x00, 0x00, 0x00, 0x90, 0xff, 0xff, 0xff, 0x0c, 0x00,
    0x00, 0x00, 0x04, 0x00, 0x00, 0x00, 0x08, 0x00, 0x00, 0x00, 0x64, 0x65, 0x6e,
    0x73, 0x65, 0x5f, 0x31, 0x32, 0x00, 0x00, 0x00, 0x00, 0x01, 0x00, 0x00, 0x00,
    0x04, 0x00, 0x00, 0x00, 0x5a, 0xf5, 0xff, 0xff, 0x04, 0x00, 0x00, 0x00, 0x0d,
    0x00, 0x00, 0x00, 0x64, 0x65, 0x6e, 0x73, 0x65, 0x5f, 0x39, 0x5f, 0x69, 0x6e,
    0x70, 0x75, 0x74, 0x00, 0x00, 0x00, 0x02, 0x00, 0x00, 0x00, 0x34, 0x00, 0x00,
    0x00, 0x04, 0x00, 0x00, 0x00, 0xdc, 0xff, 0xff, 0xff, 0x0f, 0x00, 0x00, 0x00,
    0x04, 0x00, 0x00, 0x00, 0x13, 0x00, 0x00, 0x00, 0x43, 0x4f, 0x4e, 0x56, 0x45,
    0x52, 0x53, 0x49, 0x4f, 0x4e, 0x5f, 0x4d, 0x45, 0x54, 0x41, 0x44, 0x41, 0x54,
    0x41, 0x00, 0x08, 0x00, 0x0c, 0x00, 0x08, 0x00, 0x04, 0x00, 0x08, 0x00, 0x00,
    0x00, 0x0e, 0x00, 0x00, 0x00, 0x04, 0x00, 0x00, 0x00, 0x13, 0x00, 0x00, 0x00,
    0x6d, 0x69, 0x6e, 0x5f, 0x72, 0x75, 0x6e, 0x74, 0x69, 0x6d, 0x65, 0x5f, 0x76,
    0x65, 0x72, 0x73, 0x69, 0x6f, 0x6e, 0x00, 0x10, 0x00, 0x00, 0x00, 0x80, 0x0a,
    0x00, 0x00, 0x78, 0x0a, 0x00, 0x00, 0x28, 0x0a, 0x00, 0x00, 0xd0, 0x09, 0x00,
    0x00, 0xbc, 0x09, 0x00, 0x00, 0x6c, 0x09, 0x00, 0x00, 0x1c, 0x09, 0x00, 0x00,
    0x0c, 0x05, 0x00, 0x00, 0xfc, 0x00, 0x00, 0x00, 0xac, 0x00, 0x00, 0x00, 0xa4,
    0x00, 0x00, 0x00, 0x9c, 0x00, 0x00, 0x00, 0x94, 0x00, 0x00, 0x00, 0x8c, 0x00,
    0x00, 0x00, 0x6c, 0x00, 0x00, 0x00, 0x04, 0x00, 0x00, 0x00, 0x16, 0xf6, 0xff,
    0xff, 0x04, 0x00, 0x00, 0x00, 0x58, 0x00, 0x00, 0x00, 0x0c, 0x00, 0x00, 0x00,
    0x08, 0x00, 0x0e, 0x00, 0x08, 0x00, 0x04, 0x00, 0x08, 0x00, 0x00, 0x00, 0x10,
    0x00, 0x00, 0x00, 0x28, 0x00, 0x00, 0x00, 0x00, 0x00, 0x06, 0x00, 0x08, 0x00,
    0x04, 0x00, 0x06, 0x00, 0x00, 0x00, 0x04, 0x00, 0x00, 0x00, 0x01, 0x00, 0x00,
    0x00, 0xea, 0x03, 0x00, 0x00, 0x00, 0x00, 0x0a, 0x00, 0x10, 0x00, 0x0c, 0x00,
    0x08, 0x00, 0x04, 0x00, 0x0a, 0x00, 0x00, 0x00, 0x02, 0x00, 0x00, 0x00, 0x02,
    0x00, 0x00, 0x00, 0x04, 0x00, 0x00, 0x00, 0x06, 0x00, 0x00, 0x00, 0x32, 0x2e,
    0x31, 0x31, 0x2e, 0x30, 0x00, 0x00, 0x7a, 0xf6, 0xff, 0xff, 0x04, 0x00, 0x00,
    0x00, 0x10, 0x00, 0x00, 0x00, 0x31, 0x2e, 0x35, 0x2e, 0x30, 0x00, 0x00, 0x00,
    0x00, 0x00, 0x00, 0x00, 0x00, 0x00, 0x00, 0x00, 0xbc, 0xef, 0xff, 0xff, 0xc0,
    0xef, 0xff, 0xff, 0xc4, 0xef, 0xff, 0xff, 0xc8, 0xef, 0xff, 0xff, 0xa6, 0xf6,
    0xff, 0xff, 0x04, 0x00, 0x00, 0x00, 0x40, 0x00, 0x00, 0x00, 0xcb, 0x65, 0x1f,
    0x3f, 0x50, 0x99, 0xdc, 0x3e, 0xb9, 0x96, 0x86, 0xbe, 0x1f, 0x65, 0xb0, 0xbe,
    0x94, 0xec, 0xd3, 0x3e, 0x2d, 0x0d, 0x85, 0xbe, 0xd1, 0x12, 0x02, 0xbf, 0x00,
    0x2b, 0x58, 0x3e, 0x10, 0xcc, 0x0b, 0xbe, 0x32, 0x12, 0x17, 0xbf, 0x95, 0xbd,
    0xde, 0x3e, 0xa5, 0x42, 0x09, 0x3f, 0xe8, 0x77, 0xf3, 0x3e, 0xc6, 0xf5, 0x66,
    0x3f, 0xc9, 0x85, 0x35, 0x3f, 0x63, 0x46, 0xd8, 0x3e, 0xf2, 0xf6, 0xff, 0xff,
    0x04, 0x00, 0x00, 0x00, 0x00, 0x04, 0x00, 0x00, 0xc8, 0xee, 0x85, 0xbe, 0xea,
    0xa8, 0xdc, 0x3d, 0xce, 0x9e, 0xca, 0xbe, 0x57, 0xaf, 0x88, 0x3e, 0x98, 0x11,
    0xec, 0x3e, 0xad, 0xc2, 0xbf, 0xbe, 0xf8, 0x5d, 0xc9, 0xbd, 0x3c, 0xf6, 0x8b,
    0x3e, 0x6c, 0x3e, 0xb5, 0xbe, 0x98, 0x99, 0xfd, 0xbd, 0x81, 0xa0, 0x2e, 0xbf,
    0xe3, 0x65, 0xb2, 0x3e, 0x01, 0x91, 0xaa, 0x3e, 0xbb, 0x9f, 0xa9, 0x3d, 0xe1,
    0xb1, 0x8f, 0x3e, 0x1c, 0xcf, 0x35, 0xbf, 0x26, 0x22, 0xd6, 0xbe, 0xfb, 0x14,
    0xd6, 0x3d, 0x56, 0x8d, 0x35, 0x3b, 0x34, 0x55, 0xdf, 0xbd, 0x3a, 0x8b, 0x9b,
    0x3d, 0x1c, 0x83, 0xa2, 0x3d, 0xdd, 0xfb, 0xc3, 0x3e, 0x9c, 0xfc, 0x75, 0xbc,
    0xec, 0xc8, 0x2f, 0xbe, 0xd9, 0xc9, 0x8b, 0x3e, 0x28, 0xdc, 0x4e, 0x3c, 0x31,
    0x8a, 0xbe, 0x3e, 0x70, 0x01, 0x3b, 0x3d, 0xd1, 0x09, 0xc1, 0xbe, 0x16, 0x90,
    0xc7, 0xbe, 0xde, 0xb3, 0x50, 0xbe, 0x92, 0x21, 0x59, 0x3e, 0x68, 0xce, 0x2b,
    0x3d, 0xf6, 0xba, 0x08, 0xbe, 0xdc, 0x16, 0xa1, 0xbe, 0xfa, 0x8e, 0x36, 0xbe,
    0xb2, 0x3d, 0x9a, 0xbe, 0xc6, 0xa4, 0x6c, 0x3e, 0x6a, 0xab, 0x4a, 0x3e, 0xe4,
    0xf6, 0xd8, 0xbe, 0x6c, 0x0e, 0xcc, 0xbe, 0xec, 0xe0, 0x9d, 0xbd, 0x72, 0x74,
    0xd0, 0xbe, 0xfc, 0xd5, 0xff, 0xbd, 0xfc, 0xa0, 0x01, 0xbe, 0x36, 0xe2, 0xae,
    0xbe, 0x84, 0x5c, 0xb8, 0xbe, 0xff, 0x73, 0xc6, 0xbe, 0x3c, 0x5a, 0x9a, 0x3e,
    0x9e, 0x3c, 0x41, 0xbe, 0xe8, 0x08, 0xd7, 0xbd, 0xd2, 0x52, 0xa1, 0x3e, 0x72,
    0x64, 0xa1, 0xbe, 0xb4, 0x73, 0x87, 0xbe, 0x77, 0xca, 0xb7, 0x3c, 0x04, 0x5f,
    0x2f, 0xbf, 0xaa, 0x16, 0x3c, 0xbe, 0x6c, 0x78, 0xfc, 0x3e, 0x90, 0xf5, 0xa4,
    0x3c, 0x81, 0x12, 0xa4, 0x3e, 0x9c, 0xcb, 0x1b, 0xbf, 0xe8, 0x3d, 0x3b, 0x3e,
    0x2d, 0x1a, 0x01, 0x3f, 0x84, 0x24, 0x89, 0xbe, 0x21, 0x39, 0x43, 0x3e, 0x30,
    0x80, 0xb8, 0x3e, 0xda, 0x8b, 0xa4, 0xbe, 0x37, 0x35, 0x6d, 0xbd, 0xa8, 0x66,
    0x6a, 0xbe, 0x7e, 0xb8, 0x03, 0x3c, 0x27, 0x2f, 0x40, 0x3e, 0xc8, 0xb5, 0x52,
    0xbd, 0xb8, 0x6b, 0x09, 0xbe, 0x65, 0x42, 0x07, 0x3e, 0xc0, 0xa5, 0xaf, 0xbb,
    0x19, 0x8e, 0x94, 0xbe, 0xdd, 0xcd, 0x35, 0x3f, 0xc0, 0xc9, 0x90, 0xbc, 0x8a,
    0xe4, 0x35, 0xbe, 0xf9, 0x4a, 0x11, 0xbd, 0xfd, 0x71, 0xf7, 0xbe, 0xf6, 0x3e,
    0xd0, 0xbb, 0xf8, 0xfe, 0x40, 0xbd, 0xb5, 0x0f, 0xc0, 0x3d, 0x35, 0xa3, 0x88,
    0x3d, 0xf7, 0xcd, 0x49, 0xbe, 0xe4, 0x42, 0x8d, 0x3d, 0x2c, 0x5b, 0x61, 0x3d,
    0x1b, 0xc8, 0x9e, 0xbd, 0x31, 0x7a, 0x94, 0x3e, 0x2b, 0xe6, 0xc2, 0x3e, 0xd1,
    0x92, 0xa5, 0x3e, 0xa2, 0xd4, 0xdf, 0xbe, 0xfd, 0x4d, 0x40, 0xbe, 0x82, 0x71,
    0x63, 0x3e, 0xb8, 0xd5, 0xab, 0x3e, 0x20, 0x76, 0x6d, 0x3d, 0xc0, 0x9e, 0x91,
    0xbe, 0x11, 0xa6, 0x8b, 0x3e, 0xf5, 0x12, 0x5a, 0x3e, 0xa5, 0x95, 0x8d, 0x3e,
    0x6b, 0x8d, 0x88, 0x3e, 0xe8, 0x4b, 0x38, 0xbe, 0xca, 0x12, 0x16, 0xbf, 0xc5,
    0x56, 0x39, 0xbf, 0xc6, 0x1a, 0xf4, 0x3d, 0x18, 0x59, 0x8f, 0xbe, 0x62, 0xee,
    0x29, 0x3e, 0xb4, 0x44, 0x27, 0xbf, 0xb2, 0x52, 0xb4, 0xbe, 0xf7, 0x80, 0x62,
    0x3e, 0xdc, 0xf9, 0x31, 0xbe, 0xee, 0xc6, 0xdb, 0x3d, 0xd7, 0x01, 0x67, 0xbe,
    0xdd, 0xf9, 0x52, 0xbe, 0xbd, 0x27, 0x01, 0xbf, 0x71, 0xdb, 0xbf, 0x3e, 0x06,
    0x92, 0x10, 0x3e, 0xe7, 0xee, 0x6c, 0xbe, 0x78, 0x25, 0x0e, 0xbe, 0x57, 0x52,
    0xfc, 0x3d, 0xa4, 0x65, 0x53, 0x3e, 0x24, 0xf0, 0xaf, 0x3d, 0x98, 0xd0, 0xb8,
    0xbd, 0x54, 0x3f, 0xee, 0x3e, 0x17, 0x6a, 0xc8, 0x3e, 0xcb, 0x40, 0x4d, 0x3d,
    0xf0, 0xb9, 0x19, 0x3f, 0xe4, 0x6f, 0xcf, 0xbd, 0x23, 0x07, 0x8a, 0x3c, 0xc1,
    0x34, 0x8b, 0x3e, 0x2a, 0x50, 0x91, 0x3c, 0x70, 0xe3, 0xd1, 0xbd, 0xeb, 0x47,
    0xfb, 0xbd, 0xd5, 0xf1, 0x8a, 0x3e, 0xee, 0xba, 0xc2, 0xbe, 0x9b, 0xe1, 0xe9,
    0x3e, 0xc5, 0x4d, 0x9e, 0x3e, 0x72, 0xd6, 0xb7, 0xbe, 0xcc, 0x12, 0x97, 0x3d,
    0x7a, 0x18, 0x7c, 0x3d, 0x0e, 0x22, 0xe0, 0x3e, 0x0a, 0x3e, 0x91, 0x3e, 0xd0,
    0xf0, 0x31, 0x3d, 0x10, 0x40, 0xa9, 0xbe, 0x18, 0x15, 0xb8, 0x3e, 0x65, 0x80,
    0x80, 0x3e, 0x60, 0x6a, 0x8e, 0x3c, 0x70, 0x2b, 0x23, 0xbe, 0xf1, 0x50, 0xa5,
    0xbe, 0x77, 0xe3, 0xd4, 0xbe, 0xac, 0xae, 0xff, 0x3d, 0xdd, 0x61, 0x97, 0x3c,
    0x50, 0xed, 0x04, 0xbe, 0x09, 0xe3, 0x89, 0x3e, 0x01, 0xd0, 0xd1, 0x3e, 0x7c,
    0xd2, 0x9e, 0xbe, 0x6a, 0x6d, 0xaa, 0xbe, 0x69, 0xf8, 0xf9, 0x3c, 0x78, 0xaa,
    0xbd, 0xbe, 0x20, 0x5d, 0x9b, 0x3e, 0x82, 0x8b, 0x97, 0xbe, 0xd8, 0xdb, 0x9b,
    0xbe, 0x3c, 0x5a, 0x86, 0xbe, 0x62, 0xd1, 0x4a, 0x3e, 0x1a, 0x5b, 0x9b, 0x3e,
    0x2d, 0xf2, 0xb7, 0xbe, 0xfd, 0x68, 0x9a, 0x3e, 0x53, 0xec, 0xdb, 0x3e, 0x1f,
    0xd7, 0x84, 0xbe, 0x1e, 0x97, 0x5b, 0x3e, 0xb4, 0xbc, 0xd4, 0xbd, 0x13, 0xec,
    0x9e, 0xbe, 0xd8, 0x4a, 0xb8, 0xbd, 0x17, 0x5a, 0x36, 0xbe, 0xf1, 0xcb, 0x29,
    0xbf, 0xbf, 0xe6, 0xc3, 0x3e, 0x92, 0x8a, 0x56, 0x3e, 0x0a, 0x2f, 0xda, 0xbe,
    0xe8, 0x4a, 0xef, 0xbe, 0x77, 0x22, 0xb5, 0x3e, 0x01, 0x9c, 0xb4, 0x3d, 0x05,
    0xa7, 0xa5, 0x3d, 0x70, 0xf0, 0xa2, 0x3e, 0xeb, 0x7c, 0xe9, 0xbe, 0xaa, 0x2f,
    0xcb, 0x3d, 0x1a, 0x85, 0x08, 0x3e, 0xa8, 0xc6, 0x1d, 0x3d, 0xb0, 0xcf, 0x1f,
    0x3f, 0x99, 0x57, 0x8b, 0xbd, 0xcf, 0x2b, 0x20, 0x3d, 0x06, 0x9b, 0x01, 0xbf,
    0x14, 0x6a, 0x1a, 0xbd, 0x18, 0x2d, 0x2d, 0xbe, 0x15, 0x2b, 0xba, 0x3e, 0xed,
    0x21, 0xdb, 0xbe, 0x59, 0x8b, 0x08, 0x3e, 0x03, 0x5c, 0x15, 0xbd, 0xca, 0x58,
    0xed, 0xbe, 0x1a, 0xb2, 0x41, 0x3e, 0x62, 0xc3, 0x79, 0xbe, 0x67, 0xfa, 0x25,
    0xbe, 0x65, 0x5e, 0xc5, 0x3e, 0x6a, 0x8f, 0x6d, 0xbe, 0xaf, 0x32, 0xc9, 0x3d,
    0xa1, 0x47, 0xa8, 0xbd, 0xe1, 0x20, 0xee, 0x3e, 0x22, 0x7d, 0x13, 0x3e, 0x7d,
    0x22, 0xa1, 0x3e, 0xdc, 0xd7, 0xe8, 0xbe, 0xf0, 0x1a, 0xa8, 0xbe, 0xf6, 0x22,
    0xe6, 0x3e, 0x26, 0xef, 0x31, 0x3e, 0x34, 0x5a, 0x86, 0x3e, 0x23, 0x7d, 0x1e,
    0x3e, 0xa2, 0x7c, 0xca, 0xbe, 0x35, 0x73, 0x9b, 0x3e, 0xc0, 0xf0, 0xe3, 0xbe,
    0x84, 0x6c, 0xad, 0x3d, 0x45, 0xbc, 0xae, 0xbe, 0xdc, 0x95, 0xdb, 0xbd, 0xd3,
    0x3f, 0x9f, 0xbe, 0x95, 0xad, 0x4a, 0xbf, 0xf0, 0x60, 0x20, 0xbf, 0x53, 0xd2,
    0x88, 0xbe, 0x13, 0x98, 0xb9, 0x3e, 0xb4, 0x43, 0x92, 0x3d, 0x05, 0xed, 0x21,
    0xbd, 0x7a, 0x47, 0x74, 0xbe, 0x7b, 0x95, 0x30, 0xbe, 0x1a, 0xc9, 0x0e, 0xbd,
    0xfb, 0x08, 0x18, 0x3f, 0xbe, 0x76, 0x11, 0xbf, 0x6a, 0x7c, 0x1a, 0xbe, 0x60,
    0x67, 0xfd, 0x3c, 0x1b, 0xd1, 0x9e, 0x3e, 0x57, 0x28, 0x3d, 0x3f, 0x1f, 0x73,
    0x2d, 0xbe, 0x13, 0x79, 0x07, 0x3e, 0xdd, 0x79, 0x0a, 0x3d, 0xeb, 0xd8, 0x2b,
    0x3e, 0x9d, 0x54, 0x93, 0x3d, 0x6a, 0x64, 0x56, 0xbe, 0x3b, 0xf1, 0xe4, 0x3e,
    0x6e, 0x66, 0x5a, 0x3e, 0xe0, 0x8a, 0xfe, 0xbc, 0xfc, 0x97, 0xcd, 0x3e, 0x11,
    0xb8, 0x43, 0x3e, 0xc2, 0x86, 0x01, 0xbf, 0xe6, 0x5c, 0x2e, 0xbe, 0x19, 0xc4,
    0xb7, 0x3e, 0x32, 0x79, 0x12, 0xbe, 0xdf, 0xe9, 0x11, 0x3f, 0x27, 0x50, 0xae,
    0x3e, 0xec, 0xf3, 0x01, 0xbf, 0xfe, 0xfa, 0xff, 0xff, 0x04, 0x00, 0x00, 0x00,
    0x00, 0x04, 0x00, 0x00, 0x6a, 0xe5, 0xc5, 0xbe, 0x7c, 0x85, 0xb1, 0xbe, 0xf8,
    0xbc, 0xd8, 0xbe, 0x8d, 0xb8, 0xce, 0xbe, 0xde, 0xa1, 0x16, 0x3e, 0x2b, 0x51,
    0x00, 0xbe, 0xd3, 0xc8, 0xe8, 0xbe, 0x0e, 0x9b, 0x8a, 0x3e, 0x18, 0xe5, 0x35,
    0x3d, 0x89, 0x73, 0xf8, 0x3e, 0xc7, 0xab, 0x0a, 0x3f, 0xdb, 0xa0, 0xa5, 0xbe,
    0x98, 0x5c, 0x5a, 0xbe, 0x70, 0x04, 0xb7, 0xbc, 0x10, 0x18, 0xc0, 0xbd, 0x68,
    0x2f, 0xd7, 0x3e, 0x66, 0xf9, 0x60, 0x3e, 0x8c, 0x68, 0xc3, 0xbe, 0xf6, 0xbf,
    0x38, 0x3e, 0xb6, 0x3c, 0x0b, 0xbe, 0x30, 0x16, 0xad, 0xbc, 0x3d, 0x8d, 0xab,
    0x3d, 0x14, 0xd6, 0xb1, 0x3e, 0x5d, 0x59, 0x96, 0xbe, 0x7d, 0xb8, 0x84, 0x3e,
    0xc0, 0x1b, 0xa2, 0x3d, 0x67, 0x8d, 0xb0, 0xbc, 0xe5, 0xfb, 0x44, 0x3e, 0xc8,
    0x95, 0xad, 0x3d, 0x90, 0x9f, 0xd9, 0xbe, 0x24, 0x01, 0xdc, 0x3d, 0x43, 0xf3,
    0x8b, 0x3e, 0xcc, 0x80, 0x86, 0xbd, 0xc0, 0x7b, 0x60, 0xbe, 0x5b, 0x30, 0xd5,
    0xbe, 0x73, 0xfb, 0xa1, 0x3e, 0xc5, 0x61, 0xb4, 0x3e, 0xd0, 0x3b, 0x72, 0xbe,
    0xff, 0xee, 0x3e, 0x3e, 0xce, 0x14, 0x22, 0x3c, 0x71, 0x9d, 0xca, 0xbe, 0x3a,
    0xe2, 0xba, 0x3e, 0xe8, 0x0e, 0x24, 0xbe, 0x38, 0x02, 0x46, 0x3d, 0x0a, 0x12,
    0x5a, 0x3e, 0x83, 0x36, 0xd8, 0x3e, 0xf8, 0xf0, 0x8e, 0xbe, 0x4c, 0x9e, 0x70,
    0xbe, 0x6c, 0x38, 0x8b, 0x3d, 0xa2, 0x80, 0x10, 0x3e, 0xa0, 0x0e, 0xdc, 0xbe,
    0x46, 0xeb, 0x05, 0x3e, 0x98, 0x97, 0x74, 0xbd, 0x10, 0x29, 0xe0, 0xbd, 0x02,
    0x68, 0x64, 0x3e, 0x18, 0xe2, 0x65, 0xbd, 0x3c, 0x15, 0xd0, 0xbe, 0x63, 0x14,
    0xdb, 0xbe, 0xb0, 0xde, 0xb2, 0xbc, 0x1a, 0x7b, 0x2d, 0x3e, 0x6c, 0x65, 0xc4,
    0xbd, 0x60, 0x08, 0x8b, 0x3c, 0x8b, 0xe5, 0x65, 0xbe, 0x3c, 0x16, 0x8d, 0x3d,
    0x1f, 0x03, 0x63, 0xbe, 0x8a, 0x97, 0x4d, 0xbe, 0x81, 0x84, 0x1b, 0x3e, 0x9f,
    0x7d, 0x7f, 0xbe, 0x0a, 0x7e, 0x61, 0x3e, 0x70, 0x7e, 0xf7, 0x3e, 0x5a, 0x18,
    0x91, 0xbd, 0x3f, 0xbd, 0x0f, 0x3e, 0x60, 0x3a, 0xe9, 0x3c, 0xb0, 0xee, 0x00,
    0xbe, 0xde, 0xdd, 0xdb, 0xbe, 0x52, 0x72, 0x03, 0x3f, 0x26, 0x7f, 0xcd, 0x3e,
    0xba, 0x3d, 0x30, 0x3e, 0x43, 0x5b, 0x8a, 0xbe, 0x7e, 0x3f, 0xf8, 0xbd, 0x4e,
    0x53, 0x30, 0x3e, 0x20, 0x16, 0x8c, 0xbe, 0x06, 0x1b, 0x2b, 0x3e, 0x00, 0xf9,
    0x11, 0xbb, 0x8d, 0xa6, 0xb1, 0xbe, 0xcb, 0x1c, 0xcf, 0xbe, 0x6d, 0x1d, 0xc9,
    0x3e, 0x37, 0x7c, 0x8f, 0x3e, 0x6a, 0xdd, 0x1f, 0x3e, 0x54, 0x20, 0xcc, 0xbd,
    0xf2, 0x4a, 0xcb, 0xbe, 0x8a, 0x6d, 0x8a, 0xbe, 0x0d, 0xbb, 0x0f, 0xbe, 0x41,
    0xc1, 0x75, 0xbe, 0xe3, 0x68, 0x6f, 0xbe, 0x7e, 0xed, 0xce, 0xbd, 0xe3, 0xa4,
    0xb1, 0x3e, 0x60, 0xbd, 0xae, 0x3e, 0xca, 0x5e, 0xb4, 0xbe, 0x17, 0x46, 0x9d,
    0x3e, 0xaa, 0x57, 0x4c, 0x3e, 0x4e, 0x0f, 0x65, 0x3e, 0xde, 0x27, 0x4b, 0x3e,
    0xdc, 0xb9, 0x68, 0xbd, 0x4b, 0x50, 0x96, 0x3e, 0x5e, 0x2c, 0xc2, 0xbd, 0xd3,
    0xd3, 0x48, 0x3e, 0xd2, 0x48, 0x12, 0xbe, 0xef, 0x5f, 0x6b, 0x3e, 0xca, 0x07,
    0x6f, 0x3e, 0x27, 0x01, 0xcd, 0x3e, 0xe5, 0xd8, 0xd6, 0xbe, 0xfe, 0x37, 0x29,
    0x3e, 0xc2, 0x5e, 0xee, 0xbe, 0x83, 0x61, 0xb6, 0xbe, 0xe8, 0xb0, 0x88, 0xbe,
    0x67, 0x07, 0xca, 0x3e, 0x82, 0xe7, 0x2e, 0x3e, 0x98, 0x1c, 0xa3, 0x3e, 0xd3,
    0x2c, 0xf0, 0xbe, 0x62, 0xef, 0x9a, 0xbe, 0xb0, 0x18, 0xe5, 0xbe, 0x38, 0x9b,
    0x8e, 0xbb, 0x45, 0x04, 0x56, 0x3e, 0x46, 0xfd, 0x98, 0x3d, 0x0e, 0x1f, 0x2e,
    0xbe, 0x00, 0x86, 0xed, 0xbc, 0xad, 0xe7, 0x1e, 0x3e, 0xaa, 0x82, 0x6a, 0x3e,
    0x81, 0x8d, 0x30, 0x3d, 0x7f, 0x32, 0xbd, 0xbe, 0x2e, 0x44, 0x74, 0x3e, 0x2b,
    0x8e, 0xa7, 0x3e, 0x4a, 0x7a, 0x94, 0x3e, 0xc4, 0xa4, 0xcb, 0x3e, 0x9a, 0xc4,
    0x86, 0xbe, 0xf1, 0x81, 0xd9, 0x3e, 0x0d, 0x6c, 0x84, 0xba, 0x5c, 0xa9, 0xa6,
    0xbc, 0x1a, 0x0b, 0x1d, 0xbd, 0xe6, 0x71, 0xaa, 0xbe, 0xae, 0xdd, 0x3a, 0x3e,
    0xdc, 0x89, 0x84, 0xbe, 0x29, 0x2d, 0xc4, 0x3e, 0xd3, 0x16, 0x89, 0x3e, 0xc7,
    0x3d, 0x24, 0xbe, 0x4e, 0x82, 0x6a, 0x3e, 0x91, 0x27, 0xc3, 0x3e, 0x51, 0x7c,
    0x5f, 0xbe, 0x4b, 0x35, 0x7d, 0x3c, 0x54, 0x43, 0x53, 0x3e, 0x07, 0xc6, 0x86,
    0xbe, 0x28, 0xf9, 0x6b, 0xbd, 0xcd, 0x55, 0x02, 0x3f, 0x21, 0x1e, 0x6e, 0x3e,
    0x4a, 0x3f, 0xce, 0xbe, 0x84, 0x51, 0xff, 0xbe, 0x4d, 0x82, 0xc6, 0xbe, 0x56,
    0x06, 0x7b, 0x3e, 0x40, 0x0a, 0xe1, 0x3e, 0x99, 0x7b, 0xc5, 0x3e, 0xa7, 0xc6,
    0x5f, 0x3e, 0xf8, 0x3a, 0xb3, 0x3e, 0x93, 0x2f, 0x8c, 0x3e, 0x42, 0xf6, 0x59,
    0xbe, 0xbe, 0xb5, 0xd6, 0x3c, 0x6c, 0x84, 0x73, 0xbe, 0x94, 0x69, 0x40, 0xbe,
    0x80, 0x5f, 0xb1, 0xbd, 0xbb, 0x60, 0x89, 0x3c, 0x74, 0xd1, 0x82, 0x3e, 0x63,
    0xfc, 0x84, 0xbe, 0xbc, 0xb3, 0x5b, 0x3d, 0xc7, 0x65, 0x5b, 0xbe, 0xb7, 0x13,
    0x86, 0x3e, 0x13, 0x66, 0xbd, 0x3e, 0x01, 0x1a, 0xc9, 0x3e, 0x80, 0x33, 0x61,
    0xbb, 0xc0, 0xd8, 0xb5, 0xbe, 0x5a, 0x01, 0x41, 0x3e, 0x01, 0x5b, 0x9c, 0x3e,
    0x3e, 0xcf, 0x7c, 0x3e, 0xc1, 0x3d, 0xc4, 0x3e, 0x96, 0x1c, 0x19, 0x3e, 0xb2,
    0x7f, 0xa5, 0xbe, 0x6a, 0xd4, 0x9a, 0xbe, 0x00, 0x80, 0xe5, 0x38, 0x04, 0x38,
    0x90, 0x3d, 0xe0, 0x52, 0xc9, 0xbe, 0x00, 0xdb, 0x7e, 0x3b, 0x80, 0xac, 0x3c,
    0xbd, 0x84, 0x43, 0xbd, 0xbd, 0xac, 0x53, 0xe3, 0x3d, 0x83, 0x28, 0xba, 0xbe,
    0x11, 0x90, 0x90, 0xbe, 0xde, 0x9f, 0x3f, 0x3e, 0xd8, 0x20, 0x9b, 0xbd, 0xe6,
    0x4a, 0x99, 0xbe, 0xcf, 0x0f, 0xda, 0xbe, 0x7e, 0x72, 0x3e, 0x3e, 0xdf, 0x4e,
    0xb7, 0xbe, 0x60, 0xfa, 0xf6, 0xbc, 0xba, 0xb2, 0xcd, 0xbe, 0xda, 0xef, 0xa6,
    0xbe, 0x40, 0x9a, 0xd4, 0xbb, 0xe5, 0xaa, 0xd5, 0x3e, 0xde, 0xbf, 0x0a, 0x3e,
    0x2e, 0x7c, 0x89, 0xbe, 0x03, 0xc2, 0xd9, 0x3e, 0xf0, 0x9c, 0xc4, 0xbd, 0x11,
    0x8d, 0xd6, 0xbe, 0x80, 0x42, 0xdd, 0xbe, 0x34, 0xd5, 0xe1, 0x3d, 0x2a, 0x19,
    0x35, 0x3e, 0xc2, 0x85, 0x74, 0x3e, 0x78, 0x0e, 0xd3, 0xbe, 0xfc, 0x07, 0x82,
    0xbe, 0x62, 0xc5, 0xea, 0x3e, 0xca, 0xa1, 0xfa, 0x3e, 0x7d, 0x08, 0xac, 0xbe,
    0x4b, 0x95, 0x14, 0x3e, 0x4f, 0xfa, 0x64, 0xbe, 0x6c, 0x3a, 0x85, 0xbe, 0x42,
    0xc7, 0xb4, 0x3e, 0x41, 0xa2, 0x96, 0x3e, 0x2d, 0x44, 0x6a, 0x3e, 0x0b, 0xf9,
    0xfa, 0x3c, 0x4e, 0x38, 0x48, 0x3e, 0x63, 0x2e, 0x8f, 0x3e, 0x34, 0xc0, 0x64,
    0xbe, 0x48, 0x01, 0xf3, 0x3d, 0xcc, 0xbb, 0xa8, 0x3e, 0xcc, 0x57, 0xd9, 0xbd,
    0x12, 0x09, 0x2c, 0xbe, 0xc2, 0x38, 0xa7, 0x3e, 0x1b, 0xbc, 0xc0, 0xbd, 0xb4,
    0x7e, 0x8c, 0x3e, 0x18, 0xd0, 0x2f, 0xbd, 0xa0, 0x07, 0xd2, 0xbc, 0xd4, 0x8c,
    0x72, 0xbe, 0x74, 0x09, 0xcc, 0x3d, 0xb6, 0x05, 0x0f, 0x3e, 0xc2, 0x4b, 0xb6,
    0x3e, 0x82, 0xb5, 0x9a, 0xbe, 0x58, 0x69, 0x3a, 0xbd, 0xb9, 0x47, 0xce, 0xbe,
    0xf4, 0x45, 0x5a, 0xbe, 0xbb, 0x70, 0xd1, 0xbe, 0x80, 0x4d, 0xc6, 0xbb, 0x6f,
    0x6d, 0xdf, 0x3d, 0x26, 0xab, 0x2b, 0x3f, 0x8e, 0xf8, 0x35, 0xbb, 0x03, 0x52,
    0x31, 0x3e, 0x4c, 0xa0, 0x3d, 0xbe, 0x1e, 0x70, 0x79, 0x3e, 0x67, 0x74, 0x12,
    0x3f, 0x0a, 0xff, 0xff, 0xff, 0x04, 0x00, 0x00, 0x00, 0x40, 0x00, 0x00, 0x00,
    0xc0, 0x6e, 0xf4, 0xbd, 0x8a, 0x44, 0x0a, 0x3e, 0x98, 0x8d, 0x80, 0x3e, 0xa5,
    0x4c, 0xa1, 0xbe, 0x0e, 0xc7, 0xb8, 0xbe, 0x6d, 0x22, 0x85, 0x3e, 0x29, 0x4f,
    0xae, 0x3e, 0x15, 0x6b, 0xe0, 0x3e, 0xa3, 0xde, 0x08, 0xbf, 0xf2, 0x2f, 0x92,
    0x3d, 0x1d, 0x89, 0xed, 0xba, 0x57, 0x73, 0x18, 0x3f, 0x44, 0x2b, 0xe3, 0x3e,
    0x18, 0x56, 0xb1, 0xbe, 0xfe, 0xfd, 0x4e, 0xbe, 0xaf, 0xfc, 0x89, 0x3d, 0x56,
    0xff, 0xff, 0xff, 0x04, 0x00, 0x00, 0x00, 0x40, 0x00, 0x00, 0x00, 0x00, 0x00,
    0x00, 0x00, 0x14, 0x58, 0x5c, 0x3e, 0xbb, 0xf1, 0xfd, 0x3b, 0x00, 0x00, 0x00,
    0x00, 0x00, 0x00, 0x00, 0x00, 0x2e, 0x2d, 0x00, 0xbc, 0xc6, 0x22, 0xec, 0xba,
    0x36, 0xbc, 0xe7, 0xbe, 0x00, 0x00, 0x00, 0x00, 0xb5, 0x19, 0xa4, 0x3e, 0x55,
    0xc0, 0x2e, 0x3f, 0x1b, 0x1f, 0x2a, 0xbd, 0xbd, 0x38, 0x2f, 0xbb, 0x00, 0x00,
    0x00, 0x00, 0x00, 0x00, 0x00, 0x00, 0x6f, 0x52, 0x2e, 0x3f, 0xa2, 0xff, 0xff,
    0xff, 0x04, 0x00, 0x00, 0x00, 0x04, 0x00, 0x00, 0x00, 0xae, 0xcf, 0x44, 0xbe,
    0xb2, 0xff, 0xff, 0xff, 0x04, 0x00, 0x00, 0x00, 0x40, 0x00, 0x00, 0x00, 0x26,
    0xb3, 0xb4, 0xbe, 0x4b, 0xc9, 0xc4, 0xbb, 0x00, 0x00, 0x00, 0x00, 0x91, 0x6c,
    0x55, 0x3e, 0x95, 0x41, 0x37, 0xbe, 0x2c, 0xcb, 0x85, 0xbd, 0xbf, 0x6b, 0x83,
    0x3e, 0x4a, 0x2e, 0x81, 0x3d, 0x4b, 0x6b, 0x5c, 0x3e, 0x6d, 0xcb, 0xa9, 0xbb,
    0xec, 0x84, 0x8a, 0xbc, 0x91, 0x27, 0x8c, 0x3e, 0x97, 0x61, 0x84, 0x3e, 0x04,
    0x63, 0xda, 0xbe, 0x3f, 0xef, 0x5d, 0x3e, 0xe8, 0x2e, 0x57, 0xbe, 0x00, 0x00,
    0x06, 0x00, 0x08, 0x00, 0x04, 0x00, 0x06, 0x00, 0x00, 0x00, 0x04, 0x00, 0x00,
    0x00, 0x40, 0x00, 0x00, 0x00, 0xb8, 0x50, 0x88, 0x3e, 0x38, 0xbd, 0xf4, 0xbd,
    0xe7, 0xb2, 0x91, 0xbb, 0x00, 0x00, 0x00, 0x00, 0xdf, 0x19, 0xca, 0xbe, 0xbf,
    0xf7, 0xe0, 0xbb, 0x86, 0xe6, 0x50, 0xbe, 0xb0, 0xad, 0x95, 0xbc, 0xf2, 0x8a,
    0xa6, 0x3e, 0x80, 0xf7, 0xbc, 0x3e, 0x06, 0x48, 0xe0, 0x3e, 0x00, 0x00, 0x00,
    0x00, 0x00, 0x00, 0x00, 0x00, 0xd7, 0x7b, 0xae, 0x3e, 0xd7, 0x05, 0xc4, 0xbd,
    0x6c, 0xe9, 0xee, 0x3e, 0x78, 0xf9, 0xff, 0xff, 0x7c, 0xf9, 0xff, 0xff, 0x0f,
    0x00, 0x00, 0x00, 0x4d, 0x4c, 0x49, 0x52, 0x20, 0x43, 0x6f, 0x6e, 0x76, 0x65,
    0x72, 0x74, 0x65, 0x64, 0x2e, 0x00, 0x01, 0x00, 0x00, 0x00, 0x14, 0x00, 0x00,
    0x00, 0x00, 0x00, 0x0e, 0x00, 0x18, 0x00, 0x14, 0x00, 0x10, 0x00, 0x0c, 0x00,
    0x08, 0x00, 0x04, 0x00, 0x0e, 0x00, 0x00, 0x00, 0x14, 0x00, 0x00, 0x00, 0x1c,
    0x00, 0x00, 0x00, 0x10, 0x01, 0x00, 0x00, 0x14, 0x01, 0x00, 0x00, 0x18, 0x01,
    0x00, 0x00, 0x04, 0x00, 0x00, 0x00, 0x6d, 0x61, 0x69, 0x6e, 0x00, 0x00, 0x00,
    0x00, 0x04, 0x00, 0x00, 0x00, 0xb8, 0x00, 0x00, 0x00, 0x70, 0x00, 0x00, 0x00,
    0x38, 0x00, 0x00, 0x00, 0x04, 0x00, 0x00, 0x00, 0x66, 0xff, 0xff, 0xff, 0x10,
    0x00, 0x00, 0x00, 0x00, 0x00, 0x00, 0x08, 0x0c, 0x00, 0x00, 0x00, 0x10, 0x00,
    0x00, 0x00, 0xf8, 0xf9, 0xff, 0xff, 0x01, 0x00, 0x00, 0x00, 0x0c, 0x00, 0x00,
    0x00, 0x03, 0x00, 0x00, 0x00, 0x0b, 0x00, 0x00, 0x00, 0x08, 0x00, 0x00, 0x00,
    0x03, 0x00, 0x00, 0x00, 0x96, 0xff, 0xff, 0xff, 0x10, 0x00, 0x00, 0x00, 0x00,
    0x00, 0x00, 0x08, 0x10, 0x00, 0x00, 0x00, 0x14, 0x00, 0x00, 0x00, 0x86, 0xff,
    0xff, 0xff, 0x00, 0x00, 0x00, 0x01, 0x01, 0x00, 0x00, 0x00, 0x0b, 0x00, 0x00,
    0x00, 0x03, 0x00, 0x00, 0x00, 0x0a, 0x00, 0x00, 0x00, 0x07, 0x00, 0x00, 0x00,
    0x02, 0x00, 0x00, 0x00, 0xca, 0xff, 0xff, 0xff, 0x10, 0x00, 0x00, 0x00, 0x00,
    0x00, 0x00, 0x08, 0x10, 0x00, 0x00, 0x00, 0x14, 0x00, 0x00, 0x00, 0xba, 0xff,
    0xff, 0xff, 0x00, 0x00, 0x00, 0x01, 0x01, 0x00, 0x00, 0x00, 0x0a, 0x00, 0x00,
    0x00, 0x03, 0x00, 0x00, 0x00, 0x09, 0x00, 0x00, 0x00, 0x06, 0x00, 0x00, 0x00,
    0x01, 0x00, 0x00, 0x00, 0x00, 0x00, 0x0e, 0x00, 0x16, 0x00, 0x00, 0x00, 0x10,
    0x00, 0x0c, 0x00, 0x0b, 0x00, 0x04, 0x00, 0x0e, 0x00, 0x00, 0x00, 0x18, 0x00,
    0x00, 0x00, 0x00, 0x00, 0x00, 0x08, 0x18, 0x00, 0x00, 0x00, 0x1c, 0x00, 0x00,
    0x00, 0x00, 0x00, 0x06, 0x00, 0x08, 0x00, 0x07, 0x00, 0x06, 0x00, 0x00, 0x00,
    0x00, 0x00, 0x00, 0x01, 0x01, 0x00, 0x00, 0x00, 0x09, 0x00, 0x00, 0x00, 0x03,
    0x00, 0x00, 0x00, 0x00, 0x00, 0x00, 0x00, 0x05, 0x00, 0x00, 0x00, 0x04, 0x00,
    0x00, 0x00, 0x01, 0x00, 0x00, 0x00, 0x0c, 0x00, 0x00, 0x00, 0x01, 0x00, 0x00,
    0x00, 0x00, 0x00, 0x00, 0x00, 0x0d, 0x00, 0x00, 0x00, 0xfc, 0x04, 0x00, 0x00,
    0x88, 0x04, 0x00, 0x00, 0x14, 0x04, 0x00, 0x00, 0xb8, 0x03, 0x00, 0x00, 0x60,
    0x03, 0x00, 0x00, 0x14, 0x03, 0x00, 0x00, 0xc4, 0x02, 0x00, 0x00, 0x74, 0x02,
    0x00, 0x00, 0x24, 0x02, 0x00, 0x00, 0x90, 0x01, 0x00, 0x00, 0xf8, 0x00, 0x00,
    0x00, 0x60, 0x00, 0x00, 0x00, 0x04, 0x00, 0x00, 0x00, 0x4e, 0xfb, 0xff, 0xff,
    0x00, 0x00, 0x00, 0x01, 0x14, 0x00, 0x00, 0x00, 0x1c, 0x00, 0x00, 0x00, 0x1c,
    0x00, 0x00, 0x00, 0x0d, 0x00, 0x00, 0x00, 0x34, 0x00, 0x00, 0x00, 0x02, 0x00,
    0x00, 0x00, 0xff, 0xff, 0xff, 0xff, 0x01, 0x00, 0x00, 0x00, 0x38, 0xfb, 0xff,
    0xff, 0x19, 0x00, 0x00, 0x00, 0x53, 0x74, 0x61, 0x74, 0x65, 0x66, 0x75, 0x6c,
    0x50, 0x61, 0x72, 0x74, 0x69, 0x74, 0x69, 0x6f, 0x6e, 0x65, 0x64, 0x43, 0x61,
    0x6c, 0x6c, 0x3a, 0x30, 0x00, 0x00, 0x00, 0x02, 0x00, 0x00, 0x00, 0x01, 0x00,
    0x00, 0x00, 0x01, 0x00, 0x00, 0x00, 0xa6, 0xfb, 0xff, 0xff, 0x00, 0x00, 0x00,
    0x01, 0x14, 0x00, 0x00, 0x00, 0x1c, 0x00, 0x00, 0x00, 0x1c, 0x00, 0x00, 0x00,
    0x0c, 0x00, 0x00, 0x00, 0x70, 0x00, 0x00, 0x00, 0x02, 0x00, 0x00, 0x00, 0xff,
    0xff, 0xff, 0xff, 0x10, 0x00, 0x00, 0x00, 0x90, 0xfb, 0xff, 0xff, 0x55, 0x00,
    0x00, 0x00, 0x73, 0x65, 0x71, 0x75, 0x65, 0x6e, 0x74, 0x69, 0x61, 0x6c, 0x5f,
    0x34, 0x2f, 0x64, 0x65, 0x6e, 0x73, 0x65, 0x5f, 0x31, 0x31, 0x2f, 0x4d, 0x61,
    0x74, 0x4d, 0x75, 0x6c, 0x3b, 0x73, 0x65, 0x71, 0x75, 0x65, 0x6e, 0x74, 0x69,
    0x61, 0x6c, 0x5f, 0x34, 0x2f, 0x64, 0x65, 0x6e, 0x73, 0x65, 0x5f, 0x31, 0x31,
    0x2f, 0x52, 0x65, 0x6c, 0x75, 0x3b, 0x73, 0x65, 0x71, 0x75, 0x65, 0x6e, 0x74,
    0x69, 0x61, 0x6c, 0x5f, 0x34, 0x2f, 0x64, 0x65, 0x6e, 0x73, 0x65, 0x5f, 0x31,
    0x31, 0x2f, 0x42, 0x69, 0x61, 0x73, 0x41, 0x64, 0x64, 0x00, 0x00, 0x00, 0x02,
    0x00, 0x00, 0x00, 0x01, 0x00, 0x00, 0x00, 0x10, 0x00, 0x00, 0x00, 0x3a, 0xfc,
    0xff, 0xff, 0x00, 0x00, 0x00, 0x01, 0x14, 0x00, 0x00, 0x00, 0x1c, 0x00, 0x00,
    0x00, 0x1c, 0x00, 0x00, 0x00, 0x0b, 0x00, 0x00, 0x00, 0x70, 0x00, 0x00, 0x00,
    0x02, 0x00, 0x00, 0x00, 0xff, 0xff, 0xff, 0xff, 0x10, 0x00, 0x00, 0x00, 0x24,
    0xfc, 0xff, 0xff, 0x55, 0x00, 0x00, 0x00, 0x73, 0x65, 0x71, 0x75, 0x65, 0x6e,
    0x74, 0x69, 0x61, 0x6c, 0x5f, 0x34, 0x2f, 0x64, 0x65, 0x6e, 0x73, 0x65, 0x5f,
    0x31, 0x30, 0x2f, 0x4d, 0x61, 0x74, 0x4d, 0x75, 0x6c, 0x3b, 0x73, 0x65, 0x71,
    0x75, 0x65, 0x6e, 0x74, 0x69, 0x61, 0x6c, 0x5f, 0x34, 0x2f, 0x64, 0x65, 0x6e,
    0x73, 0x65, 0x5f, 0x31, 0x30, 0x2f, 0x52, 0x65, 0x6c, 0x75, 0x3b, 0x73, 0x65,
    0x71, 0x75, 0x65, 0x6e, 0x74, 0x69, 0x61, 0x6c, 0x5f, 0x34, 0x2f, 0x64, 0x65,
    0x6e, 0x73, 0x65, 0x5f, 0x31, 0x30, 0x2f, 0x42, 0x69, 0x61, 0x73, 0x41, 0x64,
    0x64, 0x00, 0x00, 0x00, 0x02, 0x00, 0x00, 0x00, 0x01, 0x00, 0x00, 0x00, 0x10,
    0x00, 0x00, 0x00, 0xce, 0xfc, 0xff, 0xff, 0x00, 0x00, 0x00, 0x01, 0x14, 0x00,
    0x00, 0x00, 0x1c, 0x00, 0x00, 0x00, 0x1c, 0x00, 0x00, 0x00, 0x0a, 0x00, 0x00,
    0x00, 0x6c, 0x00, 0x00, 0x00, 0x02, 0x00, 0x00, 0x00, 0xff, 0xff, 0xff, 0xff,
    0x10, 0x00, 0x00, 0x00, 0xb8, 0xfc, 0xff, 0xff, 0x52, 0x00, 0x00, 0x00, 0x73,
    0x65, 0x71, 0x75, 0x65, 0x6e, 0x74, 0x69, 0x61, 0x6c, 0x5f, 0x34, 0x2f, 0x64,
    0x65, 0x6e, 0x73, 0x65, 0x5f, 0x39, 0x2f, 0x4d, 0x61, 0x74, 0x4d, 0x75, 0x6c,
    0x3b, 0x73, 0x65, 0x71, 0x75, 0x65, 0x6e, 0x74, 0x69, 0x61, 0x6c, 0x5f, 0x34,
    0x2f, 0x64, 0x65, 0x6e, 0x73, 0x65, 0x5f, 0x39, 0x2f, 0x52, 0x65, 0x6c, 0x75,
    0x3b, 0x73, 0x65, 0x71, 0x75, 0x65, 0x6e, 0x74, 0x69, 0x61, 0x6c, 0x5f, 0x34,
    0x2f, 0x64, 0x65, 0x6e, 0x73, 0x65, 0x5f, 0x39, 0x2f, 0x42, 0x69, 0x61, 0x73,
    0x41, 0x64, 0x64, 0x00, 0x00, 0x02, 0x00, 0x00, 0x00, 0x01, 0x00, 0x00, 0x00,
    0x10, 0x00, 0x00, 0x00, 0xce, 0xfd, 0xff, 0xff, 0x00, 0x00, 0x00, 0x01, 0x10,
    0x00, 0x00, 0x00, 0x10, 0x00, 0x00, 0x00, 0x09, 0x00, 0x00, 0x00, 0x2c, 0x00,
    0x00, 0x00, 0x38, 0xfd, 0xff, 0xff, 0x1c, 0x00, 0x00, 0x00, 0x73, 0x65, 0x71,
    0x75, 0x65, 0x6e, 0x74, 0x69, 0x61, 0x6c, 0x5f, 0x34, 0x2f, 0x64, 0x65, 0x6e,
    0x73, 0x65, 0x5f, 0x31, 0x32, 0x2f, 0x4d, 0x61, 0x74, 0x4d, 0x75, 0x6c, 0x00,
    0x00, 0x00, 0x00, 0x02, 0x00, 0x00, 0x00, 0x01, 0x00, 0x00, 0x00, 0x10, 0x00,
    0x00, 0x00, 0x1a, 0xfe, 0xff, 0xff, 0x00, 0x00, 0x00, 0x01, 0x10, 0x00, 0x00,
    0x00, 0x10, 0x00, 0x00, 0x00, 0x08, 0x00, 0x00, 0x00, 0x2c, 0x00, 0x00, 0x00,
    0x84, 0xfd, 0xff, 0xff, 0x1c, 0x00, 0x00, 0x00, 0x73, 0x65, 0x71, 0x75, 0x65,
    0x6e, 0x74, 0x69, 0x61, 0x6c, 0x5f, 0x34, 0x2f, 0x64, 0x65, 0x6e, 0x73, 0x65,
    0x5f, 0x31, 0x31, 0x2f, 0x4d, 0x61, 0x74, 0x4d, 0x75, 0x6c, 0x00, 0x00, 0x00,
    0x00, 0x02, 0x00, 0x00, 0x00, 0x10, 0x00, 0x00, 0x00, 0x10, 0x00, 0x00, 0x00,
    0x66, 0xfe, 0xff, 0xff, 0x00, 0x00, 0x00, 0x01, 0x10, 0x00, 0x00, 0x00, 0x10,
    0x00, 0x00, 0x00, 0x07, 0x00, 0x00, 0x00, 0x2c, 0x00, 0x00, 0x00, 0xd0, 0xfd,
    0xff, 0xff, 0x1c, 0x00, 0x00, 0x00, 0x73, 0x65, 0x71, 0x75, 0x65, 0x6e, 0x74,
    0x69, 0x61, 0x6c, 0x5f, 0x34, 0x2f, 0x64, 0x65, 0x6e, 0x73, 0x65, 0x5f, 0x31,
    0x30, 0x2f, 0x4d, 0x61, 0x74, 0x4d, 0x75, 0x6c, 0x00, 0x00, 0x00, 0x00, 0x02,
    0x00, 0x00, 0x00, 0x10, 0x00, 0x00, 0x00, 0x10, 0x00, 0x00, 0x00, 0xb2, 0xfe,
    0xff, 0xff, 0x00, 0x00, 0x00, 0x01, 0x10, 0x00, 0x00, 0x00, 0x10, 0x00, 0x00,
    0x00, 0x06, 0x00, 0x00, 0x00, 0x28, 0x00, 0x00, 0x00, 0x1c, 0xfe, 0xff, 0xff,
    0x1b, 0x00, 0x00, 0x00, 0x73, 0x65, 0x71, 0x75, 0x65, 0x6e, 0x74, 0x69, 0x61,
    0x6c, 0x5f, 0x34, 0x2f, 0x64, 0x65, 0x6e, 0x73, 0x65, 0x5f, 0x39, 0x2f, 0x4d,
    0x61, 0x74, 0x4d, 0x75, 0x6c, 0x00, 0x02, 0x00, 0x00, 0x00, 0x10, 0x00, 0x00,
    0x00, 0x01, 0x00, 0x00, 0x00, 0xfa, 0xfe, 0xff, 0xff, 0x00, 0x00, 0x00, 0x01,
    0x10, 0x00, 0x00, 0x00, 0x10, 0x00, 0x00, 0x00, 0x05, 0x00, 0x00, 0x00, 0x38,
    0x00, 0x00, 0x00, 0x64, 0xfe, 0xff, 0xff, 0x2b, 0x00, 0x00, 0x00, 0x73, 0x65,
    0x71, 0x75, 0x65, 0x6e, 0x74, 0x69, 0x61, 0x6c, 0x5f, 0x34, 0x2f, 0x64, 0x65,
    0x6e, 0x73, 0x65, 0x5f, 0x39, 0x2f, 0x42, 0x69, 0x61, 0x73, 0x41, 0x64, 0x64,
    0x2f, 0x52, 0x65, 0x61, 0x64, 0x56, 0x61, 0x72, 0x69, 0x61, 0x62, 0x6c, 0x65,
    0x4f, 0x70, 0x00, 0x01, 0x00, 0x00, 0x00, 0x10, 0x00, 0x00, 0x00, 0x4e, 0xff,
    0xff, 0xff, 0x00, 0x00, 0x00, 0x01, 0x10, 0x00, 0x00, 0x00, 0x10, 0x00, 0x00,
    0x00, 0x04, 0x00, 0x00, 0x00, 0x3c, 0x00, 0x00, 0x00, 0xb8, 0xfe, 0xff, 0xff,
    0x2c, 0x00, 0x00, 0x00, 0x73, 0x65, 0x71, 0x75, 0x65, 0x6e, 0x74, 0x69, 0x61,
    0x6c, 0x5f, 0x34, 0x2f, 0x64, 0x65, 0x6e, 0x73, 0x65, 0x5f, 0x31, 0x32, 0x2f,
    0x42, 0x69, 0x61, 0x73, 0x41, 0x64, 0x64, 0x2f, 0x52, 0x65, 0x61, 0x64, 0x56,
    0x61, 0x72, 0x69, 0x61, 0x62, 0x6c, 0x65, 0x4f, 0x70, 0x00, 0x00, 0x00, 0x00,
    0x01, 0x00, 0x00, 0x00, 0x01, 0x00, 0x00, 0x00, 0xa6, 0xff, 0xff, 0xff, 0x00,
    0x00, 0x00, 0x01, 0x10, 0x00, 0x00, 0x00, 0x10, 0x00, 0x00, 0x00, 0x03, 0x00,
    0x00, 0x00, 0x3c, 0x00, 0x00, 0x00, 0x10, 0xff, 0xff, 0xff, 0x2c, 0x00, 0x00,
    0x00, 0x73, 0x65, 0x71, 0x75, 0x65, 0x6e, 0x74, 0x69, 0x61, 0x6c, 0x5f, 0x34,
    0x2f, 0x64, 0x65, 0x6e, 0x73, 0x65, 0x5f, 0x31, 0x31, 0x2f, 0x42, 0x69, 0x61,
    0x73, 0x41, 0x64, 0x64, 0x2f, 0x52, 0x65, 0x61, 0x64, 0x56, 0x61, 0x72, 0x69,
    0x61, 0x62, 0x6c, 0x65, 0x4f, 0x70, 0x00, 0x00, 0x00, 0x00, 0x01, 0x00, 0x00,
    0x00, 0x10, 0x00, 0x00, 0x00, 0x00, 0x00, 0x16, 0x00, 0x18, 0x00, 0x14, 0x00,
    0x00, 0x00, 0x10, 0x00, 0x0c, 0x00, 0x08, 0x00, 0x00, 0x00, 0x00, 0x00, 0x00,
    0x00, 0x07, 0x00, 0x16, 0x00, 0x00, 0x00, 0x00, 0x00, 0x00, 0x01, 0x10, 0x00,
    0x00, 0x00, 0x10, 0x00, 0x00, 0x00, 0x02, 0x00, 0x00, 0x00, 0x3c, 0x00, 0x00,
    0x00, 0x80, 0xff, 0xff, 0xff, 0x2c, 0x00, 0x00, 0x00, 0x73, 0x65, 0x71, 0x75,
    0x65, 0x6e, 0x74, 0x69, 0x61, 0x6c, 0x5f, 0x34, 0x2f, 0x64, 0x65, 0x6e, 0x73,
    0x65, 0x5f, 0x31, 0x30, 0x2f, 0x42, 0x69, 0x61, 0x73, 0x41, 0x64, 0x64, 0x2f,
    0x52, 0x65, 0x61, 0x64, 0x56, 0x61, 0x72, 0x69, 0x61, 0x62, 0x6c, 0x65, 0x4f,
    0x70, 0x00, 0x00, 0x00, 0x00, 0x01, 0x00, 0x00, 0x00, 0x10, 0x00, 0x00, 0x00,
    0x00, 0x00, 0x16, 0x00, 0x1c, 0x00, 0x18, 0x00, 0x00, 0x00, 0x14, 0x00, 0x10,
    0x00, 0x0c, 0x00, 0x00, 0x00, 0x00, 0x00, 0x08, 0x00, 0x07, 0x00, 0x16, 0x00,
    0x00, 0x00, 0x00, 0x00, 0x00, 0x01, 0x14, 0x00, 0x00, 0x00, 0x20, 0x00, 0x00,
    0x00, 0x20, 0x00, 0x00, 0x00, 0x01, 0x00, 0x00, 0x00, 0x3c, 0x00, 0x00, 0x00,
    0x02, 0x00, 0x00, 0x00, 0xff, 0xff, 0xff, 0xff, 0x01, 0x00, 0x00, 0x00, 0x04,
    0x00, 0x04, 0x00, 0x04, 0x00, 0x00, 0x00, 0x1f, 0x00, 0x00, 0x00, 0x73, 0x65,
    0x72, 0x76, 0x69, 0x6e, 0x67, 0x5f, 0x64, 0x65, 0x66, 0x61, 0x75, 0x6c, 0x74,
    0x5f, 0x64, 0x65, 0x6e, 0x73, 0x65, 0x5f, 0x39, 0x5f, 0x69, 0x6e, 0x70, 0x75,
    0x74, 0x3a, 0x30, 0x00, 0x02, 0x00, 0x00, 0x00, 0x01, 0x00, 0x00, 0x00, 0x01,
    0x00, 0x00, 0x00, 0x01, 0x00, 0x00, 0x00, 0x10, 0x00, 0x00, 0x00, 0x0c, 0x00,
    0x0c, 0x00, 0x0b, 0x00, 0x00, 0x00, 0x00, 0x00, 0x04, 0x00, 0x0c, 0x00, 0x00,
    0x00, 0x09, 0x00, 0x00, 0x00, 0x00, 0x00, 0x00, 0x09,
};
const int sine_model_len = 4728;
